{
  "version": "1.0",
  "truncation": null,
  "padding": null,
  "added_tokens": [
    {
      "id": 0,
      "content": "[UNK]",
      "single_word": false,
      "lstrip": false,
      "rstrip": false,
      "normalized": false,
      "special": true
    },
    {
      "id": 1,
      "content": "[PAD]",
      "single_word": false,
      "lstrip": false,
      "rstrip": false,
      "normalized": false,
      "special": true
    },
    {
      "id": 2,
      "content": "[SOS]",
      "single_word": false,
      "lstrip": false,
      "rstrip": false,
      "normalized": false,
      "special": true
    },
    {
      "id": 3,
      "content": "[EOS]",
      "single_word": false,
      "lstrip": false,
      "rstrip": false,
      "normalized": false,
      "special": true
    }
  ],
  "normalizer": null,
  "pre_tokenizer": {
    "type": "Whitespace"
  },
  "post_processor": null,
  "decoder": null,
  "model": {
    "type": "BPE",
    "dropout": null,
    "unk_token": "[UNK]",
    "continuing_subword_prefix": null,
    "end_of_word_suffix": null,
    "fuse_unk": false,
    "byte_fallback": false,
    "ignore_merges": false,
    "vocab": {
      "[UNK]": 0,
      "[PAD]": 1,
      "[SOS]": 2,
      "[EOS]": 3,
      "\u0019": 4,
      "!": 5,
      "\"": 6,
      "#": 7,
      "$": 8,
      "%": 9,
      "&": 10,
      "'": 11,
      "(": 12,
      ")": 13,
      "*": 14,
      "+": 15,
      ",": 16,
      "-": 17,
      ".": 18,
      "/": 19,
      "0": 20,
      "1": 21,
      "2": 22,
      "3": 23,
      "4": 24,
      "5": 25,
      "6": 26,
      "7": 27,
      "8": 28,
      "9": 29,
      ":": 30,
      ";": 31,
      "<": 32,
      "=": 33,
      ">": 34,
      "?": 35,
      "[": 36,
      "\\": 37,
      "]": 38,
      "_": 39,
      "`": 40,
      "{": 41,
      "}": 42,
      "~": 43,
      "°": 44,
      "·": 45,
      "×": 46,
      "α": 47,
      "β": 48,
      "τ": 49,
      "и": 50,
      "–": 51,
      "—": 52,
      "―": 53,
      "‘": 54,
      "’": 55,
      "“": 56,
      "”": 57,
      "•": 58,
      "…": 59,
      "℃": 60,
      "→": 61,
      "−": 62,
      "∕": 63,
      "√": 64,
      "∶": 65,
      "①": 66,
      "③": 67,
      "⑥": 68,
      "⑦": 69,
      "⑧": 70,
      "⑴": 71,
      "⑵": 72,
      "⑶": 73,
      "⑷": 74,
      "⑸": 75,
      "⑿": 76,
      "─": 77,
      "━": 78,
      "┪": 79,
      "┱": 80,
      "╱": 81,
      "■": 82,
      "▲": 83,
      "△": 84,
      "○": 85,
      "●": 86,
      "♦": 87,
      "➢": 88,
      "、": 89,
      "。": 90,
      "〇": 91,
      "〈": 92,
      "〉": 93,
      "《": 94,
      "》": 95,
      "「": 96,
      "」": 97,
      "『": 98,
      "』": 99,
      "【": 100,
      "】": 101,
      "〔": 102,
      "〕": 103,
      "あ": 104,
      "で": 105,
      "は": 106,
      "る": 107,
      "ㄈ": 108,
      "㈠": 109,
      "㈡": 110,
      "㈢": 111,
      "㈣": 112,
      "㈤": 113,
      "㈥": 114,
      "㈧": 115,
      "一": 116,
      "丁": 117,
      "七": 118,
      "丅": 119,
      "万": 120,
      "丈": 121,
      "三": 122,
      "上": 123,
      "下": 124,
      "不": 125,
      "与": 126,
      "丑": 127,
      "专": 128,
      "且": 129,
      "世": 130,
      "丘": 131,
      "丙": 132,
      "业": 133,
      "丛": 134,
      "东": 135,
      "丝": 136,
      "丢": 137,
      "两": 138,
      "严": 139,
      "丧": 140,
      "个": 141,
      "中": 142,
      "丰": 143,
      "串": 144,
      "临": 145,
      "丶": 146,
      "丸": 147,
      "丹": 148,
      "为": 149,
      "主": 150,
      "丽": 151,
      "举": 152,
      "乃": 153,
      "久": 154,
      "么": 155,
      "义": 156,
      "之": 157,
      "乌": 158,
      "乍": 159,
      "乎": 160,
      "乏": 161,
      "乐": 162,
      "乒": 163,
      "乓": 164,
      "乔": 165,
      "乖": 166,
      "乘": 167,
      "乙": 168,
      "九": 169,
      "乞": 170,
      "也": 171,
      "习": 172,
      "乡": 173,
      "书": 174,
      "买": 175,
      "乱": 176,
      "乳": 177,
      "乾": 178,
      "了": 179,
      "予": 180,
      "争": 181,
      "事": 182,
      "二": 183,
      "于": 184,
      "亏": 185,
      "云": 186,
      "互": 187,
      "五": 188,
      "井": 189,
      "亘": 190,
      "亚": 191,
      "些": 192,
      "亞": 193,
      "亟": 194,
      "亡": 195,
      "交": 196,
      "亥": 197,
      "亦": 198,
      "产": 199,
      "亨": 200,
      "享": 201,
      "京": 202,
      "亭": 203,
      "亮": 204,
      "亲": 205,
      "亵": 206,
      "人": 207,
      "亿": 208,
      "什": 209,
      "仁": 210,
      "仅": 211,
      "仆": 212,
      "仇": 213,
      "今": 214,
      "介": 215,
      "仍": 216,
      "从": 217,
      "仑": 218,
      "仓": 219,
      "仔": 220,
      "仕": 221,
      "他": 222,
      "仗": 223,
      "付": 224,
      "仙": 225,
      "代": 226,
      "令": 227,
      "以": 228,
      "仪": 229,
      "们": 230,
      "仰": 231,
      "仲": 232,
      "件": 233,
      "价": 234,
      "任": 235,
      "份": 236,
      "仿": 237,
      "企": 238,
      "伊": 239,
      "伍": 240,
      "伏": 241,
      "伐": 242,
      "休": 243,
      "众": 244,
      "优": 245,
      "伙": 246,
      "会": 247,
      "伞": 248,
      "伟": 249,
      "传": 250,
      "伤": 251,
      "伦": 252,
      "伪": 253,
      "伯": 254,
      "估": 255,
      "伴": 256,
      "伸": 257,
      "伺": 258,
      "似": 259,
      "伽": 260,
      "但": 261,
      "位": 262,
      "低": 263,
      "住": 264,
      "佐": 265,
      "佑": 266,
      "体": 267,
      "何": 268,
      "余": 269,
      "佛": 270,
      "作": 271,
      "佝": 272,
      "你": 273,
      "佣": 274,
      "佩": 275,
      "佬": 276,
      "佳": 277,
      "使": 278,
      "侄": 279,
      "來": 280,
      "侈": 281,
      "例": 282,
      "侍": 283,
      "侏": 284,
      "供": 285,
      "依": 286,
      "侠": 287,
      "侣": 288,
      "侥": 289,
      "侦": 290,
      "侧": 291,
      "侨": 292,
      "侪": 293,
      "侬": 294,
      "侮": 295,
      "侯": 296,
      "侵": 297,
      "便": 298,
      "係": 299,
      "促": 300,
      "俄": 301,
      "俊": 302,
      "俏": 303,
      "俑": 304,
      "俗": 305,
      "俘": 306,
      "保": 307,
      "俞": 308,
      "俟": 309,
      "信": 310,
      "俩": 311,
      "修": 312,
      "俯": 313,
      "俱": 314,
      "俳": 315,
      "俸": 316,
      "俾": 317,
      "個": 318,
      "倌": 319,
      "倍": 320,
      "倒": 321,
      "倘": 322,
      "候": 323,
      "倚": 324,
      "借": 325,
      "倡": 326,
      "倦": 327,
      "倩": 328,
      "倫": 329,
      "债": 330,
      "倻": 331,
      "值": 332,
      "倾": 333,
      "假": 334,
      "偏": 335,
      "偕": 336,
      "做": 337,
      "停": 338,
      "健": 339,
      "偶": 340,
      "偷": 341,
      "偻": 342,
      "偿": 343,
      "傀": 344,
      "傅": 345,
      "傍": 346,
      "傑": 347,
      "傢": 348,
      "储": 349,
      "催": 350,
      "傲": 351,
      "傳": 352,
      "傻": 353,
      "像": 354,
      "僚": 355,
      "僧": 356,
      "僭": 357,
      "僵": 358,
      "僻": 359,
      "儀": 360,
      "儒": 361,
      "儡": 362,
      "優": 363,
      "儿": 364,
      "允": 365,
      "元": 366,
      "兄": 367,
      "充": 368,
      "兆": 369,
      "先": 370,
      "光": 371,
      "克": 372,
      "免": 373,
      "兑": 374,
      "兔": 375,
      "党": 376,
      "兜": 377,
      "入": 378,
      "內": 379,
      "全": 380,
      "八": 381,
      "公": 382,
      "六": 383,
      "兰": 384,
      "共": 385,
      "关": 386,
      "兴": 387,
      "兵": 388,
      "其": 389,
      "具": 390,
      "典": 391,
      "兹": 392,
      "养": 393,
      "兼": 394,
      "兽": 395,
      "内": 396,
      "冈": 397,
      "冉": 398,
      "册": 399,
      "再": 400,
      "冒": 401,
      "冕": 402,
      "冗": 403,
      "写": 404,
      "军": 405,
      "农": 406,
      "冠": 407,
      "冤": 408,
      "冥": 409,
      "冬": 410,
      "冰": 411,
      "冲": 412,
      "决": 413,
      "况": 414,
      "冶": 415,
      "冷": 416,
      "冻": 417,
      "净": 418,
      "凄": 419,
      "准": 420,
      "凉": 421,
      "凋": 422,
      "凌": 423,
      "减": 424,
      "凑": 425,
      "凝": 426,
      "几": 427,
      "凡": 428,
      "凤": 429,
      "凭": 430,
      "凯": 431,
      "凰": 432,
      "凱": 433,
      "凳": 434,
      "凶": 435,
      "凸": 436,
      "凹": 437,
      "出": 438,
      "击": 439,
      "函": 440,
      "凿": 441,
      "刀": 442,
      "分": 443,
      "切": 444,
      "刊": 445,
      "刍": 446,
      "刑": 447,
      "划": 448,
      "列": 449,
      "刘": 450,
      "则": 451,
      "刚": 452,
      "创": 453,
      "初": 454,
      "删": 455,
      "判": 456,
      "別": 457,
      "刨": 458,
      "利": 459,
      "别": 460,
      "刮": 461,
      "到": 462,
      "制": 463,
      "刷": 464,
      "券": 465,
      "刹": 466,
      "刺": 467,
      "刻": 468,
      "刼": 469,
      "刽": 470,
      "剁": 471,
      "剂": 472,
      "剃": 473,
      "削": 474,
      "前": 475,
      "剑": 476,
      "剔": 477,
      "剖": 478,
      "剥": 479,
      "剧": 480,
      "剩": 481,
      "剪": 482,
      "副": 483,
      "割": 484,
      "創": 485,
      "劃": 486,
      "劇": 487,
      "劈": 488,
      "劍": 489,
      "力": 490,
      "劝": 491,
      "办": 492,
      "功": 493,
      "加": 494,
      "务": 495,
      "劣": 496,
      "动": 497,
      "助": 498,
      "努": 499,
      "劫": 500,
      "励": 501,
      "劲": 502,
      "劳": 503,
      "劾": 504,
      "势": 505,
      "勃": 506,
      "勇": 507,
      "勉": 508,
      "勋": 509,
      "勒": 510,
      "動": 511,
      "勘": 512,
      "務": 513,
      "勞": 514,
      "募": 515,
      "勤": 516,
      "勺": 517,
      "勾": 518,
      "勿": 519,
      "匀": 520,
      "包": 521,
      "匆": 522,
      "匈": 523,
      "匕": 524,
      "化": 525,
      "北": 526,
      "匙": 527,
      "匠": 528,
      "匪": 529,
      "匮": 530,
      "匹": 531,
      "区": 532,
      "医": 533,
      "匾": 534,
      "匿": 535,
      "區": 536,
      "十": 537,
      "千": 538,
      "升": 539,
      "午": 540,
      "卉": 541,
      "半": 542,
      "华": 543,
      "协": 544,
      "卑": 545,
      "卒": 546,
      "卓": 547,
      "協": 548,
      "单": 549,
      "卖": 550,
      "南": 551,
      "博": 552,
      "卜": 553,
      "占": 554,
      "卡": 555,
      "卢": 556,
      "卦": 557,
      "卧": 558,
      "卫": 559,
      "印": 560,
      "危": 561,
      "即": 562,
      "却": 563,
      "卵": 564,
      "卷": 565,
      "卸": 566,
      "卿": 567,
      "厂": 568,
      "厄": 569,
      "厅": 570,
      "历": 571,
      "厉": 572,
      "压": 573,
      "厌": 574,
      "厕": 575,
      "厘": 576,
      "厚": 577,
      "原": 578,
      "厢": 579,
      "厥": 580,
      "厦": 581,
      "厨": 582,
      "去": 583,
      "县": 584,
      "参": 585,
      "參": 586,
      "又": 587,
      "叉": 588,
      "及": 589,
      "友": 590,
      "双": 591,
      "反": 592,
      "发": 593,
      "叔": 594,
      "取": 595,
      "受": 596,
      "变": 597,
      "叙": 598,
      "叛": 599,
      "叠": 600,
      "口": 601,
      "古": 602,
      "句": 603,
      "另": 604,
      "叨": 605,
      "叩": 606,
      "只": 607,
      "叫": 608,
      "召": 609,
      "叭": 610,
      "可": 611,
      "台": 612,
      "史": 613,
      "右": 614,
      "叶": 615,
      "号": 616,
      "司": 617,
      "叹": 618,
      "叻": 619,
      "叽": 620,
      "吁": 621,
      "吃": 622,
      "各": 623,
      "合": 624,
      "吉": 625,
      "吊": 626,
      "同": 627,
      "名": 628,
      "后": 629,
      "吐": 630,
      "向": 631,
      "吓": 632,
      "吕": 633,
      "吗": 634,
      "君": 635,
      "吝": 636,
      "吞": 637,
      "吟": 638,
      "吠": 639,
      "吡": 640,
      "否": 641,
      "吧": 642,
      "吨": 643,
      "吩": 644,
      "含": 645,
      "听": 646,
      "吭": 647,
      "启": 648,
      "吴": 649,
      "吵": 650,
      "吸": 651,
      "吹": 652,
      "吻": 653,
      "吼": 654,
      "呀": 655,
      "呂": 656,
      "呃": 657,
      "呆": 658,
      "呈": 659,
      "告": 660,
      "呎": 661,
      "呕": 662,
      "员": 663,
      "呜": 664,
      "呢": 665,
      "周": 666,
      "味": 667,
      "呵": 668,
      "呻": 669,
      "呼": 670,
      "命": 671,
      "咀": 672,
      "咄": 673,
      "咆": 674,
      "咋": 675,
      "和": 676,
      "咎": 677,
      "咐": 678,
      "咒": 679,
      "咕": 680,
      "咖": 681,
      "咙": 682,
      "咨": 683,
      "咩": 684,
      "咪": 685,
      "咬": 686,
      "咯": 687,
      "咱": 688,
      "咳": 689,
      "咸": 690,
      "咽": 691,
      "哀": 692,
      "品": 693,
      "哄": 694,
      "哇": 695,
      "哈": 696,
      "响": 697,
      "哎": 698,
      "哑": 699,
      "哞": 700,
      "哟": 701,
      "員": 702,
      "哥": 703,
      "哦": 704,
      "哨": 705,
      "哩": 706,
      "哪": 707,
      "哭": 708,
      "哮": 709,
      "哲": 710,
      "哺": 711,
      "哼": 712,
      "唁": 713,
      "唆": 714,
      "唇": 715,
      "唉": 716,
      "唐": 717,
      "唑": 718,
      "唠": 719,
      "唤": 720,
      "售": 721,
      "唯": 722,
      "唱": 723,
      "唾": 724,
      "啃": 725,
      "啄": 726,
      "商": 727,
      "啊": 728,
      "問": 729,
      "啖": 730,
      "啜": 731,
      "啡": 732,
      "啤": 733,
      "啥": 734,
      "啦": 735,
      "啬": 736,
      "啮": 737,
      "啶": 738,
      "啸": 739,
      "啻": 740,
      "啼": 741,
      "喀": 742,
      "喂": 743,
      "喃": 744,
      "善": 745,
      "喇": 746,
      "喉": 747,
      "喊": 748,
      "喋": 749,
      "喔": 750,
      "喘": 751,
      "喙": 752,
      "喜": 753,
      "喝": 754,
      "喧": 755,
      "喬": 756,
      "單": 757,
      "喷": 758,
      "喻": 759,
      "喽": 760,
      "嗅": 761,
      "嗐": 762,
      "嗒": 763,
      "嗓": 764,
      "嗖": 765,
      "嗣": 766,
      "嗨": 767,
      "嗯": 768,
      "嗽": 769,
      "嘉": 770,
      "嘎": 771,
      "嘘": 772,
      "嘛": 773,
      "嘟": 774,
      "嘯": 775,
      "嘱": 776,
      "嘲": 777,
      "嘴": 778,
      "嘶": 779,
      "嘻": 780,
      "嘿": 781,
      "噗": 782,
      "噢": 783,
      "噤": 784,
      "器": 785,
      "噩": 786,
      "噪": 787,
      "噬": 788,
      "噱": 789,
      "噶": 790,
      "噻": 791,
      "嚏": 792,
      "嚣": 793,
      "嚷": 794,
      "嚼": 795,
      "囊": 796,
      "囔": 797,
      "囚": 798,
      "四": 799,
      "回": 800,
      "因": 801,
      "团": 802,
      "囤": 803,
      "囧": 804,
      "园": 805,
      "困": 806,
      "囱": 807,
      "围": 808,
      "固": 809,
      "国": 810,
      "图": 811,
      "圃": 812,
      "圆": 813,
      "圈": 814,
      "國": 815,
      "園": 816,
      "圓": 817,
      "圖": 818,
      "團": 819,
      "土": 820,
      "圣": 821,
      "在": 822,
      "圭": 823,
      "地": 824,
      "圳": 825,
      "场": 826,
      "圾": 827,
      "址": 828,
      "坂": 829,
      "均": 830,
      "坊": 831,
      "坎": 832,
      "坏": 833,
      "坐": 834,
      "坑": 835,
      "块": 836,
      "坚": 837,
      "坛": 838,
      "坝": 839,
      "坞": 840,
      "坟": 841,
      "坠": 842,
      "坡": 843,
      "坤": 844,
      "坦": 845,
      "坪": 846,
      "坯": 847,
      "坳": 848,
      "垂": 849,
      "垃": 850,
      "垄": 851,
      "型": 852,
      "垒": 853,
      "垛": 854,
      "垠": 855,
      "垢": 856,
      "垣": 857,
      "垦": 858,
      "垩": 859,
      "垫": 860,
      "垮": 861,
      "埂": 862,
      "埃": 863,
      "埋": 864,
      "城": 865,
      "埔": 866,
      "域": 867,
      "執": 868,
      "培": 869,
      "基": 870,
      "堂": 871,
      "堆": 872,
      "堑": 873,
      "堕": 874,
      "堡": 875,
      "堤": 876,
      "堪": 877,
      "堰": 878,
      "報": 879,
      "場": 880,
      "堵": 881,
      "塊": 882,
      "塌": 883,
      "塑": 884,
      "塔": 885,
      "塘": 886,
      "塞": 887,
      "填": 888,
      "境": 889,
      "墅": 890,
      "墓": 891,
      "墙": 892,
      "增": 893,
      "墟": 894,
      "墨": 895,
      "墩": 896,
      "壁": 897,
      "壕": 898,
      "壤": 899,
      "士": 900,
      "壮": 901,
      "声": 902,
      "壳": 903,
      "壶": 904,
      "处": 905,
      "备": 906,
      "复": 907,
      "夏": 908,
      "夕": 909,
      "外": 910,
      "多": 911,
      "夜": 912,
      "够": 913,
      "夢": 914,
      "夥": 915,
      "大": 916,
      "天": 917,
      "太": 918,
      "夫": 919,
      "夭": 920,
      "央": 921,
      "夯": 922,
      "失": 923,
      "头": 924,
      "夷": 925,
      "夸": 926,
      "夹": 927,
      "夺": 928,
      "奄": 929,
      "奇": 930,
      "奈": 931,
      "奉": 932,
      "奋": 933,
      "奎": 934,
      "奏": 935,
      "契": 936,
      "奔": 937,
      "奕": 938,
      "奖": 939,
      "套": 940,
      "奠": 941,
      "奢": 942,
      "奥": 943,
      "奧": 944,
      "女": 945,
      "奴": 946,
      "奶": 947,
      "奸": 948,
      "她": 949,
      "好": 950,
      "妁": 951,
      "如": 952,
      "妃": 953,
      "妄": 954,
      "妆": 955,
      "妇": 956,
      "妈": 957,
      "妊": 958,
      "妒": 959,
      "妓": 960,
      "妖": 961,
      "妙": 962,
      "妞": 963,
      "妥": 964,
      "妨": 965,
      "妮": 966,
      "妹": 967,
      "妻": 968,
      "妾": 969,
      "姆": 970,
      "姊": 971,
      "始": 972,
      "姐": 973,
      "姑": 974,
      "姓": 975,
      "委": 976,
      "姚": 977,
      "姜": 978,
      "姥": 979,
      "姦": 980,
      "姨": 981,
      "姬": 982,
      "姻": 983,
      "姿": 984,
      "威": 985,
      "娃": 986,
      "娅": 987,
      "娇": 988,
      "娘": 989,
      "娜": 990,
      "娟": 991,
      "娠": 992,
      "娥": 993,
      "娩": 994,
      "娱": 995,
      "娲": 996,
      "娶": 997,
      "娼": 998,
      "婆": 999,
      "婉": 1000,
      "婊": 1001,
      "婚": 1002,
      "婪": 1003,
      "婴": 1004,
      "媒": 1005,
      "媲": 1006,
      "媽": 1007,
      "嫁": 1008,
      "嫉": 1009,
      "嫌": 1010,
      "嫦": 1011,
      "嫩": 1012,
      "嬉": 1013,
      "嬌": 1014,
      "孀": 1015,
      "子": 1016,
      "孔": 1017,
      "孕": 1018,
      "字": 1019,
      "存": 1020,
      "孙": 1021,
      "孚": 1022,
      "孜": 1023,
      "孝": 1024,
      "孟": 1025,
      "孢": 1026,
      "季": 1027,
      "孤": 1028,
      "学": 1029,
      "孩": 1030,
      "孪": 1031,
      "孫": 1032,
      "孵": 1033,
      "學": 1034,
      "孽": 1035,
      "宁": 1036,
      "它": 1037,
      "宅": 1038,
      "宇": 1039,
      "守": 1040,
      "安": 1041,
      "完": 1042,
      "宏": 1043,
      "宕": 1044,
      "宗": 1045,
      "官": 1046,
      "宙": 1047,
      "定": 1048,
      "宛": 1049,
      "宜": 1050,
      "宝": 1051,
      "实": 1052,
      "宠": 1053,
      "审": 1054,
      "客": 1055,
      "宣": 1056,
      "室": 1057,
      "宦": 1058,
      "宪": 1059,
      "宫": 1060,
      "宰": 1061,
      "害": 1062,
      "宴": 1063,
      "宵": 1064,
      "家": 1065,
      "容": 1066,
      "宽": 1067,
      "宾": 1068,
      "宿": 1069,
      "寂": 1070,
      "寄": 1071,
      "寅": 1072,
      "密": 1073,
      "寇": 1074,
      "富": 1075,
      "寒": 1076,
      "寓": 1077,
      "寝": 1078,
      "寞": 1079,
      "察": 1080,
      "寡": 1081,
      "實": 1082,
      "寧": 1083,
      "寨": 1084,
      "寶": 1085,
      "寸": 1086,
      "对": 1087,
      "寺": 1088,
      "寻": 1089,
      "导": 1090,
      "寿": 1091,
      "封": 1092,
      "射": 1093,
      "将": 1094,
      "將": 1095,
      "尉": 1096,
      "尊": 1097,
      "導": 1098,
      "小": 1099,
      "少": 1100,
      "尔": 1101,
      "尕": 1102,
      "尖": 1103,
      "尘": 1104,
      "尚": 1105,
      "尝": 1106,
      "尤": 1107,
      "尧": 1108,
      "尬": 1109,
      "就": 1110,
      "尴": 1111,
      "尸": 1112,
      "尺": 1113,
      "尼": 1114,
      "尽": 1115,
      "尾": 1116,
      "尿": 1117,
      "局": 1118,
      "屁": 1119,
      "层": 1120,
      "居": 1121,
      "屆": 1122,
      "屈": 1123,
      "屉": 1124,
      "届": 1125,
      "屋": 1126,
      "屏": 1127,
      "屑": 1128,
      "展": 1129,
      "属": 1130,
      "屠": 1131,
      "屡": 1132,
      "履": 1133,
      "屬": 1134,
      "屯": 1135,
      "山": 1136,
      "屹": 1137,
      "屿": 1138,
      "岁": 1139,
      "岂": 1140,
      "岌": 1141,
      "岔": 1142,
      "岖": 1143,
      "岗": 1144,
      "岛": 1145,
      "岡": 1146,
      "岩": 1147,
      "岭": 1148,
      "岳": 1149,
      "岸": 1150,
      "峙": 1151,
      "峡": 1152,
      "峦": 1153,
      "峭": 1154,
      "峰": 1155,
      "島": 1156,
      "峻": 1157,
      "峽": 1158,
      "崁": 1159,
      "崇": 1160,
      "崎": 1161,
      "崔": 1162,
      "崖": 1163,
      "崛": 1164,
      "崩": 1165,
      "崭": 1166,
      "崽": 1167,
      "嵇": 1168,
      "嵊": 1169,
      "嵌": 1170,
      "嶺": 1171,
      "巅": 1172,
      "川": 1173,
      "州": 1174,
      "巡": 1175,
      "巢": 1176,
      "工": 1177,
      "左": 1178,
      "巧": 1179,
      "巨": 1180,
      "巩": 1181,
      "巫": 1182,
      "差": 1183,
      "己": 1184,
      "已": 1185,
      "巴": 1186,
      "巷": 1187,
      "巽": 1188,
      "巾": 1189,
      "巿": 1190,
      "币": 1191,
      "市": 1192,
      "布": 1193,
      "帅": 1194,
      "帆": 1195,
      "师": 1196,
      "希": 1197,
      "帐": 1198,
      "帕": 1199,
      "帖": 1200,
      "帘": 1201,
      "帚": 1202,
      "帜": 1203,
      "帝": 1204,
      "帥": 1205,
      "带": 1206,
      "師": 1207,
      "席": 1208,
      "帮": 1209,
      "帶": 1210,
      "常": 1211,
      "帼": 1212,
      "帽": 1213,
      "幅": 1214,
      "幔": 1215,
      "幕": 1216,
      "幢": 1217,
      "幣": 1218,
      "干": 1219,
      "平": 1220,
      "年": 1221,
      "并": 1222,
      "幸": 1223,
      "幻": 1224,
      "幼": 1225,
      "幽": 1226,
      "幾": 1227,
      "广": 1228,
      "庄": 1229,
      "庆": 1230,
      "庇": 1231,
      "床": 1232,
      "序": 1233,
      "库": 1234,
      "应": 1235,
      "底": 1236,
      "店": 1237,
      "庙": 1238,
      "庚": 1239,
      "府": 1240,
      "庞": 1241,
      "废": 1242,
      "度": 1243,
      "座": 1244,
      "庫": 1245,
      "庭": 1246,
      "庶": 1247,
      "康": 1248,
      "庸": 1249,
      "廉": 1250,
      "廊": 1251,
      "廓": 1252,
      "廖": 1253,
      "廠": 1254,
      "廣": 1255,
      "廪": 1256,
      "廳": 1257,
      "延": 1258,
      "廷": 1259,
      "建": 1260,
      "开": 1261,
      "异": 1262,
      "弃": 1263,
      "弄": 1264,
      "弈": 1265,
      "弊": 1266,
      "式": 1267,
      "弓": 1268,
      "引": 1269,
      "弗": 1270,
      "弘": 1271,
      "弛": 1272,
      "弟": 1273,
      "张": 1274,
      "弥": 1275,
      "弦": 1276,
      "弧": 1277,
      "弩": 1278,
      "弯": 1279,
      "弱": 1280,
      "張": 1281,
      "強": 1282,
      "弹": 1283,
      "强": 1284,
      "彀": 1285,
      "归": 1286,
      "当": 1287,
      "录": 1288,
      "彝": 1289,
      "形": 1290,
      "彦": 1291,
      "彩": 1292,
      "彬": 1293,
      "彭": 1294,
      "彰": 1295,
      "影": 1296,
      "彷": 1297,
      "役": 1298,
      "彻": 1299,
      "彼": 1300,
      "往": 1301,
      "征": 1302,
      "径": 1303,
      "待": 1304,
      "徇": 1305,
      "很": 1306,
      "徊": 1307,
      "律": 1308,
      "後": 1309,
      "徐": 1310,
      "徒": 1311,
      "得": 1312,
      "徘": 1313,
      "徙": 1314,
      "御": 1315,
      "循": 1316,
      "微": 1317,
      "徵": 1318,
      "德": 1319,
      "徽": 1320,
      "心": 1321,
      "必": 1322,
      "忆": 1323,
      "忌": 1324,
      "忍": 1325,
      "忏": 1326,
      "忖": 1327,
      "志": 1328,
      "忘": 1329,
      "忙": 1330,
      "忠": 1331,
      "忡": 1332,
      "忧": 1333,
      "快": 1334,
      "忱": 1335,
      "念": 1336,
      "忽": 1337,
      "忿": 1338,
      "怀": 1339,
      "态": 1340,
      "怂": 1341,
      "怎": 1342,
      "怒": 1343,
      "怕": 1344,
      "怖": 1345,
      "怜": 1346,
      "思": 1347,
      "怠": 1348,
      "怡": 1349,
      "急": 1350,
      "性": 1351,
      "怨": 1352,
      "怪": 1353,
      "怯": 1354,
      "总": 1355,
      "恋": 1356,
      "恍": 1357,
      "恐": 1358,
      "恒": 1359,
      "恕": 1360,
      "恢": 1361,
      "恣": 1362,
      "恤": 1363,
      "恨": 1364,
      "恩": 1365,
      "恫": 1366,
      "恬": 1367,
      "恭": 1368,
      "息": 1369,
      "恰": 1370,
      "恳": 1371,
      "恶": 1372,
      "恺": 1373,
      "恼": 1374,
      "恿": 1375,
      "悄": 1376,
      "悉": 1377,
      "悍": 1378,
      "悔": 1379,
      "悖": 1380,
      "悟": 1381,
      "悠": 1382,
      "患": 1383,
      "悦": 1384,
      "您": 1385,
      "悬": 1386,
      "悯": 1387,
      "悲": 1388,
      "悴": 1389,
      "悼": 1390,
      "情": 1391,
      "惊": 1392,
      "惑": 1393,
      "惕": 1394,
      "惚": 1395,
      "惜": 1396,
      "惟": 1397,
      "惠": 1398,
      "惧": 1399,
      "惨": 1400,
      "惩": 1401,
      "惫": 1402,
      "惬": 1403,
      "惭": 1404,
      "惯": 1405,
      "惰": 1406,
      "想": 1407,
      "惴": 1408,
      "惶": 1409,
      "惹": 1410,
      "愁": 1411,
      "愈": 1412,
      "愉": 1413,
      "意": 1414,
      "愚": 1415,
      "感": 1416,
      "愤": 1417,
      "愧": 1418,
      "愿": 1419,
      "慈": 1420,
      "慌": 1421,
      "慎": 1422,
      "慑": 1423,
      "慕": 1424,
      "慢": 1425,
      "慧": 1426,
      "慨": 1427,
      "慰": 1428,
      "慷": 1429,
      "憎": 1430,
      "憔": 1431,
      "憧": 1432,
      "憬": 1433,
      "憲": 1434,
      "憾": 1435,
      "懂": 1436,
      "懈": 1437,
      "懊": 1438,
      "懒": 1439,
      "懦": 1440,
      "戈": 1441,
      "戊": 1442,
      "戏": 1443,
      "成": 1444,
      "我": 1445,
      "戒": 1446,
      "或": 1447,
      "战": 1448,
      "戚": 1449,
      "戟": 1450,
      "截": 1451,
      "戮": 1452,
      "戰": 1453,
      "戲": 1454,
      "戳": 1455,
      "戴": 1456,
      "户": 1457,
      "戾": 1458,
      "房": 1459,
      "所": 1460,
      "扁": 1461,
      "扇": 1462,
      "扉": 1463,
      "手": 1464,
      "才": 1465,
      "扎": 1466,
      "扑": 1467,
      "扒": 1468,
      "打": 1469,
      "扔": 1470,
      "托": 1471,
      "扛": 1472,
      "扣": 1473,
      "执": 1474,
      "扩": 1475,
      "扫": 1476,
      "扬": 1477,
      "扭": 1478,
      "扮": 1479,
      "扯": 1480,
      "扰": 1481,
      "扳": 1482,
      "扶": 1483,
      "批": 1484,
      "扼": 1485,
      "找": 1486,
      "承": 1487,
      "技": 1488,
      "抄": 1489,
      "抉": 1490,
      "把": 1491,
      "抑": 1492,
      "抒": 1493,
      "抓": 1494,
      "投": 1495,
      "抖": 1496,
      "抗": 1497,
      "折": 1498,
      "抚": 1499,
      "抛": 1500,
      "抡": 1501,
      "抢": 1502,
      "护": 1503,
      "报": 1504,
      "抨": 1505,
      "披": 1506,
      "抬": 1507,
      "抱": 1508,
      "抵": 1509,
      "抹": 1510,
      "押": 1511,
      "抽": 1512,
      "拄": 1513,
      "担": 1514,
      "拆": 1515,
      "拇": 1516,
      "拉": 1517,
      "拌": 1518,
      "拍": 1519,
      "拎": 1520,
      "拐": 1521,
      "拒": 1522,
      "拓": 1523,
      "拔": 1524,
      "拖": 1525,
      "拘": 1526,
      "拙": 1527,
      "招": 1528,
      "拜": 1529,
      "拟": 1530,
      "拢": 1531,
      "拣": 1532,
      "拥": 1533,
      "拦": 1534,
      "拨": 1535,
      "择": 1536,
      "括": 1537,
      "拮": 1538,
      "拯": 1539,
      "拱": 1540,
      "拳": 1541,
      "拷": 1542,
      "拼": 1543,
      "拾": 1544,
      "拿": 1545,
      "持": 1546,
      "挂": 1547,
      "指": 1548,
      "按": 1549,
      "挑": 1550,
      "挖": 1551,
      "挚": 1552,
      "挝": 1553,
      "挠": 1554,
      "挡": 1555,
      "挣": 1556,
      "挤": 1557,
      "挥": 1558,
      "挨": 1559,
      "挪": 1560,
      "挫": 1561,
      "振": 1562,
      "挺": 1563,
      "挽": 1564,
      "捆": 1565,
      "捉": 1566,
      "捌": 1567,
      "捍": 1568,
      "捏": 1569,
      "捐": 1570,
      "捕": 1571,
      "捞": 1572,
      "损": 1573,
      "捡": 1574,
      "换": 1575,
      "捣": 1576,
      "捧": 1577,
      "捩": 1578,
      "据": 1579,
      "捶": 1580,
      "捷": 1581,
      "掀": 1582,
      "授": 1583,
      "掉": 1584,
      "掌": 1585,
      "掏": 1586,
      "掐": 1587,
      "排": 1588,
      "掘": 1589,
      "掠": 1590,
      "採": 1591,
      "探": 1592,
      "掣": 1593,
      "接": 1594,
      "控": 1595,
      "推": 1596,
      "掩": 1597,
      "措": 1598,
      "掰": 1599,
      "掳": 1600,
      "掷": 1601,
      "掺": 1602,
      "揍": 1603,
      "描": 1604,
      "提": 1605,
      "插": 1606,
      "揚": 1607,
      "握": 1608,
      "揪": 1609,
      "揭": 1610,
      "援": 1611,
      "揽": 1612,
      "搀": 1613,
      "搁": 1614,
      "搂": 1615,
      "搅": 1616,
      "搏": 1617,
      "搐": 1618,
      "搖": 1619,
      "搜": 1620,
      "搞": 1621,
      "搪": 1622,
      "搬": 1623,
      "搭": 1624,
      "携": 1625,
      "摄": 1626,
      "摆": 1627,
      "摇": 1628,
      "摈": 1629,
      "摊": 1630,
      "摒": 1631,
      "摔": 1632,
      "摘": 1633,
      "摧": 1634,
      "摩": 1635,
      "摸": 1636,
      "摹": 1637,
      "摺": 1638,
      "撇": 1639,
      "撑": 1640,
      "撒": 1641,
      "撕": 1642,
      "撞": 1643,
      "撤": 1644,
      "撬": 1645,
      "播": 1646,
      "撮": 1647,
      "撰": 1648,
      "撵": 1649,
      "撼": 1650,
      "擅": 1651,
      "擊": 1652,
      "操": 1653,
      "擎": 1654,
      "擦": 1655,
      "攀": 1656,
      "攒": 1657,
      "攝": 1658,
      "支": 1659,
      "收": 1660,
      "攸": 1661,
      "改": 1662,
      "攻": 1663,
      "放": 1664,
      "政": 1665,
      "故": 1666,
      "效": 1667,
      "敌": 1668,
      "敏": 1669,
      "救": 1670,
      "教": 1671,
      "敛": 1672,
      "敝": 1673,
      "敞": 1674,
      "敢": 1675,
      "散": 1676,
      "敦": 1677,
      "敬": 1678,
      "数": 1679,
      "敲": 1680,
      "整": 1681,
      "敷": 1682,
      "數": 1683,
      "文": 1684,
      "斋": 1685,
      "斐": 1686,
      "斑": 1687,
      "斓": 1688,
      "斗": 1689,
      "料": 1690,
      "斜": 1691,
      "斟": 1692,
      "斡": 1693,
      "斤": 1694,
      "斥": 1695,
      "斧": 1696,
      "斩": 1697,
      "断": 1698,
      "斯": 1699,
      "新": 1700,
      "方": 1701,
      "於": 1702,
      "施": 1703,
      "旁": 1704,
      "旅": 1705,
      "旋": 1706,
      "族": 1707,
      "旗": 1708,
      "无": 1709,
      "既": 1710,
      "日": 1711,
      "旦": 1712,
      "旧": 1713,
      "旨": 1714,
      "早": 1715,
      "旬": 1716,
      "旭": 1717,
      "旱": 1718,
      "时": 1719,
      "旷": 1720,
      "旺": 1721,
      "昂": 1722,
      "昆": 1723,
      "昊": 1724,
      "昌": 1725,
      "明": 1726,
      "昏": 1727,
      "易": 1728,
      "昔": 1729,
      "昙": 1730,
      "星": 1731,
      "映": 1732,
      "春": 1733,
      "昧": 1734,
      "昨": 1735,
      "昭": 1736,
      "是": 1737,
      "显": 1738,
      "時": 1739,
      "晃": 1740,
      "晋": 1741,
      "晒": 1742,
      "晓": 1743,
      "晕": 1744,
      "晚": 1745,
      "晞": 1746,
      "晤": 1747,
      "晦": 1748,
      "晨": 1749,
      "普": 1750,
      "景": 1751,
      "晰": 1752,
      "晴": 1753,
      "晶": 1754,
      "智": 1755,
      "暂": 1756,
      "暑": 1757,
      "暖": 1758,
      "暗": 1759,
      "暨": 1760,
      "暮": 1761,
      "暴": 1762,
      "曙": 1763,
      "曝": 1764,
      "曩": 1765,
      "曰": 1766,
      "曲": 1767,
      "曳": 1768,
      "更": 1769,
      "書": 1770,
      "曹": 1771,
      "曼": 1772,
      "曾": 1773,
      "替": 1774,
      "最": 1775,
      "會": 1776,
      "月": 1777,
      "有": 1778,
      "朋": 1779,
      "服": 1780,
      "朔": 1781,
      "朗": 1782,
      "望": 1783,
      "朝": 1784,
      "期": 1785,
      "朦": 1786,
      "木": 1787,
      "未": 1788,
      "末": 1789,
      "本": 1790,
      "札": 1791,
      "术": 1792,
      "朱": 1793,
      "朴": 1794,
      "朵": 1795,
      "机": 1796,
      "朽": 1797,
      "杀": 1798,
      "杂": 1799,
      "权": 1800,
      "杆": 1801,
      "杉": 1802,
      "李": 1803,
      "杏": 1804,
      "材": 1805,
      "村": 1806,
      "杖": 1807,
      "杜": 1808,
      "杞": 1809,
      "束": 1810,
      "杠": 1811,
      "条": 1812,
      "来": 1813,
      "杨": 1814,
      "杯": 1815,
      "杰": 1816,
      "東": 1817,
      "杳": 1818,
      "松": 1819,
      "板": 1820,
      "极": 1821,
      "构": 1822,
      "析": 1823,
      "枕": 1824,
      "林": 1825,
      "枚": 1826,
      "果": 1827,
      "枝": 1828,
      "枢": 1829,
      "枣": 1830,
      "枪": 1831,
      "枫": 1832,
      "枯": 1833,
      "架": 1834,
      "枷": 1835,
      "枸": 1836,
      "柄": 1837,
      "柏": 1838,
      "某": 1839,
      "染": 1840,
      "柔": 1841,
      "柜": 1842,
      "柠": 1843,
      "查": 1844,
      "柬": 1845,
      "柯": 1846,
      "柱": 1847,
      "柳": 1848,
      "柴": 1849,
      "柿": 1850,
      "栅": 1851,
      "标": 1852,
      "栈": 1853,
      "栋": 1854,
      "栎": 1855,
      "栏": 1856,
      "树": 1857,
      "栓": 1858,
      "栖": 1859,
      "栗": 1860,
      "校": 1861,
      "株": 1862,
      "样": 1863,
      "核": 1864,
      "根": 1865,
      "格": 1866,
      "栽": 1867,
      "桁": 1868,
      "桂": 1869,
      "桃": 1870,
      "桅": 1871,
      "框": 1872,
      "案": 1873,
      "桌": 1874,
      "桐": 1875,
      "桑": 1876,
      "桠": 1877,
      "档": 1878,
      "桥": 1879,
      "桦": 1880,
      "桨": 1881,
      "桩": 1882,
      "桶": 1883,
      "梁": 1884,
      "梅": 1885,
      "梗": 1886,
      "條": 1887,
      "梢": 1888,
      "梦": 1889,
      "梧": 1890,
      "梨": 1891,
      "梭": 1892,
      "梯": 1893,
      "械": 1894,
      "梳": 1895,
      "梵": 1896,
      "梶": 1897,
      "检": 1898,
      "棉": 1899,
      "棋": 1900,
      "棍": 1901,
      "棒": 1902,
      "棕": 1903,
      "棘": 1904,
      "棚": 1905,
      "棣": 1906,
      "森": 1907,
      "棱": 1908,
      "棵": 1909,
      "棺": 1910,
      "椅": 1911,
      "植": 1912,
      "椎": 1913,
      "椒": 1914,
      "椭": 1915,
      "椰": 1916,
      "楔": 1917,
      "楚": 1918,
      "業": 1919,
      "極": 1920,
      "楷": 1921,
      "楼": 1922,
      "概": 1923,
      "榄": 1924,
      "榆": 1925,
      "榈": 1926,
      "榔": 1927,
      "榕": 1928,
      "榜": 1929,
      "榨": 1930,
      "榭": 1931,
      "榮": 1932,
      "榴": 1933,
      "榻": 1934,
      "槛": 1935,
      "槟": 1936,
      "槽": 1937,
      "樂": 1938,
      "標": 1939,
      "模": 1940,
      "樣": 1941,
      "樨": 1942,
      "横": 1943,
      "樱": 1944,
      "橄": 1945,
      "橋": 1946,
      "橙": 1947,
      "機": 1948,
      "橡": 1949,
      "橢": 1950,
      "橥": 1951,
      "橱": 1952,
      "橼": 1953,
      "檔": 1954,
      "檫": 1955,
      "檬": 1956,
      "櫻": 1957,
      "權": 1958,
      "欠": 1959,
      "次": 1960,
      "欢": 1961,
      "欣": 1962,
      "欧": 1963,
      "欲": 1964,
      "欺": 1965,
      "款": 1966,
      "歇": 1967,
      "歉": 1968,
      "歌": 1969,
      "歎": 1970,
      "歐": 1971,
      "止": 1972,
      "正": 1973,
      "此": 1974,
      "步": 1975,
      "武": 1976,
      "歧": 1977,
      "歪": 1978,
      "歷": 1979,
      "歹": 1980,
      "死": 1981,
      "歼": 1982,
      "殃": 1983,
      "殆": 1984,
      "殉": 1985,
      "殊": 1986,
      "残": 1987,
      "殒": 1988,
      "殓": 1989,
      "殖": 1990,
      "殘": 1991,
      "殚": 1992,
      "殡": 1993,
      "殴": 1994,
      "段": 1995,
      "殷": 1996,
      "殺": 1997,
      "殿": 1998,
      "毁": 1999,
      "毅": 2000,
      "毋": 2001,
      "母": 2002,
      "每": 2003,
      "毒": 2004,
      "比": 2005,
      "毕": 2006,
      "毗": 2007,
      "毙": 2008,
      "毛": 2009,
      "毡": 2010,
      "毫": 2011,
      "毯": 2012,
      "氏": 2013,
      "氐": 2014,
      "民": 2015,
      "氓": 2016,
      "气": 2017,
      "氛": 2018,
      "氟": 2019,
      "氢": 2020,
      "氣": 2021,
      "氦": 2022,
      "氧": 2023,
      "氨": 2024,
      "氮": 2025,
      "氯": 2026,
      "氰": 2027,
      "水": 2028,
      "永": 2029,
      "汀": 2030,
      "汁": 2031,
      "求": 2032,
      "汇": 2033,
      "汉": 2034,
      "汐": 2035,
      "汕": 2036,
      "汗": 2037,
      "汛": 2038,
      "汝": 2039,
      "汞": 2040,
      "江": 2041,
      "池": 2042,
      "污": 2043,
      "汤": 2044,
      "汩": 2045,
      "汪": 2046,
      "汰": 2047,
      "汲": 2048,
      "汶": 2049,
      "決": 2050,
      "汽": 2051,
      "沂": 2052,
      "沃": 2053,
      "沈": 2054,
      "沉": 2055,
      "沐": 2056,
      "沒": 2057,
      "沓": 2058,
      "沙": 2059,
      "沟": 2060,
      "没": 2061,
      "沥": 2062,
      "沦": 2063,
      "沪": 2064,
      "沫": 2065,
      "沮": 2066,
      "河": 2067,
      "沸": 2068,
      "油": 2069,
      "治": 2070,
      "沼": 2071,
      "沾": 2072,
      "沿": 2073,
      "泄": 2074,
      "泉": 2075,
      "泊": 2076,
      "泌": 2077,
      "法": 2078,
      "泛": 2079,
      "泞": 2080,
      "泡": 2081,
      "波": 2082,
      "泣": 2083,
      "泥": 2084,
      "注": 2085,
      "泪": 2086,
      "泮": 2087,
      "泰": 2088,
      "泳": 2089,
      "泵": 2090,
      "泻": 2091,
      "泼": 2092,
      "泽": 2093,
      "洁": 2094,
      "洄": 2095,
      "洋": 2096,
      "洒": 2097,
      "洗": 2098,
      "洛": 2099,
      "洞": 2100,
      "津": 2101,
      "洪": 2102,
      "洱": 2103,
      "洲": 2104,
      "活": 2105,
      "洼": 2106,
      "洽": 2107,
      "派": 2108,
      "流": 2109,
      "浃": 2110,
      "浅": 2111,
      "浆": 2112,
      "浇": 2113,
      "浊": 2114,
      "测": 2115,
      "济": 2116,
      "浏": 2117,
      "浑": 2118,
      "浓": 2119,
      "浙": 2120,
      "浚": 2121,
      "浦": 2122,
      "浩": 2123,
      "浪": 2124,
      "浮": 2125,
      "浴": 2126,
      "海": 2127,
      "浸": 2128,
      "涂": 2129,
      "涅": 2130,
      "消": 2131,
      "涉": 2132,
      "涌": 2133,
      "涎": 2134,
      "涓": 2135,
      "涕": 2136,
      "涛": 2137,
      "涡": 2138,
      "涤": 2139,
      "润": 2140,
      "涨": 2141,
      "涯": 2142,
      "液": 2143,
      "涵": 2144,
      "涸": 2145,
      "淀": 2146,
      "淆": 2147,
      "淇": 2148,
      "淋": 2149,
      "淌": 2150,
      "淘": 2151,
      "淡": 2152,
      "淤": 2153,
      "淦": 2154,
      "淫": 2155,
      "淮": 2156,
      "深": 2157,
      "混": 2158,
      "淹": 2159,
      "添": 2160,
      "清": 2161,
      "渊": 2162,
      "渎": 2163,
      "渐": 2164,
      "渔": 2165,
      "渗": 2166,
      "渚": 2167,
      "渝": 2168,
      "渠": 2169,
      "渡": 2170,
      "渣": 2171,
      "渥": 2172,
      "温": 2173,
      "港": 2174,
      "渲": 2175,
      "渴": 2176,
      "游": 2177,
      "渺": 2178,
      "湄": 2179,
      "湍": 2180,
      "湖": 2181,
      "湘": 2182,
      "湛": 2183,
      "湯": 2184,
      "湾": 2185,
      "湿": 2186,
      "溃": 2187,
      "溅": 2188,
      "溉": 2189,
      "源": 2190,
      "準": 2191,
      "溜": 2192,
      "溢": 2193,
      "溪": 2194,
      "溫": 2195,
      "溯": 2196,
      "溴": 2197,
      "溶": 2198,
      "溺": 2199,
      "滁": 2200,
      "滋": 2201,
      "滑": 2202,
      "滔": 2203,
      "滕": 2204,
      "滚": 2205,
      "滞": 2206,
      "满": 2207,
      "滤": 2208,
      "滥": 2209,
      "滨": 2210,
      "滩": 2211,
      "滴": 2212,
      "滾": 2213,
      "滿": 2214,
      "漂": 2215,
      "漆": 2216,
      "漏": 2217,
      "演": 2218,
      "漠": 2219,
      "漩": 2220,
      "漫": 2221,
      "潘": 2222,
      "潛": 2223,
      "潜": 2224,
      "潦": 2225,
      "潮": 2226,
      "澄": 2227,
      "澈": 2228,
      "澜": 2229,
      "澡": 2230,
      "澤": 2231,
      "澳": 2232,
      "激": 2233,
      "濒": 2234,
      "濟": 2235,
      "瀑": 2236,
      "瀚": 2237,
      "瀨": 2238,
      "灌": 2239,
      "灣": 2240,
      "火": 2241,
      "灭": 2242,
      "灯": 2243,
      "灰": 2244,
      "灵": 2245,
      "灶": 2246,
      "灼": 2247,
      "灾": 2248,
      "灿": 2249,
      "炀": 2250,
      "炉": 2251,
      "炊": 2252,
      "炎": 2253,
      "炒": 2254,
      "炔": 2255,
      "炙": 2256,
      "炫": 2257,
      "炬": 2258,
      "炭": 2259,
      "炮": 2260,
      "炸": 2261,
      "点": 2262,
      "為": 2263,
      "炼": 2264,
      "烁": 2265,
      "烂": 2266,
      "烃": 2267,
      "烈": 2268,
      "烊": 2269,
      "烏": 2270,
      "烘": 2271,
      "烙": 2272,
      "烛": 2273,
      "烟": 2274,
      "烤": 2275,
      "烦": 2276,
      "烧": 2277,
      "烩": 2278,
      "烫": 2279,
      "烬": 2280,
      "热": 2281,
      "烯": 2282,
      "烷": 2283,
      "烹": 2284,
      "焉": 2285,
      "焊": 2286,
      "焕": 2287,
      "焙": 2288,
      "焚": 2289,
      "無": 2290,
      "焦": 2291,
      "焰": 2292,
      "然": 2293,
      "煌": 2294,
      "煎": 2295,
      "煞": 2296,
      "煤": 2297,
      "照": 2298,
      "煮": 2299,
      "煽": 2300,
      "熄": 2301,
      "熊": 2302,
      "熏": 2303,
      "熔": 2304,
      "熙": 2305,
      "熟": 2306,
      "熨": 2307,
      "熬": 2308,
      "熱": 2309,
      "燃": 2310,
      "燈": 2311,
      "燕": 2312,
      "燥": 2313,
      "爆": 2314,
      "爪": 2315,
      "爬": 2316,
      "爱": 2317,
      "爲": 2318,
      "爵": 2319,
      "父": 2320,
      "爷": 2321,
      "爸": 2322,
      "爽": 2323,
      "爾": 2324,
      "片": 2325,
      "版": 2326,
      "牌": 2327,
      "牍": 2328,
      "牒": 2329,
      "牙": 2330,
      "牛": 2331,
      "牟": 2332,
      "牠": 2333,
      "牡": 2334,
      "牢": 2335,
      "牦": 2336,
      "牧": 2337,
      "物": 2338,
      "牯": 2339,
      "牲": 2340,
      "牵": 2341,
      "特": 2342,
      "牺": 2343,
      "牾": 2344,
      "犀": 2345,
      "犬": 2346,
      "犯": 2347,
      "状": 2348,
      "犹": 2349,
      "狂": 2350,
      "狄": 2351,
      "狎": 2352,
      "狐": 2353,
      "狗": 2354,
      "狞": 2355,
      "狠": 2356,
      "狩": 2357,
      "独": 2358,
      "狭": 2359,
      "狮": 2360,
      "狱": 2361,
      "狸": 2362,
      "狺": 2363,
      "狼": 2364,
      "猎": 2365,
      "猖": 2366,
      "猛": 2367,
      "猜": 2368,
      "猝": 2369,
      "猡": 2370,
      "猩": 2371,
      "猪": 2372,
      "猫": 2373,
      "猬": 2374,
      "献": 2375,
      "猴": 2376,
      "猶": 2377,
      "猿": 2378,
      "獅": 2379,
      "獎": 2380,
      "獗": 2381,
      "獨": 2382,
      "獵": 2383,
      "獺": 2384,
      "獾": 2385,
      "玄": 2386,
      "率": 2387,
      "玉": 2388,
      "王": 2389,
      "玛": 2390,
      "玩": 2391,
      "玫": 2392,
      "环": 2393,
      "现": 2394,
      "玷": 2395,
      "玻": 2396,
      "珀": 2397,
      "珊": 2398,
      "珍": 2399,
      "珐": 2400,
      "珠": 2401,
      "珥": 2402,
      "班": 2403,
      "現": 2404,
      "球": 2405,
      "琅": 2406,
      "理": 2407,
      "琊": 2408,
      "琌": 2409,
      "琏": 2410,
      "琐": 2411,
      "琪": 2412,
      "琳": 2413,
      "琴": 2414,
      "琼": 2415,
      "瑕": 2416,
      "瑙": 2417,
      "瑚": 2418,
      "瑜": 2419,
      "瑞": 2420,
      "瑟": 2421,
      "瑯": 2422,
      "瑰": 2423,
      "璃": 2424,
      "璋": 2425,
      "環": 2426,
      "璶": 2427,
      "瓜": 2428,
      "瓣": 2429,
      "瓦": 2430,
      "瓮": 2431,
      "瓶": 2432,
      "瓷": 2433,
      "甄": 2434,
      "甑": 2435,
      "甘": 2436,
      "甙": 2437,
      "甚": 2438,
      "甜": 2439,
      "生": 2440,
      "產": 2441,
      "用": 2442,
      "甩": 2443,
      "甫": 2444,
      "田": 2445,
      "由": 2446,
      "甲": 2447,
      "申": 2448,
      "电": 2449,
      "男": 2450,
      "甸": 2451,
      "町": 2452,
      "画": 2453,
      "畅": 2454,
      "界": 2455,
      "畏": 2456,
      "畑": 2457,
      "畔": 2458,
      "留": 2459,
      "畜": 2460,
      "略": 2461,
      "番": 2462,
      "畫": 2463,
      "異": 2464,
      "畴": 2465,
      "畸": 2466,
      "疆": 2467,
      "疏": 2468,
      "疑": 2469,
      "疗": 2470,
      "疚": 2471,
      "疝": 2472,
      "疟": 2473,
      "疡": 2474,
      "疤": 2475,
      "疫": 2476,
      "疭": 2477,
      "疮": 2478,
      "疯": 2479,
      "疱": 2480,
      "疲": 2481,
      "疵": 2482,
      "疹": 2483,
      "疼": 2484,
      "疾": 2485,
      "病": 2486,
      "症": 2487,
      "痊": 2488,
      "痕": 2489,
      "痘": 2490,
      "痛": 2491,
      "痣": 2492,
      "痪": 2493,
      "痫": 2494,
      "痰": 2495,
      "痴": 2496,
      "痹": 2497,
      "瘘": 2498,
      "瘟": 2499,
      "瘠": 2500,
      "瘤": 2501,
      "瘦": 2502,
      "瘪": 2503,
      "瘫": 2504,
      "瘰": 2505,
      "瘸": 2506,
      "瘾": 2507,
      "癌": 2508,
      "癖": 2509,
      "癣": 2510,
      "癫": 2511,
      "登": 2512,
      "發": 2513,
      "白": 2514,
      "百": 2515,
      "皂": 2516,
      "的": 2517,
      "皆": 2518,
      "皇": 2519,
      "皑": 2520,
      "皓": 2521,
      "皮": 2522,
      "皱": 2523,
      "皲": 2524,
      "皺": 2525,
      "皿": 2526,
      "盂": 2527,
      "盃": 2528,
      "盆": 2529,
      "盈": 2530,
      "益": 2531,
      "盎": 2532,
      "盏": 2533,
      "盐": 2534,
      "监": 2535,
      "盒": 2536,
      "盔": 2537,
      "盖": 2538,
      "盗": 2539,
      "盘": 2540,
      "盛": 2541,
      "盜": 2542,
      "盟": 2543,
      "監": 2544,
      "盧": 2545,
      "目": 2546,
      "盯": 2547,
      "盲": 2548,
      "直": 2549,
      "相": 2550,
      "盹": 2551,
      "盼": 2552,
      "盾": 2553,
      "省": 2554,
      "眈": 2555,
      "眉": 2556,
      "看": 2557,
      "眔": 2558,
      "真": 2559,
      "眠": 2560,
      "眩": 2561,
      "眶": 2562,
      "眷": 2563,
      "眼": 2564,
      "着": 2565,
      "睁": 2566,
      "睐": 2567,
      "睑": 2568,
      "睛": 2569,
      "睡": 2570,
      "督": 2571,
      "睦": 2572,
      "睫": 2573,
      "睬": 2574,
      "睹": 2575,
      "睾": 2576,
      "睿": 2577,
      "瞄": 2578,
      "瞅": 2579,
      "瞎": 2580,
      "瞒": 2581,
      "瞥": 2582,
      "瞧": 2583,
      "瞩": 2584,
      "瞪": 2585,
      "瞬": 2586,
      "瞰": 2587,
      "瞻": 2588,
      "瞿": 2589,
      "矗": 2590,
      "矛": 2591,
      "矢": 2592,
      "矣": 2593,
      "知": 2594,
      "矩": 2595,
      "矫": 2596,
      "短": 2597,
      "矮": 2598,
      "石": 2599,
      "矶": 2600,
      "矿": 2601,
      "码": 2602,
      "砂": 2603,
      "砌": 2604,
      "砍": 2605,
      "研": 2606,
      "砖": 2607,
      "砰": 2608,
      "破": 2609,
      "砸": 2610,
      "础": 2611,
      "硅": 2612,
      "硕": 2613,
      "硝": 2614,
      "硫": 2615,
      "硬": 2616,
      "确": 2617,
      "硼": 2618,
      "碌": 2619,
      "碍": 2620,
      "碎": 2621,
      "碑": 2622,
      "碗": 2623,
      "碘": 2624,
      "碟": 2625,
      "碧": 2626,
      "碰": 2627,
      "碱": 2628,
      "碳": 2629,
      "碼": 2630,
      "碾": 2631,
      "磁": 2632,
      "磅": 2633,
      "磋": 2634,
      "磐": 2635,
      "磨": 2636,
      "磷": 2637,
      "磺": 2638,
      "礁": 2639,
      "示": 2640,
      "礼": 2641,
      "社": 2642,
      "祂": 2643,
      "祈": 2644,
      "祉": 2645,
      "祖": 2646,
      "祝": 2647,
      "神": 2648,
      "祥": 2649,
      "票": 2650,
      "祭": 2651,
      "祷": 2652,
      "祸": 2653,
      "禁": 2654,
      "禅": 2655,
      "福": 2656,
      "禧": 2657,
      "禮": 2658,
      "离": 2659,
      "禽": 2660,
      "禾": 2661,
      "秀": 2662,
      "私": 2663,
      "秃": 2664,
      "秆": 2665,
      "秉": 2666,
      "秋": 2667,
      "种": 2668,
      "科": 2669,
      "秒": 2670,
      "秘": 2671,
      "租": 2672,
      "秤": 2673,
      "秦": 2674,
      "秩": 2675,
      "积": 2676,
      "称": 2677,
      "移": 2678,
      "秽": 2679,
      "稀": 2680,
      "程": 2681,
      "稍": 2682,
      "税": 2683,
      "稚": 2684,
      "稞": 2685,
      "稠": 2686,
      "稣": 2687,
      "稳": 2688,
      "稻": 2689,
      "稼": 2690,
      "稽": 2691,
      "稿": 2692,
      "穆": 2693,
      "穗": 2694,
      "穴": 2695,
      "究": 2696,
      "穷": 2697,
      "穹": 2698,
      "空": 2699,
      "穿": 2700,
      "突": 2701,
      "窃": 2702,
      "窄": 2703,
      "窍": 2704,
      "窑": 2705,
      "窒": 2706,
      "窖": 2707,
      "窗": 2708,
      "窘": 2709,
      "窜": 2710,
      "窝": 2711,
      "窟": 2712,
      "窥": 2713,
      "窦": 2714,
      "窮": 2715,
      "立": 2716,
      "竒": 2717,
      "竖": 2718,
      "站": 2719,
      "竞": 2720,
      "竟": 2721,
      "章": 2722,
      "竣": 2723,
      "童": 2724,
      "竭": 2725,
      "端": 2726,
      "競": 2727,
      "竹": 2728,
      "竿": 2729,
      "笆": 2730,
      "笋": 2731,
      "笏": 2732,
      "笑": 2733,
      "笔": 2734,
      "笛": 2735,
      "符": 2736,
      "笨": 2737,
      "第": 2738,
      "笼": 2739,
      "等": 2740,
      "筋": 2741,
      "筏": 2742,
      "筐": 2743,
      "筑": 2744,
      "筒": 2745,
      "答": 2746,
      "策": 2747,
      "筘": 2748,
      "筛": 2749,
      "筝": 2750,
      "筵": 2751,
      "筷": 2752,
      "筹": 2753,
      "签": 2754,
      "简": 2755,
      "箍": 2756,
      "算": 2757,
      "管": 2758,
      "箭": 2759,
      "箱": 2760,
      "箴": 2761,
      "篇": 2762,
      "築": 2763,
      "篡": 2764,
      "篪": 2765,
      "篮": 2766,
      "篱": 2767,
      "篷": 2768,
      "簌": 2769,
      "簧": 2770,
      "簸": 2771,
      "簿": 2772,
      "籃": 2773,
      "籍": 2774,
      "籠": 2775,
      "米": 2776,
      "类": 2777,
      "籽": 2778,
      "粉": 2779,
      "粒": 2780,
      "粗": 2781,
      "粘": 2782,
      "粟": 2783,
      "粤": 2784,
      "粥": 2785,
      "粪": 2786,
      "粮": 2787,
      "粱": 2788,
      "粹": 2789,
      "精": 2790,
      "糊": 2791,
      "糕": 2792,
      "糖": 2793,
      "糙": 2794,
      "糟": 2795,
      "系": 2796,
      "紀": 2797,
      "約": 2798,
      "紅": 2799,
      "紊": 2800,
      "紋": 2801,
      "納": 2802,
      "紐": 2803,
      "紙": 2804,
      "級": 2805,
      "素": 2806,
      "索": 2807,
      "紧": 2808,
      "紫": 2809,
      "累": 2810,
      "紹": 2811,
      "組": 2812,
      "結": 2813,
      "統": 2814,
      "綠": 2815,
      "維": 2816,
      "網": 2817,
      "線": 2818,
      "練": 2819,
      "縣": 2820,
      "總": 2821,
      "繁": 2822,
      "織": 2823,
      "纂": 2824,
      "纠": 2825,
      "红": 2826,
      "纤": 2827,
      "约": 2828,
      "级": 2829,
      "纨": 2830,
      "纪": 2831,
      "纫": 2832,
      "纬": 2833,
      "纯": 2834,
      "纱": 2835,
      "纲": 2836,
      "纳": 2837,
      "纵": 2838,
      "纷": 2839,
      "纸": 2840,
      "纹": 2841,
      "纺": 2842,
      "纽": 2843,
      "线": 2844,
      "练": 2845,
      "组": 2846,
      "绅": 2847,
      "细": 2848,
      "织": 2849,
      "终": 2850,
      "绍": 2851,
      "经": 2852,
      "绑": 2853,
      "绒": 2854,
      "结": 2855,
      "绔": 2856,
      "绕": 2857,
      "绘": 2858,
      "给": 2859,
      "络": 2860,
      "绝": 2861,
      "绞": 2862,
      "统": 2863,
      "绣": 2864,
      "绦": 2865,
      "继": 2866,
      "绩": 2867,
      "绪": 2868,
      "续": 2869,
      "绰": 2870,
      "绳": 2871,
      "维": 2872,
      "绵": 2873,
      "绷": 2874,
      "绸": 2875,
      "综": 2876,
      "绽": 2877,
      "绿": 2878,
      "缀": 2879,
      "缄": 2880,
      "缅": 2881,
      "缆": 2882,
      "缇": 2883,
      "缈": 2884,
      "缉": 2885,
      "缎": 2886,
      "缓": 2887,
      "缔": 2888,
      "缕": 2889,
      "编": 2890,
      "缘": 2891,
      "缚": 2892,
      "缝": 2893,
      "缠": 2894,
      "缥": 2895,
      "缩": 2896,
      "缪": 2897,
      "缭": 2898,
      "缮": 2899,
      "缴": 2900,
      "缸": 2901,
      "缺": 2902,
      "罂": 2903,
      "罄": 2904,
      "罐": 2905,
      "网": 2906,
      "罔": 2907,
      "罕": 2908,
      "罗": 2909,
      "罚": 2910,
      "罢": 2911,
      "罩": 2912,
      "罪": 2913,
      "置": 2914,
      "署": 2915,
      "罹": 2916,
      "羁": 2917,
      "羅": 2918,
      "羊": 2919,
      "美": 2920,
      "羚": 2921,
      "羞": 2922,
      "羟": 2923,
      "群": 2924,
      "義": 2925,
      "羯": 2926,
      "羰": 2927,
      "羽": 2928,
      "翁": 2929,
      "翅": 2930,
      "翔": 2931,
      "翘": 2932,
      "翠": 2933,
      "翡": 2934,
      "翩": 2935,
      "翰": 2936,
      "翱": 2937,
      "翻": 2938,
      "翼": 2939,
      "耀": 2940,
      "老": 2941,
      "考": 2942,
      "者": 2943,
      "而": 2944,
      "耍": 2945,
      "耐": 2946,
      "耕": 2947,
      "耗": 2948,
      "耘": 2949,
      "耦": 2950,
      "耳": 2951,
      "耶": 2952,
      "耸": 2953,
      "耻": 2954,
      "耽": 2955,
      "耿": 2956,
      "聂": 2957,
      "聆": 2958,
      "聊": 2959,
      "聋": 2960,
      "职": 2961,
      "联": 2962,
      "聖": 2963,
      "聘": 2964,
      "聚": 2965,
      "聪": 2966,
      "聯": 2967,
      "肃": 2968,
      "肆": 2969,
      "肇": 2970,
      "肉": 2971,
      "肋": 2972,
      "肌": 2973,
      "肖": 2974,
      "肘": 2975,
      "肚": 2976,
      "肛": 2977,
      "肝": 2978,
      "肟": 2979,
      "肠": 2980,
      "股": 2981,
      "肢": 2982,
      "肤": 2983,
      "肥": 2984,
      "肩": 2985,
      "肪": 2986,
      "肫": 2987,
      "肮": 2988,
      "肯": 2989,
      "肱": 2990,
      "育": 2991,
      "肴": 2992,
      "肺": 2993,
      "肼": 2994,
      "肽": 2995,
      "肾": 2996,
      "肿": 2997,
      "胀": 2998,
      "胁": 2999,
      "胃": 3000,
      "胆": 3001,
      "背": 3002,
      "胎": 3003,
      "胖": 3004,
      "胚": 3005,
      "胜": 3006,
      "胞": 3007,
      "胡": 3008,
      "胧": 3009,
      "胫": 3010,
      "胰": 3011,
      "胱": 3012,
      "胳": 3013,
      "胶": 3014,
      "胸": 3015,
      "胺": 3016,
      "能": 3017,
      "脂": 3018,
      "脆": 3019,
      "脈": 3020,
      "脉": 3021,
      "脊": 3022,
      "脏": 3023,
      "脑": 3024,
      "脓": 3025,
      "脖": 3026,
      "脚": 3027,
      "脯": 3028,
      "脱": 3029,
      "脸": 3030,
      "脾": 3031,
      "腊": 3032,
      "腐": 3033,
      "腑": 3034,
      "腓": 3035,
      "腔": 3036,
      "腕": 3037,
      "腥": 3038,
      "腮": 3039,
      "腰": 3040,
      "腱": 3041,
      "腹": 3042,
      "腺": 3043,
      "腻": 3044,
      "腾": 3045,
      "腿": 3046,
      "膀": 3047,
      "膈": 3048,
      "膊": 3049,
      "膏": 3050,
      "膛": 3051,
      "膜": 3052,
      "膝": 3053,
      "膨": 3054,
      "膺": 3055,
      "臀": 3056,
      "臂": 3057,
      "臃": 3058,
      "臘": 3059,
      "臣": 3060,
      "自": 3061,
      "臭": 3062,
      "至": 3063,
      "致": 3064,
      "舀": 3065,
      "舅": 3066,
      "舆": 3067,
      "與": 3068,
      "舉": 3069,
      "舊": 3070,
      "舌": 3071,
      "舍": 3072,
      "舒": 3073,
      "舔": 3074,
      "舞": 3075,
      "舟": 3076,
      "航": 3077,
      "般": 3078,
      "舰": 3079,
      "舱": 3080,
      "舶": 3081,
      "舷": 3082,
      "船": 3083,
      "舾": 3084,
      "艇": 3085,
      "艘": 3086,
      "艦": 3087,
      "艮": 3088,
      "良": 3089,
      "艰": 3090,
      "色": 3091,
      "艳": 3092,
      "艺": 3093,
      "艽": 3094,
      "艾": 3095,
      "节": 3096,
      "芋": 3097,
      "芎": 3098,
      "芒": 3099,
      "芙": 3100,
      "芜": 3101,
      "芝": 3102,
      "芦": 3103,
      "芬": 3104,
      "芭": 3105,
      "芯": 3106,
      "芰": 3107,
      "花": 3108,
      "芳": 3109,
      "芹": 3110,
      "芽": 3111,
      "苇": 3112,
      "苍": 3113,
      "苏": 3114,
      "苑": 3115,
      "苔": 3116,
      "苗": 3117,
      "苛": 3118,
      "苟": 3119,
      "若": 3120,
      "苦": 3121,
      "苯": 3122,
      "英": 3123,
      "苹": 3124,
      "茁": 3125,
      "茂": 3126,
      "范": 3127,
      "茄": 3128,
      "茅": 3129,
      "茎": 3130,
      "茜": 3131,
      "茧": 3132,
      "茨": 3133,
      "茫": 3134,
      "茲": 3135,
      "茴": 3136,
      "茵": 3137,
      "茶": 3138,
      "荃": 3139,
      "荆": 3140,
      "草": 3141,
      "荐": 3142,
      "荒": 3143,
      "荡": 3144,
      "荣": 3145,
      "荤": 3146,
      "荥": 3147,
      "荦": 3148,
      "荧": 3149,
      "荨": 3150,
      "荫": 3151,
      "药": 3152,
      "荷": 3153,
      "荼": 3154,
      "莅": 3155,
      "莉": 3156,
      "莎": 3157,
      "莓": 3158,
      "莞": 3159,
      "莨": 3160,
      "莫": 3161,
      "莱": 3162,
      "莲": 3163,
      "获": 3164,
      "莹": 3165,
      "莽": 3166,
      "菅": 3167,
      "菇": 3168,
      "菊": 3169,
      "菌": 3170,
      "菜": 3171,
      "菠": 3172,
      "菩": 3173,
      "菪": 3174,
      "華": 3175,
      "菰": 3176,
      "菱": 3177,
      "菲": 3178,
      "萃": 3179,
      "萄": 3180,
      "萊": 3181,
      "萋": 3182,
      "萌": 3183,
      "萎": 3184,
      "萘": 3185,
      "萝": 3186,
      "营": 3187,
      "萦": 3188,
      "萧": 3189,
      "萨": 3190,
      "萬": 3191,
      "萱": 3192,
      "落": 3193,
      "葆": 3194,
      "葉": 3195,
      "著": 3196,
      "葛": 3197,
      "葡": 3198,
      "董": 3199,
      "葬": 3200,
      "葭": 3201,
      "葱": 3202,
      "葵": 3203,
      "蒂": 3204,
      "蒋": 3205,
      "蒙": 3206,
      "蒜": 3207,
      "蒲": 3208,
      "蒸": 3209,
      "蒹": 3210,
      "蒿": 3211,
      "蓄": 3212,
      "蓉": 3213,
      "蓋": 3214,
      "蓝": 3215,
      "蓣": 3216,
      "蓬": 3217,
      "蔑": 3218,
      "蔓": 3219,
      "蔗": 3220,
      "蔚": 3221,
      "蔟": 3222,
      "蔡": 3223,
      "蔬": 3224,
      "蔼": 3225,
      "蔽": 3226,
      "蕃": 3227,
      "蕈": 3228,
      "蕉": 3229,
      "蕴": 3230,
      "蕾": 3231,
      "薄": 3232,
      "薩": 3233,
      "薪": 3234,
      "薯": 3235,
      "薵": 3236,
      "藉": 3237,
      "藍": 3238,
      "藏": 3239,
      "藐": 3240,
      "藜": 3241,
      "藝": 3242,
      "藤": 3243,
      "藻": 3244,
      "蘇": 3245,
      "蘊": 3246,
      "蘑": 3247,
      "蘭": 3248,
      "虎": 3249,
      "虏": 3250,
      "虐": 3251,
      "虑": 3252,
      "虔": 3253,
      "虚": 3254,
      "號": 3255,
      "虫": 3256,
      "虬": 3257,
      "虱": 3258,
      "虹": 3259,
      "虽": 3260,
      "虾": 3261,
      "蚀": 3262,
      "蚁": 3263,
      "蚂": 3264,
      "蚊": 3265,
      "蚌": 3266,
      "蚕": 3267,
      "蚤": 3268,
      "蚪": 3269,
      "蚱": 3270,
      "蚴": 3271,
      "蛀": 3272,
      "蛇": 3273,
      "蛋": 3274,
      "蛎": 3275,
      "蛙": 3276,
      "蛛": 3277,
      "蛟": 3278,
      "蛤": 3279,
      "蛮": 3280,
      "蜂": 3281,
      "蜇": 3282,
      "蜊": 3283,
      "蜒": 3284,
      "蜓": 3285,
      "蜗": 3286,
      "蜜": 3287,
      "蜡": 3288,
      "蜢": 3289,
      "蜥": 3290,
      "蜮": 3291,
      "蜷": 3292,
      "蜻": 3293,
      "蜿": 3294,
      "蝇": 3295,
      "蝉": 3296,
      "蝌": 3297,
      "蝎": 3298,
      "蝗": 3299,
      "蝙": 3300,
      "蝠": 3301,
      "蝦": 3302,
      "蝴": 3303,
      "蝶": 3304,
      "螃": 3305,
      "螈": 3306,
      "融": 3307,
      "螨": 3308,
      "螯": 3309,
      "螺": 3310,
      "蟒": 3311,
      "蟹": 3312,
      "蠕": 3313,
      "蠢": 3314,
      "血": 3315,
      "衅": 3316,
      "行": 3317,
      "衍": 3318,
      "術": 3319,
      "衔": 3320,
      "街": 3321,
      "衙": 3322,
      "衛": 3323,
      "衝": 3324,
      "衡": 3325,
      "衣": 3326,
      "补": 3327,
      "表": 3328,
      "衫": 3329,
      "衬": 3330,
      "衰": 3331,
      "衷": 3332,
      "袂": 3333,
      "袄": 3334,
      "袋": 3335,
      "袍": 3336,
      "袒": 3337,
      "袖": 3338,
      "袜": 3339,
      "袤": 3340,
      "被": 3341,
      "袭": 3342,
      "裁": 3343,
      "裂": 3344,
      "装": 3345,
      "裔": 3346,
      "裕": 3347,
      "裙": 3348,
      "裤": 3349,
      "裨": 3350,
      "裱": 3351,
      "裴": 3352,
      "裸": 3353,
      "裹": 3354,
      "製": 3355,
      "褂": 3356,
      "褐": 3357,
      "褒": 3358,
      "褛": 3359,
      "褪": 3360,
      "褴": 3361,
      "褶": 3362,
      "襄": 3363,
      "襟": 3364,
      "西": 3365,
      "要": 3366,
      "覆": 3367,
      "視": 3368,
      "见": 3369,
      "观": 3370,
      "规": 3371,
      "视": 3372,
      "览": 3373,
      "觉": 3374,
      "角": 3375,
      "解": 3376,
      "触": 3377,
      "言": 3378,
      "計": 3379,
      "設": 3380,
      "許": 3381,
      "詞": 3382,
      "話": 3383,
      "詹": 3384,
      "誉": 3385,
      "誊": 3386,
      "誓": 3387,
      "語": 3388,
      "說": 3389,
      "論": 3390,
      "諸": 3391,
      "諾": 3392,
      "謝": 3393,
      "識": 3394,
      "譜": 3395,
      "警": 3396,
      "譬": 3397,
      "議": 3398,
      "计": 3399,
      "订": 3400,
      "认": 3401,
      "讨": 3402,
      "让": 3403,
      "训": 3404,
      "议": 3405,
      "讯": 3406,
      "记": 3407,
      "讲": 3408,
      "讳": 3409,
      "讶": 3410,
      "讷": 3411,
      "许": 3412,
      "讹": 3413,
      "论": 3414,
      "讼": 3415,
      "讽": 3416,
      "设": 3417,
      "访": 3418,
      "诀": 3419,
      "证": 3420,
      "诃": 3421,
      "评": 3422,
      "诅": 3423,
      "识": 3424,
      "诈": 3425,
      "诉": 3426,
      "诊": 3427,
      "诋": 3428,
      "词": 3429,
      "译": 3430,
      "试": 3431,
      "诗": 3432,
      "诘": 3433,
      "诚": 3434,
      "话": 3435,
      "诞": 3436,
      "诠": 3437,
      "诡": 3438,
      "询": 3439,
      "该": 3440,
      "详": 3441,
      "诧": 3442,
      "诫": 3443,
      "诬": 3444,
      "语": 3445,
      "误": 3446,
      "诱": 3447,
      "诲": 3448,
      "说": 3449,
      "诵": 3450,
      "请": 3451,
      "诸": 3452,
      "诺": 3453,
      "读": 3454,
      "诽": 3455,
      "课": 3456,
      "谁": 3457,
      "调": 3458,
      "谅": 3459,
      "谈": 3460,
      "谊": 3461,
      "谋": 3462,
      "谍": 3463,
      "谎": 3464,
      "谏": 3465,
      "谐": 3466,
      "谓": 3467,
      "谘": 3468,
      "谙": 3469,
      "谚": 3470,
      "谛": 3471,
      "谜": 3472,
      "谢": 3473,
      "谣": 3474,
      "谤": 3475,
      "谦": 3476,
      "谨": 3477,
      "谬": 3478,
      "谭": 3479,
      "谱": 3480,
      "谴": 3481,
      "谷": 3482,
      "豁": 3483,
      "豆": 3484,
      "豚": 3485,
      "象": 3486,
      "豪": 3487,
      "豫": 3488,
      "豹": 3489,
      "貂": 3490,
      "貌": 3491,
      "貝": 3492,
      "貧": 3493,
      "貪": 3494,
      "費": 3495,
      "賀": 3496,
      "賓": 3497,
      "賢": 3498,
      "質": 3499,
      "賽": 3500,
      "贝": 3501,
      "贞": 3502,
      "负": 3503,
      "贡": 3504,
      "财": 3505,
      "责": 3506,
      "贤": 3507,
      "败": 3508,
      "账": 3509,
      "货": 3510,
      "质": 3511,
      "贩": 3512,
      "贪": 3513,
      "贫": 3514,
      "贬": 3515,
      "购": 3516,
      "贮": 3517,
      "贯": 3518,
      "贱": 3519,
      "贴": 3520,
      "贵": 3521,
      "贷": 3522,
      "贸": 3523,
      "费": 3524,
      "贺": 3525,
      "贻": 3526,
      "贼": 3527,
      "贾": 3528,
      "贿": 3529,
      "赁": 3530,
      "赂": 3531,
      "资": 3532,
      "赊": 3533,
      "赋": 3534,
      "赌": 3535,
      "赎": 3536,
      "赏": 3537,
      "赐": 3538,
      "赔": 3539,
      "赖": 3540,
      "赘": 3541,
      "赚": 3542,
      "赛": 3543,
      "赞": 3544,
      "赠": 3545,
      "赡": 3546,
      "赢": 3547,
      "赣": 3548,
      "赤": 3549,
      "赦": 3550,
      "赫": 3551,
      "走": 3552,
      "赴": 3553,
      "赵": 3554,
      "赶": 3555,
      "起": 3556,
      "趁": 3557,
      "超": 3558,
      "越": 3559,
      "趋": 3560,
      "趟": 3561,
      "趣": 3562,
      "足": 3563,
      "趴": 3564,
      "趾": 3565,
      "跃": 3566,
      "跌": 3567,
      "跑": 3568,
      "跚": 3569,
      "距": 3570,
      "跟": 3571,
      "跤": 3572,
      "跨": 3573,
      "跪": 3574,
      "跬": 3575,
      "路": 3576,
      "跳": 3577,
      "践": 3578,
      "踊": 3579,
      "踏": 3580,
      "踝": 3581,
      "踢": 3582,
      "踩": 3583,
      "踪": 3584,
      "踱": 3585,
      "踵": 3586,
      "蹂": 3587,
      "蹄": 3588,
      "蹈": 3589,
      "蹒": 3590,
      "蹤": 3591,
      "蹦": 3592,
      "蹭": 3593,
      "蹲": 3594,
      "躁": 3595,
      "躏": 3596,
      "身": 3597,
      "躬": 3598,
      "躯": 3599,
      "躲": 3600,
      "躺": 3601,
      "車": 3602,
      "軌": 3603,
      "軍": 3604,
      "軸": 3605,
      "載": 3606,
      "輛": 3607,
      "輝": 3608,
      "輩": 3609,
      "輯": 3610,
      "輸": 3611,
      "车": 3612,
      "轧": 3613,
      "轨": 3614,
      "轩": 3615,
      "转": 3616,
      "轮": 3617,
      "软": 3618,
      "轰": 3619,
      "轴": 3620,
      "轻": 3621,
      "载": 3622,
      "轿": 3623,
      "较": 3624,
      "辅": 3625,
      "辆": 3626,
      "辈": 3627,
      "辉": 3628,
      "辍": 3629,
      "辐": 3630,
      "辑": 3631,
      "输": 3632,
      "辖": 3633,
      "辛": 3634,
      "辜": 3635,
      "辞": 3636,
      "辟": 3637,
      "辣": 3638,
      "辦": 3639,
      "辨": 3640,
      "辩": 3641,
      "辰": 3642,
      "辱": 3643,
      "边": 3644,
      "辽": 3645,
      "达": 3646,
      "迁": 3647,
      "迄": 3648,
      "迅": 3649,
      "过": 3650,
      "迈": 3651,
      "迎": 3652,
      "运": 3653,
      "近": 3654,
      "返": 3655,
      "还": 3656,
      "这": 3657,
      "进": 3658,
      "远": 3659,
      "违": 3660,
      "连": 3661,
      "迟": 3662,
      "迥": 3663,
      "迦": 3664,
      "迪": 3665,
      "迫": 3666,
      "迭": 3667,
      "述": 3668,
      "迴": 3669,
      "迷": 3670,
      "迸": 3671,
      "迹": 3672,
      "追": 3673,
      "退": 3674,
      "送": 3675,
      "适": 3676,
      "逃": 3677,
      "逅": 3678,
      "逆": 3679,
      "选": 3680,
      "逊": 3681,
      "逍": 3682,
      "透": 3683,
      "逐": 3684,
      "递": 3685,
      "途": 3686,
      "逗": 3687,
      "通": 3688,
      "逛": 3689,
      "逝": 3690,
      "逞": 3691,
      "速": 3692,
      "造": 3693,
      "逢": 3694,
      "逮": 3695,
      "週": 3696,
      "進": 3697,
      "逸": 3698,
      "逻": 3699,
      "逼": 3700,
      "逾": 3701,
      "遁": 3702,
      "遂": 3703,
      "遇": 3704,
      "運": 3705,
      "遍": 3706,
      "遏": 3707,
      "道": 3708,
      "達": 3709,
      "遗": 3710,
      "遛": 3711,
      "遠": 3712,
      "遣": 3713,
      "遥": 3714,
      "遭": 3715,
      "遮": 3716,
      "遴": 3717,
      "遵": 3718,
      "選": 3719,
      "遺": 3720,
      "避": 3721,
      "邀": 3722,
      "邁": 3723,
      "邂": 3724,
      "邊": 3725,
      "邏": 3726,
      "邓": 3727,
      "邡": 3728,
      "那": 3729,
      "邦": 3730,
      "邪": 3731,
      "邮": 3732,
      "邱": 3733,
      "邳": 3734,
      "邸": 3735,
      "邹": 3736,
      "邻": 3737,
      "郁": 3738,
      "郇": 3739,
      "郊": 3740,
      "郎": 3741,
      "郑": 3742,
      "郡": 3743,
      "部": 3744,
      "郭": 3745,
      "都": 3746,
      "鄂": 3747,
      "鄉": 3748,
      "鄙": 3749,
      "鄧": 3750,
      "酊": 3751,
      "酋": 3752,
      "酌": 3753,
      "配": 3754,
      "酐": 3755,
      "酒": 3756,
      "酗": 3757,
      "酚": 3758,
      "酝": 3759,
      "酣": 3760,
      "酩": 3761,
      "酪": 3762,
      "酬": 3763,
      "酮": 3764,
      "酯": 3765,
      "酰": 3766,
      "酱": 3767,
      "酵": 3768,
      "酶": 3769,
      "酷": 3770,
      "酸": 3771,
      "酿": 3772,
      "醇": 3773,
      "醉": 3774,
      "醋": 3775,
      "醒": 3776,
      "醚": 3777,
      "醛": 3778,
      "采": 3779,
      "釉": 3780,
      "释": 3781,
      "里": 3782,
      "重": 3783,
      "野": 3784,
      "量": 3785,
      "金": 3786,
      "鈴": 3787,
      "鉴": 3788,
      "銃": 3789,
      "銅": 3790,
      "銩": 3791,
      "銳": 3792,
      "錄": 3793,
      "錐": 3794,
      "錡": 3795,
      "錦": 3796,
      "錶": 3797,
      "鎮": 3798,
      "鐵": 3799,
      "鑲": 3800,
      "鑼": 3801,
      "针": 3802,
      "钉": 3803,
      "钒": 3804,
      "钓": 3805,
      "钙": 3806,
      "钛": 3807,
      "钝": 3808,
      "钞": 3809,
      "钟": 3810,
      "钠": 3811,
      "钢": 3812,
      "钥": 3813,
      "钦": 3814,
      "钨": 3815,
      "钩": 3816,
      "钮": 3817,
      "钱": 3818,
      "钳": 3819,
      "钴": 3820,
      "钵": 3821,
      "钹": 3822,
      "钻": 3823,
      "钼": 3824,
      "钾": 3825,
      "铀": 3826,
      "铁": 3827,
      "铂": 3828,
      "铃": 3829,
      "铅": 3830,
      "铉": 3831,
      "铐": 3832,
      "铜": 3833,
      "铝": 3834,
      "铬": 3835,
      "铭": 3836,
      "铰": 3837,
      "铱": 3838,
      "铲": 3839,
      "银": 3840,
      "铸": 3841,
      "铺": 3842,
      "链": 3843,
      "销": 3844,
      "锁": 3845,
      "锄": 3846,
      "锅": 3847,
      "锇": 3848,
      "锈": 3849,
      "锋": 3850,
      "锌": 3851,
      "锐": 3852,
      "错": 3853,
      "锚": 3854,
      "锡": 3855,
      "锢": 3856,
      "锤": 3857,
      "锥": 3858,
      "锦": 3859,
      "键": 3860,
      "锯": 3861,
      "锰": 3862,
      "锻": 3863,
      "镁": 3864,
      "镅": 3865,
      "镇": 3866,
      "镍": 3867,
      "镑": 3868,
      "镜": 3869,
      "镣": 3870,
      "镭": 3871,
      "镯": 3872,
      "镶": 3873,
      "長": 3874,
      "长": 3875,
      "門": 3876,
      "閃": 3877,
      "閉": 3878,
      "間": 3879,
      "關": 3880,
      "门": 3881,
      "闩": 3882,
      "闪": 3883,
      "闭": 3884,
      "问": 3885,
      "闯": 3886,
      "闲": 3887,
      "间": 3888,
      "闷": 3889,
      "闸": 3890,
      "闹": 3891,
      "闺": 3892,
      "闻": 3893,
      "闽": 3894,
      "阀": 3895,
      "阁": 3896,
      "阅": 3897,
      "阈": 3898,
      "阐": 3899,
      "阑": 3900,
      "阔": 3901,
      "队": 3902,
      "阪": 3903,
      "阱": 3904,
      "防": 3905,
      "阳": 3906,
      "阴": 3907,
      "阵": 3908,
      "阶": 3909,
      "阻": 3910,
      "阿": 3911,
      "陀": 3912,
      "附": 3913,
      "际": 3914,
      "陆": 3915,
      "陈": 3916,
      "陋": 3917,
      "陌": 3918,
      "降": 3919,
      "限": 3920,
      "陕": 3921,
      "陛": 3922,
      "陡": 3923,
      "院": 3924,
      "除": 3925,
      "陨": 3926,
      "险": 3927,
      "陪": 3928,
      "陳": 3929,
      "陵": 3930,
      "陶": 3931,
      "陷": 3932,
      "隅": 3933,
      "隆": 3934,
      "隊": 3935,
      "隋": 3936,
      "階": 3937,
      "随": 3938,
      "隐": 3939,
      "隔": 3940,
      "隘": 3941,
      "隙": 3942,
      "際": 3943,
      "障": 3944,
      "隧": 3945,
      "隶": 3946,
      "难": 3947,
      "雀": 3948,
      "雁": 3949,
      "雄": 3950,
      "雅": 3951,
      "集": 3952,
      "雇": 3953,
      "雌": 3954,
      "雏": 3955,
      "雕": 3956,
      "雙": 3957,
      "難": 3958,
      "雨": 3959,
      "雪": 3960,
      "雳": 3961,
      "零": 3962,
      "雷": 3963,
      "雹": 3964,
      "電": 3965,
      "雾": 3966,
      "需": 3967,
      "震": 3968,
      "霉": 3969,
      "霍": 3970,
      "霓": 3971,
      "霜": 3972,
      "霞": 3973,
      "霭": 3974,
      "露": 3975,
      "霸": 3976,
      "霹": 3977,
      "霾": 3978,
      "靈": 3979,
      "青": 3980,
      "靓": 3981,
      "靖": 3982,
      "静": 3983,
      "靜": 3984,
      "非": 3985,
      "靠": 3986,
      "靡": 3987,
      "面": 3988,
      "革": 3989,
      "靴": 3990,
      "靶": 3991,
      "靼": 3992,
      "鞋": 3993,
      "鞑": 3994,
      "鞘": 3995,
      "鞣": 3996,
      "鞭": 3997,
      "韋": 3998,
      "韓": 3999,
      "韦": 4000,
      "韧": 4001,
      "韩": 4002,
      "音": 4003,
      "韵": 4004,
      "響": 4005,
      "頓": 4006,
      "領": 4007,
      "頭": 4008,
      "頻": 4009,
      "顛": 4010,
      "類": 4011,
      "顧": 4012,
      "页": 4013,
      "顶": 4014,
      "顷": 4015,
      "项": 4016,
      "顺": 4017,
      "须": 4018,
      "顽": 4019,
      "顾": 4020,
      "顿": 4021,
      "颁": 4022,
      "颂": 4023,
      "预": 4024,
      "颅": 4025,
      "领": 4026,
      "颇": 4027,
      "颈": 4028,
      "颊": 4029,
      "颌": 4030,
      "颐": 4031,
      "频": 4032,
      "颖": 4033,
      "颗": 4034,
      "题": 4035,
      "颚": 4036,
      "颜": 4037,
      "额": 4038,
      "颞": 4039,
      "颠": 4040,
      "颤": 4041,
      "颧": 4042,
      "風": 4043,
      "颱": 4044,
      "风": 4045,
      "飓": 4046,
      "飕": 4047,
      "飘": 4048,
      "飙": 4049,
      "飞": 4050,
      "食": 4051,
      "飲": 4052,
      "餅": 4053,
      "餐": 4054,
      "館": 4055,
      "饥": 4056,
      "饨": 4057,
      "饪": 4058,
      "饭": 4059,
      "饮": 4060,
      "饯": 4061,
      "饰": 4062,
      "饱": 4063,
      "饲": 4064,
      "饵": 4065,
      "饶": 4066,
      "饺": 4067,
      "饼": 4068,
      "饿": 4069,
      "馀": 4070,
      "馄": 4071,
      "馅": 4072,
      "馆": 4073,
      "馈": 4074,
      "馊": 4075,
      "馏": 4076,
      "首": 4077,
      "香": 4078,
      "馨": 4079,
      "馬": 4080,
      "馮": 4081,
      "駐": 4082,
      "驅": 4083,
      "马": 4084,
      "驭": 4085,
      "驮": 4086,
      "驯": 4087,
      "驰": 4088,
      "驱": 4089,
      "驳": 4090,
      "驴": 4091,
      "驶": 4092,
      "驹": 4093,
      "驻": 4094,
      "驼": 4095,
      "驾": 4096,
      "骂": 4097,
      "骄": 4098,
      "骆": 4099,
      "验": 4100,
      "骑": 4101,
      "骗": 4102,
      "骚": 4103,
      "骞": 4104,
      "骡": 4105,
      "骤": 4106,
      "骨": 4107,
      "骷": 4108,
      "骸": 4109,
      "骼": 4110,
      "髅": 4111,
      "髓": 4112,
      "體": 4113,
      "高": 4114,
      "髦": 4115,
      "鬃": 4116,
      "鬚": 4117,
      "鬼": 4118,
      "魁": 4119,
      "魂": 4120,
      "魄": 4121,
      "魅": 4122,
      "魇": 4123,
      "魏": 4124,
      "魔": 4125,
      "魚": 4126,
      "魯": 4127,
      "鮋": 4128,
      "鮑": 4129,
      "鮡": 4130,
      "鮫": 4131,
      "鯛": 4132,
      "鯰": 4133,
      "鯿": 4134,
      "鰧": 4135,
      "鰻": 4136,
      "鱂": 4137,
      "鱥": 4138,
      "鱲": 4139,
      "鱸": 4140,
      "鱼": 4141,
      "鲁": 4142,
      "鲍": 4143,
      "鲑": 4144,
      "鲜": 4145,
      "鲨": 4146,
      "鲸": 4147,
      "鳄": 4148,
      "鳅": 4149,
      "鳌": 4150,
      "鳏": 4151,
      "鳕": 4152,
      "鳖": 4153,
      "鳗": 4154,
      "鳥": 4155,
      "鸟": 4156,
      "鸡": 4157,
      "鸣": 4158,
      "鸦": 4159,
      "鸪": 4160,
      "鸭": 4161,
      "鸽": 4162,
      "鸿": 4163,
      "鹃": 4164,
      "鹅": 4165,
      "鹉": 4166,
      "鹌": 4167,
      "鹑": 4168,
      "鹛": 4169,
      "鹤": 4170,
      "鹦": 4171,
      "鹧": 4172,
      "鹫": 4173,
      "鹬": 4174,
      "鹰": 4175,
      "鹽": 4176,
      "鹿": 4177,
      "麒": 4178,
      "麝": 4179,
      "麥": 4180,
      "麦": 4181,
      "麸": 4182,
      "麹": 4183,
      "麻": 4184,
      "麽": 4185,
      "黄": 4186,
      "黎": 4187,
      "黏": 4188,
      "黑": 4189,
      "黔": 4190,
      "默": 4191,
      "黛": 4192,
      "黜": 4193,
      "黝": 4194,
      "黨": 4195,
      "黯": 4196,
      "鼎": 4197,
      "鼓": 4198,
      "鼠": 4199,
      "鼩": 4200,
      "鼹": 4201,
      "鼻": 4202,
      "鼾": 4203,
      "齊": 4204,
      "齐": 4205,
      "齿": 4206,
      "龄": 4207,
      "龈": 4208,
      "龋": 4209,
      "龍": 4210,
      "龙": 4211,
      "龚": 4212,
      "龟": 4213,
      "": 4214,
      "": 4215,
      "": 4216,
      "": 4217,
      "": 4218,
      "": 4219,
      "": 4220,
      "": 4221,
      "": 4222,
      "": 4223,
      "": 4224,
      "": 4225,
      "": 4226,
      "": 4227,
      "": 4228,
      "": 4229,
      "": 4230,
      "︰": 4231,
      "﹐": 4232,
      "﹑": 4233,
      "！": 4234,
      "％": 4235,
      "（": 4236,
      "）": 4237,
      "＊": 4238,
      "＋": 4239,
      "，": 4240,
      "－": 4241,
      "．": 4242,
      "／": 4243,
      "０": 4244,
      "１": 4245,
      "２": 4246,
      "３": 4247,
      "４": 4248,
      "５": 4249,
      "６": 4250,
      "７": 4251,
      "８": 4252,
      "９": 4253,
      "：": 4254,
      "；": 4255,
      "？": 4256,
      "Ａ": 4257,
      "Ｃ": 4258,
      "Ｇ": 4259,
      "Ｈ": 4260,
      "Ｏ": 4261,
      "Ｔ": 4262,
      "Ｗ": 4263,
      "Ｘ": 4264,
      "Ｙ": 4265,
      "［": 4266,
      "］": 4267,
      "ａ": 4268,
      "ｂ": 4269,
      "ｅ": 4270,
      "ｇ": 4271,
      "ｈ": 4272,
      "ｋ": 4273,
      "ｏ": 4274,
      "ｔ": 4275,
      "ｕ": 4276,
      "ｖ": 4277,
      "～": 4278,
      "￡": 4279,
      "￥": 4280,
      "�": 4281,
      "20": 4282,
      "国家": 4283,
      "委员": 4284,
      "委员会": 4285,
      "问题": 4286,
      "200": 4287,
      "会议": 4288,
      "工作": 4289,
      "联合": 4290,
      "发展": 4291,
      "国际": 4292,
      "联合国": 4293,
      "组织": 4294,
      "一个": 4295,
      "我们": 4296,
      "19": 4297,
      "提供": 4298,
      "报告": 4299,
      "政府": 4300,
      "方面": 4301,
      "以及": 4302,
      "社会": 4303,
      "这些": 4304,
      "进行": 4305,
      "关于": 4306,
      "其他": 4307,
      "包括": 4308,
      "机构": 4309,
      "通过": 4310,
      "情况": 4311,
      "经济": 4312,
      "行动": 4313,
      "执行": 4314,
      "特别": 4315,
      "有关": 4316,
      "代表": 4317,
      "方案": 4318,
      "妇女": 4319,
      "他们": 4320,
      "安全": 4321,
      "活动": 4322,
      "人权": 4323,
      "所有": 4324,
      "人员": 4325,
      "10": 4326,
      "199": 4327,
      "公约": 4328,
      "没有": 4329,
      "12": 4330,
      "合作": 4331,
      "建议": 4332,
      "可以": 4333,
      "可能": 4334,
      "缔约": 4335,
      "规定": 4336,
      "项目": 4337,
      "决议": 4338,
      "管理": 4339,
      "秘书": 4340,
      "技术": 4341,
      "区域": 4342,
      "重要": 4343,
      "儿童": 4344,
      "需要": 4345,
      "这一": 4346,
      "根据": 4347,
      "必须": 4348,
      "00": 4349,
      "大会": 4350,
      "权利": 4351,
      "计划": 4352,
      "支持": 4353,
      "法律": 4354,
      "世界": 4355,
      "措施": 4356,
      "系统": 4357,
      "采取": 4358,
      "11": 4359,
      "保护": 4360,
      "政策": 4361,
      "提出": 4362,
      "和平": 4363,
      "事会": 4364,
      "决定": 4365,
      "服务": 4366,
      "认为": 4367,
      "继续": 4368,
      "研究": 4369,
      "影响": 4370,
      "理事会": 4371,
      "主义": 4372,
      "加强": 4373,
      "环境": 4374,
      "促进": 4375,
      "基金": 4376,
      "行为": 4377,
      "教育": 4378,
      "努力": 4379,
      "要求": 4380,
      "资源": 4381,
      "缔约国": 4382,
      "一些": 4383,
      "任何": 4384,
      "目标": 4385,
      "使用": 4386,
      "--": 4387,
      "成员": 4388,
      "的人": 4389,
      "这种": 4390,
      "确保": 4391,
      "能力": 4392,
      "主要": 4393,
      "这个": 4394,
      "注意": 4395,
      "已经": 4396,
      "地区": 4397,
      "15": 4398,
      "部门": 4399,
      "13": 4400,
      "和国": 4401,
      "人民": 4402,
      "建立": 4403,
      "因为": 4404,
      "实现": 4405,
      "作为": 4406,
      "信息": 4407,
      "援助": 4408,
      "的一": 4409,
      "因此": 4410,
      "解决": 4411,
      "如果": 4412,
      "部分": 4413,
      "共和国": 4414,
      "中国": 4415,
      "主席": 4416,
      "增加": 4417,
      "协调": 4418,
      "全球": 4419,
      "作出": 4420,
      "提交": 4421,
      "参与": 4422,
      "有效": 4423,
      "之间": 4424,
      "美元": 4425,
      "非洲": 4426,
      "领域": 4427,
      "届会议": 4428,
      "各国": 4429,
      "秘书长": 4430,
      "人的": 4431,
      "审查": 4432,
      "考虑": 4433,
      "持续": 4434,
      "开展": 4435,
      "号决议": 4436,
      "政治": 4437,
      "斯坦": 4438,
      "战略": 4439,
      "获得": 4440,
      "14": 4441,
      "月2": 4442,
      "关系": 4443,
      "审议": 4444,
      "美国": 4445,
      "讨论": 4446,
      "实施": 4447,
      "武器": 4448,
      "自己": 4449,
      "的是": 4450,
      "举行": 4451,
      "正在": 4452,
      "第二": 4453,
      "方面的": 4454,
      "行政": 4455,
      "表示": 4456,
      "方法": 4457,
      "得到": 4458,
      "程序": 4459,
      "基础": 4460,
      "期间": 4461,
      "的工作": 4462,
      "相关": 4463,
      "能够": 4464,
      "公司": 4465,
      "作用": 4466,
      "指出": 4467,
      "调查": 4468,
      "支助": 4469,
      "同时": 4470,
      "目前": 4471,
      "文件": 4472,
      "中心": 4473,
      "法院": 4474,
      "8年": 4475,
      "家庭": 4476,
      "特别是": 4477,
      "16": 4478,
      "数据": 4479,
      "预算": 4480,
      "9年": 4481,
      "发言": 4482,
      "犯罪": 4483,
      "事务": 4484,
      "什么": 4485,
      "5年": 4486,
      "其中": 4487,
      "贸易": 4488,
      "发展中": 4489,
      "处理": 4490,
      "提高": 4491,
      "培训": 4492,
      "小组": 4493,
      "由于": 4494,
      "意见": 4495,
      "18": 4496,
      "但是": 4497,
      "制定": 4498,
      "它们": 4499,
      "确定": 4500,
      "任务": 4501,
      "强调": 4502,
      "机制": 4503,
      "注意到": 4504,
      "专家": 4505,
      "许多": 4506,
      "开始": 4507,
      "进程": 4508,
      "平等": 4509,
      "原则": 4510,
      "资料": 4511,
      "时间": 4512,
      "一步": 4513,
      "中的": 4514,
      "生活": 4515,
      "代表团": 4516,
      "人口": 4517,
      "利亚": 4518,
      "暴力": 4519,
      "尼亚": 4520,
      "标准": 4521,
      "歧视": 4522,
      "共同": 4523,
      "框架": 4524,
      "不是": 4525,
      "利用": 4526,
      "各种": 4527,
      "发展中国家": 4528,
      "办法": 4529,
      "投资": 4530,
      "必要": 4531,
      "分析": 4532,
      "自由": 4533,
      "发生": 4534,
      "取得": 4535,
      "第一": 4536,
      "文化": 4537,
      "现在": 4538,
      "存在": 4539,
      "成为": 4540,
      "方式": 4541,
      "草案": 4542,
      "参加": 4543,
      "具有": 4544,
      "制度": 4545,
      "30": 4546,
      "这样": 4547,
      "7年": 4548,
      "用于": 4549,
      "生产": 4550,
      "的问题": 4551,
      "部队": 4552,
      "开发": 4553,
      "此外": 4554,
      "评估": 4555,
      "伙伴": 4556,
      "冲突": 4557,
      "基本": 4558,
      "应当": 4559,
      "条约": 4560,
      "而且": 4561,
      "进一步": 4562,
      "建设": 4563,
      "以便": 4564,
      "新的": 4565,
      "议程": 4566,
      "机会": 4567,
      "的情况": 4568,
      "了一": 4569,
      "他的": 4570,
      "先生": 4571,
      "范围": 4572,
      "安全理事会": 4573,
      "减少": 4574,
      "接受": 4575,
      "秘书处": 4576,
      "不同": 4577,
      "对于": 4578,
      "司法": 4579,
      "特派": 4580,
      "结果": 4581,
      "会员": 4582,
      "3年": 4583,
      "欧洲": 4584,
      "的国家": 4585,
      "0年": 4586,
      "严重": 4587,
      "资金": 4588,
      "具体": 4589,
      "责任": 4590,
      "造成": 4591,
      "充分": 4592,
      "和其他": 4593,
      "及其": 4594,
      "应该": 4595,
      "设施": 4596,
      "不能": 4597,
      "问题的": 4598,
      "市场": 4599,
      "希望": 4600,
      "适当": 4601,
      "可持续": 4602,
      "会员国": 4603,
      "企业": 4604,
      "地方": 4605,
      "工作人员": 4606,
      "为了": 4607,
      "条件": 4608,
      "6年": 4609,
      "产生": 4610,
      "的报告": 4611,
      "4年": 4612,
      "特派团": 4613,
      "控制": 4614,
      "负责": 4615,
      "高级": 4616,
      "1日": 4617,
      "说明": 4618,
      "一种": 4619,
      "业务": 4620,
      "性别": 4621,
      "是否": 4622,
      "道主义": 4623,
      "如何": 4624,
      "民主": 4625,
      "公共": 4626,
      "维持": 4627,
      "费用": 4628,
      "工作组": 4629,
      "义务": 4630,
      "进展": 4631,
      "全面": 4632,
      "办事": 4633,
      "大的": 4634,
      "各项": 4635,
      "消除": 4636,
      "难民": 4637,
      "利益": 4638,
      "咨询": 4639,
      "知道": 4640,
      "卫生": 4641,
      "议定": 4642,
      "非常": 4643,
      "国内": 4644,
      "就是": 4645,
      "办事处": 4646,
      "做法": 4647,
      "在这": 4648,
      "办公": 4649,
      "变化": 4650,
      "实际": 4651,
      "并且": 4652,
      "第三": 4653,
      "17": 4654,
      "12月": 4655,
      "我的": 4656,
      "按照": 4657,
      "以下": 4658,
      "改革": 4659,
      "2年": 4660,
      "增长": 4661,
      "形式": 4662,
      "第2": 4663,
      "一项": 4664,
      "健康": 4665,
      "认识": 4666,
      "这是": 4667,
      "帮助": 4668,
      "2005年": 4669,
      "个人": 4670,
      "例如": 4671,
      "鼓励": 4672,
      "议定书": 4673,
      ")。": 4674,
      "承诺": 4675,
      "监督": 4676,
      "积极": 4677,
      "以色": 4678,
      "批准": 4679,
      "人道主义": 4680,
      "尽管": 4681,
      "欢迎": 4682,
      "协助": 4683,
      "协定": 4684,
      "联盟": 4685,
      "以色列": 4686,
      "规划": 4687,
      "银行": 4688,
      "你的": 4689,
      "受到": 4690,
      "滋病": 4691,
      "1年": 4692,
      "无法": 4693,
      "目的": 4694,
      "艾滋病": 4695,
      "办公室": 4696,
      "尤其": 4697,
      "独立": 4698,
      "直接": 4699,
      "上的": 4700,
      "过程": 4701,
      "完成": 4702,
      "恐怖": 4703,
      "时候": 4704,
      "最后": 4705,
      "法庭": 4706,
      "科学": 4707,
      "安排": 4708,
      "事项": 4709,
      "2010": 4710,
      "一般": 4711,
      "关切": 4712,
      "设立": 4713,
      "限制": 4714,
      "缔约方": 4715,
      "之后": 4716,
      "人们": 4717,
      "涉及": 4718,
      "表明": 4719,
      "勒斯坦": 4720,
      "巴勒斯坦": 4721,
      "稳定": 4722,
      "仍然": 4723,
      "地位": 4724,
      "正式": 4725,
      "风险": 4726,
      "打击": 4727,
      "更多": 4728,
      "裁军": 4729,
      "以来": 4730,
      "性的": 4731,
      "预防": 4732,
      "25": 4733,
      "改善": 4734,
      "领导": 4735,
      "000": 4736,
      "谈判": 4737,
      "内的": 4738,
      "出现": 4739,
      "种族": 4740,
      "观察": 4741,
      "采用": 4742,
      "残疾": 4743,
      "一致": 4744,
      "次会议": 4745,
      "成果": 4746,
      "监测": 4747,
      "结构": 4748,
      "联邦": 4749,
      "当局": 4750,
      "之间的": 4751,
      "优先": 4752,
      "过去": 4753,
      "第5": 4754,
      "第6": 4755,
      "评价": 4756,
      "审计": 4757,
      "比亚": 4758,
      "状况": 4759,
      "立法": 4760,
      "两个": 4761,
      "协商": 4762,
      "现有": 4763,
      "财政": 4764,
      "领土": 4765,
      "收入": 4766,
      "理会": 4767,
      "知识": 4768,
      "罗斯": 4769,
      "那些": 4770,
      "有关的": 4771,
      "空间": 4772,
      "综合": 4773,
      "6月": 4774,
      "受害": 4775,
      "履行": 4776,
      "第五": 4777,
      "第四": 4778,
      "选举": 4779,
      "重申": 4780,
      "2011": 4781,
      "安理会": 4782,
      "专门": 4783,
      "国家的": 4784,
      "俄罗斯": 4785,
      "刑事": 4786,
      "推动": 4787,
      "规则": 4788,
      "金融": 4789,
      "保障": 4790,
      "关注": 4791,
      "就业": 4792,
      "某些": 4793,
      "军事": 4794,
      "2012": 4795,
      "人类": 4796,
      "挑战": 4797,
      "2008年": 4798,
      "印度": 4799,
      "禁止": 4800,
      "第六": 4801,
      "针对": 4802,
      "非政府": 4803,
      "不会": 4804,
      "最近": 4805,
      "全国": 4806,
      "原因": 4807,
      "或者": 4808,
      "纳入": 4809,
      "选择": 4810,
      "城市": 4811,
      "成功": 4812,
      "社区": 4813,
      "第十": 4814,
      "组织的": 4815,
      "之前": 4816,
      "违反": 4817,
      "需求": 4818,
      "同意": 4819,
      "星期": 4820,
      "第3": 4821,
      "土著": 4822,
      "广泛": 4823,
      "然而": 4824,
      "第4": 4825,
      "警察": 4826,
      "设计": 4827,
      "2009年": 4828,
      "上述": 4829,
      "武装": 4830,
      "虽然": 4831,
      "2010年": 4832,
      "介绍": 4833,
      "保持": 4834,
      "所需": 4835,
      "来自": 4836,
      "统计": 4837,
      "24": 4838,
      "内容": 4839,
      "集团": 4840,
      "产品": 4841,
      "危机": 4842,
      "总统": 4843,
      "申请": 4844,
      "经验": 4845,
      "者的": 4846,
      "非法": 4847,
      "自己的": 4848,
      "之一": 4849,
      "事件": 4850,
      "协议": 4851,
      "导致": 4852,
      "材料": 4853,
      "案件": 4854,
      "恐怖主义": 4855,
      "呼吁": 4856,
      "因素": 4857,
      "宣言": 4858,
      "扩大": 4859,
      "程度": 4860,
      "一切": 4861,
      "一直": 4862,
      "保证": 4863,
      "国的": 4864,
      "学生": 4865,
      "年度": 4866,
      "报告员": 4867,
      "9月": 4868,
      "发挥": 4869,
      "是在": 4870,
      "是一个": 4871,
      "结束": 4872,
      "阿拉": 4873,
      "2007年": 4874,
      "临时": 4875,
      "威胁": 4876,
      "防止": 4877,
      "提供了": 4878,
      "提出的": 4879,
      "保健": 4880,
      "多数": 4881,
      "的影响": 4882,
      "2006年": 4883,
      "一次": 4884,
      "到了": 4885,
      "土地": 4886,
      "组成": 4887,
      "经费": 4888,
      "还有": 4889,
      "专业": 4890,
      "指导": 4891,
      "的一个": 4892,
      "自然": 4893,
      "长期": 4894,
      "）。": 4895,
      "他们的": 4896,
      "的重要": 4897,
      "两年": 4898,
      "明确": 4899,
      "生物": 4900,
      "符合": 4901,
      "请求": 4902,
      "适用": 4903,
      "2000年": 4904,
      "的最": 4905,
      "群体": 4906,
      "联系": 4907,
      "遵守": 4908,
      "2003年": 4909,
      "国际社会": 4910,
      "规定的": 4911,
      "不可": 4912,
      "制订": 4913,
      "助于": 4914,
      "发现": 4915,
      "更加": 4916,
      "气候": 4917,
      "面临": 4918,
      "2013": 4919,
      "一样": 4920,
      "发达": 4921,
      "普遍": 4922,
      "结论": 4923,
      "附件": 4924,
      "2002年": 4925,
      "不过": 4926,
      "公民": 4927,
      "大学": 4928,
      "定期": 4929,
      "应对": 4930,
      "新闻": 4931,
      "财务": 4932,
      "运动": 4933,
      "定的": 4934,
      "委员会的": 4935,
      "不得": 4936,
      "了解": 4937,
      "显示": 4938,
      "粮食": 4939,
      "这项": 4940,
      "国际法": 4941,
      "2011年": 4942,
      "非政府组织": 4943,
      "50": 4944,
      "内部": 4945,
      "外交": 4946,
      "好的": 4947,
      "工程": 4948,
      "来的": 4949,
      "》，": 4950,
      "你们": 4951,
      "准则": 4952,
      "完全": 4953,
      "拉克": 4954,
      "我们的": 4955,
      "阿拉伯": 4956,
      "7月": 4957,
      "质量": 4958,
      "只有": 4959,
      "的规定": 4960,
      "经常": 4961,
      "重点": 4962,
      "提供的": 4963,
      "重要的": 4964,
      "2012年": 4965,
      "十分": 4966,
      "论坛": 4967,
      "伙伴关系": 4968,
      "侵犯": 4969,
      "学校": 4970,
      "宪法": 4971,
      "计算": 4972,
      "很多": 4973,
      "重新": 4974,
      "26": 4975,
      "专员": 4976,
      "合同": 4977,
      "出口": 4978,
      "反对": 4979,
      "条款": 4980,
      "发展目标": 4981,
      "同样": 4982,
      "的权利": 4983,
      "设备": 4984,
      "伊拉克": 4985,
      "千年": 4986,
      "当地": 4987,
      "感到": 4988,
      "整个": 4989,
      "旨在": 4990,
      "的主要": 4991,
      "网络": 4992,
      "该国": 4993,
      "重大": 4994,
      "特别报告员": 4995,
      "尤其是": 4996,
      "今天": 4997,
      "商业": 4998,
      "有助于": 4999,
      "美洲": 5000,
      "活动的": 5001,
      "农业": 5002,
      "孩子": 5003,
      "我国": 5004,
      "能源": 5005,
      "起来": 5006,
      "2004年": 5007,
      "工作的": 5008,
      "令人": 5009,
      "和社会": 5010,
      "日至": 5011,
      "民族": 5012,
      "阶段": 5013,
      "2001年": 5014,
      "联合国系统": 5015,
      "事实": 5016,
      "官员": 5017,
      "承认": 5018,
      "拥有": 5019,
      "给予": 5020,
      "实体": 5021,
      "下列": 5022,
      "不断": 5023,
      "价值": 5024,
      "估计": 5025,
      "会议的": 5026,
      "从而": 5027,
      "关键": 5028,
      "局势": 5029,
      "捐助": 5030,
      "日本": 5031,
      "登记": 5032,
      "竞争": 5033,
      "若干": 5034,
      "贡献": 5035,
      "部长": 5036,
      "22": 5037,
      "医疗": 5038,
      "工业": 5039,
      "所以": 5040,
      "而言": 5041,
      "达成": 5042,
      "举行的": 5043,
      "维持和平": 5044,
      "工具": 5045,
      "缺乏": 5046,
      "证明": 5047,
      "1月": 5048,
      "5月": 5049,
      "劳动": 5050,
      "改进": 5051,
      "死亡": 5052,
      "的国际": 5053,
      "编制": 5054,
      "西亚": 5055,
      "鉴于": 5056,
      "198": 5057,
      "进行了": 5058,
      "在这方面": 5059,
      "传统": 5060,
      "分配": 5061,
      "加入": 5062,
      "建筑": 5063,
      "本国": 5064,
      "水平": 5065,
      "法官": 5066,
      "维护": 5067,
      "个月": 5068,
      "富汗": 5069,
      "对话": 5070,
      "现象": 5071,
      "苏丹": 5072,
      "阿富汗": 5073,
      "青年": 5074,
      "采取的": 5075,
      "40": 5076,
      "一起": 5077,
      "做出": 5078,
      "到的": 5079,
      "危险": 5080,
      "恢复": 5081,
      "拘留": 5082,
      "构成": 5083,
      "核心": 5084,
      "检查": 5085,
      "2013年": 5086,
      "并不": 5087,
      "来说": 5088,
      "进入": 5089,
      "考虑到": 5090,
      "可持续发展": 5091,
      "21": 5092,
      "倡议": 5093,
      "准备": 5094,
      "和国际": 5095,
      "实行": 5096,
      "电子": 5097,
      "落实": 5098,
      "采购": 5099,
      "机构的": 5100,
      "基金会": 5101,
      "23": 5102,
      "也是": 5103,
      "女性": 5104,
      "宗教": 5105,
      "特殊": 5106,
      "解释": 5107,
      "避免": 5108,
      "3月": 5109,
      "供应": 5110,
      "困难": 5111,
      "如此": 5112,
      "支付": 5113,
      "有些": 5114,
      "的所有": 5115,
      "确认": 5116,
      "访问": 5117,
      "贩运": 5118,
      "1999年": 5119,
      "价格": 5120,
      "大量": 5121,
      "尊重": 5122,
      "核武器": 5123,
      "补充": 5124,
      "通知": 5125,
      "27": 5126,
      "占领": 5127,
      "性和": 5128,
      "所述": 5129,
      "民间": 5130,
      "10月": 5131,
      "受害者": 5132,
      "4月": 5133,
      "为此": 5134,
      "十年": 5135,
      "在其": 5136,
      "外国": 5137,
      "记录": 5138,
      "列入": 5139,
      "力的": 5140,
      "数量": 5141,
      "文书": 5142,
      "移民": 5143,
      "资产": 5144,
      "应用": 5145,
      "指标": 5146,
      "签署": 5147,
      "议会": 5148,
      "马里": 5149,
      "1998年": 5150,
      "第六十": 5151,
      "各方": 5152,
      "成立": 5153,
      "的能力": 5154,
      "规模": 5155,
      "还是": 5156,
      "主管": 5157,
      "举办": 5158,
      "大多数": 5159,
      "意义": 5160,
      "战争": 5161,
      "来源": 5162,
      "治疗": 5163,
      "允许": 5164,
      "农村": 5165,
      "基于": 5166,
      "的发展": 5167,
      "的努力": 5168,
      "职业": 5169,
      "证据": 5170,
      "身份": 5171,
      "那么": 5172,
      "一级": 5173,
      "扩散": 5174,
      "贫穷": 5175,
      "主题": 5176,
      "的基础": 5177,
      "达到": 5178,
      "除了": 5179,
      "议程项目": 5180,
      "两年期": 5181,
      "化学": 5182,
      "发表": 5183,
      "她的": 5184,
      "感谢": 5185,
      "理由": 5186,
      "编写": 5187,
      "调整": 5188,
      "运输": 5189,
      "通过的": 5190,
      "——": 5191,
      "不仅": 5192,
      "交易": 5193,
      "多边": 5194,
      "宣传": 5195,
      "少数": 5196,
      "申诉": 5197,
      "职能": 5198,
      "超过": 5199,
      "都是": 5200,
      "妇女和": 5201,
      "11月": 5202,
      ")；": 5203,
      "在本": 5204,
      "宪章": 5205,
      "概念": 5206,
      "消费": 5207,
      "情况下": 5208,
      "%。": 5209,
      "交流": 5210,
      "单位": 5211,
      "的经济": 5212,
      "的法律": 5213,
      "系列": 5214,
      "纲领": 5215,
      "贫困": 5216,
      "进行的": 5217,
      "计划署": 5218,
      "的情况下": 5219,
      "认识到": 5220,
      "29": 5221,
      "亚洲": 5222,
      "今后": 5223,
      "反映": 5224,
      "宣布": 5225,
      "支出": 5226,
      "改变": 5227,
      "精神": 5228,
      "和平与": 5229,
      ")，": 5230,
      "28": 5231,
      "另一": 5232,
      "另外": 5233,
      "总部": 5234,
      "模式": 5235,
      "满足": 5236,
      "维亚": 5237,
      "自愿": 5238,
      "了一个": 5239,
      "以前": 5240,
      "保留": 5241,
      "创造": 5242,
      "合法": 5243,
      "告诉": 5244,
      "品和": 5245,
      "母亲": 5246,
      "的政策": 5247,
      "的任何": 5248,
      "的时候": 5249,
      "看到": 5250,
      "通常": 5251,
      "艾滋病毒": 5252,
      "刚果": 5253,
      "历史": 5254,
      "只是": 5255,
      "团体": 5256,
      "将在": 5257,
      "并在": 5258,
      "有人": 5259,
      "条例": 5260,
      "相互": 5261,
      "管制": 5262,
      "人数": 5263,
      "和发展": 5264,
      "增强": 5265,
      "媒体": 5266,
      "机关": 5267,
      "海洋": 5268,
      "第1": 5269,
      "趋势": 5270,
      "里亚": 5271,
      "阿尔": 5272,
      "障碍": 5273,
      "8月": 5274,
      "一份": 5275,
      "不要": 5276,
      "伊斯": 5277,
      "债务": 5278,
      "反应": 5279,
      "召开": 5280,
      "声明": 5281,
      "提议": 5282,
      "日内": 5283,
      "英语": 5284,
      "观点": 5285,
      "语言": 5286,
      "运作": 5287,
      "首脑": 5288,
      "组织和": 5289,
      "行动计划": 5290,
      "发达国家": 5291,
      "民间社会": 5292,
      "\"。": 5293,
      "下的": 5294,
      "以上": 5295,
      "回顾": 5296,
      "学习": 5297,
      "的方式": 5298,
      "紧急": 5299,
      "执行情况": 5300,
      "妇女的": 5301,
      "气候变化": 5302,
      "一定": 5303,
      "享有": 5304,
      "体系": 5305,
      "公平": 5306,
      "后续": 5307,
      "失所": 5308,
      "她们": 5309,
      "授权": 5310,
      "透明": 5311,
      "成员国": 5312,
      "千年发展目标": 5313,
      "复杂": 5314,
      "寻求": 5315,
      "拟订": 5316,
      "步骤": 5317,
      "私营": 5318,
      "至少": 5319,
      "行的": 5320,
      "部署": 5321,
      "决策": 5322,
      "出版": 5323,
      "如下": 5324,
      "流离": 5325,
      "日内瓦": 5326,
      "流离失所": 5327,
      "31日": 5328,
      "从事": 5329,
      "体制": 5330,
      "多样": 5331,
      "属于": 5332,
      "引起": 5333,
      "手段": 5334,
      "日在": 5335,
      "然后": 5336,
      "生命": 5337,
      "的活动": 5338,
      "课程": 5339,
      "决议草案": 5340,
      "下午": 5341,
      "东西": 5342,
      "协会": 5343,
      "各个": 5344,
      "平均": 5345,
      "此类": 5346,
      "比较": 5347,
      "的作用": 5348,
      "赔偿": 5349,
      "这类": 5350,
      "伊斯兰": 5351,
      "委会": 5352,
      "实质": 5353,
      "电话": 5354,
      "移徙": 5355,
      "至关": 5356,
      "迅速": 5357,
      "香港": 5358,
      "00美元": 5359,
      "基础设施": 5360,
      "加以": 5361,
      "大利亚": 5362,
      "巴嫩": 5363,
      "有限": 5364,
      "澳大利亚": 5365,
      "理解": 5366,
      "造成的": 5367,
      "过程中": 5368,
      "观察员": 5369,
      "2月": 5370,
      "出席": 5371,
      "喜欢": 5372,
      "在内的": 5373,
      "损害": 5374,
      "最高": 5375,
      "顾问": 5376,
      "黎巴嫩": 5377,
      "政府间": 5378,
      "----": 5379,
      "第五十": 5380,
      "不足": 5381,
      "似乎": 5382,
      "合理": 5383,
      "境内": 5384,
      "德国": 5385,
      "我想": 5386,
      "担任": 5387,
      "有权": 5388,
      "的建议": 5389,
      "酷刑": 5390,
      "与会": 5391,
      "依据": 5392,
      "叙利亚": 5393,
      "地点": 5394,
      "愿意": 5395,
      "的方法": 5396,
      "职责": 5397,
      "行使": 5398,
      "重视": 5399,
      "1994年": 5400,
      "34": 5401,
      "一名": 5402,
      "万美元": 5403,
      "他说": 5404,
      "加拿": 5405,
      "捐款": 5406,
      "收集": 5407,
      "未来": 5408,
      "生态": 5409,
      "的机会": 5410,
      "目的是": 5411,
      "立即": 5412,
      "举措": 5413,
      "巴基": 5414,
      "数字": 5415,
      "王国": 5416,
      "而不是": 5417,
      "背景": 5418,
      "贸发": 5419,
      "转让": 5420,
      "，《": 5421,
      "30日": 5422,
      "35": 5423,
      "3日": 5424,
      "45": 5425,
      "6日": 5426,
      "人和": 5427,
      "出了": 5428,
      "巴西": 5429,
      "性质": 5430,
      "成本": 5431,
      "承担": 5432,
      "效率": 5433,
      "敦促": 5434,
      "日期": 5435,
      "最终": 5436,
      "权力": 5437,
      "检察": 5438,
      "纽约": 5439,
      "财产": 5440,
      "起诉": 5441,
      "足够": 5442,
      "提出了": 5443,
      "高级专员": 5444,
      "巴基斯坦": 5445,
      "专题": 5446,
      "两性": 5447,
      "予以": 5448,
      "会计": 5449,
      "再次": 5450,
      "双边": 5451,
      "员额": 5452,
      "地雷": 5453,
      "居民": 5454,
      "提到": 5455,
      "有一个": 5456,
      "每个": 5457,
      "灾害": 5458,
      "班牙": 5459,
      "甚至": 5460,
      "的话": 5461,
      "相当": 5462,
      "索马里": 5463,
      "表现": 5464,
      "西哥": 5465,
      "西班牙": 5466,
      "：“": 5467,
      "行动纲领": 5468,
      "政策和": 5469,
      "》。": 5470,
      "世纪": 5471,
      "事情": 5472,
      "人在": 5473,
      "在此": 5474,
      "墨西哥": 5475,
      "密切": 5476,
      "尚未": 5477,
      "才能": 5478,
      "损失": 5479,
      "日益": 5480,
      "最不": 5481,
      "第9": 5482,
      "筹备": 5483,
      "那个": 5484,
      "非正式": 5485,
      "报告中": 5486,
      "机构和": 5487,
      "能力建设": 5488,
      "第二十": 5489,
      "加拿大": 5490,
      "33": 5491,
      "36": 5492,
      "主任": 5493,
      "保险": 5494,
      "其它": 5495,
      "所作": 5496,
      "探讨": 5497,
      "提案": 5498,
      "收到": 5499,
      "时期": 5500,
      "的研究": 5501,
      "破坏": 5502,
      "统一": 5503,
      "自治": 5504,
      "货物": 5505,
      "100": 5506,
      "1993年": 5507,
      "儿童权利": 5508,
      "范围内": 5509,
      "传播": 5510,
      "依照": 5511,
      "修正": 5512,
      "公众": 5513,
      "出的": 5514,
      "分别": 5515,
      "即使": 5516,
      "失业": 5517,
      "拟议": 5518,
      "森林": 5519,
      "比例": 5520,
      "治理": 5521,
      "经过": 5522,
      "致力": 5523,
      "货币": 5524,
      "适用于": 5525,
      "邀请": 5526,
      "社会和": 5527,
      "公正": 5528,
      "原子": 5529,
      "双方": 5530,
      "后的": 5531,
      "当事": 5532,
      "拒绝": 5533,
      "有利": 5534,
      "本身": 5535,
      "法国": 5536,
      "疾病": 5537,
      "降低": 5538,
      "首先": 5539,
      "197": 5540,
      "系统的": 5541,
      "提交人": 5542,
      "有效的": 5543,
      "土著人民": 5544,
      "下降": 5545,
      "之外": 5546,
      "以确保": 5547,
      "土耳": 5548,
      "处于": 5549,
      "常驻": 5550,
      "平民": 5551,
      "律师": 5552,
      "指控": 5553,
      "有的": 5554,
      "现金": 5555,
      "的决定": 5556,
      "相信": 5557,
      "答复": 5558,
      "训练": 5559,
      "通信": 5560,
      "2014": 5561,
      "地区的": 5562,
      "土耳其": 5563,
      "38": 5564,
      "和保护": 5565,
      "容易": 5566,
      "意味": 5567,
      "有必要": 5568,
      "规范": 5569,
      "），": 5570,
      "方案的": 5571,
      "行为的": 5572,
      "取得的": 5573,
      "维持和平行动": 5574,
      "三个": 5575,
      "中央": 5576,
      "伊朗": 5577,
      "几乎": 5578,
      "制造": 5579,
      "后果": 5580,
      "怎么": 5581,
      "意识": 5582,
      "污染": 5583,
      "清楚": 5584,
      "真正": 5585,
      "诉讼": 5586,
      "详细": 5587,
      "工作队": 5588,
      "政府和": 5589,
      "适当的": 5590,
      "高级别": 5591,
      "\"，": 5592,
      "公开": 5593,
      "的其他": 5594,
      "的行为": 5595,
      "的任务": 5596,
      "立场": 5597,
      "过渡": 5598,
      "适应": 5599,
      "遭受": 5600,
      "那里": 5601,
      "意味着": 5602,
      ")、": 5603,
      "37": 5604,
      "5日": 5605,
      "8日": 5606,
      "也不": 5607,
      "任择": 5608,
      "住房": 5609,
      "克斯坦": 5610,
      "大约": 5611,
      "太平": 5612,
      "带来": 5613,
      "平衡": 5614,
      "年的": 5615,
      "开放": 5616,
      "最佳": 5617,
      "特定": 5618,
      "管辖": 5619,
      "类似": 5620,
      "儿童基金会": 5621,
      "其中包括": 5622,
      "民主共和国": 5623,
      "任择议定书": 5624,
      "%，": 5625,
      "32": 5626,
      "60": 5627,
      "亿美元": 5628,
      "侵害": 5629,
      "名单": 5630,
      "和技术": 5631,
      "大利": 5632,
      "大部分": 5633,
      "当前": 5634,
      "心理": 5635,
      "来越": 5636,
      "每年": 5637,
      "的新": 5638,
      "磋商": 5639,
      "航空": 5640,
      "越来越": 5641,
      "报告的": 5642,
      "1997年": 5643,
      "可能会": 5644,
      "更多的": 5645,
      "与会者": 5646,
      "贸发会议": 5647,
      "致力于": 5648,
      "太平洋": 5649,
      "几个": 5650,
      "国民": 5651,
      "定义": 5652,
      "强制": 5653,
      "有所": 5654,
      "的不": 5655,
      "第7": 5656,
      "罗马": 5657,
      "腐败": 5658,
      "药物": 5659,
      "预测": 5660,
      "预计": 5661,
      "食物": 5662,
      "委员会建议": 5663,
      "国际公约": 5664,
      "196": 5665,
      "原子能": 5666,
      "42": 5667,
      "。”": 5668,
      "不再": 5669,
      "化的": 5670,
      "及时": 5671,
      "有可能": 5672,
      "物质": 5673,
      "男女": 5674,
      "的信": 5675,
      "第七": 5676,
      "许可": 5677,
      "联合王国": 5678,
      "15日": 5679,
      "的一部分": 5680,
      "31": 5681,
      "49": 5682,
      "55": 5683,
      "加勒": 5684,
      "尔兰": 5685,
      "待遇": 5686,
      "更好": 5687,
      "有一": 5688,
      "清单": 5689,
      "爱尔兰": 5690,
      "视为": 5691,
      "）、": 5692,
      "政府的": 5693,
      "方案和": 5694,
      "加勒比": 5695,
      "主权": 5696,
      "修订": 5697,
      "力量": 5698,
      "劳工": 5699,
      "增进": 5700,
      "就会": 5701,
      "形成": 5702,
      "攻击": 5703,
      "本组织": 5704,
      "核准": 5705,
      "海地": 5706,
      "的原则": 5707,
      "的时间": 5708,
      "赞赏": 5709,
      "那样": 5710,
      "随着": 5711,
      "国家和": 5712,
      "会议上": 5713,
      "通过了": 5714,
      "领域的": 5715,
      "专家组": 5716,
      "残疾人": 5717,
      "80": 5718,
      "一条": 5719,
      "严格": 5720,
      "以后": 5721,
      "克兰": 5722,
      "及社会": 5723,
      "对妇女": 5724,
      "意大利": 5725,
      "所载": 5726,
      "拉夫": 5727,
      "救济": 5728,
      "朋友": 5729,
      "本文": 5730,
      "用途": 5731,
      "颁布": 5732,
      "1996年": 5733,
      "的重要性": 5734,
      "46": 5735,
      "为什么": 5736,
      "全体": 5737,
      "另一个": 5738,
      "商品": 5739,
      "在于": 5740,
      "女士": 5741,
      "女孩": 5742,
      "婚姻": 5743,
      "展开": 5744,
      "工资": 5745,
      "年轻": 5746,
      "无论": 5747,
      "明显": 5748,
      "根本": 5749,
      "用的": 5750,
      "离开": 5751,
      "职位": 5752,
      "虐待": 5753,
      "讲习": 5754,
      "这次": 5755,
      "飞机": 5756,
      "包括在": 5757,
      "人员的": 5758,
      "必要的": 5759,
      "开发计划署": 5760,
      "不同的": 5761,
      "领导人": 5762,
      "的基础上": 5763,
      "两性平等": 5764,
      "39": 5765,
      "不到": 5766,
      "今年": 5767,
      "代理": 5768,
      "停止": 5769,
      "公布": 5770,
      "功能": 5771,
      "北京": 5772,
      "商定": 5773,
      "小时": 5774,
      "找到": 5775,
      "投票": 5776,
      "斯拉夫": 5777,
      "来文": 5778,
      "父母": 5779,
      "的目标": 5780,
      "辩论": 5781,
      "进口": 5782,
      "部的": 5783,
      "预期": 5784,
      "如果你": 5785,
      "人口基金": 5786,
      "优先事项": 5787,
      "俄罗斯联邦": 5788,
      "和平与安全": 5789,
      "》、": 5790,
      "医生": 5791,
      "南斯拉夫": 5792,
      "各级": 5793,
      "地注意到": 5794,
      "埃及": 5795,
      "外地": 5796,
      "完整": 5797,
      "尼日": 5798,
      "工人": 5799,
      "干事": 5800,
      "我要": 5801,
      "根廷": 5802,
      "波斯": 5803,
      "父亲": 5804,
      "状态": 5805,
      "看法": 5806,
      "福利": 5807,
      "经营": 5808,
      "脆弱": 5809,
      "英国": 5810,
      "阿根廷": 5811,
      "发展的": 5812,
      "特别是在": 5813,
      "欧洲联盟": 5814,
      "私营部门": 5815,
      "不利": 5816,
      "修改": 5817,
      "剥夺": 5818,
      "南非": 5819,
      "压力": 5820,
      "国籍": 5821,
      "在联合国": 5822,
      "坚持": 5823,
      "审判": 5824,
      "当然": 5825,
      "拉丁": 5826,
      "期限": 5827,
      "科索": 5828,
      "简单": 5829,
      "补救": 5830,
      "觉得": 5831,
      "跨国": 5832,
      "销售": 5833,
      "题为": 5834,
      "食品": 5835,
      "2006": 5836,
      "经济及社会": 5837,
      "1995年": 5838,
      "研究所": 5839,
      "产生的": 5840,
      "形式的": 5841,
      "至关重要": 5842,
      "科索沃": 5843,
      "》(": 5844,
      "上午": 5845,
      "个国家": 5846,
      "乌克兰": 5847,
      "以外": 5848,
      "众国": 5849,
      "候选": 5850,
      "同一": 5851,
      "它的": 5852,
      "尼西亚": 5853,
      "居住": 5854,
      "年来": 5855,
      "快速": 5856,
      "执法": 5857,
      "持久": 5858,
      "效果": 5859,
      "流动": 5860,
      "现实": 5861,
      "科技": 5862,
      "获取": 5863,
      "袭击": 5864,
      "达尔": 5865,
      "儿童的": 5866,
      "15年": 5867,
      "种族歧视": 5868,
      "第四十": 5869,
      "实质性": 5870,
      "会的": 5871,
      "作了": 5872,
      "便利": 5873,
      "值得": 5874,
      "克罗": 5875,
      "内亚": 5876,
      "几内亚": 5877,
      "和联合国": 5878,
      "哥伦": 5879,
      "在该": 5880,
      "塞尔": 5881,
      "官方": 5882,
      "将继续": 5883,
      "延长": 5884,
      "往往": 5885,
      "惩罚": 5886,
      "或其他": 5887,
      "技能": 5888,
      "投入": 5889,
      "指示": 5890,
      "现代": 5891,
      "的要求": 5892,
      "的信息": 5893,
      "相同": 5894,
      "第15": 5895,
      "筹资": 5896,
      "重建": 5897,
      "协调员": 5898,
      "提交的": 5899,
      "各国政府": 5900,
      "讲习班": 5901,
      "47": 5902,
      "上诉": 5903,
      "中东": 5904,
      "也许": 5905,
      "人士": 5906,
      "切实": 5907,
      "利比": 5908,
      "卢旺": 5909,
      "对其": 5910,
      "将其": 5911,
      "少年": 5912,
      "接触": 5913,
      "方针": 5914,
      "旅游": 5915,
      "是个": 5916,
      "理论": 5917,
      "维和": 5918,
      "资助": 5919,
      "资本": 5920,
      "赞扬": 5921,
      "这么": 5922,
      "进步": 5923,
      "行动的": 5924,
      "人权委员会": 5925,
      "所有的": 5926,
      "数据库": 5927,
      "犯罪问题": 5928,
      "这样的": 5929,
      "开发署": 5930,
      "2014年": 5931,
      "波斯尼亚": 5932,
      "拉丁美洲": 5933,
      "经济及社会理事会": 5934,
      "哥伦比亚": 5935,
      "利比里亚": 5936,
      "卢旺达": 5937,
      "4日": 5938,
      "任命": 5939,
      "兴趣": 5940,
      "制裁": 5941,
      "区的": 5942,
      "和执行": 5943,
      "所涉": 5944,
      "指定": 5945,
      "排放": 5946,
      "斯洛": 5947,
      "更新": 5948,
      "正如": 5949,
      "正常": 5950,
      "用户": 5951,
      "男子": 5952,
      "的大": 5953,
      "第13": 5954,
      "罪行": 5955,
      "面对": 5956,
      "高兴": 5957,
      "高度": 5958,
      "情况的": 5959,
      "特别代表": 5960,
      "人权和": 5961,
      "技术援助": 5962,
      "这个问题": 5963,
      "的一项": 5964,
      "次会议上": 5965,
      "9日": 5966,
      "仲裁": 5967,
      "加拉": 5968,
      "及其他": 5969,
      "在国家": 5970,
      "威特": 5971,
      "对此": 5972,
      "总额": 5973,
      "打算": 5974,
      "数目": 5975,
      "旅行": 5976,
      "时代": 5977,
      "替代": 5978,
      "未能": 5979,
      "本报告": 5980,
      "毒品和": 5981,
      "混合": 5982,
      "瑞士": 5983,
      "的地方": 5984,
      "研讨": 5985,
      "第8": 5986,
      "第12": 5987,
      "起草": 5988,
      "途径": 5989,
      "通报": 5990,
      "道路": 5991,
      "防治": 5992,
      "集中": 5993,
      "集体": 5994,
      "委员会在": 5995,
      "2008": 5996,
      "以及在": 5997,
      "人民共和国": 5998,
      "刚果民主共和国": 5999,
      "毒品和犯罪问题": 6000,
      "一位": 6001,
      "不应": 6002,
      "不可能": 6003,
      "为止": 6004,
      "全部": 6005,
      "利坚": 6006,
      "变得": 6007,
      "古巴": 6008,
      "吁请": 6009,
      "启动": 6010,
      "唯一": 6011,
      "地亚": 6012,
      "女童": 6013,
      "岛屿": 6014,
      "总体": 6015,
      "总是": 6016,
      "最大": 6017,
      "次级": 6018,
      "着重": 6019,
      "科威特": 6020,
      "美利坚": 6021,
      "而是": 6022,
      "联络": 6023,
      "良好": 6024,
      "高等": 6025,
      "委员会还": 6026,
      "2004": 6027,
      "区域和": 6028,
      "这一点": 6029,
      "权利和": 6030,
      "73": 6031,
      "7日": 6032,
      "一下": 6033,
      "一点": 6034,
      "不受": 6035,
      "主持": 6036,
      "亚太": 6037,
      "信任": 6038,
      "创新": 6039,
      "动物": 6040,
      "各地": 6041,
      "和解": 6042,
      "和经济": 6043,
      "差异": 6044,
      "布隆": 6045,
      "常设": 6046,
      "年龄": 6047,
      "并没有": 6048,
      "庇护": 6049,
      "开支": 6050,
      "报道": 6051,
      "普通": 6052,
      "有时": 6053,
      "满意": 6054,
      "生效": 6055,
      "生殖": 6056,
      "私人": 6057,
      "网站": 6058,
      "试验": 6059,
      "请秘书长": 6060,
      "诸如": 6061,
      "，\"": 6062,
      "委员会注意到": 6063,
      "保护和": 6064,
      "首脑会议": 6065,
      "多样性": 6066,
      "他在": 6067,
      "分发": 6068,
      "各自": 6069,
      "国务": 6070,
      "富尔": 6071,
      "态度": 6072,
      "截至": 6073,
      "所列": 6074,
      "攸关": 6075,
      "朝鲜": 6076,
      "核查": 6077,
      "的资金": 6078,
      "类型": 6079,
      "营养": 6080,
      "评论": 6081,
      "这里": 6082,
      "遗憾": 6083,
      "面的": 6084,
      "实际上": 6085,
      "一般性": 6086,
      "最不发达国家": 6087,
      "原子能机构": 6088,
      "达尔富尔": 6089,
      "70": 6090,
      "不扩散": 6091,
      "为基础": 6092,
      "公务": 6093,
      "协作": 6094,
      "可靠": 6095,
      "基地": 6096,
      "大家": 6097,
      "客户": 6098,
      "希腊": 6099,
      "当时": 6100,
      "指南": 6101,
      "有组织": 6102,
      "此种": 6103,
      "每天": 6104,
      "海关": 6105,
      "燃料": 6106,
      "瑞典": 6107,
      "的行动": 6108,
      "的措施": 6109,
      "的基本": 6110,
      "相比": 6111,
      "裁决": 6112,
      "西非": 6113,
      "2015年": 6114,
      "这一问题": 6115,
      "建立一个": 6116,
      "信息和": 6117,
      "投资者": 6118,
      "难民署": 6119,
      "更好地": 6120,
      "美利坚合": 6121,
      "41": 6122,
      "56": 6123,
      "争端": 6124,
      "使得": 6125,
      "信托": 6126,
      "全世界": 6127,
      "养恤": 6128,
      "分子": 6129,
      "包含": 6130,
      "南部": 6131,
      "大使": 6132,
      "大规模": 6133,
      "失踪": 6134,
      "实践": 6135,
      "实验": 6136,
      "教师": 6137,
      "方向": 6138,
      "是一种": 6139,
      "法规": 6140,
      "的项目": 6141,
      "的各项": 6142,
      "艺术": 6143,
      "荷兰": 6144,
      "表达": 6145,
      "贷款": 6146,
      "遭到": 6147,
      "，”": 6148,
      "国际合作": 6149,
      "安全和": 6150,
      "项目的": 6151,
      "共同体": 6152,
      "利益攸关": 6153,
      "介绍了": 6154,
      "计算机": 6155,
      "透明度": 6156,
      "布隆迪": 6157,
      "一系列": 6158,
      "上升": 6159,
      "了一些": 6160,
      "任期": 6161,
      "位置": 6162,
      "依赖": 6163,
      "出来": 6164,
      "包容": 6165,
      "危害": 6166,
      "命令": 6167,
      "尽可能": 6168,
      "感觉": 6169,
      "我不": 6170,
      "教科": 6171,
      "更为": 6172,
      "查明": 6173,
      "正确": 6174,
      "汽车": 6175,
      "现行": 6176,
      "白俄罗斯": 6177,
      "百分": 6178,
      "的人权": 6179,
      "相对": 6180,
      "确实": 6181,
      "纪念": 6182,
      "软件": 6183,
      "边界": 6184,
      "释放": 6185,
      "问责": 6186,
      "马拉": 6187,
      "2005": 6188,
      "措施的": 6189,
      "服务的": 6190,
      "发展中国家的": 6191,
      "这样做": 6192,
      "工程处": 6193,
      "一年": 6194,
      "与其他": 6195,
      "只要": 6196,
      "吸引": 6197,
      "和黑": 6198,
      "心的": 6199,
      "成绩": 6200,
      "摩洛": 6201,
      "放在": 6202,
      "永远": 6203,
      "物的": 6204,
      "用来": 6205,
      "而不": 6206,
      "语文": 6207,
      "除非": 6208,
      "经济和社会": 6209,
      "人权理事会": 6210,
      "第一次": 6211,
      "参加了": 6212,
      "人道主义法": 6213,
      "000美元": 6214,
      "印度尼西亚": 6215,
      "广泛的": 6216,
      "摩洛哥": 6217,
      "..": 6218,
      "44": 6219,
      "4月2": 6220,
      "77": 6221,
      "交通": 6222,
      "享受": 6223,
      "供资": 6224,
      "依然": 6225,
      "发出": 6226,
      "只能": 6227,
      "员工": 6228,
      "外部": 6229,
      "多少": 6230,
      "学院": 6231,
      "将会": 6232,
      "担保": 6233,
      "是因为": 6234,
      "欧盟": 6235,
      "死刑": 6236,
      "殖民": 6237,
      "法治": 6238,
      "的代表": 6239,
      "的妇女": 6240,
      "的儿童": 6241,
      "科特": 6242,
      "第17": 6243,
      "索赔": 6244,
      "维也": 6245,
      "该区域": 6246,
      "身体": 6247,
      "转移": 6248,
      "适合": 6249,
      "道德": 6250,
      "阁下": 6251,
      "联合国宪章": 6252,
      "人权事务": 6253,
      "权利的": 6254,
      "世界银行": 6255,
      "教育和": 6256,
      "主席团": 6257,
      "暴力侵害": 6258,
      "发生的": 6259,
      "消除对妇女": 6260,
      "刑事司法": 6261,
      "流离失所者": 6262,
      "尼日利亚": 6263,
      "候选人": 6264,
      "有组织犯罪": 6265,
      "48": 6266,
      "交换": 6267,
      "以期": 6268,
      "体育": 6269,
      "减轻": 6270,
      "发布": 6271,
      "合并": 6272,
      "妨碍": 6273,
      "很大": 6274,
      "挪威": 6275,
      "提请": 6276,
      "放弃": 6277,
      "敏感": 6278,
      "是对": 6279,
      "曾经": 6280,
      "最低": 6281,
      "核裁军": 6282,
      "的小": 6283,
      "的做法": 6284,
      "监狱": 6285,
      "结合": 6286,
      "行业": 6287,
      "资格": 6288,
      "返回": 6289,
      "迪瓦": 6290,
      "速度": 6291,
      "错误": 6292,
      "，“": 6293,
      "发展和": 6294,
      "195": 6295,
      "1990年": 6296,
      "12月2": 6297,
      "有效地": 6298,
      "举行了": 6299,
      "武装冲突": 6300,
      "克罗地亚": 6301,
      "研讨会": 6302,
      "美利坚合众国": 6303,
      "维也纳": 6304,
      "65": 6305,
      "与此": 6306,
      "判决": 6307,
      "力资源": 6308,
      "医院": 6309,
      "号决定": 6310,
      "多的": 6311,
      "子女": 6312,
      "安保": 6313,
      "将于": 6314,
      "并非": 6315,
      "强烈": 6316,
      "意愿": 6317,
      "指挥": 6318,
      "推广": 6319,
      "提及": 6320,
      "摘要": 6321,
      "教学": 6322,
      "滥用": 6323,
      "的生活": 6324,
      "的结果": 6325,
      "监察": 6326,
      "相应": 6327,
      "经历": 6328,
      "规约": 6329,
      "角度": 6330,
      "谴责": 6331,
      "购买": 6332,
      "管理和": 6333,
      "部门的": 6334,
      "解决办法": 6335,
      "全球化": 6336,
      "目前正在": 6337,
      "暴力行为": 6338,
      "性别平等": 6339,
      "12月31日": 6340,
      "人道主义援助": 6341,
      "科特迪瓦": 6342,
      "一体": 6343,
      "下来": 6344,
      "之下": 6345,
      "人都": 6346,
      "会上": 6347,
      "储存": 6348,
      "公路": 6349,
      "出生": 6350,
      "分享": 6351,
      "助理": 6352,
      "参考": 6353,
      "受益": 6354,
      "向大会": 6355,
      "周期": 6356,
      "哥维": 6357,
      "回应": 6358,
      "塞哥维": 6359,
      "容忍": 6360,
      "就此": 6361,
      "成就": 6362,
      "战斗": 6363,
      "描述": 6364,
      "撒冷": 6365,
      "真的": 6366,
      "短期": 6367,
      "确立": 6368,
      "示范": 6369,
      "空气": 6370,
      "第八": 6371,
      "第18": 6372,
      "约翰": 6373,
      "耶路": 6374,
      "附属": 6375,
      "20日": 6376,
      "相关的": 6377,
      "事务部": 6378,
      "18日": 6379,
      "严重的": 6380,
      "预防犯罪": 6381,
      "所需的": 6382,
      "消费者": 6383,
      "公务员": 6384,
      "信托基金": 6385,
      "耶路撒冷": 6386,
      "54": 6387,
      "75": 6388,
      "中非": 6389,
      "事业": 6390,
      "事规则": 6391,
      "刑法": 6392,
      "初步": 6393,
      "力和": 6394,
      "单独": 6395,
      "卫星": 6396,
      "受理": 6397,
      "和区域": 6398,
      "在一": 6399,
      "在这一": 6400,
      "塞浦": 6401,
      "巨大": 6402,
      "彻底": 6403,
      "很难": 6404,
      "数额": 6405,
      "格鲁": 6406,
      "模型": 6407,
      "特点": 6408,
      "的分": 6409,
      "的一些": 6410,
      "的承诺": 6411,
      "移动": 6412,
      "约束": 6413,
      "职务": 6414,
      "自动": 6415,
      "赞同": 6416,
      "路斯": 6417,
      "迄今": 6418,
      "2007": 6419,
      "执行局": 6420,
      "技术合作": 6421,
      "公司的": 6422,
      "框架内": 6423,
      "咨询委员会": 6424,
      "第三十": 6425,
      "种族主义": 6426,
      "后续行动": 6427,
      "毒品和犯罪问题办公室": 6428,
      "塞哥维那": 6429,
      "塞浦路斯": 6430,
      "与发展": 6431,
      "中期": 6432,
      "习惯": 6433,
      "伤害": 6434,
      "别人": 6435,
      "号和": 6436,
      "吉亚": 6437,
      "团结": 6438,
      "图书": 6439,
      "地球": 6440,
      "场所": 6441,
      "多个": 6442,
      "安装": 6443,
      "差距": 6444,
      "年人": 6445,
      "感染": 6446,
      "提醒": 6447,
      "极端": 6448,
      "津贴": 6449,
      "潜力": 6450,
      "特征": 6451,
      "的政治": 6452,
      "的意见": 6453,
      "的资料": 6454,
      "职权": 6455,
      "表决": 6456,
      "装置": 6457,
      "西兰": 6458,
      "负担": 6459,
      "雇员": 6460,
      "2001": 6461,
      "2009": 6462,
      "这些国家": 6463,
      "机构间": 6464,
      "10日": 6465,
      "重要的是": 6466,
      "采取行动": 6467,
      "采取措施": 6468,
      "的一切": 6469,
      "作出了": 6470,
      "非洲联盟": 6471,
      "的工作人员": 6472,
      "缔约方会议": 6473,
      "死亡率": 6474,
      "格鲁吉亚": 6475,
      "43": 6476,
      "58": 6477,
      "500": 6478,
      "66": 6479,
      "9月2": 6480,
      "上帝": 6481,
      "中所": 6482,
      "中有": 6483,
      "书面": 6484,
      "使其": 6485,
      "制作": 6486,
      "剥削": 6487,
      "南亚": 6488,
      "取消": 6489,
      "国和": 6490,
      "在一起": 6491,
      "多种": 6492,
      "工会": 6493,
      "平台": 6494,
      "应付": 6495,
      "度的": 6496,
      "强迫": 6497,
      "推进": 6498,
      "新西兰": 6499,
      "每一": 6500,
      "波兰": 6501,
      "澄清": 6502,
      "爆炸": 6503,
      "生育": 6504,
      "的原因": 6505,
      "看来": 6506,
      "秩序": 6507,
      "给我": 6508,
      "联网": 6509,
      "证实": 6510,
      "这将": 6511,
      "随后": 6512,
      "难以": 6513,
      "这些问题": 6514,
      "妇女地位": 6515,
      "可能性": 6516,
      "环境署": 6517,
      "建立了": 6518,
      "的一种": 6519,
      "武器和": 6520,
      "家庭暴力": 6521,
      "16日": 6522,
      "不得不": 6523,
      "塞尔维亚": 6524,
      "教科文": 6525,
      "与此同时": 6526,
      "53": 6527,
      "一道": 6528,
      "主流": 6529,
      "之中": 6530,
      "二十": 6531,
      "俄比亚": 6532,
      "信贷": 6533,
      "共计": 6534,
      "决于": 6535,
      "决心": 6536,
      "分钟": 6537,
      "加快": 6538,
      "去年": 6539,
      "发了": 6540,
      "发起": 6541,
      "取决于": 6542,
      "埃塞": 6543,
      "学家": 6544,
      "实地": 6545,
      "巩固": 6546,
      "并为": 6547,
      "政党": 6548,
      "方便": 6549,
      "方的": 6550,
      "机场": 6551,
      "毒品": 6552,
      "物品": 6553,
      "的前": 6554,
      "的联合国": 6555,
      "的战略": 6556,
      "的内容": 6557,
      "直到": 6558,
      "秘鲁": 6559,
      "群岛": 6560,
      "肯定": 6561,
      "葡萄": 6562,
      "逮捕": 6563,
      "都会": 6564,
      "长的": 6565,
      "附近": 6566,
      "首次": 6567,
      "1992年": 6568,
      "一些国家": 6569,
      "届会议上": 6570,
      "讨论了": 6571,
      "讨论会": 6572,
      "第二次": 6573,
      "进程的": 6574,
      "建设和平": 6575,
      "了一项": 6576,
      "第2款": 6577,
      "有利于": 6578,
      "》、《": 6579,
      "国务院": 6580,
      "埃塞俄比亚": 6581,
      "61": 6582,
      "与其": 6583,
      "与联合国": 6584,
      "业绩": 6585,
      "也没有": 6586,
      "了对": 6587,
      "准确": 6588,
      "可在": 6589,
      "听取": 6590,
      "哪些": 6591,
      "在国际": 6592,
      "塞拜": 6593,
      "大幅": 6594,
      "子的": 6595,
      "工发": 6596,
      "广告": 6597,
      "整体": 6598,
      "斗争": 6599,
      "是由": 6600,
      "极为": 6601,
      "每一个": 6602,
      "法案": 6603,
      "派遣": 6604,
      "测试": 6605,
      "消息": 6606,
      "深入": 6607,
      "特设": 6608,
      "玻利": 6609,
      "的具体": 6610,
      "真实": 6611,
      "称为": 6612,
      "空缺": 6613,
      "紧张": 6614,
      "药品": 6615,
      "融资": 6616,
      "认可": 6617,
      "退休": 6618,
      "逐步": 6619,
      "阿塞拜": 6620,
      "19日": 6621,
      "12日": 6622,
      "使用的": 6623,
      "14日": 6624,
      "文化权利": 6625,
      "规划署": 6626,
      "侵犯人权": 6627,
      "事实上": 6628,
      "少数群体": 6629,
      "检察官": 6630,
      "次级方案": 6631,
      "阿塞拜疆": 6632,
      "69": 6633,
      "丰富": 6634,
      "争议": 6635,
      "充满": 6636,
      "共有": 6637,
      "前的": 6638,
      "加沙": 6639,
      "和方案": 6640,
      "和建议": 6641,
      "和管理": 6642,
      "哥拉": 6643,
      "回答": 6644,
      "失去": 6645,
      "学术": 6646,
      "安哥拉": 6647,
      "审理": 6648,
      "尼斯": 6649,
      "带来的": 6650,
      "常常": 6651,
      "废物": 6652,
      "征聘": 6653,
      "志愿": 6654,
      "成了": 6655,
      "我也": 6656,
      "所得": 6657,
      "拉圭": 6658,
      "教授": 6659,
      "是一": 6660,
      "条和": 6661,
      "次区域": 6662,
      "欧元": 6663,
      "法令": 6664,
      "的环境": 6665,
      "的资源": 6666,
      "的执行情况": 6667,
      "第199": 6668,
      "荒漠": 6669,
      "菲律": 6670,
      "账户": 6671,
      "边缘": 6672,
      "这位": 6673,
      "这方面的": 6674,
      "阻止": 6675,
      "除其他": 6676,
      "高的": 6677,
      "2002": 6678,
      "我们在": 6679,
      "经济增长": 6680,
      "执行主任": 6681,
      "世界上": 6682,
      "的一般": 6683,
      "它们的": 6684,
      "取得了": 6685,
      "独立的": 6686,
      "6月30日": 6687,
      "面临的": 6688,
      "所述期间": 6689,
      "化学品": 6690,
      "申诉人": 6691,
      "阿尔及": 6692,
      "出版物": 6693,
      "人权事务高级专员": 6694,
      "67": 6695,
      "五年": 6696,
      "亚美": 6697,
      "信仰": 6698,
      "分类": 6699,
      "后来": 6700,
      "和政策": 6701,
      "在一个": 6702,
      "在所有": 6703,
      "地利": 6704,
      "地震": 6705,
      "塞拉": 6706,
      "尊严": 6707,
      "得以": 6708,
      "所做": 6709,
      "报表": 6710,
      "放射": 6711,
      "文本": 6712,
      "早期": 6713,
      "有了": 6714,
      "杀伤": 6715,
      "正规": 6716,
      "比赛": 6717,
      "灵活": 6718,
      "独特": 6719,
      "看见": 6720,
      "石油": 6721,
      "第16": 6722,
      "类别": 6723,
      "约旦": 6724,
      "细胞": 6725,
      "让我": 6726,
      "赋予": 6727,
      "边境": 6728,
      "这两": 6729,
      "附加": 6730,
      "青少年": 6731,
      "2000": 6732,
      "国际人道主义法": 6733,
      "目前的": 6734,
      "存在的": 6735,
      "观察团": 6736,
      "审计委员会": 6737,
      "第1款": 6738,
      "所作的": 6739,
      "图书馆": 6740,
      "亚美尼亚": 6741,
      "3月2": 6742,
      "51": 6743,
      "63": 6744,
      "64": 6745,
      "72": 6746,
      "丈夫": 6747,
      "下去": 6748,
      "中华": 6749,
      "仅仅": 6750,
      "以为": 6751,
      "你是": 6752,
      "促使": 6753,
      "促请": 6754,
      "免费": 6755,
      "共识": 6756,
      "其实": 6757,
      "削减": 6758,
      "和不": 6759,
      "和国家": 6760,
      "塔尔": 6761,
      "多尔": 6762,
      "大型": 6763,
      "对象": 6764,
      "小学": 6765,
      "巨大的": 6766,
      "干预": 6767,
      "并向": 6768,
      "并对": 6769,
      "并将": 6770,
      "并确保": 6771,
      "应在": 6772,
      "建造": 6773,
      "性能": 6774,
      "情报": 6775,
      "担心": 6776,
      "拨款": 6777,
      "捷克": 6778,
      "提名": 6779,
      "斯里": 6780,
      "权的": 6781,
      "某一": 6782,
      "案文": 6783,
      "男性": 6784,
      "的会议": 6785,
      "的有效": 6786,
      "的标准": 6787,
      "的需求": 6788,
      "第一个": 6789,
      "筹措": 6790,
      "者和": 6791,
      "补助": 6792,
      "补贴": 6793,
      "被告": 6794,
      "议题": 6795,
      "议事规则": 6796,
      "证书": 6797,
      "试图": 6798,
      "豁免": 6799,
      "通讯": 6800,
      "都有": 6801,
      "飞行": 6802,
      "马来": 6803,
      "驱逐": 6804,
      "）：": 6805,
      "妇女在": 6806,
      "11日": 6807,
      "11月2": 6808,
      "影响的": 6809,
      "资源的": 6810,
      "非洲国家": 6811,
      "审议了": 6812,
      "得到了": 6813,
      "基础上": 6814,
      "中心的": 6815,
      "专门知识": 6816,
      "一切形式": 6817,
      "组成部分": 6818,
      "取得的进展": 6819,
      "菲律宾": 6820,
      "2日": 6821,
      "52": 6822,
      "东帝": 6823,
      "中间": 6824,
      "人为": 6825,
      "任意": 6826,
      "你可以": 6827,
      "侧重": 6828,
      "其在": 6829,
      "即将": 6830,
      "厄瓜": 6831,
      "和加强": 6832,
      "因而": 6833,
      "国防": 6834,
      "地理": 6835,
      "好处": 6836,
      "对该": 6837,
      "尼泊": 6838,
      "弹药": 6839,
      "怎样": 6840,
      "思想": 6841,
      "总理": 6842,
      "所在": 6843,
      "效力": 6844,
      "清洁": 6845,
      "电影": 6846,
      "的安全": 6847,
      "结婚": 6848,
      "缔结": 6849,
      "肯尼亚": 6850,
      "蒙特": 6851,
      "融入": 6852,
      "订正": 6853,
      "贩卖": 6854,
      "连续": 6855,
      "酌情": 6856,
      "配合": 6857,
      "配置": 6858,
      "量的": 6859,
      "雇主": 6860,
      "国际组织": 6861,
      "其他国家": 6862,
      "人权利": 6863,
      "1991年": 6864,
      "的人口": 6865,
      "13日": 6866,
      "另一方面": 6867,
      "阿尔及利亚": 6868,
      "东帝汶": 6869,
      "厄瓜多尔": 6870,
      "尼泊尔": 6871,
      "90": 6872,
      "上文": 6873,
      "主张": 6874,
      "也可以": 6875,
      "人居": 6876,
      "伐克": 6877,
      "分布": 6878,
      "分摊": 6879,
      "利昂": 6880,
      "北部": 6881,
      "单方面": 6882,
      "可是": 6883,
      "后勤": 6884,
      "大韩": 6885,
      "天然": 6886,
      "太阳": 6887,
      "失败": 6888,
      "奥地利": 6889,
      "尽快": 6890,
      "干旱": 6891,
      "并未": 6892,
      "总结": 6893,
      "意思": 6894,
      "我还": 6895,
      "显著": 6896,
      "智利": 6897,
      "案例": 6898,
      "毫无": 6899,
      "气体": 6900,
      "痛苦": 6901,
      "的事": 6902,
      "的办法": 6903,
      "的责任": 6904,
      "的东西": 6905,
      "监管": 6906,
      "眼睛": 6907,
      "第九": 6908,
      "第11": 6909,
      "简要": 6910,
      "缺陷": 6911,
      "芬兰": 6912,
      "获悉": 6913,
      "被占": 6914,
      "规章": 6915,
      "角色": 6916,
      "认真": 6917,
      "讲话": 6918,
      "运行": 6919,
      "随时": 6920,
      "额外": 6921,
      "报告所述期间": 6922,
      "方案预算": 6923,
      "合作伙伴": 6924,
      "技术和": 6925,
      "必须在": 6926,
      "开展了": 6927,
      "小组委员会": 6928,
      "取得进展": 6929,
      "17日": 6930,
      "仍然是": 6931,
      "程度上": 6932,
      "自然灾害": 6933,
      "足够的": 6934,
      "当事人": 6935,
      "意识到": 6936,
      "波斯尼亚和黑": 6937,
      "斯洛伐克": 6938,
      "利益攸关方": 6939,
      "荒漠化": 6940,
      "塞拉利昂": 6941,
      "马来西亚": 6942,
      "大韩民": 6943,
      "1号决议": 6944,
      "57": 6945,
      "下文": 6946,
      "人力资源": 6947,
      "以往": 6948,
      "体现": 6949,
      "作业": 6950,
      "兰卡": 6951,
      "出去": 6952,
      "变革": 6953,
      "口头": 6954,
      "名字": 6955,
      "名额": 6956,
      "在这个": 6957,
      "外层": 6958,
      "女人": 6959,
      "完善": 6960,
      "对待": 6961,
      "小型": 6962,
      "我认为": 6963,
      "房子": 6964,
      "房间": 6965,
      "手续": 6966,
      "操作": 6967,
      "教训": 6968,
      "显然": 6969,
      "最新": 6970,
      "机器": 6971,
      "检测": 6972,
      "民众": 6973,
      "流行": 6974,
      "潜在": 6975,
      "灾难": 6976,
      "率为": 6977,
      "男孩": 6978,
      "的执行": 6979,
      "的使用": 6980,
      "的义务": 6981,
      "看起来": 6982,
      "第14": 6983,
      "策略": 6984,
      "给你": 6985,
      "至于": 6986,
      "衣服": 6987,
      "补偿": 6988,
      "解除": 6989,
      "言论": 6990,
      "过境": 6991,
      "逐渐": 6992,
      "遇到": 6993,
      "销毁": 6994,
      "阻碍": 6995,
      "面积": 6996,
      "2003": 6997,
      "会议和": 6998,
      "会议室": 6999,
      "国际刑事": 7000,
      "我们认为": 7001,
      "经济体": 7002,
      "促进和保护": 7003,
      "政治权利": 7004,
      "发言者": 7005,
      "裁军谈判": 7006,
      "常驻联合国": 7007,
      "教科文组织": 7008,
      "斯里兰卡": 7009,
      "波斯尼亚和黑塞哥维那": 7010,
      "三年": 7011,
      "上海": 7012,
      "不良": 7013,
      "不限": 7014,
      "临床": 7015,
      "丹麦": 7016,
      "二届会议": 7017,
      "仍在": 7018,
      "位于": 7019,
      "具备": 7020,
      "初级": 7021,
      "前往": 7022,
      "前南斯拉夫": 7023,
      "十字": 7024,
      "和安全": 7025,
      "在这种": 7026,
      "声音": 7027,
      "处罚": 7028,
      "好像": 7029,
      "守则": 7030,
      "宗旨": 7031,
      "导言": 7032,
      "小岛屿": 7033,
      "巴尼亚": 7034,
      "常规": 7035,
      "并不是": 7036,
      "应急": 7037,
      "形势": 7038,
      "很快": 7039,
      "成效": 7040,
      "我在": 7041,
      "我就": 7042,
      "或是": 7043,
      "故事": 7044,
      "效益": 7045,
      "无核武器": 7046,
      "是的": 7047,
      "更大的": 7048,
      "根源": 7049,
      "民事": 7050,
      "渔业": 7051,
      "瑞拉": 7052,
      "电力": 7053,
      "的两": 7054,
      "的社会": 7055,
      "的有关": 7056,
      "的支持": 7057,
      "的关系": 7058,
      "的调查": 7059,
      "的说明": 7060,
      "的关键": 7061,
      "相反": 7062,
      "绝对": 7063,
      "继承": 7064,
      "老师": 7065,
      "转变": 7066,
      "载有": 7067,
      "运用": 7068,
      "遵循": 7069,
      "里的": 7070,
      "首长": 7071,
      "高专": 7072,
      "提供支助": 7073,
      "所有国家": 7074,
      "人员和": 7075,
      "基本自由": 7076,
      "产生了": 7077,
      "1日至": 7078,
      "卫生组织": 7079,
      "在这里": 7080,
      "武装部队": 7081,
      "捐助者": 7082,
      "劳动力": 7083,
      "一体化": 7084,
      ")：": 7085,
      "一届会议": 7086,
      "不列": 7087,
      "之内": 7088,
      "份额": 7089,
      "儿子": 7090,
      "内瑞拉": 7091,
      "列的": 7092,
      "卡塔尔": 7093,
      "否则": 7094,
      "吸收": 7095,
      "和促进": 7096,
      "和实施": 7097,
      "喀麦": 7098,
      "在与": 7099,
      "在过去": 7100,
      "坚决": 7101,
      "委内瑞拉": 7102,
      "婴儿": 7103,
      "导弹": 7104,
      "巴布": 7105,
      "弱势": 7106,
      "快乐": 7107,
      "怀疑": 7108,
      "想要": 7109,
      "我会": 7110,
      "或许": 7111,
      "房屋": 7112,
      "批评": 7113,
      "族裔": 7114,
      "是最": 7115,
      "未经": 7116,
      "条规定": 7117,
      "某种": 7118,
      "毕业": 7119,
      "氧化": 7120,
      "注重": 7121,
      "的合作": 7122,
      "的认识": 7123,
      "经社会": 7124,
      "被认为": 7125,
      "设置": 7126,
      "调解": 7127,
      "述了": 7128,
      "我们必须": 7129,
      "194": 7130,
      "提供关于": 7131,
      "合作的": 7132,
      "采取了": 7133,
      "基金的": 7134,
      "成员的": 7135,
      "的人道主义": 7136,
      "作出的": 7137,
      "关系的": 7138,
      "第二个": 7139,
      "进展情况": 7140,
      "关切的是": 7141,
      "临时议程": 7142,
      "阿拉伯叙利亚": 7143,
      "通信技术": 7144,
      "罗马尼亚": 7145,
      "葡萄牙": 7146,
      "工发组织": 7147,
      "高专办": 7148,
      "喀麦隆": 7149,
      "5月2": 7150,
      "6月2": 7151,
      "83": 7152,
      "”，": 7153,
      "一旦": 7154,
      "主办": 7155,
      "了关于": 7156,
      "互联网": 7157,
      "五届会议": 7158,
      "产出": 7159,
      "以英语": 7160,
      "优势": 7161,
      "依法": 7162,
      "军队": 7163,
      "分之一": 7164,
      "副秘书长": 7165,
      "加坡": 7166,
      "哈萨": 7167,
      "商定的": 7168,
      "在中国": 7169,
      "地的": 7170,
      "埔寨": 7171,
      "声称": 7172,
      "外勤": 7173,
      "大陆": 7174,
      "如今": 7175,
      "定于": 7176,
      "定居": 7177,
      "将来": 7178,
      "并与": 7179,
      "康复": 7180,
      "手册": 7181,
      "摊款": 7182,
      "收到的": 7183,
      "斯特": 7184,
      "是不": 7185,
      "普及": 7186,
      "期望": 7187,
      "柬埔寨": 7188,
      "植物": 7189,
      "正是": 7190,
      "水和": 7191,
      "灭绝": 7192,
      "的区域": 7193,
      "的风险": 7194,
      "繁荣": 7195,
      "缅甸": 7196,
      "缓解": 7197,
      "考试": 7198,
      "职人员": 7199,
      "裁定": 7200,
      "说的": 7201,
      "负债": 7202,
      "过来": 7203,
      "还将": 7204,
      "违法": 7205,
      "迫切": 7206,
      "通技术": 7207,
      "国际人权": 7208,
      "国际法院": 7209,
      "经济发展": 7210,
      "特别委员会": 7211,
      "10月2": 7212,
      "需要的": 7213,
      "大会第6": 7214,
      "实现千年发展目标": 7215,
      "信息技术": 7216,
      "行政当局": 7217,
      "先生阁下": 7218,
      "国内法": 7219,
      "监督厅": 7220,
      "积极参与": 7221,
      "星期一": 7222,
      "估计数": 7223,
      "供应商": 7224,
      "阿尔巴尼亚": 7225,
      "儿童权利公约": 7226,
      "修正案": 7227,
      "许可证": 7228,
      "百分比": 7229,
      "玻利维亚": 7230,
      "中华人民共和国": 7231,
      "大韩民国": 7232,
      "哈萨克斯坦": 7233,
      ")(": 7234,
      "2月2": 7235,
      "79": 7236,
      "东道": 7237,
      "事故": 7238,
      "交付": 7239,
      "从来": 7240,
      "你会": 7241,
      "例子": 7242,
      "信通技术": 7243,
      "充足": 7244,
      "全力": 7245,
      "全系统": 7246,
      "其余": 7247,
      "利比亚": 7248,
      "加工": 7249,
      "厄立": 7250,
      "反恐": 7251,
      "各区域": 7252,
      "囚犯": 7253,
      "四届会议": 7254,
      "回来": 7255,
      "坦桑": 7256,
      "士兵": 7257,
      "多年": 7258,
      "审评": 7259,
      "对这些": 7260,
      "层面": 7261,
      "岁的": 7262,
      "差别": 7263,
      "我是": 7264,
      "拟定": 7265,
      "掌握": 7266,
      "排雷": 7267,
      "探索": 7268,
      "新加坡": 7269,
      "时的": 7270,
      "是有": 7271,
      "条第2款": 7272,
      "标志": 7273,
      "款项": 7274,
      "毁灭": 7275,
      "汇率": 7276,
      "没收": 7277,
      "法定": 7278,
      "注册": 7279,
      "渠道": 7280,
      "照顾": 7281,
      "特里亚": 7282,
      "的各": 7283,
      "的方案": 7284,
      "的需要": 7285,
      "的计划": 7286,
      "的各种": 7287,
      "的核心": 7288,
      "的理由": 7289,
      "的概念": 7290,
      "终止": 7291,
      "缺少": 7292,
      "被占领": 7293,
      "订立": 7294,
      "设想": 7295,
      "设法": 7296,
      "识别": 7297,
      "调动": 7298,
      "财富": 7299,
      "近东": 7300,
      "这份": 7301,
      "都在": 7302,
      "里斯": 7303,
      "陈述": 7304,
      "隔离": 7305,
      "％。": 7306,
      "问题上": 7307,
      "问题特别报告员": 7308,
      "工作方案": 7309,
      "特别会议": 7310,
      "妇女参与": 7311,
      "他们在": 7312,
      "大会第六十": 7313,
      "世界各地": 7314,
      "增加了": 7315,
      "审查了": 7316,
      "了一份": 7317,
      "残疾人权利": 7318,
      "专门机构": 7319,
      "保健服务": 7320,
      "生物多样性": 7321,
      "孩子们": 7322,
      "伊斯兰共和国": 7323,
      "劳工组织": 7324,
      "养恤金": 7325,
      "除其他外": 7326,
      "外层空间": 7327,
      "不列颠": 7328,
      "以英语发言": 7329,
      "厄立特里亚": 7330,
      "坦桑尼亚": 7331,
      "87": 7332,
      "91": 7333,
      "99": 7334,
      "”。": 7335,
      "》；": 7336,
      "万人": 7337,
      "不管": 7338,
      "不平等": 7339,
      "东耶路撒冷": 7340,
      "乍得": 7341,
      "事先": 7342,
      "产业": 7343,
      "产妇": 7344,
      "产权": 7345,
      "从未": 7346,
      "他还": 7347,
      "以使": 7348,
      "以此": 7349,
      "作品": 7350,
      "保加": 7351,
      "信用": 7352,
      "储备": 7353,
      "创建": 7354,
      "区别": 7355,
      "名义": 7356,
      "向委员会": 7357,
      "和行政": 7358,
      "商务": 7359,
      "在我们": 7360,
      "在全球": 7361,
      "基准": 7362,
      "备选": 7363,
      "奥运": 7364,
      "妈妈": 7365,
      "家人": 7366,
      "寻找": 7367,
      "尔多": 7368,
      "已有": 7369,
      "很好": 7370,
      "恶化": 7371,
      "慈善": 7372,
      "我知道": 7373,
      "所谓": 7374,
      "护理": 7375,
      "指数": 7376,
      "有着": 7377,
      "比利": 7378,
      "泰国": 7379,
      "生存": 7380,
      "由此": 7381,
      "电视": 7382,
      "病毒": 7383,
      "的条件": 7384,
      "的经验": 7385,
      "监禁": 7386,
      "矛盾": 7387,
      "穷人": 7388,
      "突出": 7389,
      "罗姆": 7390,
      "能否": 7391,
      "自从": 7392,
      "董事会": 7393,
      "被拘留": 7394,
      "被视为": 7395,
      "观念": 7396,
      "证人": 7397,
      "证券": 7398,
      "询问": 7399,
      "赞成": 7400,
      "这两个": 7401,
      "陷入": 7402,
      "面前": 7403,
      "音乐": 7404,
      "：\"": 7405,
      "联合国的": 7406,
      "以及其他": 7407,
      "经济和": 7408,
      "成员名额": 7409,
      "人民的": 7410,
      "作为一个": 7411,
      "确定的": 7412,
      "生活在": 7413,
      "发生了": 7414,
      "条约机构": 7415,
      "进一步加强": 7416,
      "特派团的": 7417,
      "民主主义": 7418,
      "设立一个": 7419,
      "监测和": 7420,
      "定期审议": 7421,
      "建筑物": 7422,
      "管辖权": 7423,
      "信息和通信技术": 7424,
      "68": 7425,
      "85": 7426,
      "一天": 7427,
      "与合作": 7428,
      "两国": 7429,
      "主动": 7430,
      "也会": 7431,
      "争取": 7432,
      "人格": 7433,
      "人道": 7434,
      "付款": 7435,
      "以上的": 7436,
      "企图": 7437,
      "伦敦": 7438,
      "住区": 7439,
      "作物": 7440,
      "使之": 7441,
      "先进": 7442,
      "关心": 7443,
      "关闭": 7444,
      "军备": 7445,
      "办理": 7446,
      "加上": 7447,
      "加尔": 7448,
      "加紧": 7449,
      "发动": 7450,
      "发放": 7451,
      "各代表团": 7452,
      "和大": 7453,
      "和法律": 7454,
      "和程序": 7455,
      "和加勒比": 7456,
      "咨委会": 7457,
      "四条": 7458,
      "在这些": 7459,
      "对联合国": 7460,
      "尼加拉": 7461,
      "已在": 7462,
      "并通过": 7463,
      "引渡": 7464,
      "强化": 7465,
      "强奸": 7466,
      "所规定的": 7467,
      "接近": 7468,
      "明白": 7469,
      "最好": 7470,
      "有义务": 7471,
      "来到": 7472,
      "正当": 7473,
      "洗钱": 7474,
      "测量": 7475,
      "海外": 7476,
      "消耗": 7477,
      "爱的": 7478,
      "现状": 7479,
      "的培训": 7480,
      "的个人": 7481,
      "直至": 7482,
      "空中": 7483,
      "突然": 7484,
      "第20": 7485,
      "粮农": 7486,
      "翻译": 7487,
      "自决": 7488,
      "自我": 7489,
      "自身": 7490,
      "良好的": 7491,
      "行星": 7492,
      "装备": 7493,
      "议员": 7494,
      "记忆": 7495,
      "该项": 7496,
      "谅解": 7497,
      "越南": 7498,
      "部和": 7499,
      "都必须": 7500,
      "雇用": 7501,
      "项下": 7502,
      "委员会成员": 7503,
      "报告和": 7504,
      "报告说": 7505,
      "人员地雷": 7506,
      "可以在": 7507,
      "儿童和": 7508,
      "协调一致": 7509,
      "法院的": 7510,
      "生活的": 7511,
      "标准的": 7512,
      "歧视公约": 7513,
      "公共部门": 7514,
      "经常预算": 7515,
      "在本报告所述期间": 7516,
      "下午3": 7517,
      "会计准则": 7518,
      "货币基金": 7519,
      "真正的": 7520,
      "最佳做法": 7521,
      "全体会议": 7522,
      "跨国有组织犯罪": 7523,
      "上午10": 7524,
      "杀伤人员地雷": 7525,
      "被占领土": 7526,
      "尼加拉瓜": 7527,
      "84": 7528,
      "96": 7529,
      "97": 7530,
      "》（": 7531,
      "七届会议": 7532,
      "三条": 7533,
      "三届会议": 7534,
      "不久": 7535,
      "不论": 7536,
      "也门": 7537,
      "仍有": 7538,
      "他是": 7539,
      "低于": 7540,
      "余额": 7541,
      "你知道": 7542,
      "倡导": 7543,
      "克服": 7544,
      "出于": 7545,
      "利润": 7546,
      "加剧": 7547,
      "匈牙": 7548,
      "单一": 7549,
      "参数": 7550,
      "合适": 7551,
      "后者": 7552,
      "和教育": 7553,
      "和使用": 7554,
      "四个": 7555,
      "固定": 7556,
      "国集团": 7557,
      "在内": 7558,
      "在对": 7559,
      "在执行": 7560,
      "地址": 7561,
      "坚定": 7562,
      "塔吉": 7563,
      "大大": 7564,
      "孟加拉": 7565,
      "尽早": 7566,
      "废除": 7567,
      "彼此": 7568,
      "很有": 7569,
      "思考": 7570,
      "愿望": 7571,
      "投诉": 7572,
      "接着": 7573,
      "施加": 7574,
      "日子": 7575,
      "日常": 7576,
      "明的": 7577,
      "是通过": 7578,
      "是为了": 7579,
      "有罪": 7580,
      "杀害": 7581,
      "条第1款": 7582,
      "查阅": 7583,
      "概算": 7584,
      "武力": 7585,
      "海上": 7586,
      "界定": 7587,
      "的反": 7588,
      "的可": 7589,
      "的管理": 7590,
      "的程序": 7591,
      "的相关": 7592,
      "着手": 7593,
      "等待": 7594,
      "经委会": 7595,
      "绿色": 7596,
      "缴纳": 7597,
      "罪犯": 7598,
      "耶稣": 7599,
      "航天": 7600,
      "覆盖": 7601,
      "赢得": 7602,
      "载于": 7603,
      "辅助": 7604,
      "还应": 7605,
      "还要": 7606,
      "遗产": 7607,
      "雇佣": 7608,
      "高效": 7609,
      "国家工作队": 7610,
      "委员会和": 7611,
      "委员会认为": 7612,
      "工作计划": 7613,
      "联合会": 7614,
      "社会的": 7615,
      "有关国家": 7616,
      "代表的": 7617,
      "没有任何": 7618,
      "规定了": 7619,
      "影响到": 7620,
      "要求的": 7621,
      "缔约国在": 7622,
      "秘书长关于": 7623,
      "行政和": 7624,
      "事务厅": 7625,
      "贸易和": 7626,
      "提高妇女地位": 7627,
      "确定了": 7628,
      "这是一个": 7629,
      "现有的": 7630,
      "履行其": 7631,
      "原因是": 7632,
      "申请人": 7633,
      "经费的": 7634,
      "普遍定期审议": 7635,
      "非正式协商": 7636,
      "伊朗伊斯兰共和国": 7637,
      "预防犯罪和": 7638,
      "阿拉伯叙利亚共和国": 7639,
      "保加利亚": 7640,
      "匈牙利": 7641,
      "1个": 7642,
      "2个": 7643,
      "一段": 7644,
      "不在": 7645,
      "不妨": 7646,
      "世贸": 7647,
      "乌拉圭": 7648,
      "也有": 7649,
      "人人": 7650,
      "传染": 7651,
      "使他们": 7652,
      "依靠": 7653,
      "停火": 7654,
      "共体": 7655,
      "其顿": 7656,
      "出售": 7657,
      "剩余": 7658,
      "副主席": 7659,
      "加速": 7660,
      "动态": 7661,
      "卖淫": 7662,
      "危地": 7663,
      "发射": 7664,
      "发行": 7665,
      "发基金": 7666,
      "变动": 7667,
      "另有": 7668,
      "各位": 7669,
      "和华": 7670,
      "和相关": 7671,
      "哈拉": 7672,
      "响应": 7673,
      "培养": 7674,
      "基因": 7675,
      "备忘": 7676,
      "天气": 7677,
      "妻子": 7678,
      "始终": 7679,
      "安置": 7680,
      "已成为": 7681,
      "巴林": 7682,
      "巴黎": 7683,
      "并加强": 7684,
      "很少": 7685,
      "必需": 7686,
      "想法": 7687,
      "我希望": 7688,
      "手术": 7689,
      "文章": 7690,
      "最初": 7691,
      "有害": 7692,
      "有什么": 7693,
      "有力的": 7694,
      "来看": 7695,
      "某个": 7696,
      "核可": 7697,
      "正义": 7698,
      "比如": 7699,
      "比率": 7700,
      "毛里": 7701,
      "民用": 7702,
      "气象": 7703,
      "沙特": 7704,
      "海底": 7705,
      "涵盖": 7706,
      "港口": 7707,
      "理事": 7708,
      "病人": 7709,
      "的三": 7710,
      "的那": 7711,
      "的技术": 7712,
      "的家庭": 7713,
      "的变化": 7714,
      "的可能性": 7715,
      "种种": 7716,
      "经理": 7717,
      "绩效": 7718,
      "罚款": 7719,
      "而采取的": 7720,
      "耶和华": 7721,
      "自行": 7722,
      "英文": 7723,
      "薪金": 7724,
      "要素": 7725,
      "解放": 7726,
      "警告": 7727,
      "记者": 7728,
      "该决议": 7729,
      "贝尔": 7730,
      "足球": 7731,
      "身上": 7732,
      "转型": 7733,
      "过的": 7734,
      "这意味着": 7735,
      "铁路": 7736,
      "限于": 7737,
      "马其顿": 7738,
      "麻醉": 7739,
      "）；": 7740,
      "国家警察": 7741,
      "发展援助": 7742,
      "联合国各": 7743,
      "政府在": 7744,
      "社会发展": 7745,
      "人权高专办": 7746,
      "世界的": 7747,
      "这种情况": 7748,
      "中国的": 7749,
      "主席的": 7750,
      "号决议中": 7751,
      "调查和": 7752,
      "强调了": 7753,
      "冲突后": 7754,
      "了一次": 7755,
      "直接投资": 7756,
      "预防和": 7757,
      "所需资源": 7758,
      "所需经费": 7759,
      "恐怖主义的": 7760,
      "同样的": 7761,
      "传统的": 7762,
      "少数民族": 7763,
      "引起的": 7764,
      "下午1": 7765,
      "至关重要的": 7766,
      "拉丁美洲和加勒比": 7767,
      "高等教育": 7768,
      "朝鲜民主主义": 7769,
      "侧重于": 7770,
      "裁军谈判会议": 7771,
      "危地马拉": 7772,
      "备忘录": 7773,
      "朝鲜民主主义人民共和国": 7774,
      "71": 7775,
      "74": 7776,
      "82": 7777,
      "86": 7778,
      "一只": 7779,
      "下一": 7780,
      "不符合": 7781,
      "之日": 7782,
      "以促进": 7783,
      "但他": 7784,
      "你要": 7785,
      "侵略": 7786,
      "兄弟": 7787,
      "入境": 7788,
      "农民": 7789,
      "判断": 7790,
      "制止": 7791,
      "刺激": 7792,
      "动力": 7793,
      "及北": 7794,
      "及太平洋": 7795,
      "同等": 7796,
      "周围": 7797,
      "和非": 7798,
      "和家庭": 7799,
      "哥斯": 7800,
      "国外": 7801,
      "在我": 7802,
      "多哈": 7803,
      "多次": 7804,
      "定罪": 7805,
      "对外": 7806,
      "小的": 7807,
      "展示": 7808,
      "工厂": 7809,
      "工艺": 7810,
      "幸福": 7811,
      "开会": 7812,
      "得出": 7813,
      "性武器": 7814,
      "总值": 7815,
      "您的": 7816,
      "担忧": 7817,
      "拖延": 7818,
      "排除": 7819,
      "明天": 7820,
      "是一项": 7821,
      "有点": 7822,
      "有用": 7823,
      "极其": 7824,
      "每个人": 7825,
      "永久": 7826,
      "沿海": 7827,
      "海岸": 7828,
      "消极": 7829,
      "游戏": 7830,
      "照料": 7831,
      "物资": 7832,
      "用品": 7833,
      "的缔约国": 7834,
      "真相": 7835,
      "离婚": 7836,
      "移交": 7837,
      "突尼斯": 7838,
      "红十字": 7839,
      "纪律": 7840,
      "结盟": 7841,
      "维修": 7842,
      "罪行的": 7843,
      "股票": 7844,
      "融合": 7845,
      "行预": 7846,
      "设在": 7847,
      "该方案": 7848,
      "轻武器": 7849,
      "达黎": 7850,
      "过于": 7851,
      "过度": 7852,
      "远远": 7853,
      "邮件": 7854,
      "限度": 7855,
      "韩国": 7856,
      "饮用": 7857,
      "马尔": 7858,
      "国家人权": 7859,
      "人权的": 7860,
      "没有人": 7861,
      "大会第5": 7862,
      "决定将": 7863,
      "目标是": 7864,
      "主要是": 7865,
      "作出决定": 7866,
      "第二条": 7867,
      "发言人": 7868,
      "0年代": 7869,
      "人们对": 7870,
      "巴勒斯坦领土": 7871,
      "协商一致": 7872,
      "受害人": 7873,
      "一直在": 7874,
      "组成的": 7875,
      "自然资源": 7876,
      "外交部": 7877,
      "部长级": 7878,
      "贩运人口": 7879,
      "反映了": 7880,
      "出席了": 7881,
      "背景下": 7882,
      "救济工程处": 7883,
      "年轻人": 7884,
      "不限成员名额": 7885,
      "小岛屿发展中国家": 7886,
      "常规武器": 7887,
      "近东救济工程处": 7888,
      "比利时": 7889,
      "粮农组织": 7890,
      "塔吉克斯坦": 7891,
      "孟加拉国": 7892,
      "哥斯达黎": 7893,
      "行预咨委会": 7894,
      "哥斯达黎加": 7895,
      "1月2": 7896,
      "上了": 7897,
      "上空": 7898,
      "不够": 7899,
      "不稳定": 7900,
      "与和平": 7901,
      "之二": 7902,
      "乌干": 7903,
      "了其": 7904,
      "互动": 7905,
      "人群": 7906,
      "件事": 7907,
      "会费": 7908,
      "做了": 7909,
      "内政": 7910,
      "内加尔": 7911,
      "减贫": 7912,
      "分散": 7913,
      "制品": 7914,
      "前景": 7915,
      "化和": 7916,
      "区分": 7917,
      "协同": 7918,
      "南方": 7919,
      "印发": 7920,
      "原来": 7921,
      "发电": 7922,
      "受伤": 7923,
      "台湾": 7924,
      "听到": 7925,
      "和协调": 7926,
      "和培训": 7927,
      "哪里": 7928,
      "在他": 7929,
      "地下": 7930,
      "塞内加尔": 7931,
      "处决": 7932,
      "处境": 7933,
      "外汇": 7934,
      "委托": 7935,
      "它还": 7936,
      "家的": 7937,
      "对他": 7938,
      "小姐": 7939,
      "小武器和": 7940,
      "尝试": 7941,
      "展览": 7942,
      "库存": 7943,
      "开办": 7944,
      "当中": 7945,
      "征求": 7946,
      "惩处": 7947,
      "感兴趣": 7948,
      "成年人": 7949,
      "扩展": 7950,
      "持有": 7951,
      "提升": 7952,
      "摆脱": 7953,
      "时限": 7954,
      "是什么": 7955,
      "有能力": 7956,
      "有机会": 7957,
      "杂志": 7958,
      "格兰": 7959,
      "氯化": 7960,
      "治安": 7961,
      "海事": 7962,
      "清除": 7963,
      "温室": 7964,
      "理想": 7965,
      "电信": 7966,
      "电脑": 7967,
      "的文件": 7968,
      "的必要": 7969,
      "的最后": 7970,
      "的案件": 7971,
      "的现象": 7972,
      "看看": 7973,
      "破产": 7974,
      "签订": 7975,
      "纲要": 7976,
      "纳米": 7977,
      "给了": 7978,
      "衡量": 7979,
      "表格": 7980,
      "见附件": 7981,
      "让我们": 7982,
      "诊断": 7983,
      "该报告": 7984,
      "足以": 7985,
      "跟踪": 7986,
      "这场": 7987,
      "都很": 7988,
      "重返": 7989,
      "金属": 7990,
      "集会": 7991,
      "鼓舞": 7992,
      "国际法庭": 7993,
      "我们对": 7994,
      "社会保障": 7995,
      "经济的": 7996,
      "人权问题": 7997,
      "世界首脑会议": 7998,
      "政策的": 7999,
      "研究和": 8000,
      "缔约国应": 8001,
      "的人数": 8002,
      "中国政府": 8003,
      "开展工作": 8004,
      "实施的": 8005,
      "行政首长": 8006,
      "能够在": 8007,
      "贸易法": 8008,
      "许多国家": 8009,
      "了一系列": 8010,
      "性别问题": 8011,
      "设立了": 8012,
      "巴勒斯坦人民": 8013,
      "成功地": 8014,
      "成功的": 8015,
      "违反了": 8016,
      "的最新": 8017,
      "发达国家的": 8018,
      "公民权利和": 8019,
      "定期报告": 8020,
      "主管部门": 8021,
      "举办了": 8022,
      "合理的": 8023,
      "生态系统": 8024,
      "强制性": 8025,
      "人权和基本自由": 8026,
      "遗憾的是": 8027,
      "志愿人员": 8028,
      "捷克共和国": 8029,
      "迫切需要": 8030,
      "不列颠及北": 8031,
      "乌干达": 8032,
      "不列颠及北爱尔兰": 8033,
      "%)": 8034,
      "300": 8035,
      "59": 8036,
      "78": 8037,
      "不罚": 8038,
      "中学": 8039,
      "中文": 8040,
      "中等": 8041,
      "主教": 8042,
      "九届会议": 8043,
      "买卖": 8044,
      "人或": 8045,
      "以法": 8046,
      "你就": 8047,
      "保存": 8048,
      "保安": 8049,
      "保密": 8050,
      "假设": 8051,
      "做到": 8052,
      "儿基": 8053,
      "免遭": 8054,
      "削弱": 8055,
      "加纳": 8056,
      "南南": 8057,
      "反腐败": 8058,
      "取代": 8059,
      "受教育": 8060,
      "同事": 8061,
      "名称": 8062,
      "向前": 8063,
      "否认": 8064,
      "和人权": 8065,
      "和服务": 8066,
      "回到": 8067,
      "圆桌": 8068,
      "妥善": 8069,
      "它是": 8070,
      "定为": 8071,
      "就像": 8072,
      "广大": 8073,
      "庆祝": 8074,
      "当选": 8075,
      "情形": 8076,
      "惯例": 8077,
      "我现在": 8078,
      "所设": 8079,
      "所采取的": 8080,
      "拉斯": 8081,
      "摩尔多": 8082,
      "支援": 8083,
      "支柱": 8084,
      "收益": 8085,
      "收费": 8086,
      "敌对": 8087,
      "旅费": 8088,
      "是我": 8089,
      "是根据": 8090,
      "晚上": 8091,
      "暂停": 8092,
      "更好的": 8093,
      "最大的": 8094,
      "期待": 8095,
      "本公约": 8096,
      "条的": 8097,
      "核实": 8098,
      "梦想": 8099,
      "检验": 8100,
      "波动": 8101,
      "消失": 8102,
      "特使": 8103,
      "特权": 8104,
      "玛丽": 8105,
      "现场": 8106,
      "的无": 8107,
      "的确": 8108,
      "的机构": 8109,
      "的世界": 8110,
      "的成员": 8111,
      "的专家": 8112,
      "的歧视": 8113,
      "的费用": 8114,
      "的实际": 8115,
      "的综合": 8116,
      "的挑战": 8117,
      "的重点": 8118,
      "的数量": 8119,
      "的事情": 8120,
      "盟约": 8121,
      "目录": 8122,
      "祝贺": 8123,
      "种植": 8124,
      "秘密": 8125,
      "第10": 8126,
      "等等": 8127,
      "简报": 8128,
      "联塞": 8129,
      "色的": 8130,
      "西岸": 8131,
      "见的": 8132,
      "警方": 8133,
      "该项目": 8134,
      "语发言": 8135,
      "较高": 8136,
      "近年来": 8137,
      "连接": 8138,
      "那种": 8139,
      "里面": 8140,
      "重复": 8141,
      "钻石": 8142,
      "阅读": 8143,
      "领袖": 8144,
      "首席": 8145,
      "首要": 8146,
      "马耳": 8147,
      "高于": 8148,
      "我们已经": 8149,
      "方面发挥": 8150,
      "环境的": 8151,
      "缔约国会议": 8152,
      "提交的报告": 8153,
      "获得了": 8154,
      "美国的": 8155,
      "发生在": 8156,
      "文化和": 8157,
      "存在着": 8158,
      "条约的": 8159,
      "企业的": 8160,
      "批准了": 8161,
      "独立专家": 8162,
      "科学家": 8163,
      "关切地注意到": 8164,
      "打击跨国有组织犯罪": 8165,
      "第四次": 8166,
      "安理会成员": 8167,
      "禁止酷刑": 8168,
      "第48": 8169,
      "武装团体": 8170,
      "指导原则": 8171,
      "附件一": 8172,
      "新闻部": 8173,
      "财务报表": 8174,
      "粮食安全": 8175,
      "外交部长": 8176,
      "危险的": 8177,
      "农村地区": 8178,
      "妇女和女童": 8179,
      "亚洲及太平洋": 8180,
      "密切合作": 8181,
      "委员会建议缔约国": 8182,
      "不利影响": 8183,
      "发了言": 8184,
      "大幅度": 8185,
      "放射性": 8186,
      "货币基金组织": 8187,
      "有罪不罚": 8188,
      "马其顿共和国": 8189,
      "公民权利和政治权利": 8190,
      "儿基会": 8191,
      "摩尔多瓦": 8192,
      "2条": 8193,
      "2号决议": 8194,
      "62": 8195,
      "76": 8196,
      "89": 8197,
      "下面": 8198,
      "不了": 8199,
      "不安": 8200,
      "与国际": 8201,
      "为期": 8202,
      "为联合国": 8203,
      "主导": 8204,
      "也在": 8205,
      "人才": 8206,
      "仇外": 8207,
      "任职": 8208,
      "优惠": 8209,
      "优质": 8210,
      "会谈": 8211,
      "何种": 8212,
      "你能": 8213,
      "信号": 8214,
      "信心": 8215,
      "偿还": 8216,
      "再生": 8217,
      "几个月": 8218,
      "刚刚": 8219,
      "加大": 8220,
      "博士": 8221,
      "受影响": 8222,
      "可行的": 8223,
      "吉尔": 8224,
      "周年": 8225,
      "和有": 8226,
      "器官": 8227,
      "困境": 8228,
      "国会": 8229,
      "图像": 8230,
      "在那": 8231,
      "地域": 8232,
      "均衡": 8233,
      "境内的": 8234,
      "复员": 8235,
      "好了": 8236,
      "学位": 8237,
      "宇宙": 8238,
      "对付": 8239,
      "对我": 8240,
      "小行星": 8241,
      "尽量": 8242,
      "工商": 8243,
      "巴马": 8244,
      "广播": 8245,
      "应由": 8246,
      "得多": 8247,
      "所提供的": 8248,
      "打开": 8249,
      "承受": 8250,
      "把他": 8251,
      "抓住": 8252,
      "提到的": 8253,
      "效应": 8254,
      "文尼亚": 8255,
      "最多": 8256,
      "有一些": 8257,
      "本地": 8258,
      "条的规定": 8259,
      "极大": 8260,
      "格式": 8261,
      "档案": 8262,
      "次数": 8263,
      "比绍": 8264,
      "爸爸": 8265,
      "犹太": 8266,
      "的关于": 8267,
      "的服务": 8268,
      "的参与": 8269,
      "的数据": 8270,
      "的形式": 8271,
      "的结构": 8272,
      "的答复": 8273,
      "短缺": 8274,
      "等方面的": 8275,
      "纤维": 8276,
      "组合": 8277,
      "细则": 8278,
      "自主": 8279,
      "节目": 8280,
      "蒙古": 8281,
      "证件": 8282,
      "说法": 8283,
      "谢谢": 8284,
      "负面": 8285,
      "质疑": 8286,
      "赞比亚": 8287,
      "距离": 8288,
      "跨界": 8289,
      "路线": 8290,
      "车辆": 8291,
      "输入": 8292,
      "还可以": 8293,
      "违背": 8294,
      "选民": 8295,
      "都将": 8296,
      "都可以": 8297,
      "重大的": 8298,
      "间接": 8299,
      "阐明": 8300,
      "阵线": 8301,
      "非正规": 8302,
      "顺序": 8303,
      "驻地": 8304,
      "）（": 8305,
      "20年": 8306,
      "国家安全": 8307,
      "问题是": 8308,
      "工作中": 8309,
      "发展计划": 8310,
      "国际会议": 8311,
      "国际和平与安全": 8312,
      "联合国在": 8313,
      "一个人": 8314,
      "我们可以": 8315,
      "我们希望": 8316,
      "提供支持": 8317,
      "提供援助": 8318,
      "代表大会": 8319,
      "人权状况": 8320,
      "所有会员国": 8321,
      "1999": 8322,
      "管理局": 8323,
      "区域和国际": 8324,
      "重要性": 8325,
      "采取一切": 8326,
      "加强对": 8327,
      "环境和": 8328,
      "环境保护": 8329,
      "环境规划署": 8330,
      "教育的": 8331,
      "的人们": 8332,
      "的一致": 8333,
      "提交报告": 8334,
      "提交人的": 8335,
      "非洲发展": 8336,
      "战略计划": 8337,
      "培训和": 8338,
      "专家小组": 8339,
      "人口贩运": 8340,
      "生产和": 8341,
      "严重违反": 8342,
      "及其对": 8343,
      "工作人员的": 8344,
      "咨询服务": 8345,
      "卫生部": 8346,
      "出现了": 8347,
      "知识产权": 8348,
      "人类住区": 8349,
      "统计数据": 8350,
      "外国人": 8351,
      "回顾其": 8352,
      "一定要": 8353,
      "最高法院": 8354,
      "失业率": 8355,
      "斯洛文尼亚": 8356,
      "着重指出": 8357,
      "问责制": 8358,
      "消除对妇女一切形式": 8359,
      "经费的筹措": 8360,
      "小武器和轻武器": 8361,
      "温室气体": 8362,
      "不列颠及北爱尔兰联合王国": 8363,
      "消除对妇女一切形式歧视公约": 8364,
      "400": 8365,
      "800": 8366,
      "98": 8367,
      "”“": 8368,
      "一张": 8369,
      "一部分": 8370,
      "上去": 8371,
      "上涨": 8372,
      "不确定": 8373,
      "不知道": 8374,
      "东南亚": 8375,
      "两种": 8376,
      "两者": 8377,
      "丧失": 8378,
      "个人的": 8379,
      "为其": 8380,
      "为由": 8381,
      "也就是": 8382,
      "于是": 8383,
      "五个": 8384,
      "京都": 8385,
      "他人": 8386,
      "代码": 8387,
      "但在": 8388,
      "债权": 8389,
      "先前": 8390,
      "克斯": 8391,
      "免疫": 8392,
      "公认": 8393,
      "六届会议": 8394,
      "共享": 8395,
      "典型": 8396,
      "农场": 8397,
      "准入": 8398,
      "几年": 8399,
      "分离": 8400,
      "列支": 8401,
      "利率": 8402,
      "别的": 8403,
      "十一": 8404,
      "变成": 8405,
      "句话": 8406,
      "可用": 8407,
      "可行": 8408,
      "各类": 8409,
      "各组织": 8410,
      "吉斯": 8411,
      "同行": 8412,
      "告知": 8413,
      "和在": 8414,
      "和多": 8415,
      "和对": 8416,
      "和工作": 8417,
      "和有关": 8418,
      "和信息": 8419,
      "和司法": 8420,
      "咖啡": 8421,
      "四年": 8422,
      "回家": 8423,
      "回收": 8424,
      "因特": 8425,
      "在美国": 8426,
      "在某些": 8427,
      "在那里": 8428,
      "增至": 8429,
      "复制": 8430,
      "复苏": 8431,
      "外债": 8432,
      "她说": 8433,
      "学会": 8434,
      "对妇女的": 8435,
      "寿命": 8436,
      "巡逻": 8437,
      "已被": 8438,
      "席位": 8439,
      "干扰": 8440,
      "年底": 8441,
      "并请": 8442,
      "并根据": 8443,
      "幼儿": 8444,
      "当代": 8445,
      "性暴力": 8446,
      "意外": 8447,
      "我对": 8448,
      "我可以": 8449,
      "把它": 8450,
      "报纸": 8451,
      "振兴": 8452,
      "据称": 8453,
      "接收": 8454,
      "提起": 8455,
      "敦士": 8456,
      "新伙伴关系": 8457,
      "更大": 8458,
      "更改": 8459,
      "有益": 8460,
      "有许多": 8461,
      "未来的": 8462,
      "本法": 8463,
      "本着": 8464,
      "本组织的": 8465,
      "权威": 8466,
      "每月": 8467,
      "比克": 8468,
      "毫不": 8469,
      "照片": 8470,
      "特性": 8471,
      "现已": 8472,
      "的有": 8473,
      "的地区": 8474,
      "的犯罪": 8475,
      "的生产": 8476,
      "的事实": 8477,
      "的危险": 8478,
      "的观点": 8479,
      "禁毒": 8480,
      "立陶": 8481,
      "童工": 8482,
      "等于": 8483,
      "细节": 8484,
      "终了": 8485,
      "网上": 8486,
      "罗毕": 8487,
      "署长": 8488,
      "老年": 8489,
      "胜利": 8490,
      "至今": 8491,
      "节省": 8492,
      "范畴": 8493,
      "萨尔": 8494,
      "观测": 8495,
      "视察": 8496,
      "让人": 8497,
      "该部": 8498,
      "该委员会": 8499,
      "该组织": 8500,
      "该地区": 8501,
      "说话": 8502,
      "资讯": 8503,
      "辩护": 8504,
      "运营": 8505,
      "还在": 8506,
      "追求": 8507,
      "那时": 8508,
      "都没有": 8509,
      "革命": 8510,
      "饥饿": 8511,
      "驳回": 8512,
      "委员会对": 8513,
      "委员会的报告": 8514,
      "我们还": 8515,
      "这些活动": 8516,
      "1998": 8517,
      "管理人员": 8518,
      "协调委员会": 8519,
      "秘书长的报告": 8520,
      "举行会议": 8521,
      "程序的": 8522,
      "预算外": 8523,
      "什么时候": 8524,
      "贸易的": 8525,
      "贸易和发展": 8526,
      "制定了": 8527,
      "标准和": 8528,
      "分析和": 8529,
      "草案的": 8530,
      "基本上": 8531,
      "建设性": 8532,
      "可持续性": 8533,
      "各项建议": 8534,
      "咨询小组": 8535,
      "第三次": 8536,
      "巴勒斯坦人": 8537,
      "250": 8538,
      "出现的": 8539,
      "成果文件": 8540,
      "金融机构": 8541,
      "金融危机": 8542,
      "星期二": 8543,
      "年度报告": 8544,
      "你们的": 8545,
      "十分重要": 8546,
      "捐助方": 8547,
      "工业化": 8548,
      "决策者": 8549,
      "不足以": 8550,
      "几内亚比绍": 8551,
      "常设论坛": 8552,
      "暴力侵害妇女": 8553,
      "消除对妇女歧视": 8554,
      "天然气": 8555,
      "言论自由": 8556,
      "预防犯罪和刑事司法": 8557,
      "列支敦士": 8558,
      "立陶宛": 8559,
      "5个": 8560,
      "7月2": 8561,
      "81": 8562,
      "一套": 8563,
      "七条": 8564,
      "两名": 8565,
      "两项": 8566,
      "个别": 8567,
      "中小": 8568,
      "为执行": 8569,
      "争论": 8570,
      "二条": 8571,
      "众多": 8572,
      "优化": 8573,
      "会见": 8574,
      "你说": 8575,
      "例外": 8576,
      "入学": 8577,
      "八届会议": 8578,
      "公里": 8579,
      "关联": 8580,
      "到达": 8581,
      "单元": 8582,
      "南苏丹": 8583,
      "去了": 8584,
      "另一种": 8585,
      "合格": 8586,
      "和妇女": 8587,
      "哈马": 8588,
      "团队": 8589,
      "圣诞": 8590,
      "在大": 8591,
      "地上": 8592,
      "基督": 8593,
      "处的": 8594,
      "多么": 8595,
      "奥巴马": 8596,
      "季度": 8597,
      "宝贵": 8598,
      "宣称": 8599,
      "将为": 8600,
      "小心": 8601,
      "小额": 8602,
      "尔德": 8603,
      "就能": 8604,
      "左右": 8605,
      "布什": 8606,
      "带着": 8607,
      "应根据": 8608,
      "引入": 8609,
      "当你": 8610,
      "德里": 8611,
      "忽视": 8612,
      "怀孕": 8613,
      "总数": 8614,
      "总的": 8615,
      "或有": 8616,
      "抑制": 8617,
      "放松": 8618,
      "政权": 8619,
      "整合": 8620,
      "文明": 8621,
      "斯科": 8622,
      "昨天": 8623,
      "是以": 8624,
      "更容易": 8625,
      "本人": 8626,
      "权益": 8627,
      "核材料": 8628,
      "检组": 8629,
      "欺诈": 8630,
      "此项": 8631,
      "法和": 8632,
      "津巴布": 8633,
      "海盗": 8634,
      "温度": 8635,
      "演讲": 8636,
      "澳门": 8637,
      "生计": 8638,
      "的保护": 8639,
      "的实施": 8640,
      "的全面": 8641,
      "的利益": 8642,
      "的目的": 8643,
      "的设计": 8644,
      "的贡献": 8645,
      "的证据": 8646,
      "禁令": 8647,
      "第19": 8648,
      "等级": 8649,
      "签名": 8650,
      "纳税": 8651,
      "编辑": 8652,
      "美丽": 8653,
      "老挝": 8654,
      "老龄": 8655,
      "老年人": 8656,
      "联刚": 8657,
      "联检组": 8658,
      "被迫": 8659,
      "裂变": 8660,
      "西洋": 8661,
      "要么": 8662,
      "见到": 8663,
      "视频": 8664,
      "该法": 8665,
      "该决议草案": 8666,
      "说道": 8667,
      "负有": 8668,
      "转化": 8669,
      "转换": 8670,
      "辐射": 8671,
      "边的": 8672,
      "逆转": 8673,
      "那是": 8674,
      "邮政": 8675,
      "邻国": 8676,
      "铭记": 8677,
      "顾客": 8678,
      "骚扰": 8679,
      "国家方案": 8680,
      "委员会请": 8681,
      "委员会主席": 8682,
      "问题和": 8683,
      "组织在": 8684,
      "我们也": 8685,
      "我们将": 8686,
      "提供有关": 8687,
      "提供资金": 8688,
      "这些人": 8689,
      "通过一项": 8690,
      "经济合作": 8691,
      "执行的": 8692,
      "他们还": 8693,
      "活动和": 8694,
      "项目厅": 8695,
      "管理层": 8696,
      "区域的": 8697,
      "重要作用": 8698,
      "大会的": 8699,
      "加强了": 8700,
      "资源和": 8701,
      "任何人": 8702,
      "人民政府": 8703,
      "建立的": 8704,
      "的一份": 8705,
      "协调和": 8706,
      "作出贡献": 8707,
      "提交给": 8708,
      "表示关切": 8709,
      "强调指出": 8710,
      "代表团认为": 8711,
      "制度的": 8712,
      "开发银行": 8713,
      "范围内的": 8714,
      "市场的": 8715,
      "消除贫穷": 8716,
      "咨询意见": 8717,
      "积极的": 8718,
      "尤其是在": 8719,
      "打击恐怖主义": 8720,
      "之间的关系": 8721,
      "指导方针": 8722,
      "的最佳": 8723,
      "委员会的建议": 8724,
      "内部审计": 8725,
      "专员办事处": 8726,
      "工业发展": 8727,
      "1989年": 8728,
      "青年人": 8729,
      "大量的": 8730,
      "外国直接投资": 8731,
      "告诉我": 8732,
      "--------": 8733,
      "最不发达国家的": 8734,
      "自治领土": 8735,
      "相同的": 8736,
      "包容性": 8737,
      "...": 8738,
      "示范法": 8739,
      "的一般性": 8740,
      "在这种情况下": 8741,
      "毁灭性武器": 8742,
      "世贸组织": 8743,
      "纳米比亚": 8744,
      "贸易法委员会": 8745,
      "因特网": 8746,
      "列支敦士登": 8747,
      "津巴布韦": 8748,
      "1名": 8749,
      "112": 8750,
      "3个": 8751,
      "7号决议": 8752,
      "8条": 8753,
      "一国": 8754,
      "一场": 8755,
      "一贯": 8756,
      "不如": 8757,
      "不结盟": 8758,
      "之处": 8759,
      "人事": 8760,
      "人生": 8761,
      "从中": 8762,
      "以支持": 8763,
      "会在": 8764,
      "你不": 8765,
      "修复": 8766,
      "先决": 8767,
      "全权": 8768,
      "全民": 8769,
      "公报": 8770,
      "内阁": 8771,
      "分区": 8772,
      "分列的": 8773,
      "力求": 8774,
      "动机": 8775,
      "参照": 8776,
      "友好": 8777,
      "向其": 8778,
      "听见": 8779,
      "和业务": 8780,
      "和其它": 8781,
      "商店": 8782,
      "器的": 8783,
      "在你": 8784,
      "在委员会": 8785,
      "在纽约": 8786,
      "境况": 8787,
      "复原": 8788,
      "多年来": 8789,
      "天内": 8790,
      "姓名": 8791,
      "子里": 8792,
      "学金": 8793,
      "对手": 8794,
      "对抗": 8795,
      "将由": 8796,
      "将这些": 8797,
      "将有助于": 8798,
      "就可以": 8799,
      "州的": 8800,
      "带有": 8801,
      "引发": 8802,
      "弥补": 8803,
      "得不到": 8804,
      "循环": 8805,
      "心里": 8806,
      "所示": 8807,
      "所造成的": 8808,
      "拉脱": 8809,
      "捕鱼": 8810,
      "排斥": 8811,
      "推行": 8812,
      "撒哈拉": 8813,
      "改为": 8814,
      "散发": 8815,
      "文职人员": 8816,
      "是从": 8817,
      "暂行": 8818,
      "更有": 8819,
      "未决": 8820,
      "本国的": 8821,
      "枪支": 8822,
      "核证": 8823,
      "案情": 8824,
      "桑比克": 8825,
      "毛额": 8826,
      "水的": 8827,
      "深信": 8828,
      "点的": 8829,
      "理念": 8830,
      "疑问": 8831,
      "的公约": 8832,
      "的同时": 8833,
      "的机制": 8834,
      "的进展": 8835,
      "的限制": 8836,
      "的城市": 8837,
      "的学生": 8838,
      "的受害者": 8839,
      "皮肤": 8840,
      "真是": 8841,
      "研所": 8842,
      "租金": 8843,
      "积累": 8844,
      "窗口": 8845,
      "紧迫": 8846,
      "结核": 8847,
      "统治": 8848,
      "缓慢": 8849,
      "缴款": 8850,
      "老板": 8851,
      "者在": 8852,
      "而非": 8853,
      "职类": 8854,
      "能量": 8855,
      "膨胀": 8856,
      "臭氧": 8857,
      "莫桑比克": 8858,
      "薪酬": 8859,
      "计量": 8860,
      "购置": 8861,
      "走了": 8862,
      "超出": 8863,
      "较低": 8864,
      "还请": 8865,
      "还没有": 8866,
      "这就": 8867,
      "选出": 8868,
      "部落": 8869,
      "都不": 8870,
      "都能": 8871,
      "里约": 8872,
      "金额": 8873,
      "阐述": 8874,
      "队伍": 8875,
      "零售": 8876,
      "非自治领土": 8877,
      "靠近": 8878,
      "顺利": 8879,
      "黑山": 8880,
      "2016": 8881,
      "国家一级": 8882,
      "委员会欢迎": 8883,
      "一个国家": 8884,
      "我们要": 8885,
      "方面所": 8886,
      "以及与": 8887,
      "以及关于": 8888,
      "社会主义": 8889,
      "这些措施": 8890,
      "关于在": 8891,
      "通过议程": 8892,
      "经济委员会": 8893,
      "他们对": 8894,
      "所有人": 8895,
      "所有权": 8896,
      "区域合作": 8897,
      "根据其": 8898,
      "采取适当": 8899,
      "保护儿童": 8900,
      "提出建议": 8901,
      "决定在": 8902,
      "服务和": 8903,
      "继续进行": 8904,
      "继续努力": 8905,
      "加强其": 8906,
      "促进发展": 8907,
      "行为体": 8908,
      "150": 8909,
      "建立信任": 8910,
      "审查和": 8911,
      "开展的": 8912,
      "家庭成员": 8913,
      "犯罪的": 8914,
      "机制的": 8915,
      "时间表": 8916,
      "分析了": 8917,
      "生产总值": 8918,
      "了一种": 8919,
      "造成了": 8920,
      "目的地": 8921,
      "科学和技术": 8922,
      "稳定的": 8923,
      "000名": 8924,
      "就业和": 8925,
      "就业机会": 8926,
      "星期三": 8927,
      "星期四": 8928,
      "产品的": 8929,
      "宣言和": 8930,
      "明确的": 8931,
      "7月1日至": 8932,
      "千年宣言": 8933,
      "我国代表团": 8934,
      "捐助国": 8935,
      "登记册": 8936,
      "1月1日": 8937,
      "做出了": 8938,
      "21世纪": 8939,
      "告诉你": 8940,
      "海洋法": 8941,
      "各个方面": 8942,
      "移徙工人": 8943,
      "相当于": 8944,
      "社会和文化权利": 8945,
      "高级别会议": 8946,
      "越来越多": 8947,
      "第七十": 8948,
      "居住在": 8949,
      "现代化": 8950,
      "旅游业": 8951,
      "防治荒漠化": 8952,
      "大规模毁灭性武器": 8953,
      "正确的": 8954,
      "人权事务高级专员办事处": 8955,
      "补助金": 8956,
      "前南斯拉夫的": 8957,
      "弱势群体": 8958,
      "所谓的": 8959,
      "马耳他": 8960,
      "仇外心理": 8961,
      "4个": 8962,
      "7个": 8963,
      "700": 8964,
      "95": 8965,
      "一词": 8966,
      "一边": 8967,
      "上次": 8968,
      "不错": 8969,
      "不人道": 8970,
      "两位": 8971,
      "两次": 8972,
      "为1": 8973,
      "为在": 8974,
      "之际": 8975,
      "乌兹": 8976,
      "也应": 8977,
      "也能": 8978,
      "了这一": 8979,
      "于2008年": 8980,
      "今日": 8981,
      "仔细": 8982,
      "他把": 8983,
      "代价": 8984,
      "仪式": 8985,
      "但它": 8986,
      "倾向": 8987,
      "偷运": 8988,
      "全文": 8989,
      "公园": 8990,
      "六条": 8991,
      "关押": 8992,
      "兴奋": 8993,
      "内陆": 8994,
      "准许": 8995,
      "出境": 8996,
      "分庭": 8997,
      "分开": 8998,
      "分区域": 8999,
      "列表": 9000,
      "动荡": 9001,
      "危及": 9002,
      "发病": 9003,
      "发送": 9004,
      "受援": 9005,
      "可供": 9006,
      "号码": 9007,
      "各会员国": 9008,
      "和他": 9009,
      "和谐": 9010,
      "和政府": 9011,
      "和文化": 9012,
      "咨商": 9013,
      "国王": 9014,
      "土壤": 9015,
      "在整个": 9016,
      "地带": 9017,
      "大楼": 9018,
      "大不列颠及北爱尔兰联合王国": 9019,
      "大西洋": 9020,
      "奖励": 9021,
      "她在": 9022,
      "如同": 9023,
      "定了": 9024,
      "实物": 9025,
      "客观": 9026,
      "富有": 9027,
      "对策": 9028,
      "岁以下": 9029,
      "常会": 9030,
      "干涉": 9031,
      "开幕": 9032,
      "开设": 9033,
      "当作": 9034,
      "性剥削": 9035,
      "恐惧": 9036,
      "患者": 9037,
      "想到": 9038,
      "意志": 9039,
      "成熟": 9040,
      "我谨": 9041,
      "技巧": 9042,
      "捍卫": 9043,
      "授予": 9044,
      "提倡": 9045,
      "改组": 9046,
      "文学": 9047,
      "斯基": 9048,
      "斯先生": 9049,
      "新兴": 9050,
      "新生": 9051,
      "旋转": 9052,
      "是指": 9053,
      "暗示": 9054,
      "有机": 9055,
      "有很多": 9056,
      "本来": 9057,
      "机械": 9058,
      "权限": 9059,
      "构建": 9060,
      "林业": 9061,
      "林匹": 9062,
      "模拟": 9063,
      "死了": 9064,
      "民兵": 9065,
      "流程": 9066,
      "消灭": 9067,
      "深刻": 9068,
      "游客": 9069,
      "漂亮": 9070,
      "热情": 9071,
      "爱情": 9072,
      "版本": 9073,
      "特区": 9074,
      "犯下": 9075,
      "由联合国": 9076,
      "男人": 9077,
      "的时": 9078,
      "的高": 9079,
      "的组织": 9080,
      "的分析": 9081,
      "的地位": 9082,
      "的选择": 9083,
      "的质量": 9084,
      "的精神": 9085,
      "的比例": 9086,
      "的待遇": 9087,
      "看到了": 9088,
      "算法": 9089,
      "紧密": 9090,
      "线电": 9091,
      "联黎": 9092,
      "表面": 9093,
      "西藏": 9094,
      "认捐": 9095,
      "贝宁": 9096,
      "身边": 9097,
      "辱人格": 9098,
      "还需要": 9099,
      "这笔": 9100,
      "逻辑": 9101,
      "遗传": 9102,
      "遗留": 9103,
      "都要": 9104,
      "配偶": 9105,
      "鉴定": 9106,
      "间的": 9107,
      "防范": 9108,
      "阶层": 9109,
      "院校": 9110,
      "院长": 9111,
      "零零": 9112,
      "非国家": 9113,
      "首都": 9114,
      "联合共和国": 9115,
      "提供技术援助": 9116,
      "包括对": 9117,
      "包括通过": 9118,
      "包括东耶路撒冷": 9119,
      "机构在": 9120,
      "行动方案": 9121,
      "特别行政": 9122,
      "安全部队": 9123,
      "所有这些": 9124,
      "1996": 9125,
      "公约的": 9126,
      "合作社": 9127,
      "可能的": 9128,
      "管理的": 9129,
      "区域中心": 9130,
      "大会第五十": 9131,
      "法律援助": 9132,
      "世界贸易": 9133,
      "措施来": 9134,
      "提出报告": 9135,
      "行为者": 9136,
      "任何时候": 9137,
      "成员国的": 9138,
      "全球性": 9139,
      "作出努力": 9140,
      "政治意愿": 9141,
      "战略和": 9142,
      "140": 9143,
      "方法和": 9144,
      "期间的": 9145,
      "预算问题": 9146,
      "制定的": 9147,
      "必要时": 9148,
      "充分利用": 9149,
      "可持续的": 9150,
      "说明了": 9151,
      "性别观点": 9152,
      "是否有": 9153,
      "卫生和": 9154,
      "第三个": 9155,
      "尽管如此": 9156,
      "一般事务": 9157,
      "过去的": 9158,
      "财政资源": 9159,
      "第五委员会": 9160,
      "第3条": 9161,
      "防止和": 9162,
      "提出的建议": 9163,
      "粮食计划署": 9164,
      "只有在": 9165,
      "的权利和": 9166,
      "电子邮件": 9167,
      "有些人": 9168,
      "签署了": 9169,
      "基于性别": 9170,
      "发表的": 9171,
      "编写的": 9172,
      "妇女和女孩": 9173,
      "自愿捐款": 9174,
      "召开的": 9175,
      "复杂的": 9176,
      "多样化": 9177,
      "维持和平行动部": 9178,
      "第七条": 9179,
      "赞赏地注意到": 9180,
      "在国家一级": 9181,
      "亚太经社会": 9182,
      "生殖健康": 9183,
      "营养不良": 9184,
      "养恤基金": 9185,
      "危害人类": 9186,
      "提请注意": 9187,
      "附属机构": 9188,
      "中非共和国": 9189,
      "约束力的": 9190,
      "国际刑事法院": 9191,
      "坦桑尼亚联合共和国": 9192,
      "公共部门会计准则": 9193,
      "下午3时": 9194,
      "沙特阿拉伯": 9195,
      "圆桌会议": 9196,
      "打击跨国有组织犯罪公约": 9197,
      "吉尔吉斯": 9198,
      "先决条件": 9199,
      "拉脱维亚": 9200,
      "前南斯拉夫的马其顿共和国": 9201,
      "乌兹别": 9202,
      "%(": 9203,
      "110": 9204,
      "500美元": 9205,
      "8月2": 9206,
      "93": 9207,
      "一事": 9208,
      "一半": 9209,
      "一家": 9210,
      "一方": 9211,
      "一开始": 9212,
      "下一个": 9213,
      "不予": 9214,
      "不少": 9215,
      "不想": 9216,
      "不起": 9217,
      "两级": 9218,
      "个案": 9219,
      "为促进": 9220,
      "为确保": 9221,
      "主人": 9222,
      "了吗": 9223,
      "于2005年": 9224,
      "休息": 9225,
      "低收入": 9226,
      "使他": 9227,
      "做的": 9228,
      "健全": 9229,
      "克力": 9230,
      "关税": 9231,
      "内罗毕": 9232,
      "军火": 9233,
      "冰岛": 9234,
      "净额": 9235,
      "列为": 9236,
      "判例": 9237,
      "判处": 9238,
      "利尔": 9239,
      "前进": 9240,
      "十五": 9241,
      "华盛": 9242,
      "即便": 9243,
      "原理": 9244,
      "司长": 9245,
      "含义": 9246,
      "和我": 9247,
      "和分析": 9248,
      "围绕": 9249,
      "国别": 9250,
      "国有": 9251,
      "在同": 9252,
      "在外": 9253,
      "在线": 9254,
      "在2008年": 9255,
      "地图": 9256,
      "地面": 9257,
      "均应": 9258,
      "填补": 9259,
      "复兴": 9260,
      "大力": 9261,
      "失望": 9262,
      "奖学金": 9263,
      "女子": 9264,
      "妇发基金": 9265,
      "娱乐": 9266,
      "孕妇": 9267,
      "它在": 9268,
      "家园": 9269,
      "密度": 9270,
      "对他们": 9271,
      "对儿童": 9272,
      "将对": 9273,
      "尔斯": 9274,
      "尔特": 9275,
      "局面": 9276,
      "布尔": 9277,
      "布罗": 9278,
      "帐户": 9279,
      "平方": 9280,
      "并无": 9281,
      "并欢迎": 9282,
      "并呼吁": 9283,
      "应继续": 9284,
      "强有力的": 9285,
      "形象": 9286,
      "心脏": 9287,
      "急剧": 9288,
      "总干事": 9289,
      "成的": 9290,
      "我将": 9291,
      "我很": 9292,
      "房地": 9293,
      "护照": 9294,
      "接待": 9295,
      "推出": 9296,
      "撤销": 9297,
      "支配": 9298,
      "收获": 9299,
      "收到了": 9300,
      "教堂": 9301,
      "数学": 9302,
      "文字": 9303,
      "无效": 9304,
      "无障碍": 9305,
      "是为": 9306,
      "普查": 9307,
      "来了": 9308,
      "格林": 9309,
      "每周": 9310,
      "每日": 9311,
      "汤姆": 9312,
      "沟通": 9313,
      "河流": 9314,
      "清理": 9315,
      "源于": 9316,
      "演员": 9317,
      "物理": 9318,
      "牺牲": 9319,
      "瓦多": 9320,
      "申明": 9321,
      "留在": 9322,
      "疟疾": 9323,
      "的外": 9324,
      "的实": 9325,
      "的政府": 9326,
      "的公司": 9327,
      "的共同": 9328,
      "的业务": 9329,
      "的性质": 9330,
      "监护": 9331,
      "礼物": 9332,
      "离子": 9333,
      "种类": 9334,
      "穿过": 9335,
      "章程": 9336,
      "等问题": 9337,
      "等方面": 9338,
      "筹集": 9339,
      "米尔": 9340,
      "精力": 9341,
      "经合": 9342,
      "经社": 9343,
      "网页": 9344,
      "自卫": 9345,
      "致命": 9346,
      "花费": 9347,
      "营地": 9348,
      "血液": 9349,
      "行事": 9350,
      "被剥夺": 9351,
      "西方": 9352,
      "认定": 9353,
      "让他们": 9354,
      "训研所": 9355,
      "设定": 9356,
      "谋求": 9357,
      "贯彻": 9358,
      "赠款": 9359,
      "赤字": 9360,
      "转递": 9361,
      "较少": 9362,
      "进去": 9363,
      "进度": 9364,
      "退化": 9365,
      "那就是": 9366,
      "酋长": 9367,
      "采矿": 9368,
      "页次": 9369,
      "预警": 9370,
      "领取": 9371,
      "马上": 9372,
      "驱动": 9373,
      "％，": 9374,
      "国家在": 9375,
      "问题工作组": 9376,
      "发展权": 9377,
      "联合国机构": 9378,
      "社会经济": 9379,
      "进行调查": 9380,
      "通过其": 9381,
      "没有得到": 9382,
      "大会在": 9383,
      "计划和": 9384,
      "法律和": 9385,
      "世界人权": 9386,
      "目标的": 9387,
      "这种做法": 9388,
      "能力的": 9389,
      "部门和": 9390,
      "因为它": 9391,
      "共和国总统": 9392,
      "增加到": 9393,
      "增加对": 9394,
      "全球经济": 9395,
      "开展的工作": 9396,
      "审议大会": 9397,
      "方面的作用": 9398,
      "表示欢迎": 9399,
      "提高了": 9400,
      "歧视性": 9401,
      "必要措施": 9402,
      "这样一个": 9403,
      "以便在": 9404,
      "减少灾害": 9405,
      "接受了": 9406,
      "责任的": 9407,
      "充分执行": 9408,
      "公共行政": 9409,
      "第26": 9410,
      "第2条": 9411,
      "健康的": 9412,
      "完成了": 9413,
      "巴勒斯坦被占领土": 9414,
      "地位的": 9415,
      "第60": 9416,
      "第64": 9417,
      "刑事诉讼": 9418,
      "专业人员": 9419,
      "结论性": 9420,
      "内部监督": 9421,
      "美洲国家": 9422,
      "竞争力": 9423,
      "成立了": 9424,
      "主管当局": 9425,
      "妇女和儿童": 9426,
      "有限的": 9427,
      "自治区": 9428,
      "常驻代表": 9429,
      "类似的": 9430,
      "国民议会": 9431,
      "增进和保护": 9432,
      "国家和区域": 9433,
      "补救办法": 9434,
      "区域和国家": 9435,
      "77国集团": 9436,
      "殖民化": 9437,
      "迄今为止": 9438,
      "人居署": 9439,
      "常驻联合国代表": 9440,
      "劳动力市场": 9441,
      "外勤支助": 9442,
      "上午10时": 9443,
      "再生能源": 9444,
      "萨尔瓦多": 9445,
      "裂变材料": 9446,
      "联黎部队": 9447,
      "吉尔吉斯斯坦": 9448,
      "华盛顿": 9449,
      "%；": 9450,
      "(《": 9451,
      "),": 9452,
      "5号决议": 9453,
      "600美元": 9454,
      "7条": 9455,
      "88": 9456,
      "上一": 9457,
      "上学": 9458,
      "上面": 9459,
      "下述": 9460,
      "不变": 9461,
      "不愿": 9462,
      "不用": 9463,
      "专利": 9464,
      "中对": 9465,
      "中方": 9466,
      "中止": 9467,
      "为使": 9468,
      "也可": 9469,
      "也不会": 9470,
      "书记": 9471,
      "了我": 9472,
      "二氧化": 9473,
      "二零零": 9474,
      "于2011年": 9475,
      "亚那": 9476,
      "产量": 9477,
      "人物": 9478,
      "以加强": 9479,
      "以确定": 9480,
      "优秀": 9481,
      "会晤": 9482,
      "伟大的": 9483,
      "传真": 9484,
      "伤亡": 9485,
      "估算": 9486,
      "作家": 9487,
      "作证": 9488,
      "使命": 9489,
      "使我们": 9490,
      "侵权": 9491,
      "借此": 9492,
      "债券": 9493,
      "假期": 9494,
      "免受": 9495,
      "入侵": 9496,
      "八条": 9497,
      "六个月": 9498,
      "减灾": 9499,
      "划分": 9500,
      "列出": 9501,
      "利息": 9502,
      "到底": 9503,
      "制约": 9504,
      "动员": 9505,
      "助长": 9506,
      "势头": 9507,
      "化合": 9508,
      "医学": 9509,
      "博茨": 9510,
      "卡拉": 9511,
      "印刷": 9512,
      "即可": 9513,
      "口译": 9514,
      "可信": 9515,
      "可怕": 9516,
      "同步": 9517,
      "名册": 9518,
      "名的": 9519,
      "命运": 9520,
      "和组织": 9521,
      "和儿童": 9522,
      "和支持": 9523,
      "和地方": 9524,
      "土库": 9525,
      "在2002年": 9526,
      "在同一": 9527,
      "圭亚那": 9528,
      "地参与": 9529,
      "增多": 9530,
      "处以": 9531,
      "处置": 9532,
      "多元": 9533,
      "太空": 9534,
      "头发": 9535,
      "女儿": 9536,
      "宏观": 9537,
      "定位": 9538,
      "家里": 9539,
      "家长": 9540,
      "对你": 9541,
      "对在": 9542,
      "将此": 9543,
      "届会": 9544,
      "屠杀": 9545,
      "巧克力": 9546,
      "已知": 9547,
      "巴拿": 9548,
      "并由": 9549,
      "并提供": 9550,
      "并要求": 9551,
      "并强调": 9552,
      "并为此": 9553,
      "当他": 9554,
      "彼得": 9555,
      "忘记": 9556,
      "态发展": 9557,
      "慢慢": 9558,
      "成长": 9559,
      "所产生的": 9560,
      "所说的": 9561,
      "批款": 9562,
      "援引": 9563,
      "携带": 9564,
      "撤回": 9565,
      "撤离": 9566,
      "收购": 9567,
      "改造": 9568,
      "救助": 9569,
      "斯加": 9570,
      "斯德": 9571,
      "新型": 9572,
      "无人": 9573,
      "无需": 9574,
      "无国籍": 9575,
      "是将": 9576,
      "是我们": 9577,
      "暂时": 9578,
      "更广泛": 9579,
      "曼谷": 9580,
      "曼斯坦": 9581,
      "杰克": 9582,
      "标题": 9583,
      "模块": 9584,
      "欧安": 9585,
      "残忍": 9586,
      "段落": 9587,
      "每次": 9588,
      "求斯": 9589,
      "汇报": 9590,
      "派驻": 9591,
      "流量": 9592,
      "浪费": 9593,
      "海牙": 9594,
      "热带": 9595,
      "煤炭": 9596,
      "物流": 9597,
      "特遣": 9598,
      "率和": 9599,
      "瓦纳": 9600,
      "生境": 9601,
      "申报": 9602,
      "的气": 9603,
      "的水": 9604,
      "的讨论": 9605,
      "的发言": 9606,
      "的暴力": 9607,
      "的市场": 9608,
      "的适当": 9609,
      "的现有": 9610,
      "的产品": 9611,
      "的因素": 9612,
      "的土地": 9613,
      "的条款": 9614,
      "的平均": 9615,
      "的目的是": 9616,
      "的定义": 9617,
      "的效果": 9618,
      "看出": 9619,
      "神经": 9620,
      "禁产": 9621,
      "离职": 9622,
      "终于": 9623,
      "绑架": 9624,
      "维尔": 9625,
      "美的": 9626,
      "老人": 9627,
      "考察": 9628,
      "聚集": 9629,
      "至2": 9630,
      "艰难": 9631,
      "蓄意": 9632,
      "警务": 9633,
      "认证": 9634,
      "让你": 9635,
      "设有": 9636,
      "超越": 9637,
      "路易": 9638,
      "较为": 9639,
      "运转": 9640,
      "这就是": 9641,
      "远离": 9642,
      "连贯": 9643,
      "迹象": 9644,
      "造林": 9645,
      "遇到的": 9646,
      "部件": 9647,
      "附上": 9648,
      "除外": 9649,
      "颁发": 9650,
      "预备": 9651,
      "？”": 9652,
      "委员会的工作": 9653,
      "工作者": 9654,
      "发展议程": 9655,
      "发展筹资": 9656,
      "联合国志愿人员": 9657,
      "提供资料": 9658,
      "进行审查": 9659,
      "关于联合国": 9660,
      "执行委员会": 9661,
      "特别顾问": 9662,
      "有关的问题": 9663,
      "活动中": 9664,
      "106": 9665,
      "1994": 9666,
      "1997": 9667,
      "12个月": 9668,
      "可能对": 9669,
      "技术的": 9670,
      "需要在": 9671,
      "世界会议": 9672,
      "世界卫生组织": 9673,
      "采取步骤": 9674,
      "保护平民": 9675,
      "和平进程": 9676,
      "基金和": 9677,
      "目标和": 9678,
      "这个问题的": 9679,
      "人民法院": 9680,
      "解决方案": 9681,
      "解决争端": 9682,
      "如果不": 9683,
      "如果我": 9684,
      "有效执行": 9685,
      "第二委员会": 9686,
      "行政部门": 9687,
      "表示支持": 9688,
      "表示关注": 9689,
      "目前在": 9690,
      "188": 9691,
      "专家会议": 9692,
      "时间内": 9693,
      "人口的": 9694,
      "成为一个": 9695,
      "30年": 9696,
      "应当在": 9697,
      "安全理事会主席": 9698,
      "安全理事会第15": 9699,
      "产生的影响": 9700,
      "公共服务": 9701,
      "难民营": 9702,
      "难民专员办事处": 9703,
      "国内生产总值": 9704,
      "第三届会议": 9705,
      "第21": 9706,
      "涉及到": 9707,
      "稳定团": 9708,
      "000万": 9709,
      "种族灭绝": 9710,
      "之间的合作": 9711,
      "非政府组织的": 9712,
      "全国人民": 9713,
      "第39": 9714,
      "发挥作用": 9715,
      "的一个重要": 9716,
      "的最大": 9717,
      "显示出": 9718,
      "阿拉伯国家": 9719,
      "该国政府": 9720,
      "达成的": 9721,
      "达成协议": 9722,
      "分配给": 9723,
      "法官和": 9724,
      "支付的": 9725,
      "占领国": 9726,
      "战争罪": 9727,
      "寻求庇护": 9728,
      "政府间组织": 9729,
      "筹备委员会": 9730,
      "提案国": 9731,
      "清楚地": 9732,
      "罗马规约": 9733,
      "预期成绩": 9734,
      "混合行动": 9735,
      "区域和次区域": 9736,
      "主席团成员": 9737,
      "指挥官": 9738,
      "监察员": 9739,
      "职权范围": 9740,
      "强迫失踪": 9741,
      "派遣国": 9742,
      "学术界": 9743,
      "边缘化": 9744,
      "6月30日期间": 9745,
      "附加议定书": 9746,
      "蒙特利尔": 9747,
      "促进和保护人权": 9748,
      "东道国": 9749,
      "被拘留者": 9750,
      "雇佣军": 9751,
      "毛里求斯": 9752,
      "之日起": 9753,
      "国家人权机构": 9754,
      "公民权利和政治权利国际公约": 9755,
      "驻地协调员": 9756,
      "京都议定书": 9757,
      "债权人": 9758,
      "全权证书": 9759,
      "特别行政区": 9760,
      "结论性意见": 9761,
      "博茨瓦纳": 9762,
      "土库曼斯坦": 9763,
      "巴拿马": 9764,
      "%）": 9765,
      "6个": 9766,
      "8个": 9767,
      "不知": 9768,
      "不见": 9769,
      "与国家": 9770,
      "专用": 9771,
      "业已": 9772,
      "为实现": 9773,
      "为解决": 9774,
      "为自己": 9775,
      "举报": 9776,
      "之所以": 9777,
      "也对": 9778,
      "也将": 9779,
      "也不能": 9780,
      "买加": 9781,
      "了在": 9782,
      "交给": 9783,
      "仇恨": 9784,
      "他一": 9785,
      "他认为": 9786,
      "以避免": 9787,
      "会使": 9788,
      "会期": 9789,
      "传递": 9790,
      "住在": 9791,
      "佛得": 9792,
      "促成": 9793,
      "修建": 9794,
      "借助": 9795,
      "党派": 9796,
      "公然": 9797,
      "公顷": 9798,
      "共和": 9799,
      "关心的": 9800,
      "其对": 9801,
      "冲击": 9802,
      "冻结": 9803,
      "分担": 9804,
      "分歧": 9805,
      "列举": 9806,
      "创业": 9807,
      "动产": 9808,
      "十二": 9809,
      "占据": 9810,
      "原始": 9811,
      "原料": 9812,
      "发给": 9813,
      "可再生能源": 9814,
      "同性": 9815,
      "同联合国": 9816,
      "呼吸": 9817,
      "和你": 9818,
      "和方法": 9819,
      "和鼓励": 9820,
      "和维护": 9821,
      "和相互": 9822,
      "咱们": 9823,
      "哥尔": 9824,
      "在其他": 9825,
      "在日内瓦": 9826,
      "地质": 9827,
      "地铁": 9828,
      "坐在": 9829,
      "埃尔": 9830,
      "城镇": 9831,
      "大气": 9832,
      "大脑": 9833,
      "太多": 9834,
      "宝石": 9835,
      "实的": 9836,
      "室内": 9837,
      "对国际": 9838,
      "将是": 9839,
      "将要": 9840,
      "小孩": 9841,
      "小说": 9842,
      "少女": 9843,
      "尤为": 9844,
      "就在": 9845,
      "就要": 9846,
      "就必须": 9847,
      "居留": 9848,
      "并应": 9849,
      "并鼓励": 9850,
      "应有": 9851,
      "强大的": 9852,
      "当今": 9853,
      "形态": 9854,
      "征得": 9855,
      "成人": 9856,
      "我方": 9857,
      "截止": 9858,
      "才会": 9859,
      "扣押": 9860,
      "找出": 9861,
      "承包": 9862,
      "抗议": 9863,
      "报复": 9864,
      "披露": 9865,
      "抵押": 9866,
      "拉加": 9867,
      "招募": 9868,
      "指令": 9869,
      "指定的": 9870,
      "损伤": 9871,
      "据说": 9872,
      "推迟": 9873,
      "提取": 9874,
      "撰写": 9875,
      "文献": 9876,
      "斐济": 9877,
      "新技术": 9878,
      "施行": 9879,
      "无关": 9880,
      "无害": 9881,
      "无线电": 9882,
      "既然": 9883,
      "是你": 9884,
      "最好的": 9885,
      "有个": 9886,
      "有待": 9887,
      "木材": 9888,
      "本周": 9889,
      "本决议": 9890,
      "机密": 9891,
      "条文": 9892,
      "样子": 9893,
      "根除": 9894,
      "森堡": 9895,
      "段中": 9896,
      "民航": 9897,
      "水资源": 9898,
      "汇编": 9899,
      "沉重": 9900,
      "沙尼亚": 9901,
      "活力": 9902,
      "流感": 9903,
      "淘汰": 9904,
      "激励": 9905,
      "灵魂": 9906,
      "爆发": 9907,
      "爱沙尼亚": 9908,
      "牙买加": 9909,
      "球员": 9910,
      "症状": 9911,
      "百万": 9912,
      "的主": 9913,
      "的审议": 9914,
      "的支助": 9915,
      "的自由": 9916,
      "的存在": 9917,
      "的企业": 9918,
      "的领导": 9919,
      "的谈判": 9920,
      "的规则": 9921,
      "的事件": 9922,
      "的威胁": 9923,
      "的局势": 9924,
      "的解释": 9925,
      "的声音": 9926,
      "直布罗": 9927,
      "看待": 9928,
      "看到的": 9929,
      "看上去": 9930,
      "石棉": 9931,
      "示威": 9932,
      "禁运": 9933,
      "福祉": 9934,
      "称赞": 9935,
      "究竟": 9936,
      "精确": 9937,
      "素质": 9938,
      "纠正": 9939,
      "缩小": 9940,
      "而已": 9941,
      "聚会": 9942,
      "股东": 9943,
      "船舶": 9944,
      "色情": 9945,
      "苹果": 9946,
      "营业": 9947,
      "裁谈": 9948,
      "见下文": 9949,
      "让他": 9950,
      "记住": 9951,
      "记得": 9952,
      "该国的": 9953,
      "调节": 9954,
      "谈到": 9955,
      "轨道": 9956,
      "近期": 9957,
      "还指出": 9958,
      "这对": 9959,
      "进来": 9960,
      "进出口": 9961,
      "追究": 9962,
      "通道": 9963,
      "遣返": 9964,
      "酒吧": 9965,
      "采纳": 9966,
      "防御": 9967,
      "防护": 9968,
      "阿布": 9969,
      "马达": 9970,
      "委员会关于": 9971,
      "工作场所": 9972,
      "国际文书": 9973,
      "联合国会员国": 9974,
      "联合国儿童基金会": 9975,
      "政府与": 9976,
      "政府对": 9977,
      "政府已": 9978,
      "进行合作": 9979,
      "经济学": 9980,
      "行动者": 9981,
      "特别法庭": 9982,
      "代表和": 9983,
      "代表性": 9984,
      "妇女获得": 9985,
      "安全与": 9986,
      "人权维护": 9987,
      "1993": 9988,
      "可以通过": 9989,
      "113": 9990,
      "和平利用": 9991,
      "决定的": 9992,
      "继续支持": 9993,
      "加强联合国": 9994,
      "促进两性平等": 9995,
      "一些人": 9996,
      "已经开始": 9997,
      "15分": 9998,
      "人民民主共和国": 9999
    },
    "merges": [
      [
        "2",
        "0"
      ],
      [
        "国",
        "家"
      ],
      [
        "委",
        "员"
      ],
      [
        "委员",
        "会"
      ],
      [
        "问",
        "题"
      ],
      [
        "20",
        "0"
      ],
      [
        "会",
        "议"
      ],
      [
        "工",
        "作"
      ],
      [
        "联",
        "合"
      ],
      [
        "发",
        "展"
      ],
      [
        "国",
        "际"
      ],
      [
        "联合",
        "国"
      ],
      [
        "组",
        "织"
      ],
      [
        "一",
        "个"
      ],
      [
        "我",
        "们"
      ],
      [
        "1",
        "9"
      ],
      [
        "提",
        "供"
      ],
      [
        "报",
        "告"
      ],
      [
        "政",
        "府"
      ],
      [
        "方",
        "面"
      ],
      [
        "以",
        "及"
      ],
      [
        "社",
        "会"
      ],
      [
        "这",
        "些"
      ],
      [
        "进",
        "行"
      ],
      [
        "关",
        "于"
      ],
      [
        "其",
        "他"
      ],
      [
        "包",
        "括"
      ],
      [
        "机",
        "构"
      ],
      [
        "通",
        "过"
      ],
      [
        "情",
        "况"
      ],
      [
        "经",
        "济"
      ],
      [
        "行",
        "动"
      ],
      [
        "执",
        "行"
      ],
      [
        "特",
        "别"
      ],
      [
        "有",
        "关"
      ],
      [
        "代",
        "表"
      ],
      [
        "方",
        "案"
      ],
      [
        "妇",
        "女"
      ],
      [
        "他",
        "们"
      ],
      [
        "安",
        "全"
      ],
      [
        "活",
        "动"
      ],
      [
        "人",
        "权"
      ],
      [
        "所",
        "有"
      ],
      [
        "人",
        "员"
      ],
      [
        "1",
        "0"
      ],
      [
        "19",
        "9"
      ],
      [
        "公",
        "约"
      ],
      [
        "没",
        "有"
      ],
      [
        "1",
        "2"
      ],
      [
        "合",
        "作"
      ],
      [
        "建",
        "议"
      ],
      [
        "可",
        "以"
      ],
      [
        "可",
        "能"
      ],
      [
        "缔",
        "约"
      ],
      [
        "规",
        "定"
      ],
      [
        "项",
        "目"
      ],
      [
        "决",
        "议"
      ],
      [
        "管",
        "理"
      ],
      [
        "秘",
        "书"
      ],
      [
        "技",
        "术"
      ],
      [
        "区",
        "域"
      ],
      [
        "重",
        "要"
      ],
      [
        "儿",
        "童"
      ],
      [
        "需",
        "要"
      ],
      [
        "这",
        "一"
      ],
      [
        "根",
        "据"
      ],
      [
        "必",
        "须"
      ],
      [
        "0",
        "0"
      ],
      [
        "大",
        "会"
      ],
      [
        "权",
        "利"
      ],
      [
        "计",
        "划"
      ],
      [
        "支",
        "持"
      ],
      [
        "法",
        "律"
      ],
      [
        "世",
        "界"
      ],
      [
        "措",
        "施"
      ],
      [
        "系",
        "统"
      ],
      [
        "采",
        "取"
      ],
      [
        "1",
        "1"
      ],
      [
        "保",
        "护"
      ],
      [
        "政",
        "策"
      ],
      [
        "提",
        "出"
      ],
      [
        "和",
        "平"
      ],
      [
        "事",
        "会"
      ],
      [
        "决",
        "定"
      ],
      [
        "服",
        "务"
      ],
      [
        "认",
        "为"
      ],
      [
        "继",
        "续"
      ],
      [
        "研",
        "究"
      ],
      [
        "影",
        "响"
      ],
      [
        "理",
        "事会"
      ],
      [
        "主",
        "义"
      ],
      [
        "加",
        "强"
      ],
      [
        "环",
        "境"
      ],
      [
        "促",
        "进"
      ],
      [
        "基",
        "金"
      ],
      [
        "行",
        "为"
      ],
      [
        "教",
        "育"
      ],
      [
        "努",
        "力"
      ],
      [
        "要",
        "求"
      ],
      [
        "资",
        "源"
      ],
      [
        "缔约",
        "国"
      ],
      [
        "一",
        "些"
      ],
      [
        "任",
        "何"
      ],
      [
        "目",
        "标"
      ],
      [
        "使",
        "用"
      ],
      [
        "-",
        "-"
      ],
      [
        "成",
        "员"
      ],
      [
        "的",
        "人"
      ],
      [
        "这",
        "种"
      ],
      [
        "确",
        "保"
      ],
      [
        "能",
        "力"
      ],
      [
        "主",
        "要"
      ],
      [
        "这",
        "个"
      ],
      [
        "注",
        "意"
      ],
      [
        "已",
        "经"
      ],
      [
        "地",
        "区"
      ],
      [
        "1",
        "5"
      ],
      [
        "部",
        "门"
      ],
      [
        "1",
        "3"
      ],
      [
        "和",
        "国"
      ],
      [
        "人",
        "民"
      ],
      [
        "建",
        "立"
      ],
      [
        "因",
        "为"
      ],
      [
        "实",
        "现"
      ],
      [
        "作",
        "为"
      ],
      [
        "信",
        "息"
      ],
      [
        "援",
        "助"
      ],
      [
        "的",
        "一"
      ],
      [
        "因",
        "此"
      ],
      [
        "解",
        "决"
      ],
      [
        "如",
        "果"
      ],
      [
        "部",
        "分"
      ],
      [
        "共",
        "和国"
      ],
      [
        "中",
        "国"
      ],
      [
        "主",
        "席"
      ],
      [
        "增",
        "加"
      ],
      [
        "协",
        "调"
      ],
      [
        "全",
        "球"
      ],
      [
        "作",
        "出"
      ],
      [
        "提",
        "交"
      ],
      [
        "参",
        "与"
      ],
      [
        "有",
        "效"
      ],
      [
        "之",
        "间"
      ],
      [
        "美",
        "元"
      ],
      [
        "非",
        "洲"
      ],
      [
        "领",
        "域"
      ],
      [
        "届",
        "会议"
      ],
      [
        "各",
        "国"
      ],
      [
        "秘书",
        "长"
      ],
      [
        "人",
        "的"
      ],
      [
        "审",
        "查"
      ],
      [
        "考",
        "虑"
      ],
      [
        "持",
        "续"
      ],
      [
        "开",
        "展"
      ],
      [
        "号",
        "决议"
      ],
      [
        "政",
        "治"
      ],
      [
        "斯",
        "坦"
      ],
      [
        "战",
        "略"
      ],
      [
        "获",
        "得"
      ],
      [
        "1",
        "4"
      ],
      [
        "月",
        "2"
      ],
      [
        "关",
        "系"
      ],
      [
        "审",
        "议"
      ],
      [
        "美",
        "国"
      ],
      [
        "讨",
        "论"
      ],
      [
        "实",
        "施"
      ],
      [
        "武",
        "器"
      ],
      [
        "自",
        "己"
      ],
      [
        "的",
        "是"
      ],
      [
        "举",
        "行"
      ],
      [
        "正",
        "在"
      ],
      [
        "第",
        "二"
      ],
      [
        "方面",
        "的"
      ],
      [
        "行",
        "政"
      ],
      [
        "表",
        "示"
      ],
      [
        "方",
        "法"
      ],
      [
        "得",
        "到"
      ],
      [
        "程",
        "序"
      ],
      [
        "基",
        "础"
      ],
      [
        "期",
        "间"
      ],
      [
        "的",
        "工作"
      ],
      [
        "相",
        "关"
      ],
      [
        "能",
        "够"
      ],
      [
        "公",
        "司"
      ],
      [
        "作",
        "用"
      ],
      [
        "指",
        "出"
      ],
      [
        "调",
        "查"
      ],
      [
        "支",
        "助"
      ],
      [
        "同",
        "时"
      ],
      [
        "目",
        "前"
      ],
      [
        "文",
        "件"
      ],
      [
        "中",
        "心"
      ],
      [
        "法",
        "院"
      ],
      [
        "8",
        "年"
      ],
      [
        "家",
        "庭"
      ],
      [
        "特别",
        "是"
      ],
      [
        "1",
        "6"
      ],
      [
        "数",
        "据"
      ],
      [
        "预",
        "算"
      ],
      [
        "9",
        "年"
      ],
      [
        "发",
        "言"
      ],
      [
        "犯",
        "罪"
      ],
      [
        "事",
        "务"
      ],
      [
        "什",
        "么"
      ],
      [
        "5",
        "年"
      ],
      [
        "其",
        "中"
      ],
      [
        "贸",
        "易"
      ],
      [
        "发展",
        "中"
      ],
      [
        "处",
        "理"
      ],
      [
        "提",
        "高"
      ],
      [
        "培",
        "训"
      ],
      [
        "小",
        "组"
      ],
      [
        "由",
        "于"
      ],
      [
        "意",
        "见"
      ],
      [
        "1",
        "8"
      ],
      [
        "但",
        "是"
      ],
      [
        "制",
        "定"
      ],
      [
        "它",
        "们"
      ],
      [
        "确",
        "定"
      ],
      [
        "任",
        "务"
      ],
      [
        "强",
        "调"
      ],
      [
        "机",
        "制"
      ],
      [
        "注意",
        "到"
      ],
      [
        "专",
        "家"
      ],
      [
        "许",
        "多"
      ],
      [
        "开",
        "始"
      ],
      [
        "进",
        "程"
      ],
      [
        "平",
        "等"
      ],
      [
        "原",
        "则"
      ],
      [
        "资",
        "料"
      ],
      [
        "时",
        "间"
      ],
      [
        "一",
        "步"
      ],
      [
        "中",
        "的"
      ],
      [
        "生",
        "活"
      ],
      [
        "代表",
        "团"
      ],
      [
        "人",
        "口"
      ],
      [
        "利",
        "亚"
      ],
      [
        "暴",
        "力"
      ],
      [
        "尼",
        "亚"
      ],
      [
        "标",
        "准"
      ],
      [
        "歧",
        "视"
      ],
      [
        "共",
        "同"
      ],
      [
        "框",
        "架"
      ],
      [
        "不",
        "是"
      ],
      [
        "利",
        "用"
      ],
      [
        "各",
        "种"
      ],
      [
        "发展中",
        "国家"
      ],
      [
        "办",
        "法"
      ],
      [
        "投",
        "资"
      ],
      [
        "必",
        "要"
      ],
      [
        "分",
        "析"
      ],
      [
        "自",
        "由"
      ],
      [
        "发",
        "生"
      ],
      [
        "取",
        "得"
      ],
      [
        "第",
        "一"
      ],
      [
        "文",
        "化"
      ],
      [
        "现",
        "在"
      ],
      [
        "存",
        "在"
      ],
      [
        "成",
        "为"
      ],
      [
        "方",
        "式"
      ],
      [
        "草",
        "案"
      ],
      [
        "参",
        "加"
      ],
      [
        "具",
        "有"
      ],
      [
        "制",
        "度"
      ],
      [
        "3",
        "0"
      ],
      [
        "这",
        "样"
      ],
      [
        "7",
        "年"
      ],
      [
        "用",
        "于"
      ],
      [
        "生",
        "产"
      ],
      [
        "的",
        "问题"
      ],
      [
        "部",
        "队"
      ],
      [
        "开",
        "发"
      ],
      [
        "此",
        "外"
      ],
      [
        "评",
        "估"
      ],
      [
        "伙",
        "伴"
      ],
      [
        "冲",
        "突"
      ],
      [
        "基",
        "本"
      ],
      [
        "应",
        "当"
      ],
      [
        "条",
        "约"
      ],
      [
        "而",
        "且"
      ],
      [
        "进",
        "一步"
      ],
      [
        "建",
        "设"
      ],
      [
        "以",
        "便"
      ],
      [
        "新",
        "的"
      ],
      [
        "议",
        "程"
      ],
      [
        "机",
        "会"
      ],
      [
        "的",
        "情况"
      ],
      [
        "了",
        "一"
      ],
      [
        "他",
        "的"
      ],
      [
        "先",
        "生"
      ],
      [
        "范",
        "围"
      ],
      [
        "安全",
        "理事会"
      ],
      [
        "减",
        "少"
      ],
      [
        "接",
        "受"
      ],
      [
        "秘书",
        "处"
      ],
      [
        "不",
        "同"
      ],
      [
        "对",
        "于"
      ],
      [
        "司",
        "法"
      ],
      [
        "特",
        "派"
      ],
      [
        "结",
        "果"
      ],
      [
        "会",
        "员"
      ],
      [
        "3",
        "年"
      ],
      [
        "欧",
        "洲"
      ],
      [
        "的",
        "国家"
      ],
      [
        "0",
        "年"
      ],
      [
        "严",
        "重"
      ],
      [
        "资",
        "金"
      ],
      [
        "具",
        "体"
      ],
      [
        "责",
        "任"
      ],
      [
        "造",
        "成"
      ],
      [
        "充",
        "分"
      ],
      [
        "和",
        "其他"
      ],
      [
        "及",
        "其"
      ],
      [
        "应",
        "该"
      ],
      [
        "设",
        "施"
      ],
      [
        "不",
        "能"
      ],
      [
        "问题",
        "的"
      ],
      [
        "市",
        "场"
      ],
      [
        "希",
        "望"
      ],
      [
        "适",
        "当"
      ],
      [
        "可",
        "持续"
      ],
      [
        "会员",
        "国"
      ],
      [
        "企",
        "业"
      ],
      [
        "地",
        "方"
      ],
      [
        "工作",
        "人员"
      ],
      [
        "为",
        "了"
      ],
      [
        "条",
        "件"
      ],
      [
        "6",
        "年"
      ],
      [
        "产",
        "生"
      ],
      [
        "的",
        "报告"
      ],
      [
        "4",
        "年"
      ],
      [
        "特派",
        "团"
      ],
      [
        "控",
        "制"
      ],
      [
        "负",
        "责"
      ],
      [
        "高",
        "级"
      ],
      [
        "1",
        "日"
      ],
      [
        "说",
        "明"
      ],
      [
        "一",
        "种"
      ],
      [
        "业",
        "务"
      ],
      [
        "性",
        "别"
      ],
      [
        "是",
        "否"
      ],
      [
        "道",
        "主义"
      ],
      [
        "如",
        "何"
      ],
      [
        "民",
        "主"
      ],
      [
        "公",
        "共"
      ],
      [
        "维",
        "持"
      ],
      [
        "费",
        "用"
      ],
      [
        "工作",
        "组"
      ],
      [
        "义",
        "务"
      ],
      [
        "进",
        "展"
      ],
      [
        "全",
        "面"
      ],
      [
        "办",
        "事"
      ],
      [
        "大",
        "的"
      ],
      [
        "各",
        "项"
      ],
      [
        "消",
        "除"
      ],
      [
        "难",
        "民"
      ],
      [
        "利",
        "益"
      ],
      [
        "咨",
        "询"
      ],
      [
        "知",
        "道"
      ],
      [
        "卫",
        "生"
      ],
      [
        "议",
        "定"
      ],
      [
        "非",
        "常"
      ],
      [
        "国",
        "内"
      ],
      [
        "就",
        "是"
      ],
      [
        "办事",
        "处"
      ],
      [
        "做",
        "法"
      ],
      [
        "在",
        "这"
      ],
      [
        "办",
        "公"
      ],
      [
        "变",
        "化"
      ],
      [
        "实",
        "际"
      ],
      [
        "并",
        "且"
      ],
      [
        "第",
        "三"
      ],
      [
        "1",
        "7"
      ],
      [
        "12",
        "月"
      ],
      [
        "我",
        "的"
      ],
      [
        "按",
        "照"
      ],
      [
        "以",
        "下"
      ],
      [
        "改",
        "革"
      ],
      [
        "2",
        "年"
      ],
      [
        "增",
        "长"
      ],
      [
        "形",
        "式"
      ],
      [
        "第",
        "2"
      ],
      [
        "一",
        "项"
      ],
      [
        "健",
        "康"
      ],
      [
        "认",
        "识"
      ],
      [
        "这",
        "是"
      ],
      [
        "帮",
        "助"
      ],
      [
        "200",
        "5年"
      ],
      [
        "个",
        "人"
      ],
      [
        "例",
        "如"
      ],
      [
        "鼓",
        "励"
      ],
      [
        "议定",
        "书"
      ],
      [
        ")",
        "。"
      ],
      [
        "承",
        "诺"
      ],
      [
        "监",
        "督"
      ],
      [
        "积",
        "极"
      ],
      [
        "以",
        "色"
      ],
      [
        "批",
        "准"
      ],
      [
        "人",
        "道主义"
      ],
      [
        "尽",
        "管"
      ],
      [
        "欢",
        "迎"
      ],
      [
        "协",
        "助"
      ],
      [
        "协",
        "定"
      ],
      [
        "联",
        "盟"
      ],
      [
        "以色",
        "列"
      ],
      [
        "规",
        "划"
      ],
      [
        "银",
        "行"
      ],
      [
        "你",
        "的"
      ],
      [
        "受",
        "到"
      ],
      [
        "滋",
        "病"
      ],
      [
        "1",
        "年"
      ],
      [
        "无",
        "法"
      ],
      [
        "目",
        "的"
      ],
      [
        "艾",
        "滋病"
      ],
      [
        "办公",
        "室"
      ],
      [
        "尤",
        "其"
      ],
      [
        "独",
        "立"
      ],
      [
        "直",
        "接"
      ],
      [
        "上",
        "的"
      ],
      [
        "过",
        "程"
      ],
      [
        "完",
        "成"
      ],
      [
        "恐",
        "怖"
      ],
      [
        "时",
        "候"
      ],
      [
        "最",
        "后"
      ],
      [
        "法",
        "庭"
      ],
      [
        "科",
        "学"
      ],
      [
        "安",
        "排"
      ],
      [
        "事",
        "项"
      ],
      [
        "20",
        "10"
      ],
      [
        "一",
        "般"
      ],
      [
        "关",
        "切"
      ],
      [
        "设",
        "立"
      ],
      [
        "限",
        "制"
      ],
      [
        "缔约",
        "方"
      ],
      [
        "之",
        "后"
      ],
      [
        "人",
        "们"
      ],
      [
        "涉",
        "及"
      ],
      [
        "表",
        "明"
      ],
      [
        "勒",
        "斯坦"
      ],
      [
        "巴",
        "勒斯坦"
      ],
      [
        "稳",
        "定"
      ],
      [
        "仍",
        "然"
      ],
      [
        "地",
        "位"
      ],
      [
        "正",
        "式"
      ],
      [
        "风",
        "险"
      ],
      [
        "打",
        "击"
      ],
      [
        "更",
        "多"
      ],
      [
        "裁",
        "军"
      ],
      [
        "以",
        "来"
      ],
      [
        "性",
        "的"
      ],
      [
        "预",
        "防"
      ],
      [
        "2",
        "5"
      ],
      [
        "改",
        "善"
      ],
      [
        "领",
        "导"
      ],
      [
        "00",
        "0"
      ],
      [
        "谈",
        "判"
      ],
      [
        "内",
        "的"
      ],
      [
        "出",
        "现"
      ],
      [
        "种",
        "族"
      ],
      [
        "观",
        "察"
      ],
      [
        "采",
        "用"
      ],
      [
        "残",
        "疾"
      ],
      [
        "一",
        "致"
      ],
      [
        "次",
        "会议"
      ],
      [
        "成",
        "果"
      ],
      [
        "监",
        "测"
      ],
      [
        "结",
        "构"
      ],
      [
        "联",
        "邦"
      ],
      [
        "当",
        "局"
      ],
      [
        "之间",
        "的"
      ],
      [
        "优",
        "先"
      ],
      [
        "过",
        "去"
      ],
      [
        "第",
        "5"
      ],
      [
        "第",
        "6"
      ],
      [
        "评",
        "价"
      ],
      [
        "审",
        "计"
      ],
      [
        "比",
        "亚"
      ],
      [
        "状",
        "况"
      ],
      [
        "立",
        "法"
      ],
      [
        "两",
        "个"
      ],
      [
        "协",
        "商"
      ],
      [
        "现",
        "有"
      ],
      [
        "财",
        "政"
      ],
      [
        "领",
        "土"
      ],
      [
        "收",
        "入"
      ],
      [
        "理",
        "会"
      ],
      [
        "知",
        "识"
      ],
      [
        "罗",
        "斯"
      ],
      [
        "那",
        "些"
      ],
      [
        "有关",
        "的"
      ],
      [
        "空",
        "间"
      ],
      [
        "综",
        "合"
      ],
      [
        "6",
        "月"
      ],
      [
        "受",
        "害"
      ],
[...]
