{
  "version": "1.0",
  "truncation": null,
  "padding": null,
  "added_tokens": [
    {
      "id": 0,
      "content": "[UNK]",
      "single_word": false,
      "lstrip": false,
      "rstrip": false,
      "normalized": false,
      "special": true
    },
    {
      "id": 1,
      "content": "[PAD]",
      "single_word": false,
      "lstrip": false,
      "rstrip": false,
      "normalized": false,
      "special": true
    },
    {
      "id": 2,
      "content": "[SOS]",
      "single_word": false,
      "lstrip": false,
      "rstrip": false,
      "normalized": false,
      "special": true
    },
    {
      "id": 3,
      "content": "[EOS]",
      "single_word": false,
      "lstrip": false,
      "rstrip": false,
      "normalized": false,
      "special": true
    }
  ],
  "normalizer": null,
  "pre_tokenizer": {
    "type": "Whitespace"
  },
  "post_processor": null,
  "decoder": null,
  "model": {
    "type": "BPE",
    "dropout": null,
    "unk_token": "[UNK]",
    "continuing_subword_prefix": null,
    "end_of_word_suffix": null,
    "fuse_unk": false,
    "byte_fallback": false,
    "ignore_merges": false,
    "vocab": {
      "[UNK]": 0,
      "[PAD]": 1,
      "[SOS]": 2,
      "[EOS]": 3,
      "\u0019": 4,
      "!": 5,
      "\"": 6,
      "#": 7,
      "$": 8,
      "%": 9,
      "&": 10,
      "'": 11,
      "(": 12,
      ")": 13,
      "*": 14,
      "+": 15,
      ",": 16,
      "-": 17,
      ".": 18,
      "/": 19,
      "0": 20,
      "1": 21,
      "2": 22,
      "3": 23,
      "4": 24,
      "5": 25,
      "6": 26,
      "7": 27,
      "8": 28,
      "9": 29,
      ":": 30,
      ";": 31,
      "<": 32,
      "=": 33,
      ">": 34,
      "?": 35,
      "@": 36,
      "A": 37,
      "B": 38,
      "C": 39,
      "D": 40,
      "E": 41,
      "F": 42,
      "G": 43,
      "H": 44,
      "I": 45,
      "J": 46,
      "K": 47,
      "L": 48,
      "M": 49,
      "N": 50,
      "O": 51,
      "P": 52,
      "Q": 53,
      "R": 54,
      "S": 55,
      "T": 56,
      "U": 57,
      "V": 58,
      "W": 59,
      "X": 60,
      "Y": 61,
      "Z": 62,
      "[": 63,
      "\\": 64,
      "]": 65,
      "^": 66,
      "_": 67,
      "`": 68,
      "a": 69,
      "b": 70,
      "c": 71,
      "d": 72,
      "e": 73,
      "f": 74,
      "g": 75,
      "h": 76,
      "i": 77,
      "j": 78,
      "k": 79,
      "l": 80,
      "m": 81,
      "n": 82,
      "o": 83,
      "p": 84,
      "q": 85,
      "r": 86,
      "s": 87,
      "t": 88,
      "u": 89,
      "v": 90,
      "w": 91,
      "x": 92,
      "y": 93,
      "z": 94,
      "{": 95,
      "|": 96,
      "}": 97,
      "~": 98,
      "§": 99,
      "°": 100,
      "·": 101,
      "É": 102,
      "Ñ": 103,
      "×": 104,
      "Ø": 105,
      "Ú": 106,
      "á": 107,
      "â": 108,
      "ä": 109,
      "å": 110,
      "ç": 111,
      "è": 112,
      "é": 113,
      "ê": 114,
      "ë": 115,
      "ì": 116,
      "í": 117,
      "ï": 118,
      "ñ": 119,
      "ò": 120,
      "ó": 121,
      "ö": 122,
      "ù": 123,
      "ú": 124,
      "ü": 125,
      "ý": 126,
      "ă": 127,
      "ą": 128,
      "Ć": 129,
      "ć": 130,
      "Č": 131,
      "č": 132,
      "Đ": 133,
      "đ": 134,
      "ł": 135,
      "ń": 136,
      "ş": 137,
      "š": 138,
      "ţ": 139,
      "ż": 140,
      "ž": 141,
      "ˉ": 142,
      "ˋ": 143,
      "˙": 144,
      "ˮ": 145,
      "α": 146,
      "β": 147,
      "ε": 148,
      "μ": 149,
      "У": 150,
      "Я": 151,
      "г": 152,
      "и": 153,
      "р": 154,
      "ц": 155,
      "ை": 156,
      "–": 157,
      "—": 158,
      "―": 159,
      "‘": 160,
      "’": 161,
      "“": 162,
      "”": 163,
      "•": 164,
      "…": 165,
      "′": 166,
      "※": 167,
      "℃": 168,
      "Ⅱ": 169,
      "→": 170,
      "∕": 171,
      "∶": 172,
      "①": 173,
      "②": 174,
      "③": 175,
      "④": 176,
      "⑤": 177,
      "⑵": 178,
      "⑶": 179,
      "⑷": 180,
      "⑹": 181,
      "⑼": 182,
      "⒀": 183,
      "⒃": 184,
      "⒉": 185,
      "─": 186,
      "┩": 187,
      "╁": 188,
      "□": 189,
      "▲": 190,
      "○": 191,
      "●": 192,
      "、": 193,
      "。": 194,
      "〇": 195,
      "〈": 196,
      "〉": 197,
      "《": 198,
      "》": 199,
      "「": 200,
      "」": 201,
      "『": 202,
      "』": 203,
      "【": 204,
      "】": 205,
      "〔": 206,
      "〕": 207,
      "〞": 208,
      "ぃ": 209,
      "ず": 210,
      "の": 211,
      "よ": 212,
      "キ": 213,
      "フ": 214,
      "・": 215,
      "ㄓ": 216,
      "㈠": 217,
      "㈡": 218,
      "㈢": 219,
      "㈣": 220,
      "㈤": 221,
      "㈥": 222,
      "㈦": 223,
      "㈨": 224,
      "䗩": 225,
      "䞘": 226,
      "一": 227,
      "丁": 228,
      "七": 229,
      "万": 230,
      "丈": 231,
      "三": 232,
      "上": 233,
      "下": 234,
      "不": 235,
      "与": 236,
      "丐": 237,
      "丑": 238,
      "专": 239,
      "且": 240,
      "世": 241,
      "丘": 242,
      "丙": 243,
      "业": 244,
      "丛": 245,
      "东": 246,
      "丝": 247,
      "丢": 248,
      "两": 249,
      "严": 250,
      "丧": 251,
      "个": 252,
      "丫": 253,
      "中": 254,
      "丰": 255,
      "串": 256,
      "临": 257,
      "丸": 258,
      "丹": 259,
      "为": 260,
      "主": 261,
      "丽": 262,
      "举": 263,
      "乃": 264,
      "久": 265,
      "么": 266,
      "义": 267,
      "之": 268,
      "乌": 269,
      "乍": 270,
      "乎": 271,
      "乏": 272,
      "乐": 273,
      "乒": 274,
      "乓": 275,
      "乔": 276,
      "乖": 277,
      "乘": 278,
      "乙": 279,
      "九": 280,
      "乞": 281,
      "也": 282,
      "习": 283,
      "乡": 284,
      "书": 285,
      "买": 286,
      "乱": 287,
      "乳": 288,
      "乾": 289,
      "亂": 290,
      "了": 291,
      "予": 292,
      "争": 293,
      "事": 294,
      "二": 295,
      "于": 296,
      "亏": 297,
      "云": 298,
      "互": 299,
      "五": 300,
      "井": 301,
      "亚": 302,
      "些": 303,
      "亞": 304,
      "亟": 305,
      "亡": 306,
      "亢": 307,
      "交": 308,
      "亥": 309,
      "亦": 310,
      "产": 311,
      "亨": 312,
      "亩": 313,
      "享": 314,
      "京": 315,
      "亭": 316,
      "亮": 317,
      "亲": 318,
      "亳": 319,
      "亵": 320,
      "人": 321,
      "亿": 322,
      "什": 323,
      "仁": 324,
      "仅": 325,
      "仆": 326,
      "仇": 327,
      "今": 328,
      "介": 329,
      "仍": 330,
      "从": 331,
      "仑": 332,
      "仓": 333,
      "仔": 334,
      "仕": 335,
      "他": 336,
      "仗": 337,
      "付": 338,
      "仙": 339,
      "仟": 340,
      "代": 341,
      "令": 342,
      "以": 343,
      "仪": 344,
      "们": 345,
      "仰": 346,
      "仲": 347,
      "件": 348,
      "价": 349,
      "任": 350,
      "份": 351,
      "仿": 352,
      "企": 353,
      "伊": 354,
      "伍": 355,
      "伎": 356,
      "伏": 357,
      "伐": 358,
      "休": 359,
      "众": 360,
      "优": 361,
      "伙": 362,
      "会": 363,
      "伞": 364,
      "伟": 365,
      "传": 366,
      "伤": 367,
      "伦": 368,
      "伪": 369,
      "伯": 370,
      "估": 371,
      "伴": 372,
      "伶": 373,
      "伸": 374,
      "伺": 375,
      "似": 376,
      "伽": 377,
      "但": 378,
      "位": 379,
      "低": 380,
      "住": 381,
      "佐": 382,
      "佑": 383,
      "体": 384,
      "佔": 385,
      "何": 386,
      "余": 387,
      "佛": 388,
      "作": 389,
      "佝": 390,
      "你": 391,
      "佣": 392,
      "佧": 393,
      "佩": 394,
      "佬": 395,
      "佳": 396,
      "使": 397,
      "侃": 398,
      "侄": 399,
      "來": 400,
      "侈": 401,
      "例": 402,
      "侍": 403,
      "供": 404,
      "依": 405,
      "侠": 406,
      "侣": 407,
      "侥": 408,
      "侦": 409,
      "侧": 410,
      "侨": 411,
      "侪": 412,
      "侮": 413,
      "侯": 414,
      "侵": 415,
      "便": 416,
      "促": 417,
      "俄": 418,
      "俊": 419,
      "俏": 420,
      "俐": 421,
      "俑": 422,
      "俗": 423,
      "俘": 424,
      "俚": 425,
      "保": 426,
      "俞": 427,
      "俟": 428,
      "信": 429,
      "俣": 430,
      "俨": 431,
      "俩": 432,
      "修": 433,
      "俯": 434,
      "俱": 435,
      "俸": 436,
      "俺": 437,
      "俾": 438,
      "個": 439,
      "倌": 440,
      "倍": 441,
      "倒": 442,
      "倘": 443,
      "候": 444,
      "倚": 445,
      "借": 446,
      "倡": 447,
      "倦": 448,
      "倨": 449,
      "倩": 450,
      "倫": 451,
      "债": 452,
      "值": 453,
      "倾": 454,
      "假": 455,
      "偌": 456,
      "偎": 457,
      "偏": 458,
      "做": 459,
      "停": 460,
      "健": 461,
      "偵": 462,
      "偶": 463,
      "偷": 464,
      "偻": 465,
      "偿": 466,
      "傀": 467,
      "傅": 468,
      "傍": 469,
      "傑": 470,
      "储": 471,
      "催": 472,
      "傲": 473,
      "傳": 474,
      "傷": 475,
      "傻": 476,
      "像": 477,
      "僚": 478,
      "僧": 479,
      "僵": 480,
      "價": 481,
      "僻": 482,
      "儒": 483,
      "儡": 484,
      "優": 485,
      "儿": 486,
      "允": 487,
      "元": 488,
      "兄": 489,
      "充": 490,
      "兆": 491,
      "先": 492,
      "光": 493,
      "克": 494,
      "免": 495,
      "兑": 496,
      "兒": 497,
      "兔": 498,
      "党": 499,
      "兜": 500,
      "入": 501,
      "內": 502,
      "全": 503,
      "八": 504,
      "公": 505,
      "六": 506,
      "兮": 507,
      "兰": 508,
      "共": 509,
      "关": 510,
      "兴": 511,
      "兵": 512,
      "其": 513,
      "具": 514,
      "典": 515,
      "兹": 516,
      "养": 517,
      "兼": 518,
      "兽": 519,
      "冀": 520,
      "内": 521,
      "冈": 522,
      "冉": 523,
      "册": 524,
      "再": 525,
      "冒": 526,
      "冕": 527,
      "冗": 528,
      "写": 529,
      "军": 530,
      "农": 531,
      "冠": 532,
      "冤": 533,
      "冥": 534,
      "冬": 535,
      "冯": 536,
      "冰": 537,
      "冲": 538,
      "决": 539,
      "况": 540,
      "冶": 541,
      "冷": 542,
      "冻": 543,
      "净": 544,
      "准": 545,
      "凇": 546,
      "凉": 547,
      "凋": 548,
      "凌": 549,
      "减": 550,
      "凑": 551,
      "凝": 552,
      "几": 553,
      "凡": 554,
      "凤": 555,
      "凭": 556,
      "凯": 557,
      "凰": 558,
      "凱": 559,
      "凳": 560,
      "凶": 561,
      "凸": 562,
      "凹": 563,
      "出": 564,
      "击": 565,
      "函": 566,
      "凿": 567,
      "刀": 568,
      "刁": 569,
      "刃": 570,
      "分": 571,
      "切": 572,
      "刊": 573,
      "刑": 574,
      "划": 575,
      "列": 576,
      "刘": 577,
      "则": 578,
      "刚": 579,
      "创": 580,
      "初": 581,
      "删": 582,
      "判": 583,
      "別": 584,
      "刨": 585,
      "利": 586,
      "别": 587,
      "刮": 588,
      "到": 589,
      "制": 590,
      "刷": 591,
      "券": 592,
      "刹": 593,
      "刺": 594,
      "刻": 595,
      "刽": 596,
      "剂": 597,
      "則": 598,
      "削": 599,
      "前": 600,
      "剑": 601,
      "剔": 602,
      "剖": 603,
      "剥": 604,
      "剧": 605,
      "剩": 606,
      "剪": 607,
      "副": 608,
      "割": 609,
      "創": 610,
      "剽": 611,
      "劃": 612,
      "劇": 613,
      "劈": 614,
      "力": 615,
      "劝": 616,
      "办": 617,
      "功": 618,
      "加": 619,
      "务": 620,
      "劣": 621,
      "动": 622,
      "助": 623,
      "努": 624,
      "劫": 625,
      "励": 626,
      "劲": 627,
      "劳": 628,
      "势": 629,
      "勃": 630,
      "勇": 631,
      "勉": 632,
      "勋": 633,
      "勒": 634,
      "動": 635,
      "勘": 636,
      "務": 637,
      "勞": 638,
      "募": 639,
      "勤": 640,
      "勲": 641,
      "勺": 642,
      "勾": 643,
      "勿": 644,
      "匀": 645,
      "包": 646,
      "匆": 647,
      "匈": 648,
      "化": 649,
      "北": 650,
      "匙": 651,
      "匝": 652,
      "匠": 653,
      "匣": 654,
      "匪": 655,
      "匮": 656,
      "匹": 657,
      "区": 658,
      "医": 659,
      "匿": 660,
      "區": 661,
      "十": 662,
      "千": 663,
      "升": 664,
      "午": 665,
      "卉": 666,
      "半": 667,
      "华": 668,
      "协": 669,
      "卑": 670,
      "卒": 671,
      "卓": 672,
      "協": 673,
      "单": 674,
      "卖": 675,
      "南": 676,
      "博": 677,
      "卜": 678,
      "卟": 679,
      "占": 680,
      "卡": 681,
      "卢": 682,
      "卤": 683,
      "卦": 684,
      "卧": 685,
      "卫": 686,
      "卯": 687,
      "印": 688,
      "危": 689,
      "即": 690,
      "却": 691,
      "卵": 692,
      "卷": 693,
      "卸": 694,
      "卿": 695,
      "厂": 696,
      "厄": 697,
      "厅": 698,
      "历": 699,
      "厉": 700,
      "压": 701,
      "厌": 702,
      "厕": 703,
      "厘": 704,
      "厚": 705,
      "原": 706,
      "厢": 707,
      "厥": 708,
      "厦": 709,
      "厨": 710,
      "去": 711,
      "县": 712,
      "叁": 713,
      "参": 714,
      "參": 715,
      "又": 716,
      "叉": 717,
      "及": 718,
      "友": 719,
      "双": 720,
      "反": 721,
      "发": 722,
      "叔": 723,
      "取": 724,
      "受": 725,
      "变": 726,
      "叙": 727,
      "叛": 728,
      "叠": 729,
      "口": 730,
      "古": 731,
      "句": 732,
      "另": 733,
      "叨": 734,
      "叩": 735,
      "只": 736,
      "叫": 737,
      "召": 738,
      "叭": 739,
      "叮": 740,
      "可": 741,
      "台": 742,
      "史": 743,
      "右": 744,
      "叶": 745,
      "号": 746,
      "司": 747,
      "叹": 748,
      "叻": 749,
      "叼": 750,
      "吁": 751,
      "吃": 752,
      "各": 753,
      "吆": 754,
      "合": 755,
      "吉": 756,
      "吊": 757,
      "同": 758,
      "名": 759,
      "后": 760,
      "吐": 761,
      "向": 762,
      "吓": 763,
      "吕": 764,
      "吗": 765,
      "君": 766,
      "吝": 767,
      "吞": 768,
      "吟": 769,
      "否": 770,
      "吧": 771,
      "吨": 772,
      "吩": 773,
      "含": 774,
      "听": 775,
      "启": 776,
      "吱": 777,
      "吲": 778,
      "吴": 779,
      "吵": 780,
      "吶": 781,
      "吸": 782,
      "吹": 783,
      "吻": 784,
      "吼": 785,
      "吾": 786,
      "呀": 787,
      "呃": 788,
      "呆": 789,
      "呈": 790,
      "告": 791,
      "呋": 792,
      "呐": 793,
      "呕": 794,
      "呗": 795,
      "员": 796,
      "呜": 797,
      "呢": 798,
      "呦": 799,
      "周": 800,
      "呲": 801,
      "味": 802,
      "呵": 803,
      "呸": 804,
      "呻": 805,
      "呼": 806,
      "命": 807,
      "咀": 808,
      "咋": 809,
      "和": 810,
      "咎": 811,
      "咏": 812,
      "咐": 813,
      "咒": 814,
      "咕": 815,
      "咖": 816,
      "咙": 817,
      "咛": 818,
      "咨": 819,
      "咪": 820,
      "咫": 821,
      "咬": 822,
      "咭": 823,
      "咯": 824,
      "咱": 825,
      "咳": 826,
      "咸": 827,
      "咽": 828,
      "哀": 829,
      "品": 830,
      "哄": 831,
      "哆": 832,
      "哇": 833,
      "哈": 834,
      "哉": 835,
      "响": 836,
      "哎": 837,
      "哑": 838,
      "哗": 839,
      "哚": 840,
      "哟": 841,
      "員": 842,
      "哥": 843,
      "哦": 844,
      "哨": 845,
      "哩": 846,
      "哪": 847,
      "哭": 848,
      "哲": 849,
      "哺": 850,
      "哼": 851,
      "哽": 852,
      "唆": 853,
      "唇": 854,
      "唉": 855,
      "唐": 856,
      "唔": 857,
      "唛": 858,
      "唠": 859,
      "唤": 860,
      "唬": 861,
      "售": 862,
      "唯": 863,
      "唰": 864,
      "唱": 865,
      "唾": 866,
      "唿": 867,
      "啄": 868,
      "商": 869,
      "啉": 870,
      "啊": 871,
      "啐": 872,
      "啜": 873,
      "啡": 874,
      "啤": 875,
      "啥": 876,
      "啦": 877,
      "啪": 878,
      "啬": 879,
      "啸": 880,
      "啼": 881,
      "喀": 882,
      "喂": 883,
      "喃": 884,
      "善": 885,
      "喇": 886,
      "喉": 887,
      "喊": 888,
      "喏": 889,
      "喔": 890,
      "喘": 891,
      "喙": 892,
      "喜": 893,
      "喝": 894,
      "喧": 895,
      "喬": 896,
      "單": 897,
      "喷": 898,
      "喹": 899,
      "喻": 900,
      "喽": 901,
      "嗅": 902,
      "嗐": 903,
      "嗒": 904,
      "嗓": 905,
      "嗜": 906,
      "嗡": 907,
      "嗣": 908,
      "嗥": 909,
      "嗦": 910,
      "嗨": 911,
      "嗪": 912,
      "嗬": 913,
      "嗯": 914,
      "嗽": 915,
      "嘀": 916,
      "嘈": 917,
      "嘉": 918,
      "嘎": 919,
      "嘘": 920,
      "嘛": 921,
      "嘟": 922,
      "嘧": 923,
      "嘱": 924,
      "嘲": 925,
      "嘴": 926,
      "嘶": 927,
      "嘻": 928,
      "嘿": 929,
      "噁": 930,
      "噔": 931,
      "噗": 932,
      "噜": 933,
      "噢": 934,
      "器": 935,
      "噩": 936,
      "噪": 937,
      "噬": 938,
      "噻": 939,
      "嚎": 940,
      "嚣": 941,
      "嚷": 942,
      "嚼": 943,
      "囊": 944,
      "囚": 945,
      "四": 946,
      "回": 947,
      "因": 948,
      "囡": 949,
      "团": 950,
      "囤": 951,
      "囧": 952,
      "囪": 953,
      "园": 954,
      "困": 955,
      "围": 956,
      "固": 957,
      "国": 958,
      "图": 959,
      "囿": 960,
      "圆": 961,
      "圈": 962,
      "國": 963,
      "園": 964,
      "圖": 965,
      "團": 966,
      "土": 967,
      "圣": 968,
      "在": 969,
      "圭": 970,
      "地": 971,
      "圳": 972,
      "场": 973,
      "圾": 974,
      "址": 975,
      "坂": 976,
      "均": 977,
      "坊": 978,
      "坍": 979,
      "坎": 980,
      "坏": 981,
      "坐": 982,
      "坑": 983,
      "块": 984,
      "坚": 985,
      "坛": 986,
      "坝": 987,
      "坞": 988,
      "坟": 989,
      "坠": 990,
      "坡": 991,
      "坦": 992,
      "坪": 993,
      "坯": 994,
      "坷": 995,
      "垂": 996,
      "垃": 997,
      "垄": 998,
      "型": 999,
      "垒": 1000,
      "垠": 1001,
      "垢": 1002,
      "垦": 1003,
      "垫": 1004,
      "垮": 1005,
      "埃": 1006,
      "埋": 1007,
      "城": 1008,
      "埔": 1009,
      "域": 1010,
      "培": 1011,
      "基": 1012,
      "堀": 1013,
      "堂": 1014,
      "堅": 1015,
      "堆": 1016,
      "堍": 1017,
      "堑": 1018,
      "堕": 1019,
      "堡": 1020,
      "堤": 1021,
      "堪": 1022,
      "堰": 1023,
      "報": 1024,
      "場": 1025,
      "堵": 1026,
      "塌": 1027,
      "塑": 1028,
      "塔": 1029,
      "塘": 1030,
      "塞": 1031,
      "填": 1032,
      "境": 1033,
      "墅": 1034,
      "墓": 1035,
      "墙": 1036,
      "增": 1037,
      "墟": 1038,
      "墨": 1039,
      "墩": 1040,
      "墾": 1041,
      "壁": 1042,
      "壑": 1043,
      "壕": 1044,
      "壞": 1045,
      "壤": 1046,
      "士": 1047,
      "壬": 1048,
      "壮": 1049,
      "声": 1050,
      "壳": 1051,
      "壶": 1052,
      "壸": 1053,
      "壹": 1054,
      "夂": 1055,
      "处": 1056,
      "备": 1057,
      "复": 1058,
      "夏": 1059,
      "夕": 1060,
      "外": 1061,
      "多": 1062,
      "夜": 1063,
      "够": 1064,
      "夥": 1065,
      "大": 1066,
      "天": 1067,
      "太": 1068,
      "夫": 1069,
      "夭": 1070,
      "央": 1071,
      "夯": 1072,
      "失": 1073,
      "头": 1074,
      "夷": 1075,
      "夸": 1076,
      "夹": 1077,
      "夺": 1078,
      "奂": 1079,
      "奄": 1080,
      "奇": 1081,
      "奈": 1082,
      "奉": 1083,
      "奋": 1084,
      "奎": 1085,
      "奏": 1086,
      "契": 1087,
      "奔": 1088,
      "奖": 1089,
      "套": 1090,
      "奠": 1091,
      "奢": 1092,
      "奥": 1093,
      "奧": 1094,
      "女": 1095,
      "奴": 1096,
      "奶": 1097,
      "奸": 1098,
      "她": 1099,
      "好": 1100,
      "妁": 1101,
      "如": 1102,
      "妄": 1103,
      "妅": 1104,
      "妆": 1105,
      "妇": 1106,
      "妈": 1107,
      "妊": 1108,
      "妍": 1109,
      "妒": 1110,
      "妓": 1111,
      "妖": 1112,
      "妙": 1113,
      "妞": 1114,
      "妥": 1115,
      "妨": 1116,
      "妮": 1117,
      "妹": 1118,
      "妻": 1119,
      "姆": 1120,
      "姊": 1121,
      "始": 1122,
      "姐": 1123,
      "姑": 1124,
      "姓": 1125,
      "委": 1126,
      "姚": 1127,
      "姜": 1128,
      "姨": 1129,
      "姬": 1130,
      "姻": 1131,
      "姿": 1132,
      "威": 1133,
      "娃": 1134,
      "娅": 1135,
      "娇": 1136,
      "娘": 1137,
      "娜": 1138,
      "娠": 1139,
      "娥": 1140,
      "娩": 1141,
      "娱": 1142,
      "娴": 1143,
      "娶": 1144,
      "娼": 1145,
      "婆": 1146,
      "婉": 1147,
      "婊": 1148,
      "婚": 1149,
      "婢": 1150,
      "婪": 1151,
      "婴": 1152,
      "婶": 1153,
      "婷": 1154,
      "媒": 1155,
      "媚": 1156,
      "媲": 1157,
      "媳": 1158,
      "嫁": 1159,
      "嫉": 1160,
      "嫌": 1161,
      "嫖": 1162,
      "嫩": 1163,
      "嬉": 1164,
      "嬪": 1165,
      "嬴": 1166,
      "孀": 1167,
      "子": 1168,
      "孔": 1169,
      "孕": 1170,
      "字": 1171,
      "存": 1172,
      "孙": 1173,
      "孚": 1174,
      "孝": 1175,
      "孟": 1176,
      "孢": 1177,
      "季": 1178,
      "孤": 1179,
      "学": 1180,
      "孩": 1181,
      "孫": 1182,
      "孳": 1183,
      "孵": 1184,
      "學": 1185,
      "孺": 1186,
      "孽": 1187,
      "宁": 1188,
      "它": 1189,
      "宅": 1190,
      "宇": 1191,
      "守": 1192,
      "安": 1193,
      "宋": 1194,
      "完": 1195,
      "宏": 1196,
      "宕": 1197,
      "宗": 1198,
      "官": 1199,
      "宙": 1200,
      "定": 1201,
      "宛": 1202,
      "宜": 1203,
      "宝": 1204,
      "实": 1205,
      "宠": 1206,
      "审": 1207,
      "客": 1208,
      "宣": 1209,
      "室": 1210,
      "宪": 1211,
      "宫": 1212,
      "宮": 1213,
      "宰": 1214,
      "害": 1215,
      "宴": 1216,
      "宵": 1217,
      "家": 1218,
      "容": 1219,
      "宽": 1220,
      "宾": 1221,
      "宿": 1222,
      "寂": 1223,
      "寄": 1224,
      "密": 1225,
      "富": 1226,
      "寐": 1227,
      "寒": 1228,
      "寓": 1229,
      "寝": 1230,
      "寞": 1231,
      "察": 1232,
      "寡": 1233,
      "寥": 1234,
      "寨": 1235,
      "寫": 1236,
      "寬": 1237,
      "寰": 1238,
      "寶": 1239,
      "寸": 1240,
      "对": 1241,
      "寺": 1242,
      "寻": 1243,
      "导": 1244,
      "寿": 1245,
      "封": 1246,
      "射": 1247,
      "将": 1248,
      "尉": 1249,
      "尊": 1250,
      "對": 1251,
      "導": 1252,
      "小": 1253,
      "少": 1254,
      "尔": 1255,
      "尖": 1256,
      "尘": 1257,
      "尚": 1258,
      "尝": 1259,
      "尤": 1260,
      "尧": 1261,
      "尬": 1262,
      "就": 1263,
      "尴": 1264,
      "尸": 1265,
      "尺": 1266,
      "尻": 1267,
      "尼": 1268,
      "尽": 1269,
      "尾": 1270,
      "尿": 1271,
      "局": 1272,
      "屁": 1273,
      "层": 1274,
      "居": 1275,
      "屆": 1276,
      "屈": 1277,
      "屉": 1278,
      "届": 1279,
      "屋": 1280,
      "屏": 1281,
      "屑": 1282,
      "展": 1283,
      "属": 1284,
      "屠": 1285,
      "屡": 1286,
      "履": 1287,
      "屬": 1288,
      "屯": 1289,
      "山": 1290,
      "屹": 1291,
      "屿": 1292,
      "岁": 1293,
      "岂": 1294,
      "岌": 1295,
      "岐": 1296,
      "岑": 1297,
      "岔": 1298,
      "岖": 1299,
      "岗": 1300,
      "岛": 1301,
      "岡": 1302,
      "岩": 1303,
      "岭": 1304,
      "岳": 1305,
      "岸": 1306,
      "峁": 1307,
      "峇": 1308,
      "峙": 1309,
      "峡": 1310,
      "峨": 1311,
      "峭": 1312,
      "峰": 1313,
      "島": 1314,
      "峻": 1315,
      "峽": 1316,
      "崇": 1317,
      "崎": 1318,
      "崔": 1319,
      "崖": 1320,
      "崛": 1321,
      "崧": 1322,
      "崩": 1323,
      "崭": 1324,
      "崽": 1325,
      "嵌": 1326,
      "嵴": 1327,
      "嶋": 1328,
      "嶺": 1329,
      "嶼": 1330,
      "巅": 1331,
      "巍": 1332,
      "川": 1333,
      "州": 1334,
      "巡": 1335,
      "巢": 1336,
      "工": 1337,
      "左": 1338,
      "巧": 1339,
      "巨": 1340,
      "巩": 1341,
      "巫": 1342,
      "差": 1343,
      "己": 1344,
      "已": 1345,
      "巳": 1346,
      "巴": 1347,
      "巷": 1348,
      "巾": 1349,
      "币": 1350,
      "市": 1351,
      "布": 1352,
      "帅": 1353,
      "帆": 1354,
      "师": 1355,
      "希": 1356,
      "帏": 1357,
      "帐": 1358,
      "帕": 1359,
      "帖": 1360,
      "帘": 1361,
      "帛": 1362,
      "帜": 1363,
      "帝": 1364,
      "带": 1365,
      "帧": 1366,
      "師": 1367,
      "席": 1368,
      "帮": 1369,
      "常": 1370,
      "帽": 1371,
      "幂": 1372,
      "幅": 1373,
      "幌": 1374,
      "幔": 1375,
      "幕": 1376,
      "幢": 1377,
      "幣": 1378,
      "干": 1379,
      "平": 1380,
      "年": 1381,
      "并": 1382,
      "幸": 1383,
      "幹": 1384,
      "幻": 1385,
      "幼": 1386,
      "幽": 1387,
      "广": 1388,
      "庄": 1389,
      "庆": 1390,
      "庇": 1391,
      "床": 1392,
      "序": 1393,
      "库": 1394,
      "应": 1395,
      "底": 1396,
      "店": 1397,
      "庙": 1398,
      "庚": 1399,
      "府": 1400,
      "庞": 1401,
      "废": 1402,
      "度": 1403,
      "座": 1404,
      "庫": 1405,
      "庭": 1406,
      "庶": 1407,
      "康": 1408,
      "庸": 1409,
      "廈": 1410,
      "廉": 1411,
      "廊": 1412,
      "廓": 1413,
      "廖": 1414,
      "廣": 1415,
      "延": 1416,
      "廷": 1417,
      "建": 1418,
      "廿": 1419,
      "开": 1420,
      "异": 1421,
      "弃": 1422,
      "弄": 1423,
      "弈": 1424,
      "弊": 1425,
      "式": 1426,
      "弓": 1427,
      "引": 1428,
      "弗": 1429,
      "弘": 1430,
      "弟": 1431,
      "张": 1432,
      "弥": 1433,
      "弦": 1434,
      "弧": 1435,
      "弯": 1436,
      "弱": 1437,
      "強": 1438,
      "弹": 1439,
      "强": 1440,
      "彀": 1441,
      "彌": 1442,
      "归": 1443,
      "当": 1444,
      "录": 1445,
      "彗": 1446,
      "形": 1447,
      "彥": 1448,
      "彦": 1449,
      "彩": 1450,
      "彬": 1451,
      "彭": 1452,
      "彰": 1453,
      "影": 1454,
      "彷": 1455,
      "役": 1456,
      "彻": 1457,
      "彼": 1458,
      "往": 1459,
      "征": 1460,
      "径": 1461,
      "待": 1462,
      "徇": 1463,
      "很": 1464,
      "徊": 1465,
      "律": 1466,
      "後": 1467,
      "徐": 1468,
      "徒": 1469,
      "徕": 1470,
      "得": 1471,
      "徘": 1472,
      "徙": 1473,
      "御": 1474,
      "徨": 1475,
      "復": 1476,
      "循": 1477,
      "微": 1478,
      "徳": 1479,
      "徵": 1480,
      "德": 1481,
      "徸": 1482,
      "徽": 1483,
      "心": 1484,
      "必": 1485,
      "忆": 1486,
      "忌": 1487,
      "忍": 1488,
      "忏": 1489,
      "志": 1490,
      "忘": 1491,
      "忙": 1492,
      "忠": 1493,
      "忧": 1494,
      "快": 1495,
      "忱": 1496,
      "念": 1497,
      "忽": 1498,
      "忿": 1499,
      "怀": 1500,
      "态": 1501,
      "怂": 1502,
      "怅": 1503,
      "怎": 1504,
      "怒": 1505,
      "怕": 1506,
      "怖": 1507,
      "怜": 1508,
      "思": 1509,
      "怠": 1510,
      "怡": 1511,
      "急": 1512,
      "性": 1513,
      "怨": 1514,
      "怪": 1515,
      "怯": 1516,
      "总": 1517,
      "恃": 1518,
      "恆": 1519,
      "恋": 1520,
      "恍": 1521,
      "恐": 1522,
      "恒": 1523,
      "恕": 1524,
      "恢": 1525,
      "恤": 1526,
      "恨": 1527,
      "恩": 1528,
      "恪": 1529,
      "恫": 1530,
      "恬": 1531,
      "恭": 1532,
      "息": 1533,
      "恰": 1534,
      "恳": 1535,
      "恶": 1536,
      "恼": 1537,
      "恿": 1538,
      "悄": 1539,
      "悉": 1540,
      "悊": 1541,
      "悍": 1542,
      "悔": 1543,
      "悖": 1544,
      "悚": 1545,
      "悟": 1546,
      "悠": 1547,
      "患": 1548,
      "悦": 1549,
      "您": 1550,
      "悬": 1551,
      "悯": 1552,
      "悲": 1553,
      "悴": 1554,
      "悸": 1555,
      "悼": 1556,
      "情": 1557,
      "惆": 1558,
      "惇": 1559,
      "惊": 1560,
      "惋": 1561,
      "惑": 1562,
      "惕": 1563,
      "惚": 1564,
      "惜": 1565,
      "惟": 1566,
      "惠": 1567,
      "惧": 1568,
      "惨": 1569,
      "惩": 1570,
      "惫": 1571,
      "惬": 1572,
      "惮": 1573,
      "惯": 1574,
      "惰": 1575,
      "想": 1576,
      "惶": 1577,
      "惹": 1578,
      "愁": 1579,
      "愆": 1580,
      "愈": 1581,
      "愉": 1582,
      "意": 1583,
      "愕": 1584,
      "愚": 1585,
      "愛": 1586,
      "感": 1587,
      "愣": 1588,
      "愤": 1589,
      "愧": 1590,
      "愿": 1591,
      "慈": 1592,
      "態": 1593,
      "慌": 1594,
      "慎": 1595,
      "慑": 1596,
      "慕": 1597,
      "慢": 1598,
      "慧": 1599,
      "慨": 1600,
      "慰": 1601,
      "慵": 1602,
      "慷": 1603,
      "憎": 1604,
      "憔": 1605,
      "憩": 1606,
      "憾": 1607,
      "懂": 1608,
      "懈": 1609,
      "應": 1610,
      "懊": 1611,
      "懒": 1612,
      "懦": 1613,
      "懼": 1614,
      "戀": 1615,
      "戈": 1616,
      "戊": 1617,
      "戎": 1618,
      "戏": 1619,
      "成": 1620,
      "我": 1621,
      "戒": 1622,
      "戕": 1623,
      "或": 1624,
      "战": 1625,
      "戚": 1626,
      "戛": 1627,
      "截": 1628,
      "戮": 1629,
      "戰": 1630,
      "戲": 1631,
      "戳": 1632,
      "戴": 1633,
      "戶": 1634,
      "户": 1635,
      "戾": 1636,
      "房": 1637,
      "所": 1638,
      "扁": 1639,
      "扇": 1640,
      "扉": 1641,
      "手": 1642,
      "才": 1643,
      "扎": 1644,
      "扑": 1645,
      "打": 1646,
      "扔": 1647,
      "托": 1648,
      "扛": 1649,
      "扣": 1650,
      "执": 1651,
      "扩": 1652,
      "扪": 1653,
      "扫": 1654,
      "扬": 1655,
      "扭": 1656,
      "扮": 1657,
      "扯": 1658,
      "扰": 1659,
      "扳": 1660,
      "扶": 1661,
      "批": 1662,
      "扼": 1663,
      "找": 1664,
      "承": 1665,
      "技": 1666,
      "抄": 1667,
      "抉": 1668,
      "把": 1669,
      "抑": 1670,
      "抓": 1671,
      "投": 1672,
      "抖": 1673,
      "抗": 1674,
      "折": 1675,
      "抚": 1676,
      "抛": 1677,
      "抢": 1678,
      "护": 1679,
      "报": 1680,
      "抨": 1681,
      "披": 1682,
      "抬": 1683,
      "抱": 1684,
      "抵": 1685,
      "抹": 1686,
      "押": 1687,
      "抽": 1688,
      "拂": 1689,
      "担": 1690,
      "拆": 1691,
      "拇": 1692,
      "拉": 1693,
      "拋": 1694,
      "拌": 1695,
      "拍": 1696,
      "拐": 1697,
      "拒": 1698,
      "拓": 1699,
      "拔": 1700,
      "拖": 1701,
      "拘": 1702,
      "拙": 1703,
      "拚": 1704,
      "招": 1705,
      "拜": 1706,
      "拟": 1707,
      "拢": 1708,
      "拣": 1709,
      "拥": 1710,
      "拦": 1711,
      "拧": 1712,
      "拨": 1713,
      "择": 1714,
      "括": 1715,
      "拭": 1716,
      "拮": 1717,
      "拯": 1718,
      "拱": 1719,
      "拳": 1720,
      "拴": 1721,
      "拷": 1722,
      "拼": 1723,
      "拾": 1724,
      "拿": 1725,
      "持": 1726,
      "挂": 1727,
      "指": 1728,
      "按": 1729,
      "挎": 1730,
      "挑": 1731,
      "挖": 1732,
      "挚": 1733,
      "挛": 1734,
      "挝": 1735,
      "挟": 1736,
      "挠": 1737,
      "挡": 1738,
      "挣": 1739,
      "挤": 1740,
      "挥": 1741,
      "挨": 1742,
      "挪": 1743,
      "挫": 1744,
      "振": 1745,
      "挺": 1746,
      "挽": 1747,
      "捂": 1748,
      "捅": 1749,
      "捆": 1750,
      "捉": 1751,
      "捋": 1752,
      "捍": 1753,
      "捏": 1754,
      "捐": 1755,
      "捕": 1756,
      "捞": 1757,
      "损": 1758,
      "换": 1759,
      "捣": 1760,
      "捧": 1761,
      "捩": 1762,
      "据": 1763,
      "捱": 1764,
      "捷": 1765,
      "掀": 1766,
      "授": 1767,
      "掉": 1768,
      "掌": 1769,
      "掏": 1770,
      "掐": 1771,
      "排": 1772,
      "掘": 1773,
      "掠": 1774,
      "探": 1775,
      "掣": 1776,
      "接": 1777,
      "控": 1778,
      "推": 1779,
      "掩": 1780,
      "措": 1781,
      "掬": 1782,
      "掳": 1783,
      "掷": 1784,
      "掸": 1785,
      "掺": 1786,
      "揉": 1787,
      "揍": 1788,
      "描": 1789,
      "提": 1790,
      "插": 1791,
      "握": 1792,
      "揣": 1793,
      "揭": 1794,
      "援": 1795,
      "揽": 1796,
      "搀": 1797,
      "搁": 1798,
      "搂": 1799,
      "搅": 1800,
      "搏": 1801,
      "搓": 1802,
      "搜": 1803,
      "搞": 1804,
      "搡": 1805,
      "搪": 1806,
      "搬": 1807,
      "搭": 1808,
      "携": 1809,
      "摁": 1810,
      "摄": 1811,
      "摆": 1812,
      "摇": 1813,
      "摊": 1814,
      "摒": 1815,
      "摔": 1816,
      "摘": 1817,
      "摧": 1818,
      "摩": 1819,
      "摪": 1820,
      "摸": 1821,
      "摹": 1822,
      "撇": 1823,
      "撑": 1824,
      "撒": 1825,
      "撕": 1826,
      "撞": 1827,
      "撤": 1828,
      "撬": 1829,
      "播": 1830,
      "撮": 1831,
      "撰": 1832,
      "撷": 1833,
      "撼": 1834,
      "擂": 1835,
      "擅": 1836,
      "擊": 1837,
      "操": 1838,
      "擎": 1839,
      "擦": 1840,
      "擬": 1841,
      "擾": 1842,
      "攀": 1843,
      "攒": 1844,
      "攘": 1845,
      "支": 1846,
      "收": 1847,
      "攸": 1848,
      "改": 1849,
      "攻": 1850,
      "放": 1851,
      "政": 1852,
      "故": 1853,
      "效": 1854,
      "敌": 1855,
      "敏": 1856,
      "救": 1857,
      "敖": 1858,
      "敘": 1859,
      "教": 1860,
      "敛": 1861,
      "敝": 1862,
      "敞": 1863,
      "敢": 1864,
      "散": 1865,
      "敦": 1866,
      "敬": 1867,
      "数": 1868,
      "敲": 1869,
      "整": 1870,
      "敷": 1871,
      "數": 1872,
      "文": 1873,
      "斋": 1874,
      "斌": 1875,
      "斐": 1876,
      "斑": 1877,
      "斗": 1878,
      "料": 1879,
      "斜": 1880,
      "斟": 1881,
      "斡": 1882,
      "斤": 1883,
      "斥": 1884,
      "斧": 1885,
      "斩": 1886,
      "断": 1887,
      "斯": 1888,
      "新": 1889,
      "方": 1890,
      "於": 1891,
      "施": 1892,
      "旁": 1893,
      "旅": 1894,
      "旋": 1895,
      "旎": 1896,
      "族": 1897,
      "旖": 1898,
      "旗": 1899,
      "无": 1900,
      "既": 1901,
      "日": 1902,
      "旦": 1903,
      "旧": 1904,
      "旨": 1905,
      "早": 1906,
      "旬": 1907,
      "旱": 1908,
      "旳": 1909,
      "时": 1910,
      "旷": 1911,
      "旺": 1912,
      "昂": 1913,
      "昆": 1914,
      "昌": 1915,
      "明": 1916,
      "昏": 1917,
      "易": 1918,
      "昔": 1919,
      "星": 1920,
      "映": 1921,
      "春": 1922,
      "昧": 1923,
      "昨": 1924,
      "昭": 1925,
      "是": 1926,
      "昴": 1927,
      "昵": 1928,
      "昼": 1929,
      "显": 1930,
      "時": 1931,
      "晃": 1932,
      "晋": 1933,
      "晒": 1934,
      "晓": 1935,
      "晕": 1936,
      "晚": 1937,
      "晤": 1938,
      "晦": 1939,
      "晨": 1940,
      "普": 1941,
      "景": 1942,
      "晰": 1943,
      "晴": 1944,
      "晶": 1945,
      "晷": 1946,
      "智": 1947,
      "晾": 1948,
      "暂": 1949,
      "暇": 1950,
      "暑": 1951,
      "暖": 1952,
      "暗": 1953,
      "暧": 1954,
      "暨": 1955,
      "暮": 1956,
      "暴": 1957,
      "暹": 1958,
      "曙": 1959,
      "曝": 1960,
      "曦": 1961,
      "曰": 1962,
      "曲": 1963,
      "曳": 1964,
      "更": 1965,
      "書": 1966,
      "曹": 1967,
      "曼": 1968,
      "曾": 1969,
      "替": 1970,
      "最": 1971,
      "會": 1972,
      "月": 1973,
      "有": 1974,
      "朋": 1975,
      "服": 1976,
      "朔": 1977,
      "朗": 1978,
      "望": 1979,
      "朝": 1980,
      "期": 1981,
      "朦": 1982,
      "木": 1983,
      "未": 1984,
      "末": 1985,
      "本": 1986,
      "札": 1987,
      "术": 1988,
      "朱": 1989,
      "朴": 1990,
      "朵": 1991,
      "机": 1992,
      "朽": 1993,
      "杀": 1994,
      "杂": 1995,
      "权": 1996,
      "杆": 1997,
      "杉": 1998,
      "李": 1999,
      "杏": 2000,
      "材": 2001,
      "村": 2002,
      "杓": 2003,
      "杖": 2004,
      "杜": 2005,
      "束": 2006,
      "杠": 2007,
      "条": 2008,
      "来": 2009,
      "杨": 2010,
      "杭": 2011,
      "杯": 2012,
      "杰": 2013,
      "東": 2014,
      "松": 2015,
      "板": 2016,
      "极": 2017,
      "构": 2018,
      "析": 2019,
      "枕": 2020,
      "林": 2021,
      "枚": 2022,
      "果": 2023,
      "枝": 2024,
      "枞": 2025,
      "枢": 2026,
      "枣": 2027,
      "枪": 2028,
      "枯": 2029,
      "架": 2030,
      "枷": 2031,
      "柄": 2032,
      "柏": 2033,
      "某": 2034,
      "柑": 2035,
      "染": 2036,
      "柔": 2037,
      "柚": 2038,
      "柜": 2039,
      "柠": 2040,
      "查": 2041,
      "柬": 2042,
      "柯": 2043,
      "柰": 2044,
      "柱": 2045,
      "柳": 2046,
      "柴": 2047,
      "柿": 2048,
      "栅": 2049,
      "标": 2050,
      "栋": 2051,
      "栏": 2052,
      "树": 2053,
      "栓": 2054,
      "栖": 2055,
      "栗": 2056,
      "校": 2057,
      "株": 2058,
      "栲": 2059,
      "样": 2060,
      "核": 2061,
      "根": 2062,
      "格": 2063,
      "栽": 2064,
      "桀": 2065,
      "桁": 2066,
      "桂": 2067,
      "桃": 2068,
      "桅": 2069,
      "框": 2070,
      "案": 2071,
      "桉": 2072,
      "桌": 2073,
      "桎": 2074,
      "桐": 2075,
      "桑": 2076,
      "桓": 2077,
      "桔": 2078,
      "档": 2079,
      "桥": 2080,
      "桦": 2081,
      "桨": 2082,
      "桩": 2083,
      "桶": 2084,
      "梁": 2085,
      "梅": 2086,
      "梏": 2087,
      "梗": 2088,
      "條": 2089,
      "梢": 2090,
      "梦": 2091,
      "梧": 2092,
      "梨": 2093,
      "梭": 2094,
      "梯": 2095,
      "械": 2096,
      "梳": 2097,
      "梵": 2098,
      "梶": 2099,
      "检": 2100,
      "棉": 2101,
      "棋": 2102,
      "棍": 2103,
      "棒": 2104,
      "棕": 2105,
      "棘": 2106,
      "棚": 2107,
      "森": 2108,
      "棱": 2109,
      "棵": 2110,
      "棺": 2111,
      "椅": 2112,
      "植": 2113,
      "椎": 2114,
      "椒": 2115,
      "椭": 2116,
      "椰": 2117,
      "椿": 2118,
      "楔": 2119,
      "楚": 2120,
      "楞": 2121,
      "楠": 2122,
      "業": 2123,
      "極": 2124,
      "楷": 2125,
      "楹": 2126,
      "楼": 2127,
      "概": 2128,
      "榄": 2129,
      "榆": 2130,
      "榔": 2131,
      "榛": 2132,
      "榜": 2133,
      "榨": 2134,
      "榫": 2135,
      "榭": 2136,
      "榮": 2137,
      "榴": 2138,
      "榷": 2139,
      "榻": 2140,
      "槃": 2141,
      "構": 2142,
      "槍": 2143,
      "槛": 2144,
      "槟": 2145,
      "槽": 2146,
      "樂": 2147,
      "樊": 2148,
      "樓": 2149,
      "標": 2150,
      "模": 2151,
      "樣": 2152,
      "横": 2153,
      "樱": 2154,
      "樹": 2155,
      "樺": 2156,
      "橄": 2157,
      "橇": 2158,
      "橋": 2159,
      "橘": 2160,
      "橙": 2161,
      "機": 2162,
      "橡": 2163,
      "橱": 2164,
      "檐": 2165,
      "檔": 2166,
      "檬": 2167,
      "櫻": 2168,
      "權": 2169,
      "欠": 2170,
      "次": 2171,
      "欢": 2172,
      "欣": 2173,
      "欧": 2174,
      "欲": 2175,
      "欺": 2176,
      "款": 2177,
      "歇": 2178,
      "歉": 2179,
      "歌": 2180,
      "歎": 2181,
      "歐": 2182,
      "歡": 2183,
      "止": 2184,
      "正": 2185,
      "此": 2186,
      "步": 2187,
      "武": 2188,
      "歧": 2189,
      "歪": 2190,
      "歷": 2191,
      "歹": 2192,
      "死": 2193,
      "歼": 2194,
      "殃": 2195,
      "殆": 2196,
      "殉": 2197,
      "殊": 2198,
      "残": 2199,
      "殒": 2200,
      "殖": 2201,
      "殴": 2202,
      "段": 2203,
      "殷": 2204,
      "殺": 2205,
      "殿": 2206,
      "毁": 2207,
      "毅": 2208,
      "母": 2209,
      "每": 2210,
      "毒": 2211,
      "比": 2212,
      "毕": 2213,
      "毗": 2214,
      "毘": 2215,
      "毙": 2216,
      "毛": 2217,
      "毫": 2218,
      "毯": 2219,
      "氏": 2220,
      "民": 2221,
      "氓": 2222,
      "气": 2223,
      "氛": 2224,
      "氟": 2225,
      "氢": 2226,
      "氣": 2227,
      "氦": 2228,
      "氧": 2229,
      "氨": 2230,
      "氮": 2231,
      "氯": 2232,
      "水": 2233,
      "永": 2234,
      "汀": 2235,
      "汁": 2236,
      "求": 2237,
      "汇": 2238,
      "汉": 2239,
      "汐": 2240,
      "汕": 2241,
      "汗": 2242,
      "汙": 2243,
      "汛": 2244,
      "汝": 2245,
      "汞": 2246,
      "江": 2247,
      "池": 2248,
      "污": 2249,
      "汤": 2250,
      "汨": 2251,
      "汪": 2252,
      "汰": 2253,
      "汲": 2254,
      "汶": 2255,
      "汹": 2256,
      "汽": 2257,
      "沁": 2258,
      "沂": 2259,
      "沃": 2260,
      "沈": 2261,
      "沉": 2262,
      "沌": 2263,
      "沐": 2264,
      "沓": 2265,
      "沙": 2266,
      "沛": 2267,
      "沟": 2268,
      "没": 2269,
      "沥": 2270,
      "沦": 2271,
      "沪": 2272,
      "沫": 2273,
      "沮": 2274,
      "河": 2275,
      "沸": 2276,
      "油": 2277,
      "治": 2278,
      "沼": 2279,
      "沾": 2280,
      "沿": 2281,
      "泄": 2282,
      "泉": 2283,
      "泊": 2284,
      "泌": 2285,
      "法": 2286,
      "泛": 2287,
      "泡": 2288,
      "波": 2289,
      "泣": 2290,
      "泥": 2291,
      "注": 2292,
      "泪": 2293,
      "泯": 2294,
      "泰": 2295,
      "泳": 2296,
      "泵": 2297,
      "泻": 2298,
      "泼": 2299,
      "泽": 2300,
      "泾": 2301,
      "洁": 2302,
      "洄": 2303,
      "洋": 2304,
      "洒": 2305,
      "洗": 2306,
      "洛": 2307,
      "洞": 2308,
      "津": 2309,
      "洪": 2310,
      "洱": 2311,
      "洲": 2312,
      "活": 2313,
      "洼": 2314,
      "洽": 2315,
      "派": 2316,
      "流": 2317,
      "浅": 2318,
      "浆": 2319,
      "浇": 2320,
      "测": 2321,
      "济": 2322,
      "浏": 2323,
      "浑": 2324,
      "浓": 2325,
      "浙": 2326,
      "浚": 2327,
      "浜": 2328,
      "浦": 2329,
      "浩": 2330,
      "浪": 2331,
      "浮": 2332,
      "浴": 2333,
      "海": 2334,
      "浸": 2335,
      "涂": 2336,
      "涅": 2337,
      "消": 2338,
      "涉": 2339,
      "涌": 2340,
      "涎": 2341,
      "涓": 2342,
      "涔": 2343,
      "涕": 2344,
      "涛": 2345,
      "涝": 2346,
      "涡": 2347,
      "涣": 2348,
      "涤": 2349,
      "润": 2350,
      "涧": 2351,
      "涨": 2352,
      "涩": 2353,
      "涯": 2354,
      "液": 2355,
      "涵": 2356,
      "涸": 2357,
      "淀": 2358,
      "淆": 2359,
      "淇": 2360,
      "淋": 2361,
      "淘": 2362,
      "淙": 2363,
      "淡": 2364,
      "淫": 2365,
      "淮": 2366,
      "深": 2367,
      "淳": 2368,
      "混": 2369,
      "淹": 2370,
      "淺": 2371,
      "添": 2372,
      "清": 2373,
      "渊": 2374,
      "渍": 2375,
      "渎": 2376,
      "渐": 2377,
      "渔": 2378,
      "渗": 2379,
      "渠": 2380,
      "渡": 2381,
      "渣": 2382,
      "渤": 2383,
      "渥": 2384,
      "温": 2385,
      "渭": 2386,
      "港": 2387,
      "渲": 2388,
      "渴": 2389,
      "游": 2390,
      "渺": 2391,
      "湄": 2392,
      "湍": 2393,
      "湎": 2394,
      "湖": 2395,
      "湛": 2396,
      "湮": 2397,
      "湯": 2398,
      "湾": 2399,
      "湿": 2400,
      "溃": 2401,
      "溅": 2402,
      "溉": 2403,
      "源": 2404,
      "溜": 2405,
      "溢": 2406,
      "溥": 2407,
      "溪": 2408,
      "溫": 2409,
      "溯": 2410,
      "溴": 2411,
      "溶": 2412,
      "溺": 2413,
      "滇": 2414,
      "滋": 2415,
      "滑": 2416,
      "滓": 2417,
      "滔": 2418,
      "滕": 2419,
      "滚": 2420,
      "滞": 2421,
      "满": 2422,
      "滤": 2423,
      "滥": 2424,
      "滨": 2425,
      "滩": 2426,
      "滴": 2427,
      "滿": 2428,
      "漂": 2429,
      "漆": 2430,
      "漉": 2431,
      "漏": 2432,
      "漓": 2433,
      "演": 2434,
      "漠": 2435,
      "漢": 2436,
      "漩": 2437,
      "漫": 2438,
      "漱": 2439,
      "漾": 2440,
      "潇": 2441,
      "潍": 2442,
      "潔": 2443,
      "潘": 2444,
      "潜": 2445,
      "潟": 2446,
      "潢": 2447,
      "潦": 2448,
      "潭": 2449,
      "潮": 2450,
      "澄": 2451,
      "澈": 2452,
      "澜": 2453,
      "澡": 2454,
      "澤": 2455,
      "澳": 2456,
      "激": 2457,
      "濒": 2458,
      "濟": 2459,
      "濱": 2460,
      "瀑": 2461,
      "灌": 2462,
      "灣": 2463,
      "火": 2464,
      "灭": 2465,
      "灯": 2466,
      "灰": 2467,
      "灵": 2468,
      "灶": 2469,
      "灸": 2470,
      "灼": 2471,
      "灾": 2472,
      "灿": 2473,
      "炉": 2474,
      "炊": 2475,
      "炎": 2476,
      "炒": 2477,
      "炖": 2478,
      "炫": 2479,
      "炬": 2480,
      "炭": 2481,
      "炮": 2482,
      "炳": 2483,
      "炸": 2484,
      "点": 2485,
      "為": 2486,
      "炼": 2487,
      "炽": 2488,
      "烁": 2489,
      "烂": 2490,
      "烃": 2491,
      "烈": 2492,
      "烏": 2493,
      "烘": 2494,
      "烛": 2495,
      "烟": 2496,
      "烤": 2497,
      "烦": 2498,
      "烧": 2499,
      "烫": 2500,
      "烬": 2501,
      "热": 2502,
      "烯": 2503,
      "烷": 2504,
      "烹": 2505,
      "焉": 2506,
      "焊": 2507,
      "焕": 2508,
      "焘": 2509,
      "焙": 2510,
      "焚": 2511,
      "無": 2512,
      "焦": 2513,
      "焰": 2514,
      "然": 2515,
      "煉": 2516,
      "煌": 2517,
      "煎": 2518,
      "煒": 2519,
      "煙": 2520,
      "煞": 2521,
      "煤": 2522,
      "照": 2523,
      "煮": 2524,
      "煽": 2525,
      "熄": 2526,
      "熊": 2527,
      "熏": 2528,
      "熔": 2529,
      "熙": 2530,
      "熟": 2531,
      "熠": 2532,
      "熬": 2533,
      "熵": 2534,
      "燃": 2535,
      "燕": 2536,
      "燥": 2537,
      "燧": 2538,
      "爆": 2539,
      "爪": 2540,
      "爬": 2541,
      "爭": 2542,
      "爱": 2543,
      "爵": 2544,
      "父": 2545,
      "爷": 2546,
      "爸": 2547,
      "爽": 2548,
      "爾": 2549,
      "片": 2550,
      "版": 2551,
      "牌": 2552,
      "牒": 2553,
      "牙": 2554,
      "牛": 2555,
      "牟": 2556,
      "牡": 2557,
      "牢": 2558,
      "牦": 2559,
      "牧": 2560,
      "物": 2561,
      "牲": 2562,
      "牵": 2563,
      "特": 2564,
      "牺": 2565,
      "犀": 2566,
      "犁": 2567,
      "犬": 2568,
      "犯": 2569,
      "状": 2570,
      "犷": 2571,
      "犸": 2572,
      "犹": 2573,
      "狀": 2574,
      "狂": 2575,
      "狄": 2576,
      "狈": 2577,
      "狎": 2578,
      "狐": 2579,
      "狗": 2580,
      "狙": 2581,
      "狞": 2582,
      "狠": 2583,
      "狩": 2584,
      "独": 2585,
      "狭": 2586,
      "狮": 2587,
      "狰": 2588,
      "狱": 2589,
      "狸": 2590,
      "狼": 2591,
      "猎": 2592,
      "猖": 2593,
      "猗": 2594,
      "猛": 2595,
      "猜": 2596,
      "猩": 2597,
      "猪": 2598,
      "猫": 2599,
      "献": 2600,
      "猴": 2601,
      "猶": 2602,
      "猿": 2603,
      "獄": 2604,
      "獅": 2605,
      "獎": 2606,
      "獗": 2607,
      "獨": 2608,
      "獭": 2609,
      "獸": 2610,
      "獾": 2611,
      "玄": 2612,
      "率": 2613,
      "玉": 2614,
      "王": 2615,
      "玛": 2616,
      "玩": 2617,
      "玫": 2618,
      "环": 2619,
      "现": 2620,
      "玲": 2621,
      "玷": 2622,
      "玺": 2623,
      "玻": 2624,
      "珀": 2625,
      "珂": 2626,
      "珈": 2627,
      "珊": 2628,
      "珍": 2629,
      "珠": 2630,
      "珥": 2631,
      "班": 2632,
      "現": 2633,
      "球": 2634,
      "理": 2635,
      "琌": 2636,
      "琐": 2637,
      "琢": 2638,
      "琪": 2639,
      "琳": 2640,
      "琴": 2641,
      "琵": 2642,
      "琼": 2643,
      "瑀": 2644,
      "瑍": 2645,
      "瑕": 2646,
      "瑙": 2647,
      "瑚": 2648,
      "瑜": 2649,
      "瑞": 2650,
      "瑟": 2651,
      "瑪": 2652,
      "瑰": 2653,
      "璃": 2654,
      "璐": 2655,
      "環": 2656,
      "璸": 2657,
      "瓜": 2658,
      "瓣": 2659,
      "瓦": 2660,
      "瓮": 2661,
      "瓶": 2662,
      "瓷": 2663,
      "甄": 2664,
      "甘": 2665,
      "甙": 2666,
      "甚": 2667,
      "甜": 2668,
      "生": 2669,
      "產": 2670,
      "甤": 2671,
      "用": 2672,
      "甩": 2673,
      "甫": 2674,
      "田": 2675,
      "由": 2676,
      "甲": 2677,
      "申": 2678,
      "电": 2679,
      "男": 2680,
      "甸": 2681,
      "町": 2682,
      "画": 2683,
      "甾": 2684,
      "畅": 2685,
      "界": 2686,
      "畏": 2687,
      "畑": 2688,
      "畔": 2689,
      "留": 2690,
      "畜": 2691,
      "略": 2692,
      "畦": 2693,
      "番": 2694,
      "畫": 2695,
      "畴": 2696,
      "畸": 2697,
      "疆": 2698,
      "疏": 2699,
      "疑": 2700,
      "疗": 2701,
      "疚": 2702,
      "疝": 2703,
      "疟": 2704,
      "疡": 2705,
      "疤": 2706,
      "疫": 2707,
      "疭": 2708,
      "疮": 2709,
      "疯": 2710,
      "疱": 2711,
      "疲": 2712,
      "疵": 2713,
      "疹": 2714,
      "疼": 2715,
      "疽": 2716,
      "疾": 2717,
      "痂": 2718,
      "病": 2719,
      "症": 2720,
      "痉": 2721,
      "痊": 2722,
      "痒": 2723,
      "痔": 2724,
      "痕": 2725,
      "痘": 2726,
      "痛": 2727,
      "痢": 2728,
      "痤": 2729,
      "痨": 2730,
      "痪": 2731,
      "痫": 2732,
      "痰": 2733,
      "痴": 2734,
      "痹": 2735,
      "瘀": 2736,
      "瘘": 2737,
      "瘠": 2738,
      "瘢": 2739,
      "瘤": 2740,
      "瘦": 2741,
      "瘫": 2742,
      "瘴": 2743,
      "瘸": 2744,
      "瘾": 2745,
      "癌": 2746,
      "癖": 2747,
      "癣": 2748,
      "癫": 2749,
      "登": 2750,
      "發": 2751,
      "白": 2752,
      "百": 2753,
      "皂": 2754,
      "的": 2755,
      "皆": 2756,
      "皇": 2757,
      "皈": 2758,
      "皑": 2759,
      "皮": 2760,
      "皱": 2761,
      "盂": 2762,
      "盃": 2763,
      "盆": 2764,
      "盈": 2765,
      "益": 2766,
      "盎": 2767,
      "盏": 2768,
      "盐": 2769,
      "监": 2770,
      "盒": 2771,
      "盔": 2772,
      "盖": 2773,
      "盗": 2774,
      "盘": 2775,
      "盛": 2776,
      "盟": 2777,
      "盤": 2778,
      "盧": 2779,
      "目": 2780,
      "盯": 2781,
      "盲": 2782,
      "直": 2783,
      "相": 2784,
      "盼": 2785,
      "盾": 2786,
      "省": 2787,
      "眉": 2788,
      "看": 2789,
      "真": 2790,
      "眠": 2791,
      "眨": 2792,
      "眩": 2793,
      "眯": 2794,
      "眶": 2795,
      "眷": 2796,
      "眺": 2797,
      "眼": 2798,
      "着": 2799,
      "睁": 2800,
      "睐": 2801,
      "睑": 2802,
      "睛": 2803,
      "睡": 2804,
      "督": 2805,
      "睦": 2806,
      "睫": 2807,
      "睬": 2808,
      "睹": 2809,
      "睾": 2810,
      "睿": 2811,
      "瞄": 2812,
      "瞅": 2813,
      "瞌": 2814,
      "瞎": 2815,
      "瞒": 2816,
      "瞞": 2817,
      "瞣": 2818,
      "瞥": 2819,
      "瞧": 2820,
      "瞩": 2821,
      "瞪": 2822,
      "瞬": 2823,
      "瞭": 2824,
      "瞰": 2825,
      "瞳": 2826,
      "瞻": 2827,
      "矛": 2828,
      "矜": 2829,
      "矢": 2830,
      "矣": 2831,
      "知": 2832,
      "矩": 2833,
      "矫": 2834,
      "短": 2835,
      "矮": 2836,
      "石": 2837,
      "矶": 2838,
      "矽": 2839,
      "矿": 2840,
      "码": 2841,
      "砂": 2842,
      "砌": 2843,
      "砍": 2844,
      "研": 2845,
      "砖": 2846,
      "砧": 2847,
      "砰": 2848,
      "砲": 2849,
      "破": 2850,
      "砵": 2851,
      "砷": 2852,
      "砸": 2853,
      "砼": 2854,
      "砾": 2855,
      "础": 2856,
      "硂": 2857,
      "硅": 2858,
      "硎": 2859,
      "硒": 2860,
      "硕": 2861,
      "硖": 2862,
      "硝": 2863,
      "硫": 2864,
      "硬": 2865,
      "确": 2866,
      "硼": 2867,
      "碉": 2868,
      "碌": 2869,
      "碍": 2870,
      "碎": 2871,
      "碑": 2872,
      "碗": 2873,
      "碘": 2874,
      "碟": 2875,
      "碧": 2876,
      "碰": 2877,
      "碱": 2878,
      "碳": 2879,
      "碼": 2880,
      "碾": 2881,
      "磁": 2882,
      "磅": 2883,
      "磊": 2884,
      "磋": 2885,
      "磐": 2886,
      "磕": 2887,
      "磨": 2888,
      "磷": 2889,
      "磺": 2890,
      "礁": 2891,
      "示": 2892,
      "礼": 2893,
      "社": 2894,
      "祀": 2895,
      "祂": 2896,
      "祈": 2897,
      "祉": 2898,
      "祖": 2899,
      "祝": 2900,
      "神": 2901,
      "祟": 2902,
      "祠": 2903,
      "祥": 2904,
      "票": 2905,
      "祭": 2906,
      "祷": 2907,
      "祸": 2908,
      "祿": 2909,
      "禁": 2910,
      "禄": 2911,
      "禅": 2912,
      "禎": 2913,
      "福": 2914,
      "禧": 2915,
      "禮": 2916,
      "禹": 2917,
      "禺": 2918,
      "离": 2919,
      "禽": 2920,
      "禾": 2921,
      "秀": 2922,
      "私": 2923,
      "秃": 2924,
      "秆": 2925,
      "秈": 2926,
      "秉": 2927,
      "秋": 2928,
      "种": 2929,
      "科": 2930,
      "秒": 2931,
      "秘": 2932,
      "租": 2933,
      "秤": 2934,
      "秦": 2935,
      "秧": 2936,
      "秩": 2937,
      "积": 2938,
      "称": 2939,
      "秸": 2940,
      "移": 2941,
      "秽": 2942,
      "稀": 2943,
      "稃": 2944,
      "程": 2945,
      "稍": 2946,
      "税": 2947,
      "稔": 2948,
      "稚": 2949,
      "稜": 2950,
      "稠": 2951,
      "稣": 2952,
      "稳": 2953,
      "稻": 2954,
      "稼": 2955,
      "稽": 2956,
      "稿": 2957,
      "穆": 2958,
      "穗": 2959,
      "穦": 2960,
      "穴": 2961,
      "究": 2962,
      "穷": 2963,
      "空": 2964,
      "穿": 2965,
      "突": 2966,
      "窃": 2967,
      "窄": 2968,
      "窍": 2969,
      "窑": 2970,
      "窒": 2971,
      "窖": 2972,
      "窗": 2973,
      "窘": 2974,
      "窜": 2975,
      "窝": 2976,
      "窟": 2977,
      "窥": 2978,
      "窿": 2979,
      "立": 2980,
      "竖": 2981,
      "站": 2982,
      "竞": 2983,
      "竟": 2984,
      "章": 2985,
      "竣": 2986,
      "童": 2987,
      "竭": 2988,
      "端": 2989,
      "竹": 2990,
      "竽": 2991,
      "竿": 2992,
      "笃": 2993,
      "笆": 2994,
      "笋": 2995,
      "笏": 2996,
      "笑": 2997,
      "笔": 2998,
      "笛": 2999,
      "笞": 3000,
      "笠": 3001,
      "符": 3002,
      "笨": 3003,
      "第": 3004,
      "笵": 3005,
      "笼": 3006,
      "等": 3007,
      "筋": 3008,
      "筐": 3009,
      "筑": 3010,
      "筒": 3011,
      "答": 3012,
      "策": 3013,
      "筛": 3014,
      "筴": 3015,
      "筵": 3016,
      "筷": 3017,
      "筹": 3018,
      "签": 3019,
      "简": 3020,
      "箍": 3021,
      "箔": 3022,
      "算": 3023,
      "管": 3024,
      "箩": 3025,
      "箫": 3026,
      "箭": 3027,
      "箱": 3028,
      "箴": 3029,
      "節": 3030,
      "範": 3031,
      "篇": 3032,
      "築": 3033,
      "篝": 3034,
      "篡": 3035,
      "篪": 3036,
      "篮": 3037,
      "篱": 3038,
      "篷": 3039,
      "篾": 3040,
      "簇": 3041,
      "簧": 3042,
      "簸": 3043,
      "簿": 3044,
      "籃": 3045,
      "籍": 3046,
      "米": 3047,
      "类": 3048,
      "籽": 3049,
      "粉": 3050,
      "粒": 3051,
      "粕": 3052,
      "粗": 3053,
      "粘": 3054,
      "粟": 3055,
      "粤": 3056,
      "粥": 3057,
      "粪": 3058,
      "粮": 3059,
      "粹": 3060,
      "精": 3061,
      "糊": 3062,
      "糍": 3063,
      "糕": 3064,
      "糖": 3065,
      "糙": 3066,
      "糟": 3067,
      "糠": 3068,
      "系": 3069,
      "紀": 3070,
      "約": 3071,
      "紊": 3072,
      "紋": 3073,
      "納": 3074,
      "紐": 3075,
      "紙": 3076,
      "級": 3077,
      "素": 3078,
      "索": 3079,
      "紧": 3080,
      "紫": 3081,
      "累": 3082,
      "紹": 3083,
      "紺": 3084,
      "終": 3085,
      "組": 3086,
      "結": 3087,
      "給": 3088,
      "絮": 3089,
      "統": 3090,
      "絲": 3091,
      "綠": 3092,
      "綫": 3093,
      "維": 3094,
      "綱": 3095,
      "網": 3096,
      "緋": 3097,
      "緘": 3098,
      "線": 3099,
      "緣": 3100,
      "編": 3101,
      "縣": 3102,
      "縩": 3103,
      "總": 3104,
      "繁": 3105,
      "纂": 3106,
      "纠": 3107,
      "红": 3108,
      "纤": 3109,
      "约": 3110,
      "级": 3111,
      "纪": 3112,
      "纫": 3113,
      "纬": 3114,
      "纯": 3115,
      "纰": 3116,
      "纱": 3117,
      "纲": 3118,
      "纳": 3119,
      "纵": 3120,
      "纶": 3121,
      "纷": 3122,
      "纸": 3123,
      "纹": 3124,
      "纺": 3125,
      "纽": 3126,
      "纾": 3127,
      "线": 3128,
      "绀": 3129,
      "练": 3130,
      "组": 3131,
      "绅": 3132,
      "细": 3133,
      "织": 3134,
      "终": 3135,
      "绊": 3136,
      "绌": 3137,
      "绍": 3138,
      "经": 3139,
      "绑": 3140,
      "绒": 3141,
      "结": 3142,
      "绕": 3143,
      "绘": 3144,
      "给": 3145,
      "绚": 3146,
      "络": 3147,
      "绝": 3148,
      "绞": 3149,
      "统": 3150,
      "绣": 3151,
      "继": 3152,
      "绩": 3153,
      "绪": 3154,
      "续": 3155,
      "绯": 3156,
      "绰": 3157,
      "绳": 3158,
      "维": 3159,
      "绵": 3160,
      "绷": 3161,
      "绸": 3162,
      "综": 3163,
      "绽": 3164,
      "绿": 3165,
      "缀": 3166,
      "缄": 3167,
      "缅": 3168,
      "缆": 3169,
      "缈": 3170,
      "缉": 3171,
      "缎": 3172,
      "缓": 3173,
      "缔": 3174,
      "缕": 3175,
      "编": 3176,
      "缘": 3177,
      "缚": 3178,
      "缝": 3179,
      "缠": 3180,
      "缥": 3181,
      "缩": 3182,
      "缪": 3183,
      "缮": 3184,
      "缴": 3185,
      "缸": 3186,
      "缺": 3187,
      "罂": 3188,
      "罄": 3189,
      "罐": 3190,
      "网": 3191,
      "罔": 3192,
      "罕": 3193,
      "罗": 3194,
      "罚": 3195,
      "罢": 3196,
      "罩": 3197,
      "罪": 3198,
      "置": 3199,
      "署": 3200,
      "罴": 3201,
      "罹": 3202,
      "羁": 3203,
      "羅": 3204,
      "羊": 3205,
      "美": 3206,
      "羔": 3207,
      "羞": 3208,
      "羟": 3209,
      "羡": 3210,
      "群": 3211,
      "義": 3212,
      "羹": 3213,
      "羽": 3214,
      "羿": 3215,
      "翁": 3216,
      "翅": 3217,
      "翔": 3218,
      "翘": 3219,
      "翟": 3220,
      "翠": 3221,
      "翡": 3222,
      "翰": 3223,
      "翱": 3224,
      "翳": 3225,
      "翻": 3226,
      "翼": 3227,
      "耀": 3228,
      "老": 3229,
      "考": 3230,
      "者": 3231,
      "而": 3232,
      "耍": 3233,
      "耐": 3234,
      "耕": 3235,
      "耗": 3236,
      "耘": 3237,
      "耙": 3238,
      "耦": 3239,
      "耳": 3240,
      "耶": 3241,
      "耸": 3242,
      "耻": 3243,
      "耽": 3244,
      "耿": 3245,
      "聆": 3246,
      "聊": 3247,
      "聋": 3248,
      "职": 3249,
      "联": 3250,
      "聖": 3251,
      "聘": 3252,
      "聚": 3253,
      "聞": 3254,
      "聪": 3255,
      "聯": 3256,
      "聲": 3257,
      "職": 3258,
      "肃": 3259,
      "肅": 3260,
      "肆": 3261,
      "肇": 3262,
      "肉": 3263,
      "肋": 3264,
      "肌": 3265,
      "肖": 3266,
      "肘": 3267,
      "肚": 3268,
      "肝": 3269,
      "肠": 3270,
      "股": 3271,
      "肢": 3272,
      "肤": 3273,
      "肥": 3274,
      "肩": 3275,
      "肪": 3276,
      "肮": 3277,
      "肯": 3278,
      "育": 3279,
      "肴": 3280,
      "肺": 3281,
      "肽": 3282,
      "肾": 3283,
      "肿": 3284,
      "胀": 3285,
      "胁": 3286,
      "胃": 3287,
      "胆": 3288,
      "背": 3289,
      "胍": 3290,
      "胎": 3291,
      "胖": 3292,
      "胚": 3293,
      "胛": 3294,
      "胜": 3295,
      "胞": 3296,
      "胡": 3297,
      "胧": 3298,
      "胭": 3299,
      "胯": 3300,
      "胰": 3301,
      "胱": 3302,
      "胳": 3303,
      "胶": 3304,
      "胸": 3305,
      "胺": 3306,
      "能": 3307,
      "脂": 3308,
      "脆": 3309,
      "脈": 3310,
      "脉": 3311,
      "脊": 3312,
      "脏": 3313,
      "脐": 3314,
      "脑": 3315,
      "脓": 3316,
      "脖": 3317,
      "脚": 3318,
      "脱": 3319,
      "脲": 3320,
      "脸": 3321,
      "脾": 3322,
      "腊": 3323,
      "腍": 3324,
      "腎": 3325,
      "腐": 3326,
      "腑": 3327,
      "腓": 3328,
      "腔": 3329,
      "腕": 3330,
      "腥": 3331,
      "腩": 3332,
      "腭": 3333,
      "腮": 3334,
      "腰": 3335,
      "腱": 3336,
      "腴": 3337,
      "腹": 3338,
      "腺": 3339,
      "腻": 3340,
      "腾": 3341,
      "腿": 3342,
      "膀": 3343,
      "膊": 3344,
      "膏": 3345,
      "膘": 3346,
      "膛": 3347,
      "膜": 3348,
      "膝": 3349,
      "膦": 3350,
      "膨": 3351,
      "膳": 3352,
      "膻": 3353,
      "臀": 3354,
      "臂": 3355,
      "臆": 3356,
      "臊": 3357,
      "臘": 3358,
      "臣": 3359,
      "自": 3360,
      "臭": 3361,
      "至": 3362,
      "致": 3363,
      "臺": 3364,
      "臼": 3365,
      "舅": 3366,
      "舆": 3367,
      "與": 3368,
      "興": 3369,
      "舉": 3370,
      "舌": 3371,
      "舍": 3372,
      "舒": 3373,
      "舞": 3374,
      "舟": 3375,
      "航": 3376,
      "般": 3377,
      "舰": 3378,
      "舱": 3379,
      "舵": 3380,
      "舶": 3381,
      "舷": 3382,
      "船": 3383,
      "艇": 3384,
      "艘": 3385,
      "艦": 3386,
      "良": 3387,
      "艰": 3388,
      "色": 3389,
      "艳": 3390,
      "艷": 3391,
      "艺": 3392,
      "艾": 3393,
      "节": 3394,
      "芋": 3395,
      "芒": 3396,
      "芘": 3397,
      "芙": 3398,
      "芜": 3399,
      "芝": 3400,
      "芥": 3401,
      "芦": 3402,
      "芩": 3403,
      "芬": 3404,
      "芭": 3405,
      "芮": 3406,
      "芯": 3407,
      "花": 3408,
      "芳": 3409,
      "芷": 3410,
      "芸": 3411,
      "芽": 3412,
      "苇": 3413,
      "苍": 3414,
      "苏": 3415,
      "苑": 3416,
      "苔": 3417,
      "苗": 3418,
      "苛": 3419,
      "苜": 3420,
      "苟": 3421,
      "若": 3422,
      "苦": 3423,
      "苯": 3424,
      "英": 3425,
      "苷": 3426,
      "苹": 3427,
      "茁": 3428,
      "茂": 3429,
      "范": 3430,
      "茄": 3431,
      "茅": 3432,
      "茎": 3433,
      "茜": 3434,
      "茨": 3435,
      "茫": 3436,
      "茬": 3437,
      "茱": 3438,
      "茲": 3439,
      "茵": 3440,
      "茶": 3441,
      "茸": 3442,
      "茹": 3443,
      "荀": 3444,
      "荃": 3445,
      "草": 3446,
      "荐": 3447,
      "荒": 3448,
      "荔": 3449,
      "荚": 3450,
      "荟": 3451,
      "荡": 3452,
      "荣": 3453,
      "荧": 3454,
      "荪": 3455,
      "荫": 3456,
      "药": 3457,
      "荷": 3458,
      "莅": 3459,
      "莉": 3460,
      "莎": 3461,
      "莓": 3462,
      "莨": 3463,
      "莫": 3464,
      "莱": 3465,
      "莲": 3466,
      "莴": 3467,
      "获": 3468,
      "莹": 3469,
      "莺": 3470,
      "莽": 3471,
      "菁": 3472,
      "菇": 3473,
      "菊": 3474,
      "菌": 3475,
      "菏": 3476,
      "菖": 3477,
      "菜": 3478,
      "菠": 3479,
      "菩": 3480,
      "菪": 3481,
      "華": 3482,
      "菱": 3483,
      "菲": 3484,
      "萃": 3485,
      "萄": 3486,
      "萊": 3487,
      "萌": 3488,
      "萍": 3489,
      "萎": 3490,
      "萘": 3491,
      "萝": 3492,
      "萤": 3493,
      "营": 3494,
      "萧": 3495,
      "萨": 3496,
      "萬": 3497,
      "落": 3498,
      "葉": 3499,
      "著": 3500,
      "葛": 3501,
      "葡": 3502,
      "董": 3503,
      "葬": 3504,
      "葱": 3505,
      "葵": 3506,
      "蒂": 3507,
      "蒙": 3508,
      "蒜": 3509,
      "蒲": 3510,
      "蒸": 3511,
      "蒿": 3512,
      "蓁": 3513,
      "蓄": 3514,
      "蓉": 3515,
      "蓖": 3516,
      "蓝": 3517,
      "蓬": 3518,
      "蓿": 3519,
      "蔑": 3520,
      "蔓": 3521,
      "蔗": 3522,
      "蔚": 3523,
      "蔡": 3524,
      "蔬": 3525,
      "蔼": 3526,
      "蔽": 3527,
      "蕃": 3528,
      "蕉": 3529,
      "蕊": 3530,
      "蕨": 3531,
      "蕭": 3532,
      "蕰": 3533,
      "蕴": 3534,
      "蕾": 3535,
      "薄": 3536,
      "薇": 3537,
      "薛": 3538,
      "薩": 3539,
      "薪": 3540,
      "薯": 3541,
      "藉": 3542,
      "藏": 3543,
      "藐": 3544,
      "藓": 3545,
      "藕": 3546,
      "藤": 3547,
      "藩": 3548,
      "藻": 3549,
      "藿": 3550,
      "蘇": 3551,
      "蘋": 3552,
      "蘭": 3553,
      "蘸": 3554,
      "虎": 3555,
      "虏": 3556,
      "虐": 3557,
      "虑": 3558,
      "虔": 3559,
      "虚": 3560,
      "虛": 3561,
      "虞": 3562,
      "號": 3563,
      "虫": 3564,
      "虱": 3565,
      "虹": 3566,
      "虽": 3567,
      "虾": 3568,
      "蚀": 3569,
      "蚁": 3570,
      "蚂": 3571,
      "蚊": 3572,
      "蚋": 3573,
      "蚕": 3574,
      "蚝": 3575,
      "蚤": 3576,
      "蚧": 3577,
      "蚱": 3578,
      "蛇": 3579,
      "蛊": 3580,
      "蛋": 3581,
      "蛎": 3582,
      "蛐": 3583,
      "蛙": 3584,
      "蛛": 3585,
      "蛟": 3586,
      "蛮": 3587,
      "蛺": 3588,
      "蛾": 3589,
      "蜀": 3590,
      "蜂": 3591,
      "蜇": 3592,
      "蜍": 3593,
      "蜒": 3594,
      "蜕": 3595,
      "蜗": 3596,
      "蜘": 3597,
      "蜚": 3598,
      "蜜": 3599,
      "蜡": 3600,
      "蜥": 3601,
      "蜮": 3602,
      "蜱": 3603,
      "蜷": 3604,
      "蜿": 3605,
      "蝇": 3606,
      "蝉": 3607,
      "蝎": 3608,
      "蝗": 3609,
      "蝙": 3610,
      "蝠": 3611,
      "蝮": 3612,
      "蝴": 3613,
      "蝶": 3614,
      "蝽": 3615,
      "螂": 3616,
      "螃": 3617,
      "融": 3618,
      "螣": 3619,
      "螨": 3620,
      "螺": 3621,
      "蟀": 3622,
      "蟋": 3623,
      "蟑": 3624,
      "蟒": 3625,
      "蟲": 3626,
      "蟹": 3627,
      "蟾": 3628,
      "蠓": 3629,
      "蠕": 3630,
      "蠢": 3631,
      "血": 3632,
      "衅": 3633,
      "行": 3634,
      "衍": 3635,
      "術": 3636,
      "衔": 3637,
      "街": 3638,
      "衛": 3639,
      "衝": 3640,
      "衡": 3641,
      "衣": 3642,
      "补": 3643,
      "表": 3644,
      "衫": 3645,
      "衬": 3646,
      "衰": 3647,
      "衲": 3648,
      "衷": 3649,
      "衽": 3650,
      "袁": 3651,
      "袈": 3652,
      "袋": 3653,
      "袍": 3654,
      "袖": 3655,
      "袜": 3656,
      "袤": 3657,
      "被": 3658,
      "袭": 3659,
      "裁": 3660,
      "裂": 3661,
      "装": 3662,
      "裔": 3663,
      "裕": 3664,
      "裘": 3665,
      "裙": 3666,
      "裟": 3667,
      "裤": 3668,
      "裨": 3669,
      "裸": 3670,
      "裹": 3671,
      "製": 3672,
      "褐": 3673,
      "褒": 3674,
      "褚": 3675,
      "褥": 3676,
      "褪": 3677,
      "襄": 3678,
      "襟": 3679,
      "襲": 3680,
      "西": 3681,
      "要": 3682,
      "覆": 3683,
      "規": 3684,
      "視": 3685,
      "親": 3686,
      "覲": 3687,
      "觀": 3688,
      "见": 3689,
      "观": 3690,
      "规": 3691,
      "觅": 3692,
      "视": 3693,
      "览": 3694,
      "觉": 3695,
      "角": 3696,
      "解": 3697,
      "触": 3698,
      "言": 3699,
      "計": 3700,
      "記": 3701,
      "設": 3702,
      "評": 3703,
      "詞": 3704,
      "詹": 3705,
      "誉": 3706,
      "誓": 3707,
      "誕": 3708,
      "語": 3709,
      "說": 3710,
      "請": 3711,
      "論": 3712,
      "諸": 3713,
      "諾": 3714,
      "謀": 3715,
      "謎": 3716,
      "謝": 3717,
      "譜": 3718,
      "警": 3719,
      "譬": 3720,
      "議": 3721,
      "護": 3722,
      "讚": 3723,
      "计": 3724,
      "订": 3725,
      "认": 3726,
      "讥": 3727,
      "讦": 3728,
      "讨": 3729,
      "让": 3730,
      "训": 3731,
      "议": 3732,
      "讯": 3733,
      "记": 3734,
      "讲": 3735,
      "讳": 3736,
      "讶": 3737,
      "讷": 3738,
      "许": 3739,
      "讹": 3740,
      "论": 3741,
      "讼": 3742,
      "讽": 3743,
      "设": 3744,
      "访": 3745,
      "诀": 3746,
      "证": 3747,
      "评": 3748,
      "诅": 3749,
      "识": 3750,
      "诈": 3751,
      "诉": 3752,
      "诊": 3753,
      "诋": 3754,
      "词": 3755,
      "译": 3756,
      "试": 3757,
      "诗": 3758,
      "诚": 3759,
      "诛": 3760,
      "话": 3761,
      "诞": 3762,
      "诟": 3763,
      "诠": 3764,
      "诡": 3765,
      "询": 3766,
      "该": 3767,
      "详": 3768,
      "诧": 3769,
      "诫": 3770,
      "诬": 3771,
      "语": 3772,
      "诮": 3773,
      "误": 3774,
      "诰": 3775,
      "诱": 3776,
      "说": 3777,
      "诵": 3778,
      "请": 3779,
      "诸": 3780,
      "诺": 3781,
      "读": 3782,
      "诽": 3783,
      "课": 3784,
      "谀": 3785,
      "谁": 3786,
      "调": 3787,
      "谄": 3788,
      "谅": 3789,
      "谈": 3790,
      "谊": 3791,
      "谋": 3792,
      "谍": 3793,
      "谎": 3794,
      "谏": 3795,
      "谐": 3796,
      "谓": 3797,
      "谗": 3798,
      "谘": 3799,
      "谚": 3800,
      "谛": 3801,
      "谜": 3802,
      "谟": 3803,
      "谢": 3804,
      "谣": 3805,
      "谤": 3806,
      "谦": 3807,
      "谧": 3808,
      "谨": 3809,
      "谩": 3810,
      "谬": 3811,
      "谭": 3812,
      "谱": 3813,
      "谴": 3814,
      "谷": 3815,
      "豁": 3816,
      "豆": 3817,
      "豌": 3818,
      "豎": 3819,
      "豐": 3820,
      "豚": 3821,
      "象": 3822,
      "豪": 3823,
      "豫": 3824,
      "豬": 3825,
      "豹": 3826,
      "貌": 3827,
      "貝": 3828,
      "貢": 3829,
      "買": 3830,
      "費": 3831,
      "賈": 3832,
      "賓": 3833,
      "質": 3834,
      "賴": 3835,
      "賽": 3836,
      "贝": 3837,
      "贞": 3838,
      "负": 3839,
      "贡": 3840,
      "财": 3841,
      "责": 3842,
      "贤": 3843,
      "败": 3844,
      "账": 3845,
      "货": 3846,
      "质": 3847,
      "贩": 3848,
      "贪": 3849,
      "贫": 3850,
      "贬": 3851,
      "购": 3852,
      "贮": 3853,
      "贯": 3854,
      "贰": 3855,
      "贱": 3856,
      "贲": 3857,
      "贴": 3858,
      "贵": 3859,
      "贷": 3860,
      "贸": 3861,
      "费": 3862,
      "贺": 3863,
      "贻": 3864,
      "贼": 3865,
      "贾": 3866,
      "贿": 3867,
      "赁": 3868,
      "赂": 3869,
      "赃": 3870,
      "资": 3871,
      "赈": 3872,
      "赉": 3873,
      "赊": 3874,
      "赋": 3875,
      "赌": 3876,
      "赎": 3877,
      "赏": 3878,
      "赐": 3879,
      "赔": 3880,
      "赖": 3881,
      "赘": 3882,
      "赚": 3883,
      "赛": 3884,
      "赞": 3885,
      "赠": 3886,
      "赡": 3887,
      "赢": 3888,
      "赤": 3889,
      "赦": 3890,
      "赫": 3891,
      "赭": 3892,
      "走": 3893,
      "赴": 3894,
      "赵": 3895,
      "赶": 3896,
      "起": 3897,
      "趁": 3898,
      "超": 3899,
      "越": 3900,
      "趋": 3901,
      "趟": 3902,
      "趣": 3903,
      "足": 3904,
      "趴": 3905,
      "趾": 3906,
      "跃": 3907,
      "跄": 3908,
      "跆": 3909,
      "跋": 3910,
      "跌": 3911,
      "跑": 3912,
      "跛": 3913,
      "距": 3914,
      "跟": 3915,
      "跤": 3916,
      "跨": 3917,
      "跪": 3918,
      "路": 3919,
      "跳": 3920,
      "践": 3921,
      "跷": 3922,
      "跻": 3923,
      "踉": 3924,
      "踊": 3925,
      "踌": 3926,
      "踏": 3927,
      "踝": 3928,
      "踟": 3929,
      "踢": 3930,
      "踦": 3931,
      "踩": 3932,
      "踪": 3933,
      "踮": 3934,
      "踱": 3935,
      "踵": 3936,
      "蹂": 3937,
      "蹄": 3938,
      "蹈": 3939,
      "蹊": 3940,
      "蹑": 3941,
      "蹙": 3942,
      "蹤": 3943,
      "蹦": 3944,
      "蹭": 3945,
      "蹲": 3946,
      "蹴": 3947,
      "躁": 3948,
      "躇": 3949,
      "躏": 3950,
      "身": 3951,
      "躬": 3952,
      "躯": 3953,
      "躲": 3954,
      "躺": 3955,
      "車": 3956,
      "軌": 3957,
      "軍": 3958,
      "軸": 3959,
      "較": 3960,
      "輪": 3961,
      "輯": 3962,
      "轄": 3963,
      "轉": 3964,
      "车": 3965,
      "轧": 3966,
      "轨": 3967,
      "轩": 3968,
      "转": 3969,
      "轭": 3970,
      "轮": 3971,
      "软": 3972,
      "轰": 3973,
      "轴": 3974,
      "轹": 3975,
      "轻": 3976,
      "载": 3977,
      "轿": 3978,
      "较": 3979,
      "辅": 3980,
      "辆": 3981,
      "辈": 3982,
      "辉": 3983,
      "辊": 3984,
      "辍": 3985,
      "辐": 3986,
      "辑": 3987,
      "输": 3988,
      "辕": 3989,
      "辖": 3990,
      "辘": 3991,
      "辙": 3992,
      "辛": 3993,
      "辜": 3994,
      "辞": 3995,
      "辟": 3996,
      "辣": 3997,
      "辨": 3998,
      "辩": 3999,
      "辰": 4000,
      "辱": 4001,
      "農": 4002,
      "边": 4003,
      "辽": 4004,
      "达": 4005,
      "迁": 4006,
      "迂": 4007,
      "迄": 4008,
      "迅": 4009,
      "过": 4010,
      "迈": 4011,
      "迎": 4012,
      "运": 4013,
      "近": 4014,
      "返": 4015,
      "还": 4016,
      "这": 4017,
      "进": 4018,
      "远": 4019,
      "违": 4020,
      "连": 4021,
      "迟": 4022,
      "迥": 4023,
      "迦": 4024,
      "迩": 4025,
      "迪": 4026,
      "迫": 4027,
      "迭": 4028,
      "述": 4029,
      "迴": 4030,
      "迷": 4031,
      "迹": 4032,
      "追": 4033,
      "退": 4034,
      "送": 4035,
      "适": 4036,
      "逃": 4037,
      "逅": 4038,
      "逆": 4039,
      "选": 4040,
      "逊": 4041,
      "逍": 4042,
      "透": 4043,
      "逐": 4044,
      "逑": 4045,
      "递": 4046,
      "途": 4047,
      "逖": 4048,
      "逗": 4049,
      "這": 4050,
      "通": 4051,
      "逛": 4052,
      "逝": 4053,
      "逞": 4054,
      "速": 4055,
      "造": 4056,
      "逢": 4057,
      "逮": 4058,
      "逸": 4059,
      "逻": 4060,
      "逼": 4061,
      "逾": 4062,
      "遂": 4063,
      "遇": 4064,
      "遊": 4065,
      "運": 4066,
      "遍": 4067,
      "過": 4068,
      "遏": 4069,
      "遐": 4070,
      "道": 4071,
      "達": 4072,
      "遗": 4073,
      "遛": 4074,
      "遜": 4075,
      "遠": 4076,
      "遣": 4077,
      "遥": 4078,
      "遭": 4079,
      "遮": 4080,
      "遴": 4081,
      "遵": 4082,
      "選": 4083,
      "避": 4084,
      "邀": 4085,
      "邂": 4086,
      "邃": 4087,
      "邊": 4088,
      "邑": 4089,
      "邓": 4090,
      "邝": 4091,
      "邢": 4092,
      "那": 4093,
      "邦": 4094,
      "邪": 4095,
      "邮": 4096,
      "邱": 4097,
      "邸": 4098,
      "邹": 4099,
      "邻": 4100,
      "郁": 4101,
      "郊": 4102,
      "郎": 4103,
      "郑": 4104,
      "郡": 4105,
      "郧": 4106,
      "部": 4107,
      "郭": 4108,
      "郵": 4109,
      "都": 4110,
      "鄂": 4111,
      "鄉": 4112,
      "鄙": 4113,
      "鄢": 4114,
      "酊": 4115,
      "酋": 4116,
      "酌": 4117,
      "配": 4118,
      "酐": 4119,
      "酒": 4120,
      "酗": 4121,
      "酚": 4122,
      "酝": 4123,
      "酥": 4124,
      "酪": 4125,
      "酬": 4126,
      "酮": 4127,
      "酯": 4128,
      "酰": 4129,
      "酱": 4130,
      "酵": 4131,
      "酶": 4132,
      "酷": 4133,
      "酸": 4134,
      "酿": 4135,
      "醇": 4136,
      "醉": 4137,
      "醋": 4138,
      "醒": 4139,
      "醚": 4140,
      "醛": 4141,
      "醫": 4142,
      "采": 4143,
      "釉": 4144,
      "释": 4145,
      "釋": 4146,
      "里": 4147,
      "重": 4148,
      "野": 4149,
      "量": 4150,
      "金": 4151,
      "釜": 4152,
      "鈎": 4153,
      "鉴": 4154,
      "銀": 4155,
      "銫": 4156,
      "鋸": 4157,
      "鋼": 4158,
      "錄": 4159,
      "錠": 4160,
      "錦": 4161,
      "錫": 4162,
      "鍊": 4163,
      "鍵": 4164,
      "鍾": 4165,
      "鎊": 4166,
      "鎗": 4167,
      "鎮": 4168,
      "鏡": 4169,
      "鐵": 4170,
      "钅": 4171,
      "针": 4172,
      "钉": 4173,
      "钎": 4174,
      "钒": 4175,
      "钓": 4176,
      "钙": 4177,
      "钚": 4178,
      "钛": 4179,
      "钝": 4180,
      "钞": 4181,
      "钟": 4182,
      "钠": 4183,
      "钡": 4184,
      "钢": 4185,
      "钥": 4186,
      "钦": 4187,
      "钧": 4188,
      "钨": 4189,
      "钩": 4190,
      "钮": 4191,
      "钱": 4192,
      "钳": 4193,
      "钴": 4194,
      "钵": 4195,
      "钻": 4196,
      "钼": 4197,
      "钾": 4198,
      "铀": 4199,
      "铁": 4200,
      "铂": 4201,
      "铃": 4202,
      "铅": 4203,
      "铍": 4204,
      "铐": 4205,
      "铑": 4206,
      "铜": 4207,
      "铝": 4208,
      "铣": 4209,
      "铬": 4210,
      "铭": 4211,
      "铯": 4212,
      "铰": 4213,
      "铲": 4214,
      "银": 4215,
      "铸": 4216,
      "铺": 4217,
      "铼": 4218,
      "链": 4219,
      "销": 4220,
      "锁": 4221,
      "锂": 4222,
      "锅": 4223,
      "锆": 4224,
      "锇": 4225,
      "锈": 4226,
      "锉": 4227,
      "锋": 4228,
      "锌": 4229,
      "锐": 4230,
      "错": 4231,
      "锚": 4232,
      "锡": 4233,
      "锣": 4234,
      "锤": 4235,
      "锥": 4236,
      "锦": 4237,
      "键": 4238,
      "锯": 4239,
      "锰": 4240,
      "锲": 4241,
      "锶": 4242,
      "锹": 4243,
      "锻": 4244,
      "镀": 4245,
      "镁": 4246,
      "镇": 4247,
      "镉": 4248,
      "镍": 4249,
      "镎": 4250,
      "镑": 4251,
      "镛": 4252,
      "镜": 4253,
      "镣": 4254,
      "镯": 4255,
      "镰": 4256,
      "镱": 4257,
      "镳": 4258,
      "镶": 4259,
      "長": 4260,
      "长": 4261,
      "門": 4262,
      "開": 4263,
      "間": 4264,
      "閩": 4265,
      "閱": 4266,
      "關": 4267,
      "闡": 4268,
      "门": 4269,
      "闪": 4270,
      "闭": 4271,
      "问": 4272,
      "闯": 4273,
      "闰": 4274,
      "闱": 4275,
      "闲": 4276,
      "间": 4277,
      "闷": 4278,
      "闸": 4279,
      "闹": 4280,
      "闻": 4281,
      "阀": 4282,
      "阁": 4283,
      "阅": 4284,
      "阈": 4285,
      "阎": 4286,
      "阐": 4287,
      "阔": 4288,
      "阖": 4289,
      "阙": 4290,
      "阜": 4291,
      "队": 4292,
      "阪": 4293,
      "阮": 4294,
      "阱": 4295,
      "防": 4296,
      "阳": 4297,
      "阴": 4298,
      "阵": 4299,
      "阶": 4300,
      "阻": 4301,
      "阿": 4302,
      "陀": 4303,
      "附": 4304,
      "际": 4305,
      "陆": 4306,
      "陈": 4307,
      "陋": 4308,
      "陌": 4309,
      "降": 4310,
      "限": 4311,
      "陕": 4312,
      "陛": 4313,
      "陡": 4314,
      "院": 4315,
      "除": 4316,
      "险": 4317,
      "陪": 4318,
      "陬": 4319,
      "陰": 4320,
      "陳": 4321,
      "陵": 4322,
      "陶": 4323,
      "陷": 4324,
      "陸": 4325,
      "隆": 4326,
      "隊": 4327,
      "随": 4328,
      "隐": 4329,
      "隔": 4330,
      "隘": 4331,
      "隙": 4332,
      "際": 4333,
      "障": 4334,
      "隧": 4335,
      "險": 4336,
      "隱": 4337,
      "隶": 4338,
      "隼": 4339,
      "难": 4340,
      "雀": 4341,
      "雁": 4342,
      "雄": 4343,
      "雅": 4344,
      "集": 4345,
      "雇": 4346,
      "雌": 4347,
      "雍": 4348,
      "雏": 4349,
      "雕": 4350,
      "雙": 4351,
      "離": 4352,
      "難": 4353,
      "雨": 4354,
      "雪": 4355,
      "雯": 4356,
      "零": 4357,
      "雷": 4358,
      "電": 4359,
      "雾": 4360,
      "需": 4361,
      "霄": 4362,
      "霆": 4363,
      "震": 4364,
      "霉": 4365,
      "霍": 4366,
      "霓": 4367,
      "霖": 4368,
      "霜": 4369,
      "霞": 4370,
      "露": 4371,
      "霸": 4372,
      "靈": 4373,
      "青": 4374,
      "靓": 4375,
      "靖": 4376,
      "静": 4377,
      "非": 4378,
      "靠": 4379,
      "靡": 4380,
      "面": 4381,
      "革": 4382,
      "靳": 4383,
      "靴": 4384,
      "靶": 4385,
      "靼": 4386,
      "鞋": 4387,
      "鞍": 4388,
      "鞑": 4389,
      "鞘": 4390,
      "鞠": 4391,
      "鞭": 4392,
      "韋": 4393,
      "韓": 4394,
      "韦": 4395,
      "韧": 4396,
      "韩": 4397,
      "韭": 4398,
      "音": 4399,
      "韵": 4400,
      "響": 4401,
      "頁": 4402,
      "順": 4403,
      "須": 4404,
      "頓": 4405,
      "領": 4406,
      "頜": 4407,
      "頭": 4408,
      "題": 4409,
      "顛": 4410,
      "類": 4411,
      "顯": 4412,
      "页": 4413,
      "顶": 4414,
      "顷": 4415,
      "项": 4416,
      "顺": 4417,
      "须": 4418,
      "顽": 4419,
      "顾": 4420,
      "顿": 4421,
      "颁": 4422,
      "颂": 4423,
      "预": 4424,
      "颅": 4425,
      "领": 4426,
      "颇": 4427,
      "颈": 4428,
      "颊": 4429,
      "颌": 4430,
      "频": 4431,
      "颓": 4432,
      "颔": 4433,
      "颖": 4434,
      "颗": 4435,
      "题": 4436,
      "颚": 4437,
      "颜": 4438,
      "额": 4439,
      "颠": 4440,
      "颤": 4441,
      "颦": 4442,
      "颧": 4443,
      "風": 4444,
      "颶": 4445,
      "风": 4446,
      "飑": 4447,
      "飓": 4448,
      "飘": 4449,
      "飙": 4450,
      "飛": 4451,
      "飞": 4452,
      "食": 4453,
      "飯": 4454,
      "餐": 4455,
      "館": 4456,
      "饥": 4457,
      "饭": 4458,
      "饮": 4459,
      "饰": 4460,
      "饱": 4461,
      "饲": 4462,
      "饴": 4463,
      "饵": 4464,
      "饶": 4465,
      "饺": 4466,
      "饼": 4467,
      "饿": 4468,
      "馀": 4469,
      "馁": 4470,
      "馅": 4471,
      "馆": 4472,
      "馈": 4473,
      "馏": 4474,
      "首": 4475,
      "香": 4476,
      "馨": 4477,
      "馬": 4478,
      "馮": 4479,
      "騎": 4480,
      "马": 4481,
      "驭": 4482,
      "驮": 4483,
      "驯": 4484,
      "驰": 4485,
      "驱": 4486,
      "驳": 4487,
      "驴": 4488,
      "驶": 4489,
      "驻": 4490,
      "驼": 4491,
      "驾": 4492,
      "骂": 4493,
      "骄": 4494,
      "骆": 4495,
      "骇": 4496,
      "骋": 4497,
      "验": 4498,
      "骏": 4499,
      "骑": 4500,
      "骗": 4501,
      "骚": 4502,
      "骜": 4503,
      "骟": 4504,
      "骡": 4505,
      "骤": 4506,
      "骨": 4507,
      "骸": 4508,
      "骼": 4509,
      "髋": 4510,
      "髌": 4511,
      "髓": 4512,
      "體": 4513,
      "高": 4514,
      "髦": 4515,
      "髻": 4516,
      "鬃": 4517,
      "鬓": 4518,
      "鬥": 4519,
      "鬼": 4520,
      "魁": 4521,
      "魂": 4522,
      "魄": 4523,
      "魅": 4524,
      "魏": 4525,
      "魔": 4526,
      "魚": 4527,
      "魟": 4528,
      "魣": 4529,
      "魨": 4530,
      "魯": 4531,
      "鮟": 4532,
      "鮮": 4533,
      "鮰": 4534,
      "鯏": 4535,
      "鯛": 4536,
      "鯡": 4537,
      "鯨": 4538,
      "鯰": 4539,
      "鯽": 4540,
      "鰻": 4541,
      "鱇": 4542,
      "鱈": 4543,
      "鱒": 4544,
      "鱗": 4545,
      "鱲": 4546,
      "鱼": 4547,
      "鲁": 4548,
      "鲈": 4549,
      "鲉": 4550,
      "鲍": 4551,
      "鲑": 4552,
      "鲜": 4553,
      "鲤": 4554,
      "鲨": 4555,
      "鲱": 4556,
      "鲵": 4557,
      "鲷": 4558,
      "鲸": 4559,
      "鲼": 4560,
      "鳃": 4561,
      "鳍": 4562,
      "鳐": 4563,
      "鳕": 4564,
      "鳖": 4565,
      "鳗": 4566,
      "鳞": 4567,
      "鳥": 4568,
      "鳩": 4569,
      "鴨": 4570,
      "鵝": 4571,
      "鶹": 4572,
      "鷹": 4573,
      "鸟": 4574,
      "鸠": 4575,
      "鸡": 4576,
      "鸢": 4577,
      "鸣": 4578,
      "鸥": 4579,
      "鸦": 4580,
      "鸫": 4581,
      "鸭": 4582,
      "鸯": 4583,
      "鸶": 4584,
      "鸺": 4585,
      "鸽": 4586,
      "鸿": 4587,
      "鹅": 4588,
      "鹉": 4589,
      "鹛": 4590,
      "鹤": 4591,
      "鹦": 4592,
      "鹫": 4593,
      "鹭": 4594,
      "鹰": 4595,
      "鹿": 4596,
      "麋": 4597,
      "麗": 4598,
      "麝": 4599,
      "麟": 4600,
      "麥": 4601,
      "麦": 4602,
      "麸": 4603,
      "麻": 4604,
      "麼": 4605,
      "麽": 4606,
      "黃": 4607,
      "黄": 4608,
      "黎": 4609,
      "黏": 4610,
      "黑": 4611,
      "默": 4612,
      "黛": 4613,
      "黜": 4614,
      "黝": 4615,
      "點": 4616,
      "黨": 4617,
      "黯": 4618,
      "鼎": 4619,
      "鼓": 4620,
      "鼙": 4621,
      "鼠": 4622,
      "鼬": 4623,
      "鼴": 4624,
      "鼹": 4625,
      "鼻": 4626,
      "鼾": 4627,
      "齊": 4628,
      "齋": 4629,
      "齐": 4630,
      "齿": 4631,
      "龄": 4632,
      "龈": 4633,
      "龋": 4634,
      "龍": 4635,
      "龙": 4636,
      "龛": 4637,
      "龜": 4638,
      "龟": 4639,
      "뀨": 4640,
      "": 4641,
      "": 4642,
      "": 4643,
      "": 4644,
      "": 4645,
      "": 4646,
      "": 4647,
      "": 4648,
      "": 4649,
      "": 4650,
      "": 4651,
      "": 4652,
      "": 4653,
      "": 4654,
      "": 4655,
      "": 4656,
      "": 4657,
      "": 4658,
      "": 4659,
      "": 4660,
      "": 4661,
      "": 4662,
      "": 4663,
      "": 4664,
      "": 4665,
      "": 4666,
      "": 4667,
      "": 4668,
      "": 4669,
      "": 4670,
      "": 4671,
      "": 4672,
      "": 4673,
      "": 4674,
      "︰": 4675,
      "︾": 4676,
      "﹐": 4677,
      "﹑": 4678,
      "﹒": 4679,
      "﹡": 4680,
      "！": 4681,
      "＄": 4682,
      "％": 4683,
      "＇": 4684,
      "（": 4685,
      "）": 4686,
      "＊": 4687,
      "＋": 4688,
      "，": 4689,
      "－": 4690,
      "．": 4691,
      "／": 4692,
      "０": 4693,
      "１": 4694,
      "２": 4695,
      "３": 4696,
      "４": 4697,
      "５": 4698,
      "６": 4699,
      "７": 4700,
      "８": 4701,
      "９": 4702,
      "：": 4703,
      "；": 4704,
      "？": 4705,
      "＠": 4706,
      "Ａ": 4707,
      "Ｂ": 4708,
      "Ｄ": 4709,
      "Ｅ": 4710,
      "Ｆ": 4711,
      "Ｇ": 4712,
      "Ｈ": 4713,
      "Ｉ": 4714,
      "Ｋ": 4715,
      "Ｍ": 4716,
      "Ｎ": 4717,
      "Ｏ": 4718,
      "Ｐ": 4719,
      "Ｒ": 4720,
      "Ｓ": 4721,
      "Ｔ": 4722,
      "Ｕ": 4723,
      "Ｖ": 4724,
      "Ｘ": 4725,
      "Ｙ": 4726,
      "［": 4727,
      "］": 4728,
      "ａ": 4729,
      "ｂ": 4730,
      "ｃ": 4731,
      "ｄ": 4732,
      "ｅ": 4733,
      "ｇ": 4734,
      "ｉ": 4735,
      "ｎ": 4736,
      "ｏ": 4737,
      "ｐ": 4738,
      "ｔ": 4739,
      "ｙ": 4740,
      "～": 4741,
      "､": 4742,
      "￭": 4743,
      "�": 4744,
      "𠀧": 4745,
      "20": 4746,
      "国家": 4747,
      "委员": 4748,
      "委员会": 4749,
      "200": 4750,
      "会议": 4751,
      "联合": 4752,
      "问题": 4753,
      "工作": 4754,
      "国际": 4755,
      "发展": 4756,
      "联合国": 4757,
      "报告": 4758,
      "19": 4759,
      "组织": 4760,
      "一个": 4761,
      "我们": 4762,
      "政府": 4763,
      "提供": 4764,
      "关于": 4765,
      "方面": 4766,
      "包括": 4767,
      "以及": 4768,
      "进行": 4769,
      "10": 4770,
      "社会": 4771,
      "这些": 4772,
      "通过": 4773,
      "其他": 4774,
      "机构": 4775,
      "方案": 4776,
      "情况": 4777,
      "代表": 4778,
      "行动": 4779,
      "有关": 4780,
      "执行": 4781,
      "特别": 4782,
      "人权": 4783,
      "安全": 4784,
      "12": 4785,
      "199": 4786,
      "秘书": 4787,
      "决议": 4788,
      "经济": 4789,
      "所有": 4790,
      "人员": 4791,
      "妇女": 4792,
      "合作": 4793,
      "公约": 4794,
      "他们": 4795,
      "活动": 4796,
      "项目": 4797,
      "没有": 4798,
      "管理": 4799,
      "11": 4800,
      "建议": 4801,
      "可能": 4802,
      "大会": 4803,
      "区域": 4804,
      "规定": 4805,
      "技术": 4806,
      "缔约": 4807,
      "00": 4808,
      "理事": 4809,
      "需要": 4810,
      "计划": 4811,
      "理事会": 4812,
      "儿童": 4813,
      "可以": 4814,
      "根据": 4815,
      "提出": 4816,
      "重要": 4817,
      "措施": 4818,
      "系统": 4819,
      "决定": 4820,
      "采取": 4821,
      "权利": 4822,
      "服务": 4823,
      "法律": 4824,
      "和平": 4825,
      "这一": 4826,
      "支持": 4827,
      "影响": 4828,
      "世界": 4829,
      "保护": 4830,
      "必须": 4831,
      "行为": 4832,
      "基金": 4833,
      "政策": 4834,
      "继续": 4835,
      "资源": 4836,
      "主义": 4837,
      "研究": 4838,
      "秘书长": 4839,
      "13": 4840,
      "促进": 4841,
      "要求": 4842,
      "认为": 4843,
      "使用": 4844,
      "的一": 4845,
      "信息": 4846,
      "加强": 4847,
      "环境": 4848,
      "确保": 4849,
      "能力": 4850,
      "15": 4851,
      "缔约国": 4852,
      "主席": 4853,
      "教育": 4854,
      "目标": 4855,
      "提交": 4856,
      "努力": 4857,
      "成员": 4858,
      "美元": 4859,
      "14": 4860,
      "部分": 4861,
      "主要": 4862,
      "任何": 4863,
      "建立": 4864,
      "援助": 4865,
      "注意": 4866,
      "部门": 4867,
      "--": 4868,
      "号决议": 4869,
      "事务": 4870,
      "作为": 4871,
      "这种": 4872,
      "人民": 4873,
      "已经": 4874,
      "因为": 4875,
      "协调": 4876,
      "共和": 4877,
      "文件": 4878,
      "地区": 4879,
      "审查": 4880,
      "有效": 4881,
      "因此": 4882,
      "公司": 4883,
      "相关": 4884,
      "如果": 4885,
      "参与": 4886,
      "举行": 4887,
      "的人": 4888,
      "一些": 4889,
      "中国": 4890,
      "之间": 4891,
      "全球": 4892,
      "战略": 4893,
      "先生": 4894,
      "这个": 4895,
      "实现": 4896,
      "共和国": 4897,
      "届会议": 4898,
      "草案": 4899,
      "各国": 4900,
      "第二": 4901,
      "审议": 4902,
      "政治": 4903,
      "月2": 4904,
      "解决": 4905,
      "非洲": 4906,
      "期间": 4907,
      "开展": 4908,
      "实施": 4909,
      "武器": 4910,
      "关系": 4911,
      "考虑": 4912,
      "表示": 4913,
      "中心": 4914,
      "持续": 4915,
      "得到": 4916,
      "人的": 4917,
      "作出": 4918,
      "18": 4919,
      "领域": 4920,
      "预算": 4921,
      "讨论": 4922,
      "增加": 4923,
      "时间": 4924,
      "程序": 4925,
      "自己": 4926,
      "其中": 4927,
      "贸易": 4928,
      "作用": 4929,
      "获得": 4930,
      "支助": 4931,
      "16": 4932,
      "的报告": 4933,
      "资料": 4934,
      "美国": 4935,
      "一步": 4936,
      "斯坦": 4937,
      "指出": 4938,
      "议程": 4939,
      "处理": 4940,
      "方法": 4941,
      "30": 4942,
      "方面的": 4943,
      "行政": 4944,
      "数据": 4945,
      "的是": 4946,
      "人口": 4947,
      "但是": 4948,
      "代表团": 4949,
      "调查": 4950,
      "能够": 4951,
      "方式": 4952,
      "取得": 4953,
      "许多": 4954,
      "特派": 4955,
      "的工作": 4956,
      "基础": 4957,
      "发言": 4958,
      "同时": 4959,
      "小组": 4960,
      "提高": 4961,
      "特别是": 4962,
      "制定": 4963,
      "目前": 4964,
      "9年": 4965,
      "意见": 4966,
      "培训": 4967,
      "条约": 4968,
      "进一步": 4969,
      "由于": 4970,
      "17": 4971,
      ")。": 4972,
      "an": 4973,
      "5年": 4974,
      "犯罪": 4975,
      "特派团": 4976,
      "安全理事会": 4977,
      "第2": 4978,
      "中的": 4979,
      "暴力": 4980,
      "机制": 4981,
      "专家": 4982,
      "8年": 4983,
      "它们": 4984,
      "说明": 4985,
      "参加": 4986,
      "必要": 4987,
      "进程": 4988,
      "第一": 4989,
      "减少": 4990,
      "标准": 4991,
      "任务": 4992,
      "责任": 4993,
      "开始": 4994,
      "家庭": 4995,
      "原则": 4996,
      "开发": 4997,
      "正在": 4998,
      "强调": 4999,
      "文化": 5000,
      "欧洲": 5001,
      "法院": 5002,
      "6年": 5003,
      "会员": 5004,
      "司法": 5005,
      "共同": 5006,
      "利用": 5007,
      "确定": 5008,
      "注意到": 5009,
      "秘书处": 5010,
      "建设": 5011,
      "歧视": 5012,
      "自由": 5013,
      "一项": 5014,
      "什么": 5015,
      "发展中": 5016,
      "分析": 5017,
      "现在": 5018,
      "结果": 5019,
      "范围": 5020,
      "工作人员": 5021,
      "各种": 5022,
      "制度": 5023,
      "及其": 5024,
      "1日": 5025,
      "框架": 5026,
      "希望": 5027,
      "而且": 5028,
      "具有": 5029,
      "咨询": 5030,
      "办法": 5031,
      "投资": 5032,
      "新的": 5033,
      "用于": 5034,
      "部队": 5035,
      "会员国": 5036,
      "这样": 5037,
      "的问题": 5038,
      "利亚": 5039,
      "7年": 5040,
      "不同": 5041,
      "生活": 5042,
      "以便": 5043,
      "的情况": 5044,
      "发展中国家": 5045,
      "一种": 5046,
      "伙伴": 5047,
      "基本": 5048,
      "对于": 5049,
      "冲突": 5050,
      "联盟": 5051,
      "第三": 5052,
      "办事": 5053,
      "市场": 5054,
      "平等": 5055,
      "评估": 5056,
      "费用": 5057,
      "不是": 5058,
      "充分": 5059,
      "严重": 5060,
      "存在": 5061,
      "维持": 5062,
      "尼亚": 5063,
      "发生": 5064,
      "办事处": 5065,
      "机会": 5066,
      "具体": 5067,
      "消除": 5068,
      "和其他": 5069,
      "的国家": 5070,
      "条件": 5071,
      "受到": 5072,
      "成为": 5073,
      "接受": 5074,
      "生产": 5075,
      "全面": 5076,
      "恐怖": 5077,
      "应当": 5078,
      "此外": 5079,
      "难民": 5080,
      "3年": 5081,
      "4年": 5082,
      "高级": 5083,
      "企业": 5084,
      "可持续": 5085,
      "民主": 5086,
      "工作组": 5087,
      "0年": 5088,
      "适当": 5089,
      "地方": 5090,
      "大的": 5091,
      "产生": 5092,
      "12月": 5093,
      "为了": 5094,
      "资金": 5095,
      "进展": 5096,
      "2010": 5097,
      "问题的": 5098,
      "次会议": 5099,
      "是否": 5100,
      "负责": 5101,
      "个人": 5102,
      "缔约方": 5103,
      "义务": 5104,
      "应该": 5105,
      "鼓励": 5106,
      "帮助": 5107,
      "第5": 5108,
      "他的": 5109,
      "办公": 5110,
      "如何": 5111,
      "设立": 5112,
      "造成": 5113,
      "公共": 5114,
      "协助": 5115,
      "er": 5116,
      "就是": 5117,
      "按照": 5118,
      "一般": 5119,
      "业务": 5120,
      "尤其": 5121,
      "不能": 5122,
      "在这": 5123,
      "形式": 5124,
      "控制": 5125,
      "最后": 5126,
      "健康": 5127,
      "正式": 5128,
      "人道": 5129,
      "并且": 5130,
      "承诺": 5131,
      "国内": 5132,
      "目的": 5133,
      "批准": 5134,
      "性别": 5135,
      "种族": 5136,
      "议定": 5137,
      "这是": 5138,
      "涉及": 5139,
      "两个": 5140,
      "各项": 5141,
      "第3": 5142,
      "设施": 5143,
      "2011": 5144,
      "25": 5145,
      "2年": 5146,
      "利益": 5147,
      "第4": 5148,
      "认识": 5149,
      "on": 5150,
      "安排": 5151,
      "做法": 5152,
      "科学": 5153,
      "规则": 5154,
      "al": 5155,
      "事项": 5156,
      "或者": 5157,
      "滋病": 5158,
      "预防": 5159,
      "办公室": 5160,
      "人们": 5161,
      "当局": 5162,
      "色列": 5163,
      "艾滋病": 5164,
      "以色列": 5165,
      "000": 5166,
      "变化": 5167,
      "尽管": 5168,
      "改革": 5169,
      "议定书": 5170,
      "独立": 5171,
      "）。": 5172,
      "谈判": 5173,
      "以下": 5174,
      "监督": 5175,
      "银行": 5176,
      "实际": 5177,
      "欢迎": 5178,
      "性的": 5179,
      "积极": 5180,
      "规划": 5181,
      "in": 5182,
      "协商": 5183,
      "挑战": 5184,
      "状况": 5185,
      "优先": 5186,
      "金融": 5187,
      "ar": 5188,
      "知道": 5189,
      "了一": 5190,
      "之间的": 5191,
      "刑事": 5192,
      "地位": 5193,
      "更多": 5194,
      "案件": 5195,
      "非政府": 5196,
      "我的": 5197,
      "卫生": 5198,
      "完成": 5199,
      "有关的": 5200,
      "监测": 5201,
      "非常": 5202,
      "受害": 5203,
      "选举": 5204,
      "上的": 5205,
      "增长": 5206,
      "收入": 5207,
      "武装": 5208,
      "法庭": 5209,
      "第五": 5210,
      "限制": 5211,
      "附件": 5212,
      "领土": 5213,
      "2012": 5214,
      "你的": 5215,
      "时候": 5216,
      "第十": 5217,
      "6月": 5218,
      "阿拉": 5219,
      "决议草案": 5220,
      "协定": 5221,
      "临时": 5222,
      "第6": 5223,
      "or": 5224,
      "介绍": 5225,
      "履行": 5226,
      "以来": 5227,
      "人道主义": 5228,
      "成果": 5229,
      "过程": 5230,
      "恐怖主义": 5231,
      "例如": 5232,
      "财政": 5233,
      "土著": 5234,
      "1年": 5235,
      "是在": 5236,
      "2005年": 5237,
      "宣言": 5238,
      "风险": 5239,
      "非政府组织": 5240,
      "立法": 5241,
      "仍然": 5242,
      "巴勒": 5243,
      "知识": 5244,
      "打击": 5245,
      "的影响": 5246,
      "表明": 5247,
      "之后": 5248,
      "比亚": 5249,
      "产品": 5250,
      "巴勒斯坦": 5251,
      "23": 5252,
      "保障": 5253,
      "直接": 5254,
      "不会": 5255,
      "需求": 5256,
      "军事": 5257,
      "关切": 5258,
      "无法": 5259,
      "2010年": 5260,
      "阿拉伯": 5261,
      "拉克": 5262,
      "联邦": 5263,
      "这项": 5264,
      ")；": 5265,
      "50": 5266,
      "因素": 5267,
      "罗斯": 5268,
      "禁止": 5269,
      "统计": 5270,
      "委员会的": 5271,
      "领导": 5272,
      "出现": 5273,
      "那些": 5274,
      "防止": 5275,
      "印度": 5276,
      "集团": 5277,
      "非法": 5278,
      "24": 5279,
      "公民": 5280,
      "内容": 5281,
      "改善": 5282,
      "采用": 5283,
      "稳定": 5284,
      "en": 5285,
      "专门": 5286,
      "7月": 5287,
      "全国": 5288,
      "内的": 5289,
      "第四": 5290,
      "过去": 5291,
      "2009年": 5292,
      "2006年": 5293,
      "关注": 5294,
      "广泛": 5295,
      "观察": 5296,
      "联系": 5297,
      "国家的": 5298,
      "一致": 5299,
      "之前": 5300,
      "城市": 5301,
      "完全": 5302,
      "社区": 5303,
      "报告员": 5304,
      "虽然": 5305,
      "到了": 5306,
      "针对": 5307,
      "2013": 5308,
      "伊拉克": 5309,
      "综合": 5310,
      "的一个": 5311,
      "2007年": 5312,
      "保证": 5313,
      "同意": 5314,
      "威胁": 5315,
      "然而": 5316,
      "经费": 5317,
      "运动": 5318,
      "2008年": 5319,
      "提出的": 5320,
      "俄罗斯": 5321,
      "材料": 5322,
      "网络": 5323,
      "一直": 5324,
      "的权利": 5325,
      "经验": 5326,
      "发现": 5327,
      "民族": 5328,
      "结构": 5329,
      "空间": 5330,
      "一切": 5331,
      "违反": 5332,
      "阶段": 5333,
      "原因": 5334,
      "员额": 5335,
      "指导": 5336,
      "2011年": 5337,
      "28": 5338,
      "之一": 5339,
      "大学": 5340,
      "面临": 5341,
      "论坛": 5342,
      "重申": 5343,
      "两年": 5344,
      "198": 5345,
      "议程项目": 5346,
      "了解": 5347,
      "成功": 5348,
      "最近": 5349,
      "评价": 5350,
      "21": 5351,
      "就业": 5352,
      "条款": 5353,
      "部长": 5354,
      "规定的": 5355,
      "专员": 5356,
      "第六": 5357,
      "警察": 5358,
      "保持": 5359,
      "好的": 5360,
      "裁军": 5361,
      "符合": 5362,
      "选择": 5363,
      "一次": 5364,
      "推动": 5365,
      "10月": 5366,
      "内部": 5367,
      "安理": 5368,
      "的国际": 5369,
      "的重要": 5370,
      "请求": 5371,
      "多数": 5372,
      "遵守": 5373,
      "人类": 5374,
      "星期": 5375,
      "核武器": 5376,
      "现有": 5377,
      "申请": 5378,
      "安理会": 5379,
      "侵犯": 5380,
      "新闻": 5381,
      "重新": 5382,
      "长期": 5383,
      "记录": 5384,
      "2012年": 5385,
      "26": 5386,
      "27": 5387,
      "Ad": 5388,
      "程度": 5389,
      "举行的": 5390,
      "西亚": 5391,
      "自己的": 5392,
      "和国际": 5393,
      ")，": 5394,
      "审计": 5395,
      "某些": 5396,
      "2003年": 5397,
      "协议": 5398,
      "普遍": 5399,
      "气候": 5400,
      "的最": 5401,
      "财务": 5402,
      "40": 5403,
      "不断": 5404,
      "呼吁": 5405,
      "所需": 5406,
      "者的": 5407,
      "保健": 5408,
      "发达": 5409,
      "定期": 5410,
      "对话": 5411,
      "经常": 5412,
      "群体": 5413,
      "发挥": 5414,
      "纳入": 5415,
      "设计": 5416,
      "特别报告员": 5417,
      "制订": 5418,
      "总统": 5419,
      "残疾": 5420,
      "组织的": 5421,
      "提供的": 5422,
      "明确": 5423,
      "的规定": 5424,
      "组成": 5425,
      "2004年": 5426,
      "提供了": 5427,
      "维持和平": 5428,
      "不可": 5429,
      "准则": 5430,
      "合同": 5431,
      "宪法": 5432,
      ")、": 5433,
      "在其": 5434,
      "承认": 5435,
      "质量": 5436,
      "导致": 5437,
      "结论": 5438,
      "土地": 5439,
      "宗教": 5440,
      "结束": 5441,
      "计算": 5442,
      "适用": 5443,
      "2000年": 5444,
      "事件": 5445,
      "事实": 5446,
      "当地": 5447,
      "是一个": 5448,
      "自然": 5449,
      "扩大": 5450,
      "重点": 5451,
      "2002年": 5452,
      "关键": 5453,
      "收到": 5454,
      "下列": 5455,
      "应对": 5456,
      "11月": 5457,
      "日至": 5458,
      "来的": 5459,
      "联合国系统": 5460,
      "》，": 5461,
      "国的": 5462,
      "恢复": 5463,
      "确认": 5464,
      "伙伴关系": 5465,
      "保留": 5466,
      "和社会": 5467,
      "感到": 5468,
      "重要的": 5469,
      "危机": 5470,
      "学校": 5471,
      "粮食": 5472,
      "设备": 5473,
      "我们的": 5474,
      "at": 5475,
      "来自": 5476,
      "进行了": 5477,
      "考虑到": 5478,
      "9月": 5479,
      "上述": 5480,
      "年度": 5481,
      "日本": 5482,
      "的能力": 5483,
      "他们的": 5484,
      "准备": 5485,
      "助于": 5486,
      "整个": 5487,
      "生物": 5488,
      "尤其是": 5489,
      "Add": 5490,
      "一样": 5491,
      "不得": 5492,
      "工程": 5493,
      "贩运": 5494,
      "5月": 5495,
      "as": 5496,
      "加入": 5497,
      "的所有": 5498,
      "\"。": 5499,
      "允许": 5500,
      "现象": 5501,
      "登记": 5502,
      "估计": 5503,
      "农业": 5504,
      "拥有": 5505,
      "水平": 5506,
      "采取的": 5507,
      "从而": 5508,
      "执行情况": 5509,
      "可持续发展": 5510,
      "改进": 5511,
      "有助于": 5512,
      "证明": 5513,
      "2013年": 5514,
      "定的": 5515,
      "我国": 5516,
      "编制": 5517,
      "国际社会": 5518,
      "4月": 5519,
      "第1": 5520,
      "29": 5521,
      "尊重": 5522,
      "不过": 5523,
      "列入": 5524,
      "官员": 5525,
      "会议的": 5526,
      "1月": 5527,
      "享有": 5528,
      "外交": 5529,
      "工具": 5530,
      "所以": 5531,
      "规模": 5532,
      "在这方面": 5533,
      "理由": 5534,
      "出口": 5535,
      "医疗": 5536,
      "支付": 5537,
      "的法律": 5538,
      "贡献": 5539,
      "资产": 5540,
      "60": 5541,
      "价格": 5542,
      "的活动": 5543,
      "该国": 5544,
      "基于": 5545,
      "宣传": 5546,
      "能源": 5547,
      "3月": 5548,
      "学生": 5549,
      "所述": 5550,
      "法官": 5551,
      "还有": 5552,
      "令人": 5553,
      "的主要": 5554,
      "维护": 5555,
      "两年期": 5556,
      "主管": 5557,
      "本国": 5558,
      "农村": 5559,
      "并不": 5560,
      "更加": 5561,
      "英语": 5562,
      "一级": 5563,
      "回顾": 5564,
      "困难": 5565,
      "文书": 5566,
      "构成": 5567,
      "电子": 5568,
      "解释": 5569,
      "基金会": 5570,
      "专业": 5571,
      "价值": 5572,
      "传统": 5573,
      "你们": 5574,
      "同样": 5575,
      "外国": 5576,
      "访问": 5577,
      "还是": 5578,
      "通知": 5579,
      "22": 5580,
      "十年": 5581,
      "只有": 5582,
      "森林": 5583,
      "2001年": 5584,
      "一起": 5585,
      "个月": 5586,
      "的建议": 5587,
      "给予": 5588,
      "调整": 5589,
      "进入": 5590,
      "都是": 5591,
      "重大": 5592,
      "），": 5593,
      "反对": 5594,
      "学习": 5595,
      "运输": 5596,
      "那么": 5597,
      "也是": 5598,
      "声明": 5599,
      "工作的": 5600,
      "1999年": 5601,
      "委会": 5602,
      "孩子": 5603,
      "应用": 5604,
      "精神": 5605,
      "紧急": 5606,
      "es": 5607,
      "女士": 5608,
      "捐助": 5609,
      "工业": 5610,
      "显示": 5611,
      "海洋": 5612,
      "编写": 5613,
      "成员国": 5614,
      "改变": 5615,
      "民间": 5616,
      "财产": 5617,
      "供应": 5618,
      "千年": 5619,
      "分配": 5620,
      "机关": 5621,
      "特殊": 5622,
      "落实": 5623,
      "倡议": 5624,
      "交流": 5625,
      "缺乏": 5626,
      "美洲": 5627,
      "机构的": 5628,
      "下的": 5629,
      "商业": 5630,
      "少数": 5631,
      "很多": 5632,
      "检查": 5633,
      "签署": 5634,
      "达成": 5635,
      "题为": 5636,
      "2014": 5637,
      "协会": 5638,
      "反映": 5639,
      "后续": 5640,
      "感谢": 5641,
      "授权": 5642,
      "提议": 5643,
      "私营": 5644,
      "起来": 5645,
      "计划署": 5646,
      "提出了": 5647,
      "主任": 5648,
      "化学": 5649,
      "危险": 5650,
      "另外": 5651,
      "实体": 5652,
      "宣布": 5653,
      "成本": 5654,
      "本报告": 5655,
      "的发展": 5656,
      "首脑": 5657,
      "万美元": 5658,
      "举办": 5659,
      "今天": 5660,
      "媒体": 5661,
      "超过": 5662,
      "鉴于": 5663,
      "的情况下": 5664,
      "来源": 5665,
      "死亡": 5666,
      "补充": 5667,
      "行动计划": 5668,
      "受害者": 5669,
      "35": 5670,
      "境内": 5671,
      "的信息": 5672,
      "贫穷": 5673,
      "青年": 5674,
      "一份": 5675,
      "劳动": 5676,
      "大量": 5677,
      "局势": 5678,
      "成立": 5679,
      "扩散": 5680,
      "的时候": 5681,
      "管制": 5682,
      "亿美元": 5683,
      "手段": 5684,
      "日内": 5685,
      "酷刑": 5686,
      "37": 5687,
      "45": 5688,
      "多边": 5689,
      "实质": 5690,
      "属于": 5691,
      "总部": 5692,
      "指标": 5693,
      "苏丹": 5694,
      "了一个": 5695,
      "以前": 5696,
      "为此": 5697,
      "出版": 5698,
      "出的": 5699,
      "力的": 5700,
      "并在": 5701,
      "性和": 5702,
      "最高": 5703,
      "竞争": 5704,
      "通常": 5705,
      "第二十": 5706,
      "发达国家": 5707,
      "伊斯": 5708,
      "有限": 5709,
      "相互": 5710,
      "100": 5711,
      "00美元": 5712,
      "交易": 5713,
      "满足": 5714,
      "1998年": 5715,
      "修订": 5716,
      "刚果": 5717,
      "实行": 5718,
      "法国": 5719,
      "议会": 5720,
      "31日": 5721,
      "亚洲": 5722,
      "单位": 5723,
      "各方": 5724,
      "团体": 5725,
      "拘留": 5726,
      "30日": 5727,
      "下午": 5728,
      "全体": 5729,
      "职业": 5730,
      "进行的": 5731,
      "39": 5732,
      "常驻": 5733,
      "采购": 5734,
      "197": 5735,
      "住房": 5736,
      "历史": 5737,
      "移民": 5738,
      "职能": 5739,
      "达到": 5740,
      "发展目标": 5741,
      "艾滋病毒": 5742,
      "不仅": 5743,
      "体制": 5744,
      "债务": 5745,
      "创造": 5746,
      "多样": 5747,
      "巴嫩": 5748,
      "效率": 5749,
      "的方式": 5750,
      "黎巴嫩": 5751,
      "提交人": 5752,
      "尚未": 5753,
      "旨在": 5754,
      "管辖": 5755,
      "部署": 5756,
      "通过的": 5757,
      "专题": 5758,
      "召开": 5759,
      "数量": 5760,
      "国际法": 5761,
      "活动的": 5762,
      "36": 5763,
      "38": 5764,
      "决策": 5765,
      "意义": 5766,
      "战争": 5767,
      "模式": 5768,
      "看到": 5769,
      "非正式": 5770,
      "认识到": 5771,
      "第五十": 5772,
      "日内瓦": 5773,
      "un": 5774,
      "每年": 5775,
      "毒品": 5776,
      "纲领": 5777,
      "is": 5778,
      "失所": 5779,
      "拟订": 5780,
      "来说": 5781,
      "治疗": 5782,
      "然后": 5783,
      "电话": 5784,
      "和平与": 5785,
      "占领": 5786,
      "和技术": 5787,
      "大多数": 5788,
      "如下": 5789,
      "所作": 5790,
      "第7": 5791,
      "通过了": 5792,
      "各国政府": 5793,
      "次会议上": 5794,
      "伊斯兰": 5795,
      "am": 5796,
      "加拿": 5797,
      "收集": 5798,
      "王国": 5799,
      "诉讼": 5800,
      "情况下": 5801,
      "46": 5802,
      "人数": 5803,
      "再次": 5804,
      "及时": 5805,
      "对妇女": 5806,
      "提到": 5807,
      "罪行": 5808,
      "组织和": 5809,
      "有效的": 5810,
      "今后": 5811,
      "如此": 5812,
      "将在": 5813,
      "流离": 5814,
      "生命": 5815,
      "的不": 5816,
      "的信": 5817,
      "立即": 5818,
      "政府间": 5819,
      "53": 5820,
      "女性": 5821,
      "过渡": 5822,
      "通信": 5823,
      "其中包括": 5824,
      "流离失所": 5825,
      "公开": 5826,
      "反应": 5827,
      "拟议": 5828,
      "条例": 5829,
      "消费": 5830,
      "申诉": 5831,
      "证据": 5832,
      "气候变化": 5833,
      "加拿大": 5834,
      "与会": 5835,
      "以确保": 5836,
      "地点": 5837,
      "索赔": 5838,
      "里亚": 5839,
      "方案的": 5840,
      "57": 5841,
      "喜欢": 5842,
      "敦促": 5843,
      "十分": 5844,
      "有些": 5845,
      "的事": 5846,
      "训练": 5847,
      "马里": 5848,
      "观察员": 5849,
      "6日": 5850,
      "8月": 5851,
      "合理": 5852,
      "观点": 5853,
      "语言": 5854,
      "民间社会": 5855,
      "69": 5856,
      "以上": 5857,
      "修正": 5858,
      "古巴": 5859,
      "密切": 5860,
      "支出": 5861,
      "物质": 5862,
      "的基础": 5863,
      "阿尔": 5864,
      "香港": 5865,
      "%。": 5866,
      "一名": 5867,
      "公平": 5868,
      "加以": 5869,
      "统一": 5870,
      "透明": 5871,
      "邀请": 5872,
      "8日": 5873,
      "一年": 5874,
      "不足": 5875,
      "只是": 5876,
      "和发展": 5877,
      "她的": 5878,
      "宪章": 5879,
      "承担": 5880,
      "朋友": 5881,
      "避免": 5882,
      "33": 5883,
      "55": 5884,
      "不要": 5885,
      "和保护": 5886,
      "的努力": 5887,
      "移徙": 5888,
      "系列": 5889,
      "详细": 5890,
      "课程": 5891,
      "贸发": 5892,
      "欧洲联盟": 5893,
      "49": 5894,
      "传播": 5895,
      "担任": 5896,
      "提案": 5897,
      "的行为": 5898,
      "而言": 5899,
      "职位": 5900,
      "47": 5901,
      "ch": 5902,
      "予以": 5903,
      "另一": 5904,
      "德国": 5905,
      "最不": 5906,
      "未来": 5907,
      "核心": 5908,
      "迅速": 5909,
      "能力建设": 5910,
      "65": 5911,
      "其它": 5912,
      "力量": 5913,
      "发表": 5914,
      "每个": 5915,
      "比较": 5916,
      "高级专员": 5917,
      "第六十": 5918,
      "3日": 5919,
      "公众": 5920,
      "将其": 5921,
      "比例": 5922,
      "纽约": 5923,
      "预计": 5924,
      "1996年": 5925,
      "取得的": 5926,
      "范围内": 5927,
      "体系": 5928,
      "公正": 5929,
      "墨西": 5930,
      "寻求": 5931,
      "少年": 5932,
      "有利": 5933,
      "相信": 5934,
      "销售": 5935,
      "行为的": 5936,
      "墨西哥": 5937,
      "el": 5938,
      "三个": 5939,
      "流动": 5940,
      "真正": 5941,
      "若干": 5942,
      "辩论": 5943,
      "降低": 5944,
      "1995年": 5945,
      "过程中": 5946,
      "63": 5947,
      "》。": 5948,
      "依照": 5949,
      "出了": 5950,
      "各个": 5951,
      "增强": 5952,
      "干事": 5953,
      "权力": 5954,
      "表现": 5955,
      "运作": 5956,
      "适应": 5957,
      "阿富": 5958,
      "联合王国": 5959,
      "举措": 5960,
      "保险": 5961,
      "制造": 5962,
      "卢旺": 5963,
      "商品": 5964,
      "定义": 5965,
      "第15": 5966,
      "英国": 5967,
      "身份": 5968,
      "首先": 5969,
      "妇女和": 5970,
      "采取行动": 5971,
      "阿富汗": 5972,
      "67": 5973,
      "几乎": 5974,
      "数字": 5975,
      "有人": 5976,
      "来文": 5977,
      "卢旺达": 5978,
      "44": 5979,
      "58": 5980,
      "世纪": 5981,
      "步骤": 5982,
      "趋势": 5983,
      "2004": 5984,
      "1个": 5985,
      "4日": 5986,
      "号决定": 5987,
      "检察": 5988,
      "此类": 5989,
      "的机会": 5990,
      "第13": 5991,
      "答复": 5992,
      "网站": 5993,
      "2008": 5994,
      "1994年": 5995,
      "千年发展目标": 5996,
      "it": 5997,
      "人和": 5998,
      "似乎": 5999,
      "所载": 6000,
      "污染": 6001,
      "理解": 6002,
      "第9": 6003,
      "筹备": 6004,
      "赔偿": 6005,
      "：“": 6006,
      "的一些": 6007,
      "地区的": 6008,
      "32": 6009,
      "9日": 6010,
      "ww": 6011,
      "东西": 6012,
      "人力": 6013,
      "从事": 6014,
      "叙利亚": 6015,
      "平衡": 6016,
      "投票": 6017,
      "损失": 6018,
      "维亚": 6019,
      "人口基金": 6020,
      "48": 6021,
      "70": 6022,
      "名单": 6023,
      "告诉": 6024,
      "带来": 6025,
      "律师": 6026,
      "来越": 6027,
      "讲习": 6028,
      "越来越": 6029,
      "劳工": 6030,
      "对其": 6031,
      "心理": 6032,
      "最终": 6033,
      "甚至": 6034,
      "类似": 6035,
      "职责": 6036,
      "起诉": 6037,
      "%，": 6038,
      "全部": 6039,
      "及社会": 6040,
      "居民": 6041,
      "愿意": 6042,
      "核准": 6043,
      "的其他": 6044,
      "的时间": 6045,
      "破坏": 6046,
      "自愿": 6047,
      "药物": 6048,
      "预期": 6049,
      "基础设施": 6050,
      "维持和平行动": 6051,
      "59": 6052,
      "5日": 6053,
      "任命": 6054,
      "出席": 6055,
      "建筑": 6056,
      "引起": 6057,
      "日益": 6058,
      "本身": 6059,
      "清单": 6060,
      "行使": 6061,
      "软件": 6062,
      "这类": 6063,
      "随着": 6064,
      "报告的": 6065,
      "咨询委员会": 6066,
      "——": 6067,
      "一定": 6068,
      "下降": 6069,
      "双方": 6070,
      "土耳": 6071,
      "我想": 6072,
      "灾害": 6073,
      "的目标": 6074,
      "磋商": 6075,
      "至关": 6076,
      "试验": 6077,
      "贫困": 6078,
      "转让": 6079,
      "遭受": 6080,
      "土著人民": 6081,
      "土耳其": 6082,
      "修改": 6083,
      "合法": 6084,
      "国籍": 6085,
      "复杂": 6086,
      "怎么": 6087,
      "无论": 6088,
      "班牙": 6089,
      "的安全": 6090,
      "离开": 6091,
      "西班牙": 6092,
      "1997年": 6093,
      "开发署": 6094,
      "与会者": 6095,
      "7日": 6096,
      "不扩散": 6097,
      "伊朗": 6098,
      "加勒": 6099,
      "官方": 6100,
      "疾病": 6101,
      "的任何": 6102,
      "的作用": 6103,
      "相当": 6104,
      "重视": 6105,
      "2006": 6106,
      "2014年": 6107,
      "2月": 6108,
      "43": 6109,
      "会计": 6110,
      "审判": 6111,
      "拒绝": 6112,
      "概念": 6113,
      "男女": 6114,
      "的决定": 6115,
      "国际公约": 6116,
      "机构和": 6117,
      "讲习班": 6118,
      "加勒比": 6119,
      "68": 6120,
      "il": 6121,
      "依据": 6122,
      "几个": 6123,
      "国民": 6124,
      "除了": 6125,
      "儿童基金会": 6126,
      "52": 6127,
      "以外": 6128,
      "在此": 6129,
      "性质": 6130,
      "有权": 6131,
      "有必要": 6132,
      "背景": 6133,
      "相关的": 6134,
      "54": 6135,
      "主题": 6136,
      "人士": 6137,
      "众国": 6138,
      "克斯坦": 6139,
      "才能": 6140,
      "打算": 6141,
      "的代表": 6142,
      "目的是": 6143,
      "2005": 6144,
      "分别": 6145,
      "制裁": 6146,
      "和经济": 6147,
      "容易": 6148,
      "尼西亚": 6149,
      "损害": 6150,
      "明显": 6151,
      "有一": 6152,
      "的经济": 6153,
      "的措施": 6154,
      "至少": 6155,
      "货币": 6156,
      "障碍": 6157,
      "行动纲领": 6158,
      "高级别": 6159,
      "民主共和国": 6160,
      "贸发会议": 6161,
      ")(": 6162,
      "ion": 6163,
      "》(": 6164,
      "化的": 6165,
      "根本": 6166,
      "虐待": 6167,
      "资助": 6168,
      "那样": 6169,
      "，《": 6170,
      "提交的": 6171,
      "种族歧视": 6172,
      "首脑会议": 6173,
      "31": 6174,
      "各级": 6175,
      "意识": 6176,
      "探讨": 6177,
      "的政策": 6178,
      "1993年": 6179,
      "ur": 6180,
      "交通": 6181,
      "加拉": 6182,
      "原子": 6183,
      "指控": 6184,
      "满意": 6185,
      "资本": 6186,
      "足够": 6187,
      "那里": 6188,
      "随后": 6189,
      "方案和": 6190,
      "开发计划署": 6191,
      "上诉": 6192,
      "增进": 6193,
      "处于": 6194,
      "她们": 6195,
      "年龄": 6196,
      "第8": 6197,
      "筹资": 6198,
      "；(": 6199,
      "儿童权利": 6200,
      "信息和": 6201,
      "专家组": 6202,
      "决议草案A": 6203,
      "及社会理事会": 6204,
      "中央": 6205,
      "今年": 6206,
      "巴基": 6207,
      "当事": 6208,
      "意味": 6209,
      "执法": 6210,
      "有所": 6211,
      "澳大": 6212,
      "的大": 6213,
      "的资料": 6214,
      "表决": 6215,
      "觉得": 6216,
      "系统的": 6217,
      "研究所": 6218,
      "ad": 6219,
      "不到": 6220,
      "任择": 6221,
      "作了": 6222,
      "助理": 6223,
      "在内的": 6224,
      "小时": 6225,
      "持久": 6226,
      "现代": 6227,
      "生效": 6228,
      "适用于": 6229,
      "俄罗斯联邦": 6230,
      "巴基斯坦": 6231,
      "澳大利亚": 6232,
      "62": 6233,
      "。”": 6234,
      "以后": 6235,
      "便利": 6236,
      "北京": 6237,
      "外地": 6238,
      "委员会在": 6239,
      "2000": 6240,
      "可能会": 6241,
      "私营部门": 6242,
      "77": 6243,
      "主权": 6244,
      "也不": 6245,
      "形成": 6246,
      "拉丁": 6247,
      "攸关": 6248,
      "旅游": 6249,
      "的话": 6250,
      "的项目": 6251,
      "科技": 6252,
      "而不是": 6253,
      "获取": 6254,
      "请秘书长": 6255,
      "跨国": 6256,
      "56": 6257,
      "也纳": 6258,
      "分子": 6259,
      "平民": 6260,
      "待遇": 6261,
      "数目": 6262,
      "父母": 6263,
      "的新": 6264,
      "的支持": 6265,
      "研讨": 6266,
      "维也纳": 6267,
      "两性": 6268,
      "享受": 6269,
      "压力": 6270,
      "在国家": 6271,
      "太平": 6272,
      "尔兰": 6273,
      "最佳": 6274,
      "的结果": 6275,
      "索马里": 6276,
      "实质性": 6277,
      "61": 6278,
      "停止": 6279,
      "判决": 6280,
      "双边": 6281,
      "捐款": 6282,
      "案文": 6283,
      "次级": 6284,
      "爱尔兰": 6285,
      "表达": 6286,
      "资格": 6287,
      "通报": 6288,
      "顾问": 6289,
      "发展的": 6290,
      "人权事务": 6291,
      "太平洋": 6292,
      "64": 6293,
      "80": 6294,
      "他说": 6295,
      "各自": 6296,
      "女孩": 6297,
      "平均": 6298,
      "截至": 6299,
      "时期": 6300,
      "那个": 6301,
      "org": 6302,
      "后续行动": 6303,
      "研讨会": 6304,
      "Al": 6305,
      "CN": 6306,
      "一位": 6307,
      "主持": 6308,
      "塞尔": 6309,
      "福利": 6310,
      "货物": 6311,
      "人权理事会": 6312,
      "儿童的": 6313,
      "意味着": 6314,
      "任择议定书": 6315,
      "拉丁美洲": 6316,
      "中所": 6317,
      "做出": 6318,
      "大利": 6319,
      "致力": 6320,
      "秘书长关于": 6321,
      "造成的": 6322,
      "利益攸关": 6323,
      "印度尼西亚": 6324,
      "的重要性": 6325,
      "ev": 6326,
      "之外": 6327,
      "代理": 6328,
      "将会": 6329,
      "巴西": 6330,
      "开放": 6331,
      "日期": 6332,
      "的合作": 6333,
      "联络": 6334,
      "2015": 6335,
      "的一部分": 6336,
      "人力资源": 6337,
      "\"，": 6338,
      "34": 6339,
      "侵害": 6340,
      "分发": 6341,
      "在于": 6342,
      "有的": 6343,
      "有可能": 6344,
      "此种": 6345,
      "汽车": 6346,
      "状态": 6347,
      "的方法": 6348,
      "看法": 6349,
      "2009": 6350,
      "18日": 6351,
      "这样的": 6352,
      "缔约方会议": 6353,
      "武装冲突": 6354,
      "介绍了": 6355,
      "41": 6356,
      "上午": 6357,
      "兴趣": 6358,
      "利坚": 6359,
      "即使": 6360,
      "和管理": 6361,
      "年轻": 6362,
      "当前": 6363,
      "往往": 6364,
      "技能": 6365,
      "的任务": 6366,
      "规范": 6367,
      "评论": 6368,
      "集体": 6369,
      "）、": 6370,
      "南非": 6371,
      "就会": 6372,
      "普通": 6373,
      "现金": 6374,
      "的研究": 6375,
      "的各项": 6376,
      "经过": 6377,
      "道德": 6378,
      "道路": 6379,
      "集中": 6380,
      "，\"": 6381,
      "会议室": 6382,
      "ass": 6383,
      "刚果民主共和国": 6384,
      "ah": 6385,
      "一点": 6386,
      "个国家": 6387,
      "仲裁": 6388,
      "好地": 6389,
      "意大利": 6390,
      "所涉": 6391,
      "最低": 6392,
      "经营": 6393,
      "美利坚": 6394,
      "食物": 6395,
      "经济及社会理事会": 6396,
      "这一点": 6397,
      "15日": 6398,
      "优先事项": 6399,
      "流离失所者": 6400,
      "最不发达国家": 6401,
      "ol": 6402,
      "om": 6403,
      "为止": 6404,
      "公务": 6405,
      "和区域": 6406,
      "埃及": 6407,
      "当然": 6408,
      "期限": 6409,
      "欧盟": 6410,
      "第18": 6411,
      "自治": 6412,
      "赞赏": 6413,
      "妇女的": 6414,
      "领域的": 6415,
      "ic": 6416,
      "与联合国": 6417,
      "二十": 6418,
      "切实": 6419,
      "各地": 6420,
      "合众国": 6421,
      "启动": 6422,
      "和政治": 6423,
      "找到": 6424,
      "接触": 6425,
      "科索": 6426,
      "第12": 6427,
      "群岛": 6428,
      "委员会建议": 6429,
      "2001": 6430,
      "会议上": 6431,
      "协调员": 6432,
      "后果": 6433,
      "私人": 6434,
      "难以": 6435,
      "委员会还": 6436,
      "2002": 6437,
      "如果你": 6438,
      "原子能": 6439,
      "科索沃": 6440,
      "与发展": 6441,
      "也许": 6442,
      "信托": 6443,
      "决心": 6444,
      "和解": 6445,
      "外勤": 6446,
      "客户": 6447,
      "年来": 6448,
      "总体": 6449,
      "指定": 6450,
      "提及": 6451,
      "有时": 6452,
      "的要求": 6453,
      "监狱": 6454,
      "立场": 6455,
      "结合": 6456,
      "许可": 6457,
      "遭到": 6458,
      "2007": 6459,
      "主席团": 6460,
      "美利坚合众国": 6461,
      "42": 6462,
      "利比": 6463,
      "大规模": 6464,
      "更为": 6465,
      "本组织": 6466,
      "监察": 6467,
      "第14": 6468,
      "第16": 6469,
      "腐败": 6470,
      "视为": 6471,
      "青少年": 6472,
      "飞机": 6473,
      "食品": 6474,
      "14日": 6475,
      "刑事司法": 6476,
      "51": 6477,
      "RC": 6478,
      "人在": 6479,
      "公布": 6480,
      "分类": 6481,
      "和联合国": 6482,
      "容忍": 6483,
      "应在": 6484,
      "治理": 6485,
      "的有关": 6486,
      "相同": 6487,
      "约束": 6488,
      "脆弱": 6489,
      "技术援助": 6490,
      "的一项": 6491,
      "种族主义": 6492,
      "致力于": 6493,
      "利比里亚": 6494,
      "依赖": 6495,
      "大约": 6496,
      "排放": 6497,
      "效果": 6498,
      "次区域": 6499,
      "每天": 6500,
      "电视": 6501,
      "的政治": 6502,
      "罗马": 6503,
      "达尔": 6504,
      "进口": 6505,
      "马拉": 6506,
      "高度": 6507,
      "服务的": 6508,
      "至关重要": 6509,
      "ir": 6510,
      "一条": 6511,
      "事规则": 6512,
      "他在": 6513,
      "协作": 6514,
      "唯一": 6515,
      "大部分": 6516,
      "总是": 6517,
      "指南": 6518,
      "摩洛": 6519,
      "方针": 6520,
      "显然": 6521,
      "核查": 6522,
      "爆炸": 6523,
      "特定": 6524,
      "试图": 6525,
      "这里": 6526,
      "途径": 6527,
      "取得了": 6528,
      "CC": 6529,
      "不再": 6530,
      "将继续": 6531,
      "很大": 6532,
      "母亲": 6533,
      "清楚": 6534,
      "第七": 6535,
      "类型": 6536,
      "荷兰": 6537,
      "贷款": 6538,
      "工作队": 6539,
      "执行局": 6540,
      "----": 6541,
      "实际上": 6542,
      "两性平等": 6543,
      "90": 6544,
      "et": 6545,
      "一体": 6546,
      "不应": 6547,
      "中东": 6548,
      "制止": 6549,
      "医生": 6550,
      "塞拉": 6551,
      "威特": 6552,
      "总额": 6553,
      "所列": 6554,
      "有一个": 6555,
      "法案": 6556,
      "现实": 6557,
      "的社会": 6558,
      "的说明": 6559,
      "者和": 6560,
      "转移": 6561,
      "这么": 6562,
      "面对": 6563,
      "国际合作": 6564,
      "数据库": 6565,
      "特别是在": 6566,
      "第一次": 6567,
      "适当的": 6568,
      "更多的": 6569,
      "摩洛哥": 6570,
      "一下": 6571,
      "为什么": 6572,
      "依然": 6573,
      "南部": 6574,
      "及其他": 6575,
      "另一个": 6576,
      "商定": 6577,
      "失踪": 6578,
      "它的": 6579,
      "尼日": 6580,
      "提请": 6581,
      "数额": 6582,
      "最大": 6583,
      "百分": 6584,
      "第10": 6585,
      "返回": 6586,
      "特别代表": 6587,
      "管理和": 6588,
      "政策和": 6589,
      "形式的": 6590,
      "多样性": 6591,
      "利益攸关方": 6592,
      "66": 6593,
      "CO": 6594,
      "主流": 6595,
      "克兰": 6596,
      "初步": 6597,
      "剥夺": 6598,
      "哥伦": 6599,
      "地球": 6600,
      "情报": 6601,
      "报表": 6602,
      "模型": 6603,
      "用途": 6604,
      "科威特": 6605,
      "补救": 6606,
      "该区域": 6607,
      "必要的": 6608,
      "规划署": 6609,
      "cl": 6610,
      "ed": 6611,
      "基地": 6612,
      "多的": 6613,
      "大使": 6614,
      "完整": 6615,
      "工人": 6616,
      "报道": 6617,
      "本文": 6618,
      "派遣": 6619,
      "理论": 6620,
      "用的": 6621,
      "监管": 6622,
      "相对": 6623,
      "维和": 6624,
      "速度": 6625,
      "重建": 6626,
      "错误": 6627,
      "面的": 6628,
      "高兴": 6629,
      "报告中": 6630,
      "方案预算": 6631,
      "建设和平": 6632,
      "领导人": 6633,
      "检察官": 6634,
      "次级方案": 6635,
      "2015年": 6636,
      "哥伦比亚": 6637,
      "73": 6638,
      "争取": 6639,
      "交换": 6640,
      "会上": 6641,
      "出来": 6642,
      "创新": 6643,
      "地雷": 6644,
      "对此": 6645,
      "感染": 6646,
      "拉夫": 6647,
      "救济": 6648,
      "的行动": 6649,
      "袭击": 6650,
      "第三十": 6651,
      "难民署": 6652,
      "信托基金": 6653,
      "II": 6654,
      "os": 6655,
      "功能": 6656,
      "和执行": 6657,
      "大家": 6658,
      "新西": 6659,
      "是一种": 6660,
      "更新": 6661,
      "测试": 6662,
      "海地": 6663,
      "航空": 6664,
      "这次": 6665,
      "196": 6666,
      "产生的": 6667,
      "上文": 6668,
      "内亚": 6669,
      "几内亚": 6670,
      "变得": 6671,
      "国务": 6672,
      "子女": 6673,
      "富尔": 6674,
      "差异": 6675,
      "并将": 6676,
      "攻击": 6677,
      "未能": 6678,
      "查明": 6679,
      "法治": 6680,
      "生殖": 6681,
      "男子": 6682,
      "第11": 6683,
      "行的": 6684,
      "起草": 6685,
      "10日": 6686,
      "人权和": 6687,
      "人员的": 6688,
      "13日": 6689,
      "作出的": 6690,
      "一般事务": 6691,
      "6月30日": 6692,
      "临时议程": 6693,
      "新西兰": 6694,
      "ou": 6695,
      "剥削": 6696,
      "动物": 6697,
      "发了": 6698,
      "同一": 6699,
      "和国家": 6700,
      "在联合国": 6701,
      "地注意到": 6702,
      "干预": 6703,
      "并没有": 6704,
      "当时": 6705,
      "投入": 6706,
      "替代": 6707,
      "瑞士": 6708,
      "生态": 6709,
      "电影": 6710,
      "的执行情况": 6711,
      "相比": 6712,
      "联网": 6713,
      "赞扬": 6714,
      "阐述": 6715,
      "附属": 6716,
      "人权委员会": 6717,
      "经济和社会": 6718,
      "采取措施": 6719,
      "非洲联盟": 6720,
      "第四十": 6721,
      "残疾人": 6722,
      "下来": 6723,
      "不利": 6724,
      "伤害": 6725,
      "供资": 6726,
      "减轻": 6727,
      "团结": 6728,
      "埃塞": 6729,
      "多种": 6730,
      "尽可能": 6731,
      "居住": 6732,
      "岛屿": 6733,
      "工资": 6734,
      "根廷": 6735,
      "用户": 6736,
      "的战略": 6737,
      "行业": 6738,
      "购买": 6739,
      "身体": 6740,
      "载于": 6741,
      "边界": 6742,
      "阿根廷": 6743,
      "预测": 6744,
      "，“": 6745,
      "以及在": 6746,
      "12日": 6747,
      "的一切": 6748,
      "的一种": 6749,
      "有效地": 6750,
      "和平与安全": 6751,
      "书面": 6752,
      "争端": 6753,
      "位置": 6754,
      "克罗": 6755,
      "刑法": 6756,
      "后勤": 6757,
      "向大会": 6758,
      "和建议": 6759,
      "外部": 6760,
      "大陆": 6761,
      "学院": 6762,
      "快速": 6763,
      "我不": 6764,
      "我要": 6765,
      "或其他": 6766,
      "斯洛": 6767,
      "的儿童": 6768,
      "的各种": 6769,
      "良好": 6770,
      "，”": 6771,
      "国际组织": 6772,
      "采取了": 6773,
      "得到了": 6774,
      "行政和": 6775,
      "参加了": 6776,
      "一般性": 6777,
      "达尔富尔": 6778,
      "上升": 6779,
      "付款": 6780,
      "信任": 6781,
      "候选": 6782,
      "发出": 6783,
      "发布": 6784,
      "只要": 6785,
      "后的": 6786,
      "实验": 6787,
      "强迫": 6788,
      "态度": 6789,
      "所做": 6790,
      "正如": 6791,
      "正确": 6792,
      "燃料": 6793,
      "第17": 6794,
      "肯尼亚": 6795,
      "逮捕": 6796,
      "额外": 6797,
      "）：": 6798,
      "发展和": 6799,
      "包括在": 6800,
      "人民共和国": 6801,
      "公司的": 6802,
      "暴力行为": 6803,
      "12月31日": 6804,
      "事实上": 6805,
      "劳工组织": 6806,
      "ab": 6807,
      "im": 6808,
      "值得": 6809,
      "免费": 6810,
      "吁请": 6811,
      "安保": 6812,
      "实践": 6813,
      "平台": 6814,
      "成就": 6815,
      "特设": 6816,
      "瑞典": 6817,
      "用来": 6818,
      "的地方": 6819,
      "科特": 6820,
      "营养": 6821,
      "被告": 6822,
      "裁决": 6823,
      "证实": 6824,
      "豁免": 6825,
      "20日": 6826,
      "政府的": 6827,
      "1999": 6828,
      "1990年": 6829,
      "所有国家": 6830,
      "项目的": 6831,
      "技术合作": 6832,
      "举行了": 6833,
      "消除对妇女": 6834,
      "000美元": 6835,
      "常驻联合国": 6836,
      "class": 6837,
      "使得": 6838,
      "俄比亚": 6839,
      "利昂": 6840,
      "医院": 6841,
      "参考": 6842,
      "将于": 6843,
      "希腊": 6844,
      "强烈": 6845,
      "放在": 6846,
      "敏感": 6847,
      "旅行": 6848,
      "有组织": 6849,
      "朝鲜": 6850,
      "的相关": 6851,
      "的意见": 6852,
      "的做法": 6853,
      "老年": 6854,
      "自动": 6855,
      "证书": 6856,
      "负担": 6857,
      "账户": 6858,
      "适合": 6859,
      "2003": 6860,
      "国际贸易": 6861,
      "1992年": 6862,
      "这个问题": 6863,
      "原子能机构": 6864,
      "塞拉利昂": 6865,
      "埃塞俄比亚": 6866,
      "三年": 6867,
      "不可能": 6868,
      "以往": 6869,
      "以期": 6870,
      "单独": 6871,
      "失业": 6872,
      "婚姻": 6873,
      "实地": 6874,
      "帝汶": 6875,
      "常常": 6876,
      "并非": 6877,
      "延长": 6878,
      "思想": 6879,
      "成绩": 6880,
      "是个": 6881,
      "更好地": 6882,
      "正常": 6883,
      "纪念": 6884,
      "所有的": 6885,
      "1日至": 6886,
      "毒品和": 6887,
      "阿尔及": 6888,
      "75": 6889,
      "CE": 6890,
      "Ch": 6891,
      "一旦": 6892,
      "不受": 6893,
      "与其他": 6894,
      "中有": 6895,
      "号文件": 6896,
      "在本": 6897,
      "巩固": 6898,
      "我在": 6899,
      "操作": 6900,
      "权的": 6901,
      "法规": 6902,
      "津贴": 6903,
      "的义务": 6904,
      "确实": 6905,
      "第九": 6906,
      "角度": 6907,
      "订正": 6908,
      "释放": 6909,
      "雇员": 6910,
      "马来": 6911,
      "机构间": 6912,
      "特别会议": 6913,
      "技术和": 6914,
      "资源的": 6915,
      "建立了": 6916,
      "部门的": 6917,
      "解决办法": 6918,
      "犯罪和": 6919,
      "犯罪问题": 6920,
      "第2款": 6921,
      "家庭暴力": 6922,
      "全体会议": 6923,
      "有利于": 6924,
      "公务员": 6925,
      "..": 6926,
      "乌克兰": 6927,
      "使其": 6928,
      "分享": 6929,
      "包容": 6930,
      "各区域": 6931,
      "布隆": 6932,
      "斯拉夫": 6933,
      "无核武器": 6934,
      "永远": 6935,
      "生育": 6936,
      "的可能": 6937,
      "的原则": 6938,
      "药品": 6939,
      "议题": 6940,
      "迪瓦": 6941,
      "颁布": 6942,
      "195": 6943,
      "11日": 6944,
      "事务部": 6945,
      "月23日": 6946,
      "小组委员会": 6947,
      "科特迪瓦": 6948,
      "阿尔及利亚": 6949,
      "》、": 6950,
      "养恤": 6951,
      "即将": 6952,
      "塞浦": 6953,
      "审理": 6954,
      "巨大": 6955,
      "常设": 6956,
      "广播": 6957,
      "教师": 6958,
      "注册": 6959,
      "潜在": 6960,
      "称为": 6961,
      "简单": 6962,
      "路斯": 6963,
      "这两": 6964,
      "都有": 6965,
      "阻碍": 6966,
      "面前": 6967,
      "）；": 6968,
      "共同体": 6969,
      "这样做": 6970,
      "不同的": 6971,
      "发展中国家的": 6972,
      "塞浦路斯": 6973,
      "ia": 6974,
      "东帝汶": 6975,
      "中期": 6976,
      "任期": 6977,
      "副主席": 6978,
      "在执行": 6979,
      "地利": 6980,
      "得以": 6981,
      "挪威": 6982,
      "效益": 6983,
      "教科": 6984,
      "殖民": 6985,
      "法令": 6986,
      "的挑战": 6987,
      "而是": 6988,
      "艺术": 6989,
      "调动": 6990,
      "委员会主席": 6991,
      "19日": 6992,
      "教育和": 6993,
      "建立一个": 6994,
      "讨论会": 6995,
      "计算机": 6996,
      "第1款": 6997,
      "出版物": 6998,
      "通信技术": 6999,
      "透明度": 7000,
      "毒品和犯罪问题": 7001,
      "马来西亚": 7002,
      "布隆迪": 7003,
      "全世界": 7004,
      "具备": 7005,
      "和环境": 7006,
      "对该": 7007,
      "尼斯": 7008,
      "担心": 7009,
      "的方案": 7010,
      "的基本": 7011,
      "的原因": 7012,
      "示范": 7013,
      "议事规则": 7014,
      "遗憾": 7015,
      "联合国宪章": 7016,
      "一切形式": 7017,
      "的基础上": 7018,
      "乌干": 7019,
      "位于": 7020,
      "南斯拉夫": 7021,
      "地亚": 7022,
      "差距": 7023,
      "庇护": 7024,
      "志愿": 7025,
      "每一": 7026,
      "比赛": 7027,
      "民众": 7028,
      "特点": 7029,
      "的具体": 7030,
      "石油": 7031,
      "给我": 7032,
      "葡萄": 7033,
      "语文": 7034,
      "赞同": 7035,
      "还要": 7036,
      "高的": 7037,
      "工作方案": 7038,
      "情况的": 7039,
      "人员和": 7040,
      "这一问题": 7041,
      "世界银行": 7042,
      "增加了": 7043,
      "and": 7044,
      "侵犯人权": 7045,
      "化学品": 7046,
      "乌干达": 7047,
      "ay": 7048,
      "ov": 7049,
      "us": 7050,
      "北爱尔兰": 7051,
      "区的": 7052,
      "受理": 7053,
      "受益": 7054,
      "合并": 7055,
      "咨委会": 7056,
      "哪些": 7057,
      "地理": 7058,
      "坚持": 7059,
      "处罚": 7060,
      "奥地利": 7061,
      "指示": 7062,
      "描述": 7063,
      "最大的": 7064,
      "混合": 7065,
      "经历": 7066,
      "自我": 7067,
      "融资": 7068,
      "装置": 7069,
      "赞成": 7070,
      "载有": 7071,
      "政府和": 7072,
      "保护和": 7073,
      "审议了": 7074,
      "互联网": 7075,
      "出生": 7076,
      "在该": 7077,
      "场所": 7078,
      "大不": 7079,
      "年的": 7080,
      "彻底": 7081,
      "摘要": 7082,
      "时代": 7083,
      "死刑": 7084,
      "注重": 7085,
      "泰国": 7086,
      "的责任": 7087,
      "行预": 7088,
      "还在": 7089,
      "这将": 7090,
      "酌情": 7091,
      "国际人权": 7092,
      "行动的": 7093,
      "安全和": 7094,
      "所有人": 7095,
      "环境署": 7096,
      "月22": 7097,
      "讨论了": 7098,
      "发生的": 7099,
      "ent": 7100,
      "广泛的": 7101,
      "组成部分": 7102,
      "行预咨委会": 7103,
      ")：": 7104,
      "严格": 7105,
      "为基础": 7106,
      "任意": 7107,
      "共识": 7108,
      "利比亚": 7109,
      "吸引": 7110,
      "妨碍": 7111,
      "惩罚": 7112,
      "感觉": 7113,
      "涵盖": 7114,
      "父亲": 7115,
      "直到": 7116,
      "色的": 7117,
      "蒙特": 7118,
      "通讯": 7119,
      "都会": 7120,
      "问责": 7121,
      "防治": 7122,
      "妇女地位": 7123,
      "月2日": 7124,
      "文化权利": 7125,
      "附件一": 7126,
      "人道主义法": 7127,
      "500": 7128,
      "le": 7129,
      "信仰": 7130,
      "加快": 7131,
      "包含": 7132,
      "员工": 7133,
      "和服务": 7134,
      "回答": 7135,
      "图书": 7136,
      "多少": 7137,
      "失去": 7138,
      "寻找": 7139,
      "开支": 7140,
      "律宾": 7141,
      "电脑": 7142,
      "的执行": 7143,
      "紧张": 7144,
      "菲律宾": 7145,
      "进步": 7146,
      "部的": 7147,
      "阿塞": 7148,
      "除非": 7149,
      "高等": 7150,
      "我们在": 7151,
      "事务厅": 7152,
      "ation": 7153,
      "估计数": 7154,
      "所述期间": 7155,
      "人权事务高级专员": 7156,
      "拉丁美洲和": 7157,
      "一体化": 7158,
      "\"(": 7159,
      "丹麦": 7160,
      "之下": 7161,
      "之中": 7162,
      "亚太": 7163,
      "仅仅": 7164,
      "促请": 7165,
      "八届会议": 7166,
      "分钟": 7167,
      "列颠": 7168,
      "只能": 7169,
      "在内": 7170,
      "在一个": 7171,
      "学家": 7172,
      "并对": 7173,
      "废物": 7174,
      "拜疆": 7175,
      "推广": 7176,
      "的环境": 7177,
      "着重": 7178,
      "荒漠": 7179,
      "议员": 7180,
      "赋予": 7181,
      "委员会注意到": 7182,
      "公民权利": 7183,
      "不得不": 7184,
      "所作的": 7185,
      "阿塞拜疆": 7186,
      "NF": 7187,
      "UN": 7188,
      "id": 7189,
      "一系列": 7190,
      "互动": 7191,
      "准确": 7192,
      "取消": 7193,
      "口头": 7194,
      "在这一": 7195,
      "大楼": 7196,
      "意愿": 7197,
      "收益": 7198,
      "教学": 7199,
      "方向": 7200,
      "是不": 7201,
      "未经": 7202,
      "条规定": 7203,
      "波斯": 7204,
      "流行": 7205,
      "的人权": 7206,
      "终止": 7207,
      "高专": 7208,
      "委员会的报告": 7209,
      "的一般": 7210,
      "第二次": 7211,
      "月21日": 7212,
      "的工作人员": 7213,
      "工程处": 7214,
      "www": 7215,
      "ag": 7216,
      "th": 7217,
      "也没有": 7218,
      "和安全": 7219,
      "回应": 7220,
      "并为": 7221,
      "强制": 7222,
      "拉圭": 7223,
      "指数": 7224,
      "推进": 7225,
      "整体": 7226,
      "期待": 7227,
      "特征": 7228,
      "的小": 7229,
      "的关键": 7230,
      "谴责": 7231,
      "车辆": 7232,
      "迄今": 7233,
      "阁下": 7234,
      "）（": 7235,
      "经济增长": 7236,
      "月28日": 7237,
      "武装部队": 7238,
      "尼日利亚": 7239,
      "克罗地亚": 7240,
      "ak": 7241,
      "re": 7242,
      "ul": 7243,
      "”。": 7244,
      "与此": 7245,
      "与合作": 7246,
      "东道": 7247,
      "也有": 7248,
      "了对": 7249,
      "优势": 7250,
      "卫星": 7251,
      "取决": 7252,
      "名义": 7253,
      "和不": 7254,
      "和对": 7255,
      "就此": 7256,
      "层面": 7257,
      "工会": 7258,
      "工发": 7259,
      "引渡": 7260,
      "弹药": 7261,
      "征聘": 7262,
      "拟定": 7263,
      "教授": 7264,
      "民国": 7265,
      "消息": 7266,
      "的会议": 7267,
      "短期": 7268,
      "第一个": 7269,
      "筹措": 7270,
      "类别": 7271,
      "谅解": 7272,
      "连续": 7273,
      "逐步": 7274,
      "音乐": 7275,
      "妇女在": 7276,
      "月29日": 7277,
      "暴力侵害": 7278,
      "框架内": 7279,
      "进展情况": 7280,
      "ing": 7281,
      "少数民族": 7282,
      "消费者": 7283,
      "有组织犯罪": 7284,
      "教科文": 7285,
      "大不列颠": 7286,
      "99": 7287,
      "两国": 7288,
      "你是": 7289,
      "儿子": 7290,
      "公路": 7291,
      "军队": 7292,
      "号和": 7293,
      "周期": 7294,
      "命令": 7295,
      "在国际": 7296,
      "奥运": 7297,
      "定居": 7298,
      "尽快": 7299,
      "提名": 7300,
      "教训": 7301,
      "气体": 7302,
      "清洁": 7303,
      "灵活": 7304,
      "用品": 7305,
      "的关于": 7306,
      "的费用": 7307,
      "的资金": 7308,
      "看见": 7309,
      "约翰": 7310,
      "而不": 7311,
      "肯定": 7312,
      "这方面的": 7313,
      "遇到": 7314,
      "问题上": 7315,
      "发展援助": 7316,
      "1998": 7317,
      "可以在": 7318,
      "影响的": 7319,
      "17日": 7320,
      "供应商": 7321,
      "拉丁美洲和加勒比": 7322,
      "高专办": 7323,
      "取决于": 7324,
      "In": 7325,
      "te": 7326,
      "事业": 7327,
      "以英语": 7328,
      "反恐": 7329,
      "和方案": 7330,
      "因而": 7331,
      "国集团": 7332,
      "在一起": 7333,
      "就像": 7334,
      "总数": 7335,
      "期望": 7336,
      "痛苦": 7337,
      "的资源": 7338,
      "的文件": 7339,
      "的经验": 7340,
      "翻译": 7341,
      "英文": 7342,
      "董事": 7343,
      "衡量": 7344,
      "要素": 7345,
      "言论": 7346,
      "认真": 7347,
      "证人": 7348,
      "这两个": 7349,
      "重返": 7350,
      "特别委员会": 7351,
      "管理局": 7352,
      "区域和": 7353,
      "儿童和": 7354,
      "措施的": 7355,
      "全球化": 7356,
      "届会议上": 7357,
      "月25日": 7358,
      "月27日": 7359,
      "安全理事会主席": 7360,
      "性别平等": 7361,
      "以英语发言": 7362,
      "2个": 7363,
      "78": 7364,
      "例子": 7365,
      "储存": 7366,
      "南南": 7367,
      "危害": 7368,
      "可靠": 7369,
      "在中国": 7370,
      "所在": 7371,
      "手册": 7372,
      "方的": 7373,
      "族裔": 7374,
      "款项": 7375,
      "滥用": 7376,
      "监禁": 7377,
      "相应": 7378,
      "缅甸": 7379,
      "装备": 7380,
      "解放": 7381,
      "认可": 7382,
      "调解": 7383,
      "运用": 7384,
      "国家和": 7385,
      "这些国家": 7386,
      "武器和": 7387,
      "16日": 7388,
      "少数群体": 7389,
      "波斯尼亚": 7390,
      "与其": 7391,
      "产出": 7392,
      "人居": 7393,
      "仇外": 7394,
      "但在": 7395,
      "作品": 7396,
      "初级": 7397,
      "声音": 7398,
      "妻子": 7399,
      "带来的": 7400,
      "捷克": 7401,
      "政党": 7402,
      "效力": 7403,
      "是由": 7404,
      "段中": 7405,
      "的数据": 7406,
      "的标准": 7407,
      "确立": 7408,
      "解除": 7409,
      "诸如": 7410,
      "贩卖": 7411,
      "都在": 7412,
      "阻止": 7413,
      "雇主": 7414,
      "面积": 7415,
      "会议和": 7416,
      "问题国际": 7417,
      "联合国各": 7418,
      "提供咨询": 7419,
      "执行主任": 7420,
      "重要作用": 7421,
      "取得进展": 7422,
      "进程的": 7423,
      "监测和": 7424,
      "部长级": 7425,
      "贩运人口": 7426,
      "取得的进展": 7427,
      "信息和通信技术": 7428,
      "教科文组织": 7429,
      "79": 7430,
      "87": 7431,
      "中华": 7432,
      "习惯": 7433,
      "争议": 7434,
      "事情": 7435,
      "共有": 7436,
      "减贫": 7437,
      "别人": 7438,
      "和非": 7439,
      "哈拉": 7440,
      "培养": 7441,
      "外层": 7442,
      "宗旨": 7443,
      "所得": 7444,
      "投诉": 7445,
      "撒冷": 7446,
      "是因为": 7447,
      "是为了": 7448,
      "毛里": 7449,
      "深入": 7450,
      "的世界": 7451,
      "的有效": 7452,
      "的范围": 7453,
      "空缺": 7454,
      "经委会": 7455,
      "耶路": 7456,
      "自身": 7457,
      "遵循": 7458,
      "邮件": 7459,
      "里的": 7460,
      "限度": 7461,
      "：(": 7462,
      "以及其他": 7463,
      "1991年": 7464,
      "大会第5": 7465,
      "月26日": 7466,
      "第3款": 7467,
      "耶路撒冷": 7468,
      "96": 7469,
      "》（": 7470,
      "上帝": 7471,
      "下文": 7472,
      "业绩": 7473,
      "丰富": 7474,
      "产权": 7475,
      "以促进": 7476,
      "去年": 7477,
      "可在": 7478,
      "和中": 7479,
      "埔寨": 7480,
      "多年": 7481,
      "大型": 7482,
      "女人": 7483,
      "孟加拉": 7484,
      "展开": 7485,
      "巴黎": 7486,
      "想要": 7487,
      "或许": 7488,
      "护理": 7489,
      "担保": 7490,
      "指挥": 7491,
      "排除": 7492,
      "更大的": 7493,
      "机场": 7494,
      "柬埔寨": 7495,
      "正规": 7496,
      "的妇女": 7497,
      "的必要": 7498,
      "细则": 7499,
      "缔结": 7500,
      "考试": 7501,
      "至于": 7502,
      "薪金": 7503,
      "西非": 7504,
      "设想": 7505,
      "过境": 7506,
      "人权高专办": 7507,
      "第二个": 7508,
      "月22日": 7509,
      "荒漠化": 7510,
      "72": 7511,
      "98": 7512,
      "AC": 7513,
      "of": 7514,
      "及北爱尔兰": 7515,
      "可行": 7516,
      "和A": 7517,
      "哥拉": 7518,
      "塔尔": 7519,
      "备忘": 7520,
      "安哥拉": 7521,
      "对象": 7522,
      "巴布": 7523,
      "常规": 7524,
      "并向": 7525,
      "意思": 7526,
      "曾经": 7527,
      "条第1款": 7528,
      "极端": 7529,
      "某一": 7530,
      "灭绝": 7531,
      "白俄罗斯": 7532,
      "的各": 7533,
      "的内容": 7534,
      "突尼斯": 7535,
      "第19": 7536,
      "细胞": 7537,
      "职权": 7538,
      "融入": 7539,
      "补偿": 7540,
      "设法": 7541,
      "还将": 7542,
      "驱逐": 7543,
      "委员会和": 7544,
      "权利的": 7545,
      "使用的": 7546,
      "严重的": 7547,
      "公共部门": 7548,
      "劳动力": 7549,
      "国务院": 7550,
      "图书馆": 7551,
      "东道国": 7552,
      "大不列颠及北爱尔兰": 7553,
      "外层空间": 7554,
      "1号决议": 7555,
      "um": 7556,
      "七届会议": 7557,
      "主办": 7558,
      "二届会议": 7559,
      "加沙": 7560,
      "取代": 7561,
      "名称": 7562,
      "后来": 7563,
      "囚犯": 7564,
      "女童": 7565,
      "小型": 7566,
      "就在": 7567,
      "尼加拉": 7568,
      "当选": 7569,
      "所谓": 7570,
      "掌握": 7571,
      "撒哈拉": 7572,
      "是一": 7573,
      "是的": 7574,
      "智利": 7575,
      "渔业": 7576,
      "现行": 7577,
      "的区域": 7578,
      "的同时": 7579,
      "种植": 7580,
      "职等": 7581,
      "让我": 7582,
      "社会和": 7583,
      "中心的": 7584,
      "受害人": 7585,
      "财务报表": 7586,
      "备忘录": 7587,
      "尼加拉瓜": 7588,
      "ri": 7589,
      "一道": 7590,
      "主张": 7591,
      "也会": 7592,
      "人人": 7593,
      "伦敦": 7594,
      "体育": 7595,
      "充满": 7596,
      "加工": 7597,
      "周围": 7598,
      "周年": 7599,
      "国防": 7600,
      "多尔": 7601,
      "大韩": 7602,
      "好处": 7603,
      "定罪": 7604,
      "成年": 7605,
      "核定": 7606,
      "毫无": 7607,
      "测量": 7608,
      "生存": 7609,
      "的理由": 7610,
      "相反": 7611,
      "秘鲁": 7612,
      "秩序": 7613,
      "经社会": 7614,
      "自决": 7615,
      "违法": 7616,
      "附近": 7617,
      "隔离": 7618,
      "飞行": 7619,
      "首次": 7620,
      "问题世界": 7621,
      "巴勒斯坦人民": 7622,
      "审计委员会": 7623,
      "外国人": 7624,
      "管辖权": 7625,
      "候选人": 7626,
      "毒品和犯罪问题办公室": 7627,
      "大韩民国": 7628,
      "74": 7629,
      "也可以": 7630,
      "你可以": 7631,
      "关心": 7632,
      "出于": 7633,
      "加上": 7634,
      "加速": 7635,
      "升级": 7636,
      "卖淫": 7637,
      "南亚": 7638,
      "发射": 7639,
      "在所有": 7640,
      "基准": 7641,
      "声称": 7642,
      "多个": 7643,
      "对待": 7644,
      "开幕": 7645,
      "怎样": 7646,
      "恶化": 7647,
      "据称": 7648,
      "改为": 7649,
      "放弃": 7650,
      "欧元": 7651,
      "比利": 7652,
      "游戏": 7653,
      "物的": 7654,
      "的技术": 7655,
      "的生活": 7656,
      "的东西": 7657,
      "结盟": 7658,
      "职务": 7659,
      "观念": 7660,
      "越南": 7661,
      "遗产": 7662,
      "除其他": 7663,
      "：\"": 7664,
      "重要的是": 7665,
      "基金的": 7666,
      "政策的": 7667,
      "作出了": 7668,
      "它们的": 7669,
      "金融机构": 7670,
      "阿拉伯叙利亚": 7671,
      "裁军谈判": 7672,
      "程度上": 7673,
      "经常预算": 7674,
      "收到的": 7675,
      "最高法院": 7676,
      "的事情": 7677,
      "修正案": 7678,
      "意识到": 7679,
      "上午10": 7680,
      "大不列颠及北爱尔兰联合王国": 7681,
      "EP": 7682,
      "ht": 7683,
      "了关于": 7684,
      "体的": 7685,
      "分摊": 7686,
      "加大": 7687,
      "听取": 7688,
      "哈萨": 7689,
      "大大": 7690,
      "已在": 7691,
      "性能": 7692,
      "是对": 7693,
      "是我": 7694,
      "条和": 7695,
      "条第2款": 7696,
      "概述": 7697,
      "每月": 7698,
      "比如": 7699,
      "波兰": 7700,
      "灾难": 7701,
      "玻利": 7702,
      "突然": 7703,
      "等待": 7704,
      "约旦": 7705,
      "而在": 7706,
      "获悉": 7707,
      "询问": 7708,
      "运行": 7709,
      "管理的": 7710,
      "秘书长的报告": 7711,
      "审议大会": 7712,
      "特派团的": 7713,
      "专家小组": 7714,
      "设立一个": 7715,
      "预防犯罪和": 7716,
      "监督厅": 7717,
      "生物多样性": 7718,
      "采取的行动": 7719,
      "和保护人权": 7720,
      "百分比": 7721,
      "与此同时": 7722,
      "仇外心理": 7723,
      "孟加拉国": 7724,
      "88": 7725,
      "89": 7726,
      "Rev": 7727,
      "ro": 7728,
      "下去": 7729,
      "下面": 7730,
      "为其": 7731,
      "会的": 7732,
      "住区": 7733,
      "体现": 7734,
      "关闭": 7735,
      "出售": 7736,
      "分布": 7737,
      "前景": 7738,
      "副秘书长": 7739,
      "和加强": 7740,
      "和协调": 7741,
      "哥维": 7742,
      "四个": 7743,
      "塞哥维": 7744,
      "士兵": 7745,
      "失败": 7746,
      "安置": 7747,
      "对这些": 7748,
      "应急": 7749,
      "很难": 7750,
      "德里": 7751,
      "推迟": 7752,
      "支援": 7753,
      "文章": 7754,
      "更好的": 7755,
      "格的": 7756,
      "民事": 7757,
      "氧化": 7758,
      "的价格": 7759,
      "第八": 7760,
      "签订": 7761,
      "芬兰": 7762,
      "设置": 7763,
      "这份": 7764,
      "黑塞哥维": 7765,
      "194": 7766,
      "中国的": 7767,
      "开展的": 7768,
      "基本自由": 7769,
      "第十四": 7770,
      "打击恐怖主义": 7771,
      "死亡率": 7772,
      "伊斯兰共和国": 7773,
      "塞尔维亚": 7774,
      "和政治权利": 7775,
      "的可能性": 7776,
      "重返社会": 7777,
      "除其他外": 7778,
      "阿拉伯叙利亚共和国": 7779,
      "黑塞哥维那": 7780,
      "av": 7781,
      "sp": 7782,
      "不管": 7783,
      "亚美": 7784,
      "交付": 7785,
      "以为": 7786,
      "加坡": 7787,
      "吉尔": 7788,
      "员和": 7789,
      "坦桑": 7790,
      "很少": 7791,
      "战斗": 7792,
      "文本": 7793,
      "新加坡": 7794,
      "最新": 7795,
      "毁灭": 7796,
      "毕业": 7797,
      "消耗": 7798,
      "潜力": 7799,
      "独特": 7800,
      "的服务": 7801,
      "真的": 7802,
      "粮农": 7803,
      "组合": 7804,
      "罪犯": 7805,
      "补助": 7806,
      "补贴": 7807,
      "被视为": 7808,
      "见A": 7809,
      "迫切": 7810,
      "委员会成员": 7811,
      "问题和": 7812,
      "1997": 7813,
      "规定了": 7814,
      "月24日": 7815,
      "非洲国家": 7816,
      "市场的": 7817,
      "定期报告": 7818,
      "发了言": 7819,
      "》、《": 7820,
      "葡萄牙": 7821,
      "哈萨克斯坦": 7822,
      "亚美尼亚": 7823,
      "坦桑尼亚": 7824,
      "71": 7825,
      "95": 7826,
      "中非": 7827,
      "会在": 7828,
      "几年": 7829,
      "前往": 7830,
      "加尔": 7831,
      "动力": 7832,
      "变成": 7833,
      "和华": 7834,
      "在不": 7835,
      "在世界": 7836,
      "在过去": 7837,
      "在本报告": 7838,
      "处置": 7839,
      "完善": 7840,
      "巨大的": 7841,
      "并不是": 7842,
      "度的": 7843,
      "怀疑": 7844,
      "房间": 7845,
      "拨款": 7846,
      "斯里": 7847,
      "明白": 7848,
      "有着": 7849,
      "格鲁": 7850,
      "案例": 7851,
      "正义": 7852,
      "男性": 7853,
      "的实施": 7854,
      "的个人": 7855,
      "的目的": 7856,
      "的那样": 7857,
      "网上": 7858,
      "罗毕": 7859,
      "被拘留": 7860,
      "覆盖": 7861,
      "见的": 7862,
      "边缘": 7863,
      "逐渐": 7864,
      "配置": 7865,
      "委员会认为": 7866,
      "社会发展": 7867,
      "他们在": 7868,
      "大会第六十": 7869,
      "信息技术": 7870,
      "强调了": 7871,
      "附件二": 7872,
      "专门机构": 7873,
      "现有的": 7874,
      "会计准则": 7875,
      "比利时": 7876,
      "XX": 7877,
      "ter": 7878,
      "ub": 7879,
      "不起": 7880,
      "主动": 7881,
      "事故": 7882,
      "从未": 7883,
      "他还": 7884,
      "件事": 7885,
      "余额": 7886,
      "依靠": 7887,
      "促使": 7888,
      "储备": 7889,
      "兰卡": 7890,
      "农民": 7891,
      "厄瓜": 7892,
      "发基金": 7893,
      "向委员会": 7894,
      "在纽约": 7895,
      "基因": 7896,
      "婴儿": 7897,
      "并确保": 7898,
      "广告": 7899,
      "惯例": 7900,
      "我就": 7901,
      "批评": 7902,
      "持有": 7903,
      "接近": 7904,
      "时的": 7905,
      "是有": 7906,
      "显著": 7907,
      "某种": 7908,
      "每一个": 7909,
      "法语": 7910,
      "犹太": 7911,
      "的组织": 7912,
      "的办法": 7913,
      "的承诺": 7914,
      "的定义": 7915,
      "立特": 7916,
      "简要": 7917,
      "算法": 7918,
      "规约": 7919,
      "边境": 7920,
      "连接": 7921,
      "雇佣": 7922,
      "问题特别报告员": 7923,
      "1996": 7924,
      "合作伙伴": 7925,
      "大会第6": 7926,
      "计划的": 7927,
      "主要是": 7928,
      "表示关切": 7929,
      "目前的": 7930,
      "目前正在": 7931,
      "预防和": 7932,
      "积极参与": 7933,
      "所需资源": 7934,
      "申诉人": 7935,
      "公民权利和政治权利": 7936,
      "工发组织": 7937,
      "DA": 7938,
      "HRC": 7939,
      "èè": 7940,
      "临床": 7941,
      "为期": 7942,
      "五年": 7943,
      "优惠": 7944,
      "低于": 7945,
      "克服": 7946,
      "共计": 7947,
      "内瑞": 7948,
      "军备": 7949,
      "列的": 7950,
      "制作": 7951,
      "发放": 7952,
      "受伤": 7953,
      "召集": 7954,
      "听到": 7955,
      "和相关": 7956,
      "地的": 7957,
      "天然": 7958,
      "如今": 7959,
      "始终": 7960,
      "委内瑞": 7961,
      "安装": 7962,
      "定于": 7963,
      "家人": 7964,
      "尼泊": 7965,
      "工艺": 7966,
      "并未": 7967,
      "建造": 7968,
      "情形": 7969,
      "我是": 7970,
      "排雷": 7971,
      "是一项": 7972,
      "更有": 7973,
      "本人": 7974,
      "极为": 7975,
      "检测": 7976,
      "法委员会": 7977,
      "海关": 7978,
      "海外": 7979,
      "澄清": 7980,
      "照顾": 7981,
      "的调查": 7982,
      "的条件": 7983,
      "的决议草案": 7984,
      "的需求": 7985,
      "等等": 7986,
      "经理": 7987,
      "缓解": 7988,
      "被占": 7989,
      "讲话": 7990,
      "负面": 7991,
      "违背": 7992,
      "退休": 7993,
      "领空": 7994,
      "国际人道主义法": 7995,
      "提供援助": 7996,
      "活动和": 7997,
      "法律和": 7998,
      "世界人权": 7999,
      "提交了": 8000,
      "号决议所": 8001,
      "预算外": 8002,
      "预算问题": 8003,
      "投资者": 8004,
      "卫生组织": 8005,
      "人道主义援助": 8006,
      "知识产权": 8007,
      "新闻部": 8008,
      "采取的措施": 8009,
      "外交部长": 8010,
      "海洋法": 8011,
      "最佳做法": 8012,
      "捷克共和国": 8013,
      "粮农组织": 8014,
      "斯里兰卡": 8015,
      "厄瓜多尔": 8016,
      "委内瑞拉": 8017,
      "尼泊尔": 8018,
      "85": 8019,
      "94": 8020,
      "一届会议": 8021,
      "之日": 8022,
      "九届会议": 8023,
      "也在": 8024,
      "产业": 8025,
      "以加强": 8026,
      "何种": 8027,
      "分散": 8028,
      "创建": 8029,
      "协同": 8030,
      "危地": 8031,
      "厄立特": 8032,
      "受教育": 8033,
      "可是": 8034,
      "吉亚": 8035,
      "和支持": 8036,
      "固定": 8037,
      "处决": 8038,
      "形势": 8039,
      "性剥削": 8040,
      "房子": 8041,
      "承包": 8042,
      "故事": 8043,
      "斯特": 8044,
      "旅费": 8045,
      "明的": 8046,
      "有责任": 8047,
      "有义务": 8048,
      "极其": 8049,
      "植物": 8050,
      "沙特": 8051,
      "沟通": 8052,
      "由此": 8053,
      "的联合国": 8054,
      "的需要": 8055,
      "第20": 8056,
      "繁荣": 8057,
      "绝对": 8058,
      "继承": 8059,
      "能否": 8060,
      "被占领": 8061,
      "让人": 8062,
      "该报告": 8063,
      "这就是": 8064,
      "限于": 8065,
      "首长": 8066,
      "麻醉": 8067,
      "我们必须": 8068,
      "人权利": 8069,
      "合作的": 8070,
      "和平进程": 8071,
      "的人口": 8072,
      "制定的": 8073,
      "000名": 8074,
      "人类住区": 8075,
      "组成的": 8076,
      "自然灾害": 8077,
      "下午1": 8078,
      "格鲁吉亚": 8079,
      "危地马拉": 8080,
      "厄立特里亚": 8081,
      "86": 8082,
      "SR": 8083,
      "ec": 8084,
      "st": 8085,
      "中间": 8086,
      "了一项": 8087,
      "人身": 8088,
      "他对": 8089,
      "匈牙": 8090,
      "参照": 8091,
      "发动": 8092,
      "告知": 8093,
      "和法律": 8094,
      "和实施": 8095,
      "哈马": 8096,
      "团队": 8097,
      "备选": 8098,
      "大幅": 8099,
      "她说": 8100,
      "守则": 8101,
      "小岛屿": 8102,
      "帐户": 8103,
      "幸福": 8104,
      "总值": 8105,
      "总理": 8106,
      "想法": 8107,
      "感兴趣": 8108,
      "我认为": 8109,
      "早期": 8110,
      "最初": 8111,
      "来看": 8112,
      "标志": 8113,
      "沿海": 8114,
      "电力": 8115,
      "的有": 8116,
      "的关系": 8117,
      "的案件": 8118,
      "真实": 8119,
      "秘密": 8120,
      "空中": 8121,
      "缺少": 8122,
      "耶和华": 8123,
      "节目": 8124,
      "证券": 8125,
      "诊断": 8126,
      "该项": 8127,
      "负债": 8128,
      "距离": 8129,
      "路线": 8130,
      "信息系统": 8131,
      "加强了": 8132,
      "实现千年发展目标": 8133,
      "期间的": 8134,
      "基础上": 8135,
      "歧视公约": 8136,
      "存在的": 8137,
      "发生了": 8138,
      "独立的": 8139,
      "非正式协商": 8140,
      "伊朗伊斯兰共和国": 8141,
      "常驻联合国代表": 8142,
      "无核武器区": 8143,
      "预防犯罪和刑事司法": 8144,
      "匈牙利": 8145,
      ");": 8146,
      "3个": 8147,
      "4个": 8148,
      "上去": 8149,
      "不够": 8150,
      "不平等": 8151,
      "不结盟": 8152,
      "两次": 8153,
      "产妇": 8154,
      "他是": 8155,
      "作业": 8156,
      "依法": 8157,
      "保安": 8158,
      "六届会议": 8159,
      "前提": 8160,
      "北部": 8161,
      "博士": 8162,
      "和促进": 8163,
      "国和": 8164,
      "坚定": 8165,
      "境内的": 8166,
      "导弹": 8167,
      "小学": 8168,
      "并使": 8169,
      "强奸": 8170,
      "很大的": 8171,
      "总结": 8172,
      "斗争": 8173,
      "日常": 8174,
      "暂停": 8175,
      "更大": 8176,
      "正是": 8177,
      "求斯": 8178,
      "男人": 8179,
      "的风险": 8180,
      "移交": 8181,
      "移动": 8182,
      "空气": 8183,
      "结婚": 8184,
      "自从": 8185,
      "被迫": 8186,
      "被认为": 8187,
      "警告": 8188,
      "资讯": 8189,
      "转型": 8190,
      "转递": 8191,
      "近年来": 8192,
      "选民": 8193,
      "重复": 8194,
      "金属": 8195,
      "陈述": 8196,
      "首要": 8197,
      "联合会": 8198,
      "我们认为": 8199,
      "方面所": 8200,
      "这些问题": 8201,
      "代表的": 8202,
      "需要的": 8203,
      "提出建议": 8204,
      "权利和": 8205,
      "作为一个": 8206,
      "人民的": 8207,
      "文件的": 8208,
      "美国的": 8209,
      "培训和": 8210,
      "条约机构": 8211,
      "强调指出": 8212,
      "设立的": 8213,
      "尤其是在": 8214,
      "协商一致": 8215,
      "统计数据": 8216,
      "一直在": 8217,
      "内部监督": 8218,
      "自然资源": 8219,
      "另一方面": 8220,
      "中华人民共和国": 8221,
      "毛里求斯": 8222,
      "裁军谈判会议": 8223,
      "沙特阿拉伯": 8224,
      "76": 8225,
      "83": 8226,
      "Mar": 8227,
      "三分": 8228,
      "书记": 8229,
      "事先": 8230,
      "五个": 8231,
      "保存": 8232,
      "倡导": 8233,
      "先前": 8234,
      "医学": 8235,
      "变动": 8236,
      "变革": 8237,
      "名额": 8238,
      "和工作": 8239,
      "喀麦": 8240,
      "国外": 8241,
      "在一": 8242,
      "在这个": 8243,
      "基督": 8244,
      "太阳": 8245,
      "左右": 8246,
      "已有": 8247,
      "干旱": 8248,
      "康复": 8249,
      "弱势": 8250,
      "忽视": 8251,
      "性武器": 8252,
      "摊款": 8253,
      "文职": 8254,
      "是指": 8255,
      "是什么": 8256,
      "有能力": 8257,
      "有机会": 8258,
      "权和": 8259,
      "条文": 8260,
      "格式": 8261,
      "物品": 8262,
      "现状": 8263,
      "生的": 8264,
      "的威胁": 8265,
      "纲要": 8266,
      "经合": 8267,
      "西藏": 8268,
      "认定": 8269,
      "该项目": 8270,
      "跟踪": 8271,
      "还应": 8272,
      "社会经济": 8273,
      "没有任何": 8274,
      "世界上": 8275,
      "一些国家": 8276,
      "先生阁下": 8277,
      "工作人员的": 8278,
      "7月1日至": 8279,
      "捐助者": 8280,
      "生殖健康": 8281,
      "养恤金": 8282,
      "志愿人员": 8283,
      "人居署": 8284,
      "喀麦隆": 8285,
      "84": 8286,
      "ap": 8287,
      "ot": 8288,
      "”，": 8289,
      "仍在": 8290,
      "传染": 8291,
      "共享": 8292,
      "关税": 8293,
      "内加尔": 8294,
      "制约": 8295,
      "加剧": 8296,
      "区别": 8297,
      "各代表团": 8298,
      "吉斯": 8299,
      "名的": 8300,
      "塞内加尔": 8301,
      "库存": 8302,
      "应付": 8303,
      "强化": 8304,
      "很快": 8305,
      "患者": 8306,
      "您的": 8307,
      "扩展": 8308,
      "推行": 8309,
      "方便": 8310,
      "最好": 8311,
      "有了": 8312,
      "机器": 8313,
      "来了": 8314,
      "核裁军": 8315,
      "永久": 8316,
      "特性": 8317,
      "男孩": 8318,
      "的讨论": 8319,
      "目录": 8320,
      "策略": 8321,
      "终了": 8322,
      "经社": 8323,
      "绩效": 8324,
      "维修": 8325,
      "维尔": 8326,
      "罗姆": 8327,
      "自行": 8328,
      "蛋白": 8329,
      "行事": 8330,
      "订立": 8331,
      "那种": 8332,
      "量的": 8333,
      "销毁": 8334,
      "长的": 8335,
      "随时": 8336,
      "马尔": 8337,
      "％。": 8338,
      "联合国的": 8339,
      "我们希望": 8340,
      "关于在": 8341,
      "10个": 8342,
      "可能的": 8343,
      "决定草案": 8344,
      "基金组织": 8345,
      "缔约国应": 8346,
      "提交人的": 8347,
      "援助团": 8348,
      "的人数": 8349,
      "暴力和": 8350,
      "存在着": 8351,
      "科学家": 8352,
      "面临的": 8353,
      "星期一": 8354,
      "所需的": 8355,
      "联合国系统各": 8356,
      "行政和预算问题": 8357,
      "81": 8358,
      "Cor": 8359,
      "ac": 8360,
      "丈夫": 8361,
      "上海": 8362,
      "不久": 8363,
      "与国际": 8364,
      "两种": 8365,
      "中部": 8366,
      "乌兹": 8367,
      "也将": 8368,
      "于是": 8369,
      "京都": 8370,
      "伐克": 8371,
      "你知道": 8372,
      "侵略": 8373,
      "信贷": 8374,
      "偿还": 8375,
      "全民": 8376,
      "制品": 8377,
      "参数": 8378,
      "各类": 8379,
      "和可": 8380,
      "商定的": 8381,
      "女儿": 8382,
      "子的": 8383,
      "导言": 8384,
      "开会": 8385,
      "彼此": 8386,
      "快乐": 8387,
      "思考": 8388,
      "我会": 8389,
      "我说": 8390,
      "我知道": 8391,
      "施加": 8392,
      "是最": 8393,
      "有机": 8394,
      "未来的": 8395,
      "条的": 8396,
      "林业": 8397,
      "检验": 8398,
      "法定": 8399,
      "流程": 8400,
      "渠道": 8401,
      "的核心": 8402,
      "看来": 8403,
      "眼睛": 8404,
      "给你": 8405,
      "编辑": 8406,
      "缺陷": 8407,
      "良好的": 8408,
      "节省": 8409,
      "记者": 8410,
      "辩护": 8411,
      "追求": 8412,
      "阅读": 8413,
      "雇用": 8414,
      "领袖": 8415,
      "人权的": 8416,
      "教育的": 8417,
      "程序的": 8418,
      "企业的": 8419,
      "业务活动": 8420,
      "在这里": 8421,
      "科学和技术": 8422,
      "了一次": 8423,
      "履行其": 8424,
      "发挥了": 8425,
      "密切合作": 8426,
      "不扩散条约": 8427,
      "在国家一级": 8428,
      "斯洛伐克": 8429,
      "消除对妇女一切形式": 8430,
      "乌兹别": 8431,
      "'>": 8432,
      "120": 8433,
      "2条": 8434,
      "='": 8435,
      "em": 8436,
      "个别": 8437,
      "主教": 8438,
      "保加": 8439,
      "动态": 8440,
      "南方": 8441,
      "同等": 8442,
      "后者": 8443,
      "和多": 8444,
      "在家": 8445,
      "在全球": 8446,
      "处境": 8447,
      "多次": 8448,
      "天的": 8449,
      "好像": 8450,
      "它还": 8451,
      "尊严": 8452,
      "岁的": 8453,
      "差别": 8454,
      "已成为": 8455,
      "并鼓励": 8456,
      "必然": 8457,
      "愿望": 8458,
      "我还": 8459,
      "披露": 8460,
      "拉斯": 8461,
      "提升": 8462,
      "提醒": 8463,
      "收到了": 8464,
      "是根据": 8465,
      "普及": 8466,
      "暂时": 8467,
      "段时间": 8468,
      "汇编": 8469,
      "照料": 8470,
      "的全球": 8471,
      "纪律": 8472,
      "萨尔": 8473,
      "西方": 8474,
      "让我们": 8475,
      "轻武器": 8476,
      "近东": 8477,
      "都不": 8478,
      "间的": 8479,
      "附加": 8480,
      "国际法院": 8481,
      "以及对": 8482,
      "109": 8483,
      "项目厅": 8484,
      "可能是": 8485,
      "大会主席": 8486,
      "计划生育": 8487,
      "世界各地": 8488,
      "建立信任": 8489,
      "这种情况": 8490,
      "作出决定": 8491,
      "确定了": 8492,
      "民主主义": 8493,
      "产生了": 8494,
      "刑事法院": 8495,
      "第五委员会": 8496,
      "出现的": 8497,
      "第四次": 8498,
      "的最佳": 8499,
      "多样化": 8500,
      "儿童权利公约": 8501,
      "一般事务人员": 8502,
      "97": 8503,
      "DP": 8504,
      "ES": 8505,
      "WG": 8506,
      "a先生": 8507,
      "od": 8508,
      "上空": 8509,
      "上面": 8510,
      "不论": 8511,
      "两名": 8512,
      "以此": 8513,
      "住宅": 8514,
      "做了": 8515,
      "关押": 8516,
      "内陆": 8517,
      "内罗毕": 8518,
      "利润": 8519,
      "削减": 8520,
      "力和": 8521,
      "包装": 8522,
      "十字": 8523,
      "反恐怖主义": 8524,
      "发行": 8525,
      "发起": 8526,
      "和教育": 8527,
      "哥斯": 8528,
      "哪里": 8529,
      "在日内瓦": 8530,
      "地下": 8531,
      "妈妈": 8532,
      "客观": 8533,
      "尝试": 8534,
      "就可以": 8535,
      "巴尼亚": 8536,
      "总务": 8537,
      "我很": 8538,
      "我觉得": 8539,
      "或有": 8540,
      "报纸": 8541,
      "有什么": 8542,
      "条草案": 8543,
      "条第3款": 8544,
      "核可": 8545,
      "比率": 8546,
      "洗钱": 8547,
      "物资": 8548,
      "的审议": 8549,
      "至今": 8550,
      "航天": 8551,
      "蒙古": 8552,
      "视察": 8553,
      "角色": 8554,
      "警方": 8555,
      "贝尔": 8556,
      "转变": 8557,
      "这场": 8558,
      "道主义": 8559,
      "首席": 8560,
      "马上": 8561,
      "驻地": 8562,
      "联合国人权事务高级专员": 8563,
      "报告和": 8564,
      "以及为": 8565,
      "其他国家": 8566,
      "人权问题": 8567,
      "提出报告": 8568,
      "中国政府": 8569,
      "非洲发展": 8570,
      "开展工作": 8571,
      "获得了": 8572,
      "许多人": 8573,
      "许多国家": 8574,
      "制度的": 8575,
      "生产总值": 8576,
      "缔约方大会": 8577,
      "设立了": 8578,
      "刑事诉讼": 8579,
      "关切的是": 8580,
      "禁止酷刑": 8581,
      "保健服务": 8582,
      "主管部门": 8583,
      "电子邮件": 8584,
      "为此目的": 8585,
      "下午3": 8586,
      "妇女和儿童": 8587,
      "相当于": 8588,
      "当事人": 8589,
      "77国集团": 8590,
      "殖民化": 8591,
      "吉尔吉斯": 8592,
      "被占领土": 8593,
      "世界人权宣言": 8594,
      "保加利亚": 8595,
      "1名": 8596,
      "400": 8597,
      "5个": 8598,
      "82": 8599,
      "92": 8600,
      "An": 8601,
      "IS": 8602,
      "一套": 8603,
      "任职": 8604,
      "你会": 8605,
      "充足": 8606,
      "克斯": 8607,
      "全权": 8608,
      "共体": 8609,
      "其在": 8610,
      "出去": 8611,
      "分为": 8612,
      "名字": 8613,
      "咖啡": 8614,
      "商务": 8615,
      "四届会议": 8616,
      "回到": 8617,
      "在同": 8618,
      "地址": 8619,
      "坐在": 8620,
      "季度": 8621,
      "审评": 8622,
      "小武器和": 8623,
      "展示": 8624,
      "文尼亚": 8625,
      "更换": 8626,
      "最好的": 8627,
      "有罪": 8628,
      "查询": 8629,
      "桑比": 8630,
      "模拟": 8631,
      "汇报": 8632,
      "添加": 8633,
      "温室": 8634,
      "现场": 8635,
      "用水": 8636,
      "界定": 8637,
      "病毒": 8638,
      "的请求": 8639,
      "突出": 8640,
      "紧迫": 8641,
      "联利": 8642,
      "莫桑比": 8643,
      "行星": 8644,
      "表面": 8645,
      "西部": 8646,
      "观测": 8647,
      "记得": 8648,
      "说法": 8649,
      "轨道": 8650,
      "达黎": 8651,
      "还没有": 8652,
      "还需要": 8653,
      "间接": 8654,
      "防范": 8655,
      "项下": 8656,
      "高于": 8657,
      "国家一级": 8658,
      "工作中": 8659,
      "工作地点": 8660,
      "报告说": 8661,
      "提供关于": 8662,
      "提供支助": 8663,
      "包括通过": 8664,
      "安全部队": 8665,
      "所有这些": 8666,
      "区域和国际": 8667,
      "决定将": 8668,
      "作出贡献": 8669,
      "贸易和发展": 8670,
      "行政当局": 8671,
      "发言者": 8672,
      "提高妇女地位": 8673,
      "第三次": 8674,
      "金融危机": 8675,
      "了一份": 8676,
      "之间的关系": 8677,
      "更多地": 8678,
      "仍然是": 8679,
      "观察团": 8680,
      "提出的建议": 8681,
      "原因是": 8682,
      "星期五": 8683,
      "我国代表团": 8684,
      "农村地区": 8685,
      "专业人员": 8686,
      "召开的": 8687,
      "阿尔巴尼亚": 8688,
      "许可证": 8689,
      "派遣国": 8690,
      "斯洛文尼亚": 8691,
      "董事会": 8692,
      "span": 8693,
      "京都议定书": 8694,
      "消除对妇女一切形式歧视公约": 8695,
      "哥斯达黎": 8696,
      "小武器和轻武器": 8697,
      "莫桑比克": 8698,
      "哥斯达黎加": 8699,
      "212": 8700,
      "300": 8701,
      "93": 8702,
      "AP": 8703,
      "Sh": 8704,
      "Th": 8705,
      "eb": 8706,
      "i先生": 8707,
      "ob": 8708,
      "oh": 8709,
      "一家": 8710,
      "万人": 8711,
      "不良": 8712,
      "不容忍": 8713,
      "优化": 8714,
      "但我": 8715,
      "作物": 8716,
      "作者": 8717,
      "你不": 8718,
      "你要": 8719,
      "保密": 8720,
      "信心": 8721,
      "信通": 8722,
      "倾向": 8723,
      "兄弟": 8724,
      "十二": 8725,
      "单一": 8726,
      "卡塔尔": 8727,
      "反腐败": 8728,
      "发电": 8729,
      "含有": 8730,
      "和儿童": 8731,
      "和分析": 8732,
      "在我们": 8733,
      "在这种": 8734,
      "在美国": 8735,
      "均衡": 8736,
      "学会": 8737,
      "宏观": 8738,
      "对付": 8739,
      "对外": 8740,
      "寿命": 8741,
      "并就": 8742,
      "循环": 8743,
      "怀孕": 8744,
      "性意见": 8745,
      "意外": 8746,
      "成了": 8747,
      "成分": 8748,
      "拖延": 8749,
      "招募": 8750,
      "指称": 8751,
      "授予": 8752,
      "接收": 8753,
      "文明": 8754,
      "普查": 8755,
      "权益": 8756,
      "来到": 8757,
      "根源": 8758,
      "格兰": 8759,
      "民兵": 8760,
      "理想": 8761,
      "的高": 8762,
      "的人员": 8763,
      "的程序": 8764,
      "的培训": 8765,
      "纳米": 8766,
      "给他": 8767,
      "股票": 8768,
      "衣服": 8769,
      "视频": 8770,
      "识别": 8771,
      "说的": 8772,
      "辱人": 8773,
      "遣队": 8774,
      "都能": 8775,
      "里斯": 8776,
      "限成员": 8777,
      "韩国": 8778,
      "高效": 8779,
      "国家联盟": 8780,
      "问题是": 8781,
      "工作者": 8782,
      "我们要": 8783,
      "区域合作": 8784,
      "必须在": 8785,
      "行为者": 8786,
      "目标是": 8787,
      "审查了": 8788,
      "的人道主义": 8789,
      "实施的": 8790,
      "行政首长": 8791,
      "提高认识": 8792,
      "消除贫穷": 8793,
      "国内法": 8794,
      "案件的": 8795,
      "就业机会": 8796,
      "普遍定期": 8797,
      "1月1日": 8798,
      "常驻代表": 8799,
      "合理的": 8800,
      "真正的": 8801,
      "1个P": 8802,
      "监察员": 8803,
      "人权和基本自由": 8804,
      "谅解备忘录": 8805,
      "玻利维亚": 8806,
      "公民权利和政治权利国际公约": 8807,
      "经合组织": 8808,
      "110": 8809,
      "ra": 8810,
      "一天": 8811,
      "不妨": 8812,
      "不包括": 8813,
      "两项": 8814,
      "主导": 8815,
      "九条": 8816,
      "也就是": 8817,
      "了一些": 8818,
      "从来": 8819,
      "例外": 8820,
      "信用": 8821,
      "先进": 8822,
      "公里": 8823,
      "准入": 8824,
      "到达": 8825,
      "前南斯拉夫": 8826,
      "单元": 8827,
      "友好": 8828,
      "口译": 8829,
      "可用": 8830,
      "台湾": 8831,
      "吉克斯坦": 8832,
      "含量": 8833,
      "和在": 8834,
      "和有关": 8835,
      "和使用": 8836,
      "和中国": 8837,
      "和黑塞哥维那": 8838,
      "地震": 8839,
      "坚决": 8840,
      "塔吉克斯坦": 8841,
      "填补": 8842,
      "学科": 8843,
      "将为": 8844,
      "将对": 8845,
      "将来": 8846,
      "局面": 8847,
      "巴马": 8848,
      "开办": 8849,
      "成效": 8850,
      "我对": 8851,
      "或是": 8852,
      "房屋": 8853,
      "提起": 8854,
      "有害": 8855,
      "气象": 8856,
      "汇率": 8857,
      "港口": 8858,
      "版本": 8859,
      "物理": 8860,
      "现已": 8861,
      "的和": 8862,
      "的机构": 8863,
      "的保护": 8864,
      "的特殊": 8865,
      "的受害者": 8866,
      "的看法": 8867,
      "看看": 8868,
      "看起来": 8869,
      "穷人": 8870,
      "米尼": 8871,
      "终于": 8872,
      "给安全理事会主席": 8873,
      "裁定": 8874,
      "谢谢": 8875,
      "负责任": 8876,
      "足球": 8877,
      "配合": 8878,
      "金额": 8879,
      "铁路": 8880,
      "铭记": 8881,
      "长时间": 8882,
      "阐明": 8883,
      "革命": 8884,
      "顺利": 8885,
      "饥饿": 8886,
      "委员会对": 8887,
      "问题工作组": 8888,
      "一个人": 8889,
      "没有人": 8890,
      "重要性": 8891,
      "影响到": 8892,
      "环境规划署": 8893,
      "协调一致": 8894,
      "的报告中": 8895,
      "强调必须": 8896,
      "批准了": 8897,
      "这是一个": 8898,
      "直接投资": 8899,
      "专门知识": 8900,
      "违反了": 8901,
      "指导原则": 8902,
      "发达国家的": 8903,
      "年度报告": 8904,
      "登记册": 8905,
      "构成部分": 8906,
      "传统的": 8907,
      "维持和平行动部": 8908,
      "官方发展援助": 8909,
      "朝鲜民主主义": 8910,
      "奥运会": 8911,
      "波斯尼亚和黑塞哥维那": 8912,
      "公共部门会计准则": 8913,
      "书记官": 8914,
      "乌兹别克斯坦": 8915,
      "限成员名额": 8916,
      "朝鲜民主主义人民共和国": 8917,
      "6号决议": 8918,
      "91": 8919,
      "oc": 8920,
      "一部分": 8921,
      "不符合": 8922,
      "之内": 8923,
      "之处": 8924,
      "习俗": 8925,
      "份额": 8926,
      "企图": 8927,
      "六条": 8928,
      "其余": 8929,
      "分歧": 8930,
      "单方面": 8931,
      "印发": 8932,
      "各缔约国": 8933,
      "否则": 8934,
      "吸收": 8935,
      "和程序": 8936,
      "和司法": 8937,
      "和Add": 8938,
      "在这些": 8939,
      "外汇": 8940,
      "大众": 8941,
      "尔多": 8942,
      "就能": 8943,
      "工商": 8944,
      "应收": 8945,
      "打开": 8946,
      "收购": 8947,
      "新生": 8948,
      "无条件": 8949,
      "有力的": 8950,
      "档案": 8951,
      "正当": 8952,
      "每次": 8953,
      "比绍": 8954,
      "海事": 8955,
      "瓦多": 8956,
      "瓦尔": 8957,
      "生计": 8958,
      "的水": 8959,
      "的成员": 8960,
      "盛顿": 8961,
      "示威": 8962,
      "神经": 8963,
      "级别": 8964,
      "考察": 8965,
      "表格": 8966,
      "过的": 8967,
      "这位": 8968,
      "都很": 8969,
      "采矿": 8970,
      "钻石": 8971,
      "顾客": 8972,
      "％，": 8973,
      "联合共和国": 8974,
      "政府在": 8975,
      "关于联合国": 8976,
      "机构在": 8977,
      "有关国家": 8978,
      "继续在": 8979,
      "的一份": 8980,
      "审查和": 8981,
      "战略和": 8982,
      "战略的": 8983,
      "开展合作": 8984,
      "贸易和": 8985,
      "人口贩运": 8986,
      "发言人": 8987,
      "提高了": 8988,
      "确定的": 8989,
      "第48": 8990,
      "all": 8991,
      "人们对": 8992,
      "独立专家": 8993,
      "宣言和": 8994,
      "成功的": 8995,
      "所需经费": 8996,
      "反映了": 8997,
      "提案国": 8998,
      "足够的": 8999,
      "主席团成员": 9000,
      "罗马尼亚": 9001,
      "问责制": 9002,
      "暴力侵害妇女": 9003,
      "成年人": 9004,
      "坦桑尼亚联合共和国": 9005,
      "在本报告所述期间": 9006,
      "信通技术": 9007,
      "普遍定期审议": 9008,
      "),": 9009,
      "500美元": 9010,
      "6段": 9011,
      "AR": 9012,
      "CP": 9013,
      "SP": 9014,
      "ez": 9015,
      "三届会议": 9016,
      "不知道": 9017,
      "个人的": 9018,
      "乍得": 9019,
      "也门": 9020,
      "买卖": 9021,
      "五十": 9022,
      "会和": 9023,
      "你能": 9024,
      "使之": 9025,
      "儿基": 9026,
      "党派": 9027,
      "入侵": 9028,
      "公报": 9029,
      "其实": 9030,
      "净额": 9031,
      "分离": 9032,
      "化和": 9033,
      "双重": 9034,
      "各会员国": 9035,
      "同事": 9036,
      "响应": 9037,
      "围绕": 9038,
      "国王": 9039,
      "土壤": 9040,
      "多哈": 9041,
      "好了": 9042,
      "学术": 9043,
      "定为": 9044,
      "宝贵": 9045,
      "将是": 9046,
      "小行星": 9047,
      "层次": 9048,
      "并与": 9049,
      "并通过": 9050,
      "庆祝": 9051,
      "应由": 9052,
      "当中": 9053,
      "得出": 9054,
      "情绪": 9055,
      "想象": 9056,
      "我可以": 9057,
      "所提供的": 9058,
      "提到了": 9059,
      "昨天": 9060,
      "晚上": 9061,
      "机械": 9062,
      "杀害": 9063,
      "条的规定": 9064,
      "某个": 9065,
      "核材料": 9066,
      "没收": 9067,
      "消极": 9068,
      "病人": 9069,
      "的总": 9070,
      "的无": 9071,
      "的使用": 9072,
      "的进程": 9073,
      "的歧视": 9074,
      "的实际": 9075,
      "的贡献": 9076,
      "知情": 9077,
      "穆斯": 9078,
      "简化": 9079,
      "置于": 9080,
      "色情": 9081,
      "规章": 9082,
      "议院": 9083,
      "该方案": 9084,
      "说话": 9085,
      "谈话": 9086,
      "输入": 9087,
      "选出": 9088,
      "预警": 9089,
      "会议大楼": 9090,
      "联合国志愿人员": 9091,
      "我们对": 9092,
      "进行调查": 9093,
      "社会保障": 9094,
      "这些人": 9095,
      "特别程序": 9096,
      "需要在": 9097,
      "提交给": 9098,
      "任何人": 9099,
      "举行会议": 9100,
      "时间表": 9101,
      "机制的": 9102,
      "受到了": 9103,
      "受害者的": 9104,
      "法庭的": 9105,
      "核武器国家": 9106,
      "的最大": 9107,
      "重点是": 9108,
      "同样的": 9109,
      "签署了": 9110,
      "妇女和女孩": 9111,
      "男女平等": 9112,
      "持久性": 9113,
      "CONF": 9114,
      "附属机构": 9115,
      "包容性": 9116,
      "南南合作": 9117,
      "解除武装": 9118,
      "Corr": 9119,
      "温室气体": 9120,
      "6个": 9121,
      "963": 9122,
      "ST": 9123,
      "ich": 9124,
      "tr": 9125,
      "一词": 9126,
      "不在": 9127,
      "不罚": 9128,
      "乌拉圭": 9129,
      "也可": 9130,
      "于2005年": 9131,
      "会有": 9132,
      "伯利": 9133,
      "你在": 9134,
      "元素": 9135,
      "元首": 9136,
      "养护": 9137,
      "再生": 9138,
      "军火": 9139,
      "冲击": 9140,
      "分区域": 9141,
      "判断": 9142,
      "利尔": 9143,
      "利率": 9144,
      "匹克": 9145,
      "华盛顿": 9146,
      "各位": 9147,
      "和政府": 9148,
      "回收": 9149,
      "在他": 9150,
      "地带": 9151,
      "尔德": 9152,
      "并请": 9153,
      "弃权": 9154,
      "很有": 9155,
      "愉快": 9156,
      "房地": 9157,
      "所属": 9158,
      "操守": 9159,
      "本法": 9160,
      "杀伤": 9161,
      "林匹克": 9162,
      "次报告": 9163,
      "残忍": 9164,
      "每个人": 9165,
      "水资源": 9166,
      "活跃": 9167,
      "海盗": 9168,
      "清除": 9169,
      "激励": 9170,
      "物种": 9171,
      "用作": 9172,
      "的缔约国": 9173,
      "的程度": 9174,
      "着手": 9175,
      "破产": 9176,
      "禁运": 9177,
      "童工": 9178,
      "融合": 9179,
      "身上": 9180,
      "转交": 9181,
      "较低": 9182,
      "通用": 9183,
      "遣返": 9184,
      "都必须": 9185,
      "队伍": 9186,
      "阵线": 9187,
      "阿布": 9188,
      "面向": 9189,
      "领取": 9190,
      "驱动": 9191,
      "我们还": 9192,
      "政府对": 9193,
      "提供资金": 9194,
      "包括对": 9195,
      "继续努力": 9196,
      "研究报告": 9197,
      "目标和": 9198,
      "援助的": 9199,
      "协调委员会": 9200,
      "人口的": 9201,
      "必要措施": 9202,
      "第一百": 9203,
      "咨询机构": 9204,
      "咨询服务": 9205,
      "冲突后": 9206,
      "发生在": 9207,
      "可持续性": 9208,
      "种族灭绝": 9209,
      "第十二": 9210,
      "财政资源": 9211,
      "出现了": 9212,
      "最近的": 9213,
      "条款草案": 9214,
      "结论性意见": 9215,
      "100美元": 9216,
      "至关重要的": 9217,
      "背景下": 9218,
      "货币基金组织": 9219,
      "补救办法": 9220,
      "几内亚比绍": 9221,
      "老年人": 9222,
      "CEDA": 9223,
      "遗憾的是": 9224,
      "迄今为止": 9225,
      "内部监督事务厅": 9226,
      "CEDAW": 9227,
      "**": 9228,
      "2号决议": 9229,
      "600美元": 9230,
      "7个": 9231,
      "GC": 9232,
      "Mr": 9233,
      "ig": 9234,
      "ik": 9235,
      "la": 9236,
      "ma": 9237,
      "og": 9238,
      "op": 9239,
      "to": 9240,
      "不错": 9241,
      "不人道": 9242,
      "丧失": 9243,
      "五届会议": 9244,
      "他认为": 9245,
      "会费": 9246,
      "侧重": 9247,
      "免受": 9248,
      "创业": 9249,
      "刺激": 9250,
      "加利": 9251,
      "可怕": 9252,
      "和家庭": 9253,
      "咨商": 9254,
      "四年": 9255,
      "在我": 9256,
      "地域": 9257,
      "复员和": 9258,
      "夫人": 9259,
      "失望": 9260,
      "姓名": 9261,
      "委托": 9262,
      "它在": 9263,
      "它是": 9264,
      "家园": 9265,
      "家长": 9266,
      "尽量": 9267,
      "届特别会议": 9268,
      "岁以下": 9269,
      "工厂": 9270,
      "巴拉圭": 9271,
      "席位": 9272,
      "废除": 9273,
      "必需": 9274,
      "我也": 9275,
      "招聘": 9276,
      "探索": 9277,
      "效应": 9278,
      "数学": 9279,
      "时限": 9280,
      "是通过": 9281,
      "期的": 9282,
      "本地": 9283,
      "本公约": 9284,
      "查阅": 9285,
      "概算": 9286,
      "次数": 9287,
      "武力": 9288,
      "毛额": 9289,
      "治安": 9290,
      "率为": 9291,
      "疑问": 9292,
      "的确": 9293,
      "的管理": 9294,
      "的地区": 9295,
      "的参与": 9296,
      "的形式": 9297,
      "的认识": 9298,
      "皮肤": 9299,
      "祝贺": 9300,
      "立陶": 9301,
      "等方面": 9302,
      "网页": 9303,
      "老师": 9304,
      "老龄": 9305,
      "能在": 9306,
      "设在": 9307,
      "谋杀": 9308,
      "质疑": 9309,
      "还包括": 9310,
      "那时": 9311,
      "都要": 9312,
      "酋长": 9313,
      "配备": 9314,
      "陷入": 9315,
      "发展筹资": 9316,
      "我们将": 9317,
      "提供资料": 9318,
      "103": 9319,
      "经济发展": 9320,
      "采取一切": 9321,
      "缔约国会议": 9322,
      "行政区": 9323,
      "anc": 9324,
      "ang": 9325,
      "必要时": 9326,
      "恐怖分子": 9327,
      "地方政府": 9328,
      "性别观点": 9329,
      "科学技术": 9330,
      "履行机构": 9331,
      "稳定团": 9332,
      "星期四": 9333,
      "紧急情况": 9334,
      "编写的": 9335,
      "人力资源管理": 9336,
      "大规模毁灭": 9337,
      "提请注意": 9338,
      "生态系统": 9339,
      "实验室": 9340,
      "正确的": 9341,
      "蒙特利尔": 9342,
      "号决议所设": 9343,
      "萨尔瓦多": 9344,
      "穆斯林": 9345,
      "立陶宛": 9346,
      "112": 9347,
      "600": 9348,
      "INF": 9349,
      "de": 9350,
      "son": 9351,
      "一场": 9352,
      "三十": 9353,
      "下了": 9354,
      "不少": 9355,
      "买加": 9356,
      "了他": 9357,
      "了其": 9358,
      "互相": 9359,
      "人为": 9360,
      "代替": 9361,
      "仪式": 9362,
      "会晤": 9363,
      "信号": 9364,
      "债权": 9365,
      "做到": 9366,
      "做好": 9367,
      "全系统": 9368,
      "公认": 9369,
      "列为": 9370,
      "列表": 9371,
      "刚刚": 9372,
      "剩余": 9373,
      "加紧": 9374,
      "区分": 9375,
      "即便": 9376,
      "受影响": 9377,
      "变更": 9378,
      "另有": 9379,
      "命运": 9380,
      "和信息": 9381,
      "因特": 9382,
      "图像": 9383,
      "在线": 9384,
      "在全国": 9385,
      "在那里": 9386,
      "基纳": 9387,
      "复苏": 9388,
      "大气": 9389,
      "奥巴马": 9390,
      "嫌疑": 9391,
      "学的": 9392,
      "对所有": 9393,
      "已被": 9394,
      "形象": 9395,
      "得不到": 9396,
      "想到": 9397,
      "成人": 9398,
      "成熟": 9399,
      "我希望": 9400,
      "手术": 9401,
      "把它": 9402,
      "拉脱": 9403,
      "指定的": 9404,
      "撤出": 9405,
      "无害": 9406,
      "明天": 9407,
      "是从": 9408,
      "是由于": 9409,
      "有多": 9410,
      "有点": 9411,
      "此项": 9412,
      "每周": 9413,
      "每日": 9414,
      "海上": 9415,
      "牙买加": 9416,
      "留在": 9417,
      "的那": 9418,
      "的机制": 9419,
      "的最后": 9420,
      "的目的是": 9421,
      "税务": 9422,
      "等问题": 9423,
      "答案": 9424,
      "红十字": 9425,
      "罚款": 9426,
      "联黎": 9427,
      "船舶": 9428,
      "草坪": 9429,
      "警务": 9430,
      "认证": 9431,
      "试点": 9432,
      "该法": 9433,
      "调节": 9434,
      "负有": 9435,
      "财富": 9436,
      "足以": 9437,
      "辐射": 9438,
      "过来": 9439,
      "遗传": 9440,
      "那儿": 9441,
      "首都": 9442,
      "驾驶": 9443,
      "高质量": 9444,
      "102": 9445,
      "通过一项": 9446,
      "特别政治": 9447,
      "1994": 9448,
      "决议和": 9449,
      "妇女参与": 9450,
      "大会的": 9451,
      "世界首脑会议": 9452,
      "研究和": 9453,
      "主要的": 9454,
      "人民币": 9455,
      "如果没有": 9456,
      "解决方案": 9457,
      "讨论的": 9458,
      "贸易法委员会": 9459,
      "进一步加强": 9460,
      "家庭成员": 9461,
      "开发银行": 9462,
      "分析和": 9463,
      "接受了": 9464,
      "负责人": 9465,
      "控制的": 9466,
      "之间的合作": 9467,
      "产品的": 9468,
      "巴勒斯坦领土": 9469,
      "专员办事处": 9470,
      "安理会成员": 9471,
      "的最新": 9472,
      "达成的": 9473,
      "反映出": 9474,
      "境内流离失所者": 9475,
      "ish": 9476,
      "后勤基地": 9477,
      "...": 9478,
      "职权范围": 9479,
      "上午10时": 9480,
      "补助金": 9481,
      "迫切需要": 9482,
      "全权证书": 9483,
      "给安全理事会主席的信": 9484,
      "拉脱维亚": 9485,
      "联黎部队": 9486,
      "0万美元": 9487,
      "1和": 9488,
      "5条": 9489,
      "7段": 9490,
      "Ab": 9491,
      "NA": 9492,
      "RP": 9493,
      "ie": 9494,
      "iv": 9495,
      "ok": 9496,
      "sh": 9497,
      "上了": 9498,
      "上涨": 9499,
      "不限成员名额": 9500,
      "两者": 9501,
      "中小": 9502,
      "中等": 9503,
      "为执行": 9504,
      "之二": 9505,
      "人群": 9506,
      "仍未": 9507,
      "他被": 9508,
      "休息": 9509,
      "优秀": 9510,
      "会期间": 9511,
      "但他": 9512,
      "使他们": 9513,
      "假设": 9514,
      "停火": 9515,
      "免疫": 9516,
      "入境": 9517,
      "几个月": 9518,
      "列出": 9519,
      "利息": 9520,
      "前的": 9521,
      "南苏丹": 9522,
      "及太平洋": 9523,
      "反馈": 9524,
      "发送": 9525,
      "呼吸": 9526,
      "和支助": 9527,
      "和行政": 9528,
      "回返": 9529,
      "国会": 9530,
      "地说": 9531,
      "城镇": 9532,
      "境外": 9533,
      "外联": 9534,
      "天气": 9535,
      "如同": 9536,
      "子里": 9537,
      "存款": 9538,
      "实物": 9539,
      "对联合国": 9540,
      "封锁": 9541,
      "就要": 9542,
      "巡逻": 9543,
      "干涉": 9544,
      "平方": 9545,
      "年底": 9546,
      "恰当": 9547,
      "成的": 9548,
      "接纳": 9549,
      "推出": 9550,
      "支配": 9551,
      "放射": 9552,
      "政权": 9553,
      "新型": 9554,
      "无效": 9555,
      "暂行": 9556,
      "本组织的": 9557,
      "术语": 9558,
      "欣见": 9559,
      "欺诈": 9560,
      "气氛": 9561,
      "法索": 9562,
      "津巴布": 9563,
      "流量": 9564,
      "海岸": 9565,
      "温度": 9566,
      "特遣队": 9567,
      "电信": 9568,
      "的计划": 9569,
      "的投资": 9570,
      "的联系": 9571,
      "的事实": 9572,
      "的现象": 9573,
      "的数量": 9574,
      "监护": 9575,
      "直升": 9576,
      "短缺": 9577,
      "签名": 9578,
      "简报": 9579,
      "纤维": 9580,
      "编列": 9581,
      "缩小": 9582,
      "而非": 9583,
      "胜利": 9584,
      "薪酬": 9585,
      "补编": 9586,
      "订约": 9587,
      "让你": 9588,
      "诉诸": 9589,
      "谨慎": 9590,
      "跨界": 9591,
      "运营": 9592,
      "还可以": 9593,
      "邻国": 9594,
      "配偶": 9595,
      "配额": 9596,
      "阶层": 9597,
      "驳回": 9598,
      "验证": 9599,
      "骚扰": 9600,
      "麻烦": 9601,
      "国家安全": 9602,
      "国际标准": 9603,
      "国际刑事法院": 9604,
      "以及联合国": 9605,
      "通过其": 9606,
      "经济和": 9607,
      "118": 9608,
      "世界贸易": 9609,
      "秘书长的说明": 9610,
      "促进发展": 9611,
      "加强对": 9612,
      "环境保护": 9613,
      "150": 9614,
      "主席和": 9615,
      "任何其他": 9616,
      "全球性": 9617,
      "开展了": 9618,
      "表示关注": 9619,
      "方法的": 9620,
      "目前为止": 9621,
      "法院的": 9622,
      "评估和": 9623,
      "充分执行": 9624,
      "接受的": 9625,
      "地方当局": 9626,
      "健康和": 9627,
      "第34": 9628,
      "ard": 9629,
      "非政府组织和": 9630,
      "这项工作": 9631,
      "1988年": 9632,
      "成功地": 9633,
      "粮食安全": 9634,
      "粮食计划署": 9635,
      "外国直接投资": 9636,
      "成本效益": 9637,
      "亚洲及太平洋": 9638,
      "筹备委员会": 9639,
      "出席了": 9640,
      "建筑物": 9641,
      "当事方": 9642,
      "跨国有组织犯罪": 9643,
      "年轻人": 9644,
      "道德操守": 9645,
      "外勤支助": 9646,
      "相同的": 9647,
      "示范法": 9648,
      "UNEP": 9649,
      "定居点": 9650,
      "行政和预算问题咨询委员会": 9651,
      "辱人格的": 9652,
      "咨商地位": 9653,
      "津巴布韦": 9654,
      "FCC": 9655,
      "St": 9656,
      "man": 9657,
      "our": 9658,
      "……": 9659,
      "上一": 9660,
      "不必": 9661,
      "不用": 9662,
      "东部": 9663,
      "为1": 9664,
      "仔细": 9665,
      "他人": 9666,
      "代码": 9667,
      "以提高": 9668,
      "以防止": 9669,
      "会谈": 9670,
      "传真": 9671,
      "全力": 9672,
      "分支": 9673,
      "判处": 9674,
      "前面": 9675,
      "力度": 9676,
      "医务": 9677,
      "发的": 9678,
      "可否": 9679,
      "合适": 9680,
      "和政策": 9681,
      "和能力": 9682,
      "和宗教": 9683,
      "回来": 9684,
      "圆桌": 9685,
      "地面": 9686,
      "埃尔": 9687,
      "多米尼": 9688,
      "实例": 9689,
      "审讯": 9690,
      "巴拿": 9691,
      "常会": 9692,
      "并将其": 9693,
      "开采": 9694,
      "弥补": 9695,
      "当今": 9696,
      "得多": 9697,
      "忽略": 9698,
      "恐惧": 9699,
      "摆脱": 9700,
      "改造": 9701,
      "文献": 9702,
      "斯科": 9703,
      "智慧": 9704,
      "有个": 9705,
      "本来": 9706,
      "杂志": 9707,
      "标题": 9708,
      "此次": 9709,
      "消灭": 9710,
      "深刻": 9711,
      "环保": 9712,
      "玻璃": 9713,
      "用以": 9714,
      "电台": 9715,
      "疫苗": 9716,
      "的暴力": 9717,
      "的第一": 9718,
      "的共同": 9719,
      "的进展": 9720,
      "的解释": 9721,
      "的比例": 9722,
      "等于": 9723,
      "纠正": 9724,
      "统治": 9725,
      "脱离": 9726,
      "臭氧": 9727,
      "设有": 9728,
      "贝宁": 9729,
      "购置": 9730,
      "走了": 9731,
      "过了": 9732,
      "还指出": 9733,
      "这也": 9734,
      "这就": 9735,
      "进度": 9736,
      "逻辑": 9737,
      "里约": 9738,
      "黑山": 9739,
      "20年": 9740,
      "国家人权": 9741,
      "联合国在": 9742,
      "社会的": 9743,
      "这些活动": 9744,
      "这些建议": 9745,
      "通过议程": 9746,
      "执行部分": 9747,
      "管理人员": 9748,
      "大会第二十": 9749,
      "根据其": 9750,
      "这一目标": 9751,
      "缔约国在": 9752,
      "提交报告": 9753,
      "建立的": 9754,
      "协调和": 9755,
      "审查会议": 9756,
      "表示感谢": 9757,
      "作用的": 9758,
      "共同努力": 9759,
      "范围的": 9760,
      "第三方": 9761,
      "国内生产总值": 9762,
      "250": 9763,
      "第十三": 9764,
      "土著人": 9765,
      "维持和平特派团": 9766,
      "结论和建议": 9767,
      "从而使": 9768,
      "该国政府": 9769,
      "有限公司": 9770,
      "历史上": 9771,
      "效率和": 9772,
      "十分重要": 9773,
      "污染物": 9774,
      "越来越多": 9775,
      "怎么样": 9776,
      "跨国公司": 9777,
      "二十一": 9778,
      "委员会建议缔约国": 9779,
      "ational": 9780,
      "亚太经社会": 9781,
      "言论自由": 9782,
      "常规武器": 9783,
      "中非共和国": 9784,
      "不结盟运动": 9785,
      "有罪不罚": 9786,
      "复员和重返社会": 9787,
      "FCCC": 9788,
      "5段": 9789,
      "if": 9790,
      "iy": 9791,
      "七条": 9792,
      "下述": 9793,
      "不满": 9794,
      "不愿意": 9795,
      "今晚": 9796,
      "仍是": 9797,
      "以支持": 9798,
      "以上的": 9799,
      "传媒": 9800,
      "但它": 9801,
      "修复": 9802,
      "入学": 9803,
      "其对": 9804,
      "冻结": 9805,
      "分庭": 9806,
      "到底": 9807,
      "削弱": 9808,
      "加斯": 9809,
      "北草坪": 9810,
      "后面": 9811,
      "向其": 9812,
      "和援助": 9813,
      "在报告": 9814,
      "在许多": 9815,
      "在某些": 9816,
      "地上": 9817,
      "天主教": 9818,
      "富有": 9819,
      "对策": 9820,
      "将由": 9821,
      "尽早": 9822,
      "局长": 9823,
      "市民": 9824,
      "布基纳": 9825,
      "带有": 9826,
      "应予": 9827,
      "延期": 9828,
      "当代": 9829,
      "德班": 9830,
      "忘记": 9831,
      "总干事": 9832,
      "我和": 9833,
      "所能": 9834,
      "承受": 9835,
      "把他": 9836,
      "担忧": 9837,
      "提取": 9838,
      "撤销": 9839,
      "敌对": 9840,
      "斯德": 9841,
      "无人": 9842,
      "是以": 9843,
      "有一些": 9844,
      "权限": 9845,
      "核实": 9846,
      "此前": 9847,
      "法和": 9848,
      "波动": 9849,
      "消失": 9850,
      "漂亮": 9851,
      "火箭": 9852,
      "率的": 9853,
      "玛丽": 9854,
      "生长": 9855,
      "的发言": 9856,
      "的家庭": 9857,
      "的严重": 9858,
      "的谈判": 9859,
      "的状况": 9860,
      "的价值": 9861,
      "的概念": 9862,
      "真相": 9863,
      "真诚": 9864,
      "禁毒": 9865,
      "签字": 9866,
      "类的": 9867,
      "给秘书长": 9868,
      "耶稣": 9869,
      "联刚": 9870,
      "股份": 9871,
      "裁谈": 9872,
      "西撒哈拉": 9873,
      "评注": 9874,
      "该问题": 9875,
      "详情": 9876,
      "贫民": 9877,
      "辅助": 9878,
      "这家": 9879,
      "迹象": 9880,
      "追踪": 9881,
      "重大的": 9882,
      "马德里": 9883,
      "国家方案": 9884,
      "联合国开发计划署": 9885,
      "一个国家": 9886,
      "我们可以": 9887,
      "政府官员": 9888,
      "提供有关": 9889,
      "方面取得的进展": 9890,
      "进行合作": 9891,
      "特别注意": 9892,
      "经济委员会": 9893,
      "区域中心": 9894,
      "区域办事处": 9895,
      "要求的": 9896,
      "成员国的": 9897,
      "第二部分": 9898,
      "犯罪的": 9899,
      "第23": 9900,
      "专家会议": 9901,
      "歧视和": 9902,
      "自由和": 9903,
      "冲突的": 9904,
      "0年代": 9905,
      "是否有": 9906,
      "第5条": 9907,
      "完成了": 9908,
      "武装团体": 9909,
      "委员会的建议": 9910,
      "经费的": 9911,
      "1986年": 9912,
      "星期三": 9913,
      "星期二": 9914,
      "程度的": 9915,
      "明确的": 9916,
      "外交部": 9917,
      "两年期方案预算": 9918,
      "捐助方": 9919,
      "竞争力": 9920,
      "高级专员办事处": 9921,
      "告诉你": 9922,
      "类似的": 9923,
      "一定要": 9924,
      "高级别会议": 9925,
      "旅游业": 9926,
      "赞赏地注意到": 9927,
      "爆炸物": 9928,
      "III": 9929,
      "流行病": 9930,
      "雇佣军": 9931,
      "天然气": 9932,
      "吉尔吉斯斯坦": 9933,
      "联利特派团": 9934,
      "持久性有机": 9935,
      "大规模毁灭性武器": 9936,
      "辱人格的待遇": 9937,
      "巴拿马": 9938,
      "布基纳法索": 9939,
      "01": 9940,
      "7条": 9941,
      "CD": 9942,
      "ib": 9943,
      "ian": 9944,
      "一件": 9945,
      "一贯": 9946,
      "不愿": 9947,
      "不存在": 9948,
      "与国家": 9949,
      "世贸": 9950,
      "东南亚": 9951,
      "严峻": 9952,
      "个案": 9953,
      "个员额": 9954,
      "中学": 9955,
      "中文": 9956,
      "主体": 9957,
      "之以": 9958,
      "之下的": 9959,
      "事宜": 9960,
      "五条": 9961,
      "亚的": 9962,
      "人事": 9963,
      "人或": 9964,
      "人物": 9965,
      "人都": 9966,
      "代价": 9967,
      "低收入": 9968,
      "体面": 9969,
      "侵权": 9970,
      "健全": 9971,
      "克劳": 9972,
      "关联": 9973,
      "其后": 9974,
      "出现在": 9975,
      "列支": 9976,
      "力求": 9977,
      "办理": 9978,
      "动员": 9979,
      "动机": 9980,
      "区内": 9981,
      "区和": 9982,
      "十四": 9983,
      "印刷": 9984,
      "去了": 9985,
      "句话": 9986,
      "司长": 9987,
      "各缔约方": 9988,
      "合格": 9989,
      "吉布": 9990,
      "和活动": 9991,
      "哥尔": 9992,
      "回家": 9993,
      "国别": 9994,
      "在与": 9995,
      "垃圾": 9996,
      "增多": 9997,
      "多么": 9998,
      "多年来": 9999,
      "大力": 10000,
      "奥林匹克": 10001,
      "宣称": 10002,
      "对抗": 10003,
      "对国际": 10004,
      "将与": 10005,
      "将要": 10006,
      "小说": 10007,
      "尔斯": 10008,
      "就其": 10009,
      "巴塞尔": 10010,
      "布什": 10011,
      "干扰": 10012,
      "幼儿": 10013,
      "序言": 10014,
      "延误": 10015,
      "强有力的": 10016,
      "总计划": 10017,
      "所规定的": 10018,
      "手机": 10019,
      "找出": 10020,
      "抑制": 10021,
      "抗议": 10022,
      "报复": 10023,
      "援引": 10024,
      "新伙伴关系": 10025,
      "日子": 10026,
      "时刻": 10027,
      "更高": 10028,
      "更广泛": 10029,
      "最多": 10030,
      "本届会议": 10031,
      "架构": 10032,
      "欧安": 10033,
      "爸爸": 10034,
      "界限": 10035,
      "百万": 10036,
      "的生产": 10037,
      "的全面": 10038,
      "的设计": 10039,
      "盟约": 10040,
      "看着": 10041,
      "福祉": 10042,
      "税收": 10043,
      "筹集": 10044,
      "紧密": 10045,
      "纪录": 10046,
      "结核": 10047,
      "统筹": 10048,
      "老板": 10049,
      "能量": 10050,
      "致使": 10051,
      "见到": 10052,
      "见附件": 10053,
      "诊所": 10054,
      "贯彻": 10055,
      "赞比亚": 10056,
      "转化": 10057,
      "较为": 10058,
      "过度": 10059,
      "近期": 10060,
      "这条": 10061,
      "这意味着": 10062,
      "进出口": 10063,
      "退化": 10064,
      "遭遇": 10065,
      "那是": 10066,
      "酒店": 10067,
      "非自治": 10068,
      "顾及": 10069,
      "国家发展": 10070,
      "委员会关于": 10071,
      "国际金融": 10072,
      "人权与": 10073,
      "技术转让": 10074,
      "法律约束": 10075,
      "世界的": 10076,
      "秘书长特别代表": 10077,
      "促进和保护": 10078,
      "环境的": 10079,
      "成员的": 10080,
      "140": 10081,
      "因为它": 10082,
      "协调厅": 10083,
      "有效执行": 10084,
      "参与了": 10085,
      "第二章": 10086,
      "调查结果": 10087,
      "第21": 10088,
      "第24": 10089,
      "减少了": 10090,
      "秘书处的": 10091,
      "第59": 10092,
      "利益的": 10093,
      "第49": 10094,
      "非常重要": 10095,
      "7月1日": 10096,
      "指导方针": 10097,
      "21世纪": 10098,
      "就业和": 10099,
      "第六条": 10100,
      "核武器条约": 10101,
      "支付的": 10102,
      "签署的": 10103,
      "化学武器": 10104,
      "举办了": 10105,
      "一份报告": 10106,
      "修订的": 10107,
      "职业培训": 10108,
      "提到的": 10109,
      "表现出": 10110,
      "网站上": 10111,
      "引起的": 10112,
      "复杂的": 10113,
      "以外的": 10114,
      "助理秘书长": 10115,
      "脆弱性": 10116,
      "救济工程处": 10117,
      "不利影响": 10118,
      "良好做法": 10119,
      "养恤基金": 10120,
      "仇外心理和相关": 10121,
      "小岛屿发展中国家": 10122,
      "弱势群体": 10123,
      "近东救济工程处": 10124,
      "纳米比亚": 10125,
      "尔多瓦": 10126,
      "再生能源": 10127,
      "因特网": 10128,
      "北草坪会议大楼": 10129,
      "斯德哥尔": 10130,
      "斯德哥尔摩": 10131,
      ").": 10132,
      "3和": 10133,
      "800": 10134,
      "800美元": 10135,
      "En": 10136,
      "ID": 10137,
      "PR": 10138,
      "ud": 10139,
      "一只": 10140,
      "一辆": 10141,
      "三名": 10142,
      "上学": 10143,
      "不予": 10144,
      "不对": 10145,
      "不稳定": 10146,
      "东耶路撒冷": 10147,
      "中海": 10148,
      "也可能": 10149,
      "于2008年": 10150,
      "人工": 10151,
      "仍有": 10152,
      "传递": 10153,
      "住所": 10154,
      "你想": 10155,
      "你说": 10156,
      "做出的": 10157,
      "做出了": 10158,
      "公园": 10159,
      "六个": 10160,
      "其顿": 10161,
      "出发": 10162,
      "函数": 10163,
      "分段": 10164,
      "到目前为止": 10165,
      "加纳": 10166,
      "卡尔": 10167,
      "原籍": 10168,
      "可信": 10169,
      "名为": 10170,
      "和有": 10171,
      "商标": 10172,
      "国有": 10173,
      "在新": 10174,
      "在法律": 10175,
      "在一些": 10176,
      "在2010年": 10177,
      "地图": 10178,
      "塞族": 10179,
      "士登": 10180,
      "夫妇": 10181,
      "她在": 10182,
      "学位": 10183,
      "害怕": 10184,
      "容器": 10185,
      "对儿童": 10186,
      "小的": 10187,
      "就必须": 10188,
      "巴林": 10189,
      "并指出": 10190,
      "应包括": 10191,
      "开设": 10192,
      "当你": 10193,
      "形态": 10194,
      "得很": 10195,
      "性暴力": 10196,
      "情节": 10197,
      "意图": 10198,
      "成长": 10199,
      "批款": 10200,
      "技巧": 10201,
      "捍卫": 10202,
      "提前": 10203,
      "揽子": 10204,
      "携带": 10205,
      "摩尔多瓦": 10206,
      "敦士登": 10207,
      "日在": 10208,
      "早上": 10209,
      "是很": 10210,
      "最重要的": 10211,
      "核试验": 10212,
      "格林": 10213,
      "梦想": 10214,
      "款和": 10215,
      "毫不": 10216,
      "毫米": 10217,
      "浪费": 10218,
      "爱的": 10219,
      "物体": 10220,
      "的两": 10221,
      "的分析": 10222,
      "的收入": 10223,
      "的知识": 10224,
      "的医疗": 10225,
      "的孩子": 10226,
      "的趋势": 10227,
      "直至": 10228,
      "看出": 10229,
      "种种": 10230,
      "竞赛": 10231,
      "绿色": 10232,
      "网址": 10233,
      "署长": 10234,
      "联塞": 10235,
      "联阿": 10236,
      "船只": 10237,
      "被剥夺": 10238,
      "西岸": 10239,
      "要点": 10240,
      "见下文": 10241,
      "让他": 10242,
      "该委员会": 10243,
      "该决议": 10244,
      "谋求": 10245,
      "赤贫": 10246,
      "都没有": 10247,
      "野生": 10248,
      "阳光": 10249,
      "零售": 10250,
      "非公开": 10251,
      "预定": 10252,
      "马其顿": 10253,
      "黑暗": 10254,
      "国际会议": 10255,
      "联合国机构": 10256,
      "提供支持": 10257,
      "方面发挥": 10258,
      "包括与": 10259,
      "进行一次": 10260,
      "105": 10261,
      "行动方案": 10262,
      "行动纲要": 10263,
      "1990": 10264,
      "系统中": 10265,
      "法律规定": 10266,
      "和平等": 10267,
      "基金和方案": 10268,
      "研究了": 10269,
      "信息通报": 10270,
      "缔约国的": 10271,
      "战略计划": 10272,
      "战略框架": 10273,
      "先生的": 10274,
      "第二条": 10275,
      "政治权利": 10276,
      "开展的活动": 10277,
      "表示欢迎": 10278,
      "预算的": 10279,
      "增加到": 10280,
      "程序和": 10281,
      "美国人": 10282,
      "方面的作用": 10283,
      "安全理事会关于": 10284,
      "第28": 10285,
      "标准和": 10286,
      "任务规定": 10287,
      "结果表明": 10288,
      "咨询意见": 10289,
      "部队派遣国": 10290,
      "生活中": 10291,
      "生活在": 10292,
      "生活的": 10293,
      "基本建设": 10294,
      "消除种族歧视": 10295,
      "应当在": 10296,
      "难民专员办事处": 10297,
      "第58": 10298,
      "公共卫生": 10299,
      "第39": 10300,
      "000人": 10301,
      "积极的": 10302,
      "了一系列": 10303,
      "经验教训": 10304,
      "面临的挑战": 10305,
      "质量和": 10306,
      "事件的": 10307,
      "回顾其": 10308,
      "千年宣言": 10309,
      "索赔人": 10310,
      "告诉我": 10311,
      "带来了": 10312,
      "现代化": 10313,
      "科技咨询机构": 10314,
      "马拉维": 10315,
      "经济和社会发展": 10316,
      "强迫失踪": 10317,
      "高等教育": 10318,
      "丰富的": 10319,
      "之日起": 10320,
      "经社理事会": 10321,
      "在同次会议上": 10322,
      "宏观经济": 10323,
      "行政首长协调": 10324,
      "儿基会": 10325,
      "世贸组织": 10326,
      "列支敦士登": 10327,
      "吉布提": 10328,
      "非自治领土": 10329,
      "(《": 10330,
      "2和": 10331,
      "3号决议": 10332,
      "4号决议": 10333,
      "400美元": 10334,
      "6和": 10335,
      "700": 10336,
      "7号决议": 10337,
      "9号决议": 10338,
      "Ma": 10339,
      "SB": 10340,
      "for": 10341,
      "oun": 10342,
      "ut": 10343,
      "一半": 10344,
      "三种": 10345,
      "下放": 10346,
      "不出": 10347,
      "不允许": 10348,
      "中断": 10349,
      "中没有": 10350,
      "为确保": 10351,
      "之际": 10352,
      "也就": 10353,
      "于2003年": 10354,
      "交给": 10355,
      "人是": 10356,
      "仓库": 10357,
      "体验": 10358,
      "促成": 10359,
      "债券": 10360,
      "其次": 10361,
      "内政": 10362,
      "划分": 10363,
      "北方": 10364,
      "及相关": 10365,
      "号码": 10366,
      "各机构": 10367,
      "和合作": 10368,
      "和监测": 10369,
      "和非政府组织": 10370,
      "品牌": 10371,
      "增编": 10372,
      "增至": 10373,
      "多元": 10374,
      "大会议": 10375,
      "好吗": 10376,
      "妇发基金": 10377,
      "子和": 10378,
      "家具": 10379,
      "家属": 10380,
      "小心": 10381,
      "展览": 10382,
      "屠杀": 10383,
      "布尔": 10384,
      "并提出": 10385,
      "并促进": 10386,
      "应以": 10387,
      "延迟": 10388,
      "引入": 10389,
      "征求": 10390,
      "很可能": 10391,
      "很重要": 10392,
      "徒刑": 10393,
      "得知": 10394,
      "心里": 10395,
      "必不可": 10396,
      "性问题": 10397,
      "慈善": 10398,
      "我能": 10399,
      "我现在": 10400,
      "所说": 10401,
      "打电话": 10402,
      "抓住": 10403,
      "报酬": 10404,
      "拯救": 10405,
      "按性别": 10406,
      "捐赠": 10407,
      "撤回": 10408,
      "收养": 10409,
      "施工": 10410,
      "无关": 10411,
      "更具": 10412,
      "本次级方案": 10413,
      "杀死": 10414,
      "枪支": 10415,
      "次全体会议": 10416,
      "民航": 10417,
      "沙尼亚": 10418,
      "清理": 10419,
      "熟悉": 10420,
      "爱沙尼亚": 10421,
      "犯有": 10422,
      "的同": 10423,
      "的海": 10424,
      "的利益": 10425,
      "离职": 10426,
      "站在": 10427,
      "管道": 10428,
      "缴款": 10429,
      "联科": 10430,
      "股东": 10431,
      "西洋": 10432,
      "见解": 10433,
      "计量": 10434,
      "该计划": 10435,
      "该地区": 10436,
      "该决议草案": 10437,
      "语发言": 10438,
      "赤字": 10439,
      "达到了": 10440,
      "迫使": 10441,
      "述了": 10442,
      "追究": 10443,
      "遵照": 10444,
      "部件": 10445,
      "部落": 10446,
      "都将": 10447,
      "里面": 10448,
      "阿曼": 10449,
      "除外": 10450,
      "马耳": 10451,
      "马达": 10452,
      "委员会请": 10453,
      "委员会的工作": 10454,
      "200美元": 10455,
      "会议期间": 10456,
      "联合酋长": 10457,
      "国际劳工组织": 10458,
      "联合国秘书处": 10459,
      "我们不": 10460,
      "我们需要": 10461,
      "提供技术": 10462,
      "以及与": 10463,
      "社会服务": 10464,
      "这些措施": 10465,
      "执行委员会": 10466,
      "经济体": 10467,
      "经济合作": 10468,
      "所有权": 10469,
      "115": 10470,
      "大会和": 10471,
      "大会第五十": 10472,
      "基金和": 10473,
      "继续与": 10474,
      "继续审议": 10475,
      "130": 10476,
      "促进和保护人权": 10477,
      "的一次": 10478,
      "事务和": 10479,
      "的人们": 10480,
      "中心和": 10481,
      "制定了": 10482,
      "目前在": 10483,
      "培训班": 10484,
      "第2段": 10485,
      "标准的": 10486,
      "家庭的": 10487,
      "秘书处的说明": 10488,
      "以便在": 10489,
      "严重违反": 10490,
      "难民事务": 10491,
      "适当措施": 10492,
      "健康状况": 10493,
      "性别问题": 10494,
      "art": 10495,
      "巴勒斯坦难民": 10496,
      "关切地注意到": 10497,
      "阿拉伯利比亚": 10498,
      "阿拉伯联合酋长": 10499,
      "第四委员会": 10500,
      "过去的": 10501,
      "一直是": 10502,
      "的国际合作": 10503,
      "申请人": 10504,
      "的最终": 10505,
      "重点放在": 10506,
      "第1段": 10507,
      "只有在": 10508,
      "意义的": 10509,
      "所作的努力": 10510,
      "第7段": 10511,
      "拟议方案预算": 10512,
      "条例和": 10513,
      "不扩散核武器条约": 10514,
      "满意地注意到": 10515,
      "尼日尔": 10516,
      "维和行动": 10517,
      "大陆架": 10518,
      "the": 10519,
      "减贫战略": 10520,
      "所谓的": 10521,
      "社会和文化权利": 10522,
      "tern": 10523,
      "简要记录": 10524,
      "负面影响": 10525,
      "预算外资源": 10526,
      "不人道或有": 10527,
      "直升机": 10528,
      "巴塞尔公约": 10529,
      "05": 10530,
      "As": 10531,
      "CA": 10532,
      "Le": 10533,
      "PS": 10534,
      "Su": 10535,
      "com": 10536,
      "iz": 10537,
      "ne": 10538,
      "tp": 10539,
      "下一个": 10540,
      "不动": 10541,
      "不需要": 10542,
      "东盟": 10543,
      "两级": 10544,
      "中亚": 10545,
      "为何": 10546,
      "乐观": 10547,
      "了许多": 10548,
      "于2006年": 10549,
      "于2011年": 10550,
      "于1998年": 10551,
      "些时候": 10552,
      "人才": 10553,
      "今日": 10554,
      "以使": 10555,
      "以满足": 10556,
      "任用": 10557,
      "你有": 10558,
      "俱乐": 10559,
      "六年": 10560,
      "六个月": 10561,
      "兴奋": 10562,
      "几天": 10563,
      "分担": 10564,
      "分列的": 10565,
      "初期": 10566,
      "原料": 10567,
      "参观": 10568,
      "参议院": 10569,
      "及文化": 10570,
      "友谊": 10571,
      "发出的": 10572,
      "号法令": 10573,
      "合物": 10574,
      "后代": 10575,
      "吸烟": 10576,
      "和各": 10577,
      "和资源": 10578,
      "和消除": 10579,
      "和公共": 10580,
      "和社区": 10581,
      "和多边": 10582,
      "和虐待": 10583,
      "在委员会": 10584,
      "在任何": 10585,
      "地中海": 10586,
      "坚信": 10587,
      "堕胎": 10588,
      "复原": 10589,
      "多名": 10590,
      "多项": 10591,
      "大西洋": 10592,
      "对手": 10593,
      "对我们": 10594,
      "对这一": 10595,
      "将这些": 10596,
      "少的": 10597,
      "并要求": 10598,
      "并呼吁": 10599,
      "很好的": 10600,
      "戈兰": 10601,
      "或其": 10602,
      "所提": 10603,
      "所示": 10604,
      "打破": 10605,
      "损坏": 10606,
      "提倡": 10607,
      "文字": 10608,
      "新兴": 10609,
      "无国籍": 10610,
      "是不是": 10611,
      "显得": 10612,
      "有益": 10613,
      "有许多": 10614,
      "机遇": 10615,
      "村庄": 10616,
      "极大": 10617,
      "游泳": 10618,
      "热带": 10619,
      "甲基": 10620,
      "的心": 10621,
      "的预算": 10622,
      "的增加": 10623,
      "的不同": 10624,
      "的限制": 10625,
      "的条款": 10626,
      "的选择": 10627,
      "的数额": 10628,
      "的角度": 10629,
      "矛盾": 10630,
      "积累": 10631,
      "称赞": 10632,
      "缓慢": 10633,
      "老人": 10634,
      "职类": 10635,
      "育儿": 10636,
      "膨胀": 10637,
      "苏特派团": 10638,
      "草稿": 10639,
      "表演": 10640,
      "被捕": 10641,
      "要在": 10642,
      "见S": 10643,
      "让他们": 10644,
      "该组织": 10645,
      "该公约": 10646,
      "诸多": 10647,
      "过分": 10648,
      "运送": 10649,
      "这对": 10650,
      "连贯": 10651,
      "道的": 10652,
      "饮用水": 10653,
      "鼓舞": 10654,
      "：《": 10655,
      "？”": 10656,
      "国家警察": 10657,
      "国家和国际": 10658,
      "委员会欢迎": 10659,
      "工作计划": 10660,
      "联合国大会": 10661,
      "政府与": 10662,
      "提供必要的": 10663,
      "104": 10664,
      "可能性": 10665,
      "区域的": 10666,
      "技术的": 10667,
      "行为和": 10668,
      "行为守则": 10669,
      "继续进行": 10670,
      "继续支持": 10671,
      "加强与": 10672,
      "能力的": 10673,
      "目标的": 10674,
      "作为其": 10675,
      "人民政府": 10676,
      "全球经济": 10677,
      "审议的": 10678,
      "获得通过": 10679,
      "小组的": 10680,
      "第29": 10681,
      "说明了": 10682,
      "欧洲经委会": 10683,
      "司法部": 10684,
      "建设性": 10685,
      "分析了": 10686,
      "咨询小组": 10687,
      "这样一个": 10688,
      "基本的": 10689,
      "严重关切": 10690,
      "第57": 10691,
      "国内流离失所者": 10692,
      "以色列的": 10693,
      "案件中": 10694,
      "卫生部": 10695,
      "土著民族": 10696,
      "非法贩运": 10697,
      "面临着": 10698,
      "1989年": 10699,
      "本国一般事务人员": 10700,
      "应用程序": 10701,
      "分配给": 10702,
      "亿美元的": 10703,
      "常驻代表团": 10704,
      "政府间组织": 10705,
      "民间社会组织": 10706,
      "移徙者": 10707,
      "妇女和女童": 10708,
      "第1373": 10709,
      "执法人员": 10710,
      "最低限度": 10711,
      "类型的": 10712,
      "最大限度": 10713,
      "6月30日期间": 10714,
      "我不知道": 10715,
      "常设委员会": 10716,
      "初级商品": 10717,
      "氧化碳": 10718,
      "大幅度": 10719,
      "三分之一": 10720,
      "性别观点纳入": 10721,
      "%)": 10722,
      "119": 10723,
      "El": 10724,
      "IV": 10725,
      "Man": 10726,
      "SA": 10727,
      "aw": 10728,
      "》；": 10729,
      "一代": 10730,
      "一再": 10731,
      "下载": 10732,
      "下一次": 10733,
      "不平衡": 10734,
      "与和平": 10735,
      "专利": 10736,
      "举报": 10737,
      "之上": 10738,
      "也不会": 10739,
      "争论": 10740,
      "亚贝": 10741,
      "人体": 10742,
      "以解决": 10743,
      "件的": 10744,
      "份报告": 10745,
      "伯特": 10746,
      "估算": 10747,
      "但却": 10748,
      "使人": 10749,
      "修建": 10750,
      "借口": 10751,
      "做的": 10752,
      "先决": 10753,
      "内在": 10754,
      "农产品": 10755,
      "减免": 10756,
      "出租": 10757,
      "出来的": 10758,
      "分列": 10759,
      "则是": 10760,
      "创意": 10761,
      "利害": 10762,
      "动荡": 10763,
      "半年": 10764,
      "卡拉": 10765,
      "发给": 10766,
      "号公约": 10767,
      "名册": 10768,
      "和谐": 10769,
      "和人权": 10770,
      "和战略": 10771,
      "和培训": 10772,
      "和控制": 10773,
      "团伙": 10774,
      "困境": 10775,
      "在各": 10776,
      "在关于": 10777,
      "在其他": 10778,
      "地参与": 10779,
      "大赦": 10780,
      "天内": 10781,
      "契约": 10782,
      "奠定": 10783,
      "奴隶": 10784,
      "完美": 10785,
      "将成为": 10786,
      "尽力": 10787,
      "局的": 10788,
      "巴尔": 10789,
      "布拉": 10790,
      "带着": 10791,
      "年代": 10792,
      "彼得": 10793,
      "心的": 10794,
      "我只是": 10795,
      "我相信": 10796,
      "或不": 10797,
      "或在": 10798,
      "投标": 10799,
      "接着": 10800,
      "搜索": 10801,
      "支柱": 10802,
      "收费": 10803,
      "救助": 10804,
      "斯先生": 10805,
      "斯亚贝": 10806,
      "无疑": 10807,
      "时30": 10808,
      "智能": 10809,
      "更改": 10810,
      "替换": 10811,
      "最为": 10812,
      "有形": 10813,
      "有意": 10814,
      "本着": 10815,
      "根除": 10816,
      "森堡": 10817,
      "模糊": 10818,
      "步伐": 10819,
      "比额": 10820,
      "民用": 10821,
      "民众国": 10822,
      "氯化": 10823,
      "水的": 10824,
      "沉默": 10825,
      "法外": 10826,
      "活力": 10827,
      "混乱": 10828,
      "源于": 10829,
      "演变": 10830,
      "照会": 10831,
      "爆发": 10832,
      "特丹": 10833,
      "特权": 10834,
      "玩具": 10835,
      "理念": 10836,
      "瓦纳": 10837,
      "甄选": 10838,
      "生境": 10839,
      "的前": 10840,
      "的热": 10841,
      "的会员国": 10842,
      "的军事": 10843,
      "的唯一": 10844,
      "矿物": 10845,
      "票弃权": 10846,
      "租赁": 10847,
      "等级": 10848,
      "细节": 10849,
      "绑架": 10850,
      "给了": 10851,
      "绳之以": 10852,
      "自主": 10853,
      "艰难": 10854,
      "花费": 10855,
      "被称为": 10856,
      "警卫": 10857,
      "记忆": 10858,
      "该条约": 10859,
      "说服": 10860,
      "赞助": 10861,
      "起了": 10862,
      "起到": 10863,
      "超出": 10864,
      "较高": 10865,
      "边的": 10866,
      "还要求": 10867,
      "这方面": 10868,
      "进了": 10869,
      "送交": 10870,
      "通告": 10871,
      "通货": 10872,
      "避孕": 10873,
      "采纳": 10874,
      "预备": 10875,
      "饮食": 10876,
      "鹿特丹": 10877,
      "国家工作队": 10878,
      "委员会决定": 10879,
      "联合国儿童基金会": 10880,
      "政府将": 10881,
      "政府机构": 10882,
      "方面取得了": 10883,
      "进行审查": 10884,
      "10年": 10885,
      "通过对": 10886,
      "代表大会": 10887,
      "安全部门": 10888,
      "125": 10889,
      "113": 10890,
      "建议的": 10891,
      "儿童保护": 10892,
      "世界卫生组织": 10893,
      "政策审查": 10894,
      "资源和": 10895,
      "促进和": 10896,
      "使用核武器": 10897,
      "的一系列": 10898,
      "教育方案": 10899,
      "号决议中": 10900,
      "事务副秘书长": 10901,
      "因为他们": 10902,
      "文件中": 10903,
      "全球环境": 10904,
      "共和国总统": 10905,
      "武器的": 10906,
      "作出努力": 10907,
      "其中一个": 10908,
      "行政部门": 10909,
      "进一步的": 10910,
      "170": 10911,
      "进程中": 10912,
      "文化和": 10913,
      "文化遗产": 10914,
      "歧视性": 10915,
      "部队和": 10916,
      "充分的": 10917,
      "具体的": 10918,
      "难民和": 10919,
      "造成了": 10920,
      "刑事法庭": 10921,
      "第63": 10922,
      "恐怖主义行为": 10923,
      "巴勒斯坦被占领土": 10924,
      "的一个重要": 10925,
      "执行情况报告": 10926,
      "证明了": 10927,
      "国际社会的": 10928,
      "医疗服务": 10929,
      "基于性别": 10930,
      "不仅仅": 10931,
      "决策者": 10932,
      "非正式磋商": 10933,
      "最不发达国家的": 10934,
      "各个方面": 10935,
      "的决定草案": 10936,
      "中所占": 10937,
      "评论意见": 10938,
      "COP": 10939,
      "阐述了": 10940,
      "混合行动": 10941,
      "区域和次区域": 10942,
      "的必要性": 10943,
      "加沙地带": 10944,
      "自决权": 10945,
      "基督教": 10946,
      "联合国系统各组织": 10947,
      "内陆发展中国家": 10948,
      "联合国人权事务高级专员办事处": 10949,
      "在这种情况下": 10950,
      "海事组织": 10951,
      "债权人": 10952,
      "圆桌会议": 10953,
      "有罪不罚现象": 10954,
      "马耳他": 10955,
      "斯亚贝巴": 10956,
      "比额表": 10957,
      "绳之以法": 10958,
      "//": 10959,
      "2段": 10960,
      "3名": 10961,
      "4名": 10962,
      "://": 10963,
      "CRP": 10964,
      "EN": 10965,
      "Kh": 10966,
      "MP": 10967,
      "ment": 10968,
      "ow": 10969,
      "se": 10970,
      "一事": 10971,
      "三条": 10972,
      "不法": 10973,
      "不应该": 10974,
      "东欧": 10975,
      "中提出的": 10976,
      "为该": 10977,
      "为联合国": 10978,
      "之时": 10979,
      "之所以": 10980,
      "也未": 10981,
      "事态": 10982,
      "二氧化碳": 10983,
      "于2009年": 10984,
      "于2004年": 10985,
      "交往": 10986,
      "交谈": 10987,
      "产量": 10988,
      "从中": 10989,
      "仿真": 10990,
      "众多": 10991,
      "会前": 10992,
      "但这": 10993,
      "使命": 10994,
      "使我们": 10995,
      "公然": 10996,
      "共产": 10997,
      "养老": 10998,
      "农场": 10999,
      "农药": 11000,
      "分娩": 11001,
      "分裂": 11002,
      "列举": 11003,
      "刚才": 11004,
      "别的": 11005,
      "到的": 11006,
      "加深": 11007,
      "加重": 11008,
      "卢森堡": 11009,
      "名成员": 11010,
      "和妇女": 11011,
      "和贸易": 11012,
      "哪儿": 11013,
      "商店": 11014,
      "在上": 11015,
      "在你": 11016,
      "在经济": 11017,
      "地使用": 11018,
      "处的": 11019,
      "复制": 11020,
      "奖励": 11021,
      "娱乐": 11022,
      "孕妇": 11023,
      "学者": 11024,
      "它对": 11025,
      "实在": 11026,
      "实用": 11027,
      "对他": 11028,
      "对我": 11029,
      "对方": 11030,
      "对不起": 11031,
      "导航": 11032,
      "将该": 11033,
      "小额": 11034,
      "州的": 11035,
      "常见": 11036,
      "广大": 11037,
      "应向": 11038,
      "应有": 11039,
      "异常": 11040,
      "急剧": 11041,
      "截止": 11042,
      "所取得的": 11043,
      "所产生的": 11044,
      "手续": 11045,
      "托克劳": 11046,
      "抚养": 11047,
      "抵抗": 11048,
      "播放": 11049,
      "教堂": 11050,
      "文盲": 11051,
      "新鲜": 11052,
      "无限": 11053,
      "无需": 11054,
      "是如何": 11055,
      "有用": 11056,
      "本决议": 11057,
      "杀人": 11058,
      "概要": 11059,
      "法的": 11060,
      "测定": 11061,
      "渴望": 11062,
      "演讲": 11063,
      "爱情": 11064,
      "特使": 11065,
      "率和": 11066,
      "申明": 11067,
      "留下": 11068,
      "的市场": 11069,
      "的评估": 11070,
      "的增长": 11071,
      "的非政府组织": 11072,
      "的立法": 11073,
      "的内部": 11074,
      "的声明": 11075,
      "的道路": 11076,
      "看作": 11077,
      "看上去": 11078,
      "离婚": 11079,
      "私有": 11080,
      "第30": 11081,
      "精确": 11082,
      "索特派团": 11083,
      "线性": 11084,
      "练习": 11085,
      "给我们": 11086,
      "美丽": 11087,
[...]
