{
  "version": "1.0",
  "truncation": null,
  "padding": null,
  "added_tokens": [
    {
      "id": 0,
      "content": "[UNK]",
      "single_word": false,
      "lstrip": false,
      "rstrip": false,
      "normalized": false,
      "special": true
    },
    {
      "id": 1,
      "content": "[PAD]",
      "single_word": false,
      "lstrip": false,
      "rstrip": false,
      "normalized": false,
      "special": true
    },
    {
      "id": 2,
      "content": "[SOS]",
      "single_word": false,
      "lstrip": false,
      "rstrip": false,
      "normalized": false,
      "special": true
    },
    {
      "id": 3,
      "content": "[EOS]",
      "single_word": false,
      "lstrip": false,
      "rstrip": false,
      "normalized": false,
      "special": true
    }
  ],
  "normalizer": null,
  "pre_tokenizer": {
    "type": "Whitespace"
  },
  "post_processor": null,
  "decoder": null,
  "model": {
    "type": "BPE",
    "dropout": null,
    "unk_token": "[UNK]",
    "continuing_subword_prefix": null,
    "end_of_word_suffix": null,
    "fuse_unk": false,
    "byte_fallback": false,
    "ignore_merges": false,
    "vocab": {
      "[UNK]": 0,
      "[PAD]": 1,
      "[SOS]": 2,
      "[EOS]": 3,
      "!": 4,
      "\"": 5,
      "#": 6,
      "$": 7,
      "%": 8,
      "&": 9,
      "'": 10,
      "(": 11,
      ")": 12,
      "*": 13,
      "+": 14,
      ",": 15,
      "-": 16,
      ".": 17,
      "/": 18,
      "0": 19,
      "1": 20,
      "2": 21,
      "3": 22,
      "4": 23,
      "5": 24,
      "6": 25,
      "7": 26,
      "8": 27,
      "9": 28,
      ":": 29,
      ";": 30,
      "<": 31,
      "=": 32,
      ">": 33,
      "?": 34,
      "[": 35,
      "]": 36,
      "^": 37,
      "_": 38,
      "`": 39,
      "~": 40,
      "°": 41,
      "·": 42,
      "º": 43,
      "é": 44,
      "í": 45,
      "α": 46,
      "β": 47,
      "γ": 48,
      "Ϻ": 49,
      "ٱ": 50,
      "–": 51,
      "—": 52,
      "―": 53,
      "‘": 54,
      "’": 55,
      "“": 56,
      "”": 57,
      "•": 58,
      "…": 59,
      "‧": 60,
      "Ⅱ": 61,
      "ⅶ": 62,
      "∕": 63,
      "∙": 64,
      "√": 65,
      "∶": 66,
      "①": 67,
      "③": 68,
      "④": 69,
      "⑤": 70,
      "⑦": 71,
      "⑴": 72,
      "⑵": 73,
      "⑶": 74,
      "─": 75,
      "━": 76,
      "┘": 77,
      "┰": 78,
      "□": 79,
      "○": 80,
      "●": 81,
      "、": 82,
      "。": 83,
      "〇": 84,
      "〈": 85,
      "〉": 86,
      "《": 87,
      "》": 88,
      "「": 89,
      "」": 90,
      "『": 91,
      "』": 92,
      "【": 93,
      "】": 94,
      "〔": 95,
      "〕": 96,
      "ず": 97,
      "・": 98,
      "㈠": 99,
      "㈡": 100,
      "㈢": 101,
      "㈣": 102,
      "㈤": 103,
      "㈥": 104,
      "㈦": 105,
      "㈨": 106,
      "㈩": 107,
      "㎝": 108,
      "㖸": 109,
      "一": 110,
      "丁": 111,
      "七": 112,
      "万": 113,
      "丈": 114,
      "三": 115,
      "上": 116,
      "下": 117,
      "不": 118,
      "与": 119,
      "丐": 120,
      "丑": 121,
      "专": 122,
      "且": 123,
      "世": 124,
      "丘": 125,
      "丙": 126,
      "业": 127,
      "丛": 128,
      "东": 129,
      "丝": 130,
      "丢": 131,
      "两": 132,
      "严": 133,
      "丧": 134,
      "个": 135,
      "丫": 136,
      "中": 137,
      "丰": 138,
      "串": 139,
      "临": 140,
      "丸": 141,
      "丹": 142,
      "为": 143,
      "主": 144,
      "丽": 145,
      "举": 146,
      "乃": 147,
      "久": 148,
      "么": 149,
      "义": 150,
      "之": 151,
      "乌": 152,
      "乍": 153,
      "乎": 154,
      "乏": 155,
      "乐": 156,
      "乒": 157,
      "乓": 158,
      "乔": 159,
      "乖": 160,
      "乘": 161,
      "乙": 162,
      "九": 163,
      "乞": 164,
      "也": 165,
      "习": 166,
      "乡": 167,
      "书": 168,
      "乩": 169,
      "买": 170,
      "乱": 171,
      "乳": 172,
      "乾": 173,
      "亂": 174,
      "了": 175,
      "予": 176,
      "争": 177,
      "事": 178,
      "二": 179,
      "于": 180,
      "亏": 181,
      "云": 182,
      "互": 183,
      "五": 184,
      "井": 185,
      "亚": 186,
      "些": 187,
      "亞": 188,
      "亟": 189,
      "亡": 190,
      "亢": 191,
      "交": 192,
      "亥": 193,
      "亦": 194,
      "产": 195,
      "亨": 196,
      "亩": 197,
      "享": 198,
      "京": 199,
      "亭": 200,
      "亮": 201,
      "亲": 202,
      "亵": 203,
      "人": 204,
      "亿": 205,
      "什": 206,
      "仁": 207,
      "仅": 208,
      "仆": 209,
      "仇": 210,
      "今": 211,
      "介": 212,
      "仍": 213,
      "从": 214,
      "仑": 215,
      "仓": 216,
      "仔": 217,
      "仕": 218,
      "他": 219,
      "仗": 220,
      "付": 221,
      "仙": 222,
      "代": 223,
      "令": 224,
      "以": 225,
      "仪": 226,
      "们": 227,
      "仰": 228,
      "仲": 229,
      "件": 230,
      "价": 231,
      "任": 232,
      "份": 233,
      "仿": 234,
      "企": 235,
      "伊": 236,
      "伍": 237,
      "伎": 238,
      "伏": 239,
      "伐": 240,
      "休": 241,
      "众": 242,
      "优": 243,
      "伙": 244,
      "会": 245,
      "伞": 246,
      "伟": 247,
      "传": 248,
      "伤": 249,
      "伦": 250,
      "伪": 251,
      "伯": 252,
      "估": 253,
      "伴": 254,
      "伸": 255,
      "伺": 256,
      "似": 257,
      "伽": 258,
      "但": 259,
      "佈": 260,
      "位": 261,
      "低": 262,
      "住": 263,
      "佐": 264,
      "佑": 265,
      "体": 266,
      "佔": 267,
      "何": 268,
      "余": 269,
      "佛": 270,
      "作": 271,
      "你": 272,
      "佣": 273,
      "佩": 274,
      "佰": 275,
      "佳": 276,
      "佼": 277,
      "使": 278,
      "侃": 279,
      "侄": 280,
      "來": 281,
      "侈": 282,
      "例": 283,
      "侍": 284,
      "侏": 285,
      "供": 286,
      "依": 287,
      "侠": 288,
      "侣": 289,
      "侥": 290,
      "侦": 291,
      "侧": 292,
      "侨": 293,
      "侪": 294,
      "侬": 295,
      "侮": 296,
      "侯": 297,
      "侵": 298,
      "便": 299,
      "係": 300,
      "促": 301,
      "俄": 302,
      "俊": 303,
      "俑": 304,
      "俗": 305,
      "俘": 306,
      "俚": 307,
      "保": 308,
      "俞": 309,
      "俟": 310,
      "俠": 311,
      "信": 312,
      "俣": 313,
      "俨": 314,
      "俩": 315,
      "俭": 316,
      "修": 317,
      "俯": 318,
      "俱": 319,
      "俸": 320,
      "俺": 321,
      "俾": 322,
      "倍": 323,
      "們": 324,
      "倒": 325,
      "倘": 326,
      "候": 327,
      "倚": 328,
      "借": 329,
      "倡": 330,
      "倦": 331,
      "倩": 332,
      "倪": 333,
      "倫": 334,
      "债": 335,
      "值": 336,
      "倾": 337,
      "假": 338,
      "偏": 339,
      "偕": 340,
      "做": 341,
      "停": 342,
      "健": 343,
      "偶": 344,
      "偷": 345,
      "偿": 346,
      "傀": 347,
      "傅": 348,
      "傍": 349,
      "傑": 350,
      "備": 351,
      "储": 352,
      "催": 353,
      "傲": 354,
      "傳": 355,
      "傷": 356,
      "傻": 357,
      "傾": 358,
      "像": 359,
      "僚": 360,
      "僧": 361,
      "僭": 362,
      "僵": 363,
      "僻": 364,
      "儀": 365,
      "儂": 366,
      "儆": 367,
      "儒": 368,
      "儡": 369,
      "儿": 370,
      "允": 371,
      "元": 372,
      "兄": 373,
      "充": 374,
      "兆": 375,
      "先": 376,
      "光": 377,
      "克": 378,
      "免": 379,
      "兑": 380,
      "兔": 381,
      "党": 382,
      "兜": 383,
      "入": 384,
      "內": 385,
      "全": 386,
      "八": 387,
      "公": 388,
      "六": 389,
      "兰": 390,
      "共": 391,
      "关": 392,
      "兴": 393,
      "兵": 394,
      "其": 395,
      "具": 396,
      "典": 397,
      "兹": 398,
      "养": 399,
      "兼": 400,
      "兽": 401,
      "内": 402,
      "冈": 403,
      "冉": 404,
      "册": 405,
      "再": 406,
      "冒": 407,
      "冕": 408,
      "冗": 409,
      "写": 410,
      "军": 411,
      "农": 412,
      "冠": 413,
      "冢": 414,
      "冤": 415,
      "冥": 416,
      "冬": 417,
      "冯": 418,
      "冰": 419,
      "冲": 420,
      "决": 421,
      "况": 422,
      "冶": 423,
      "冷": 424,
      "冻": 425,
      "净": 426,
      "凄": 427,
      "准": 428,
      "凉": 429,
      "凋": 430,
      "凌": 431,
      "凍": 432,
      "减": 433,
      "凑": 434,
      "凛": 435,
      "凝": 436,
      "几": 437,
      "凡": 438,
      "凭": 439,
      "凯": 440,
      "凱": 441,
      "凳": 442,
      "凶": 443,
      "凸": 444,
      "凹": 445,
      "出": 446,
      "击": 447,
      "函": 448,
      "凿": 449,
      "刀": 450,
      "刃": 451,
      "分": 452,
      "切": 453,
      "刈": 454,
      "刊": 455,
      "刋": 456,
      "刑": 457,
      "划": 458,
      "列": 459,
      "刘": 460,
      "则": 461,
      "刚": 462,
      "创": 463,
      "初": 464,
      "删": 465,
      "判": 466,
      "別": 467,
      "刨": 468,
      "利": 469,
      "别": 470,
      "刮": 471,
      "到": 472,
      "制": 473,
      "刷": 474,
      "券": 475,
      "刹": 476,
      "刺": 477,
      "刻": 478,
      "剁": 479,
      "剂": 480,
      "剃": 481,
      "則": 482,
      "削": 483,
      "剌": 484,
      "前": 485,
      "剑": 486,
      "剔": 487,
      "剖": 488,
      "剛": 489,
      "剥": 490,
      "剧": 491,
      "剩": 492,
      "剪": 493,
      "副": 494,
      "割": 495,
      "創": 496,
      "剽": 497,
      "劃": 498,
      "劇": 499,
      "劍": 500,
      "劑": 501,
      "力": 502,
      "劝": 503,
      "办": 504,
      "功": 505,
      "加": 506,
      "务": 507,
      "劣": 508,
      "动": 509,
      "助": 510,
      "努": 511,
      "劫": 512,
      "励": 513,
      "劲": 514,
      "劳": 515,
      "効": 516,
      "劾": 517,
      "势": 518,
      "勃": 519,
      "勇": 520,
      "勉": 521,
      "勋": 522,
      "勒": 523,
      "動": 524,
      "勘": 525,
      "勝": 526,
      "募": 527,
      "勤": 528,
      "勺": 529,
      "勾": 530,
      "勿": 531,
      "匀": 532,
      "包": 533,
      "匆": 534,
      "匈": 535,
      "化": 536,
      "北": 537,
      "匙": 538,
      "匝": 539,
      "匠": 540,
      "匡": 541,
      "匣": 542,
      "匪": 543,
      "匮": 544,
      "匹": 545,
      "区": 546,
      "医": 547,
      "匿": 548,
      "區": 549,
      "十": 550,
      "千": 551,
      "升": 552,
      "午": 553,
      "半": 554,
      "华": 555,
      "协": 556,
      "卑": 557,
      "卒": 558,
      "卓": 559,
      "協": 560,
      "单": 561,
      "卖": 562,
      "南": 563,
      "博": 564,
      "卜": 565,
      "占": 566,
      "卡": 567,
      "卢": 568,
      "卤": 569,
      "卦": 570,
      "卧": 571,
      "卫": 572,
      "印": 573,
      "危": 574,
      "即": 575,
      "却": 576,
      "卵": 577,
      "卷": 578,
      "卸": 579,
      "卻": 580,
      "卿": 581,
      "厂": 582,
      "厄": 583,
      "厅": 584,
      "历": 585,
      "厉": 586,
      "压": 587,
      "厌": 588,
      "厕": 589,
      "厘": 590,
      "厚": 591,
      "原": 592,
      "厥": 593,
      "厦": 594,
      "厨": 595,
      "厩": 596,
      "厲": 597,
      "去": 598,
      "县": 599,
      "叁": 600,
      "参": 601,
      "參": 602,
      "又": 603,
      "叉": 604,
      "及": 605,
      "友": 606,
      "双": 607,
      "反": 608,
      "发": 609,
      "叔": 610,
      "取": 611,
      "受": 612,
      "变": 613,
      "叙": 614,
      "叛": 615,
      "叟": 616,
      "叠": 617,
      "口": 618,
      "古": 619,
      "句": 620,
      "另": 621,
      "叨": 622,
      "只": 623,
      "叫": 624,
      "召": 625,
      "叭": 626,
      "叮": 627,
      "可": 628,
      "台": 629,
      "史": 630,
      "右": 631,
      "叵": 632,
      "叶": 633,
      "号": 634,
      "司": 635,
      "叹": 636,
      "叼": 637,
      "叽": 638,
      "吁": 639,
      "吃": 640,
      "各": 641,
      "合": 642,
      "吉": 643,
      "吊": 644,
      "同": 645,
      "名": 646,
      "后": 647,
      "吏": 648,
      "吐": 649,
      "向": 650,
      "吓": 651,
      "吕": 652,
      "吗": 653,
      "君": 654,
      "吝": 655,
      "吞": 656,
      "吠": 657,
      "吡": 658,
      "否": 659,
      "吧": 660,
      "吨": 661,
      "吩": 662,
      "含": 663,
      "听": 664,
      "启": 665,
      "吴": 666,
      "吵": 667,
      "吸": 668,
      "吹": 669,
      "吻": 670,
      "吼": 671,
      "吾": 672,
      "呀": 673,
      "呃": 674,
      "呆": 675,
      "呈": 676,
      "告": 677,
      "呐": 678,
      "呕": 679,
      "员": 680,
      "呢": 681,
      "周": 682,
      "味": 683,
      "呵": 684,
      "呼": 685,
      "命": 686,
      "咀": 687,
      "咆": 688,
      "和": 689,
      "咎": 690,
      "咐": 691,
      "咒": 692,
      "咖": 693,
      "咙": 694,
      "咛": 695,
      "咦": 696,
      "咨": 697,
      "咪": 698,
      "咬": 699,
      "咱": 700,
      "咳": 701,
      "咸": 702,
      "咽": 703,
      "哀": 704,
      "品": 705,
      "哄": 706,
      "哇": 707,
      "哈": 708,
      "哉": 709,
      "哌": 710,
      "响": 711,
      "哎": 712,
      "哑": 713,
      "哒": 714,
      "哗": 715,
      "員": 716,
      "哥": 717,
      "哦": 718,
      "哨": 719,
      "哩": 720,
      "哪": 721,
      "哭": 722,
      "哮": 723,
      "哲": 724,
      "哺": 725,
      "哼": 726,
      "唆": 727,
      "唇": 728,
      "唉": 729,
      "唐": 730,
      "唑": 731,
      "唔": 732,
      "唠": 733,
      "唤": 734,
      "唧": 735,
      "唬": 736,
      "售": 737,
      "唯": 738,
      "唱": 739,
      "唾": 740,
      "啄": 741,
      "商": 742,
      "啉": 743,
      "啊": 744,
      "問": 745,
      "啡": 746,
      "啤": 747,
      "啥": 748,
      "啦": 749,
      "啪": 750,
      "啬": 751,
      "啮": 752,
      "啶": 753,
      "啸": 754,
      "喀": 755,
      "喂": 756,
      "善": 757,
      "喇": 758,
      "喉": 759,
      "喊": 760,
      "喋": 761,
      "喏": 762,
      "喔": 763,
      "喘": 764,
      "喙": 765,
      "喜": 766,
      "喝": 767,
      "喧": 768,
      "單": 769,
      "喳": 770,
      "喷": 771,
      "喹": 772,
      "喻": 773,
      "喽": 774,
      "嗅": 775,
      "嗔": 776,
      "嗖": 777,
      "嗜": 778,
      "嗣": 779,
      "嗤": 780,
      "嗨": 781,
      "嗪": 782,
      "嗯": 783,
      "嗽": 784,
      "嘅": 785,
      "嘈": 786,
      "嘉": 787,
      "嘛": 788,
      "嘱": 789,
      "嘲": 790,
      "嘴": 791,
      "嘶": 792,
      "嘿": 793,
      "噢": 794,
      "器": 795,
      "噩": 796,
      "噪": 797,
      "噬": 798,
      "噶": 799,
      "噼": 800,
      "嚏": 801,
      "嚣": 802,
      "嚷": 803,
      "嚼": 804,
      "囊": 805,
      "囚": 806,
      "四": 807,
      "回": 808,
      "因": 809,
      "团": 810,
      "囤": 811,
      "园": 812,
      "困": 813,
      "围": 814,
      "固": 815,
      "国": 816,
      "图": 817,
      "圃": 818,
      "圆": 819,
      "圈": 820,
      "國": 821,
      "園": 822,
      "圓": 823,
      "圖": 824,
      "團": 825,
      "土": 826,
      "圣": 827,
      "在": 828,
      "圭": 829,
      "地": 830,
      "圳": 831,
      "场": 832,
      "圾": 833,
      "址": 834,
      "坂": 835,
      "均": 836,
      "坊": 837,
      "坎": 838,
      "坏": 839,
      "坐": 840,
      "坑": 841,
      "块": 842,
      "坚": 843,
      "坛": 844,
      "坝": 845,
      "坞": 846,
      "坟": 847,
      "坠": 848,
      "坡": 849,
      "坦": 850,
      "坩": 851,
      "坪": 852,
      "坯": 853,
      "垂": 854,
      "垃": 855,
      "垄": 856,
      "型": 857,
      "垒": 858,
      "垢": 859,
      "垣": 860,
      "垦": 861,
      "垫": 862,
      "垮": 863,
      "埃": 864,
      "埋": 865,
      "城": 866,
      "埔": 867,
      "埗": 868,
      "埚": 869,
      "域": 870,
      "埠": 871,
      "埸": 872,
      "培": 873,
      "基": 874,
      "堂": 875,
      "堅": 876,
      "堆": 877,
      "堑": 878,
      "堕": 879,
      "堡": 880,
      "堤": 881,
      "堪": 882,
      "報": 883,
      "場": 884,
      "堵": 885,
      "塌": 886,
      "塑": 887,
      "塔": 888,
      "塘": 889,
      "塞": 890,
      "填": 891,
      "境": 892,
      "墅": 893,
      "墓": 894,
      "墙": 895,
      "增": 896,
      "墟": 897,
      "墨": 898,
      "墩": 899,
      "壁": 900,
      "壇": 901,
      "壕": 902,
      "壘": 903,
      "壤": 904,
      "士": 905,
      "壮": 906,
      "声": 907,
      "壳": 908,
      "壹": 909,
      "处": 910,
      "备": 911,
      "复": 912,
      "夏": 913,
      "夕": 914,
      "外": 915,
      "多": 916,
      "夜": 917,
      "够": 918,
      "夢": 919,
      "夥": 920,
      "大": 921,
      "天": 922,
      "太": 923,
      "夫": 924,
      "夭": 925,
      "央": 926,
      "夯": 927,
      "失": 928,
      "头": 929,
      "夷": 930,
      "夸": 931,
      "夹": 932,
      "夺": 933,
      "奄": 934,
      "奇": 935,
      "奈": 936,
      "奉": 937,
      "奋": 938,
      "奎": 939,
      "奏": 940,
      "契": 941,
      "奔": 942,
      "奖": 943,
      "套": 944,
      "奠": 945,
      "奢": 946,
      "奥": 947,
      "奧": 948,
      "女": 949,
      "奴": 950,
      "奶": 951,
      "奸": 952,
      "她": 953,
      "好": 954,
      "妁": 955,
      "如": 956,
      "妃": 957,
      "妄": 958,
      "妆": 959,
      "妇": 960,
      "妈": 961,
      "妊": 962,
      "妒": 963,
      "妓": 964,
      "妖": 965,
      "妙": 966,
      "妞": 967,
      "妥": 968,
      "妨": 969,
      "妮": 970,
      "妹": 971,
      "妻": 972,
      "姆": 973,
      "姊": 974,
      "始": 975,
      "姐": 976,
      "姑": 977,
      "姓": 978,
      "委": 979,
      "姘": 980,
      "姚": 981,
      "姜": 982,
      "姨": 983,
      "姬": 984,
      "姻": 985,
      "姿": 986,
      "威": 987,
      "娃": 988,
      "娅": 989,
      "娇": 990,
      "娘": 991,
      "娜": 992,
      "娠": 993,
      "娥": 994,
      "娩": 995,
      "娱": 996,
      "娴": 997,
      "娶": 998,
      "娼": 999,
      "婆": 1000,
      "婉": 1001,
      "婊": 1002,
      "婚": 1003,
      "婢": 1004,
      "婪": 1005,
      "婴": 1006,
      "婶": 1007,
      "媒": 1008,
      "媚": 1009,
      "媛": 1010,
      "媲": 1011,
      "媳": 1012,
      "嫁": 1013,
      "嫂": 1014,
      "嫉": 1015,
      "嫌": 1016,
      "嫣": 1017,
      "嫦": 1018,
      "嫩": 1019,
      "嬉": 1020,
      "子": 1021,
      "孔": 1022,
      "孕": 1023,
      "字": 1024,
      "存": 1025,
      "孙": 1026,
      "孚": 1027,
      "孜": 1028,
      "孝": 1029,
      "孟": 1030,
      "孢": 1031,
      "季": 1032,
      "孤": 1033,
      "学": 1034,
      "孩": 1035,
      "孪": 1036,
      "孳": 1037,
      "孵": 1038,
      "學": 1039,
      "孺": 1040,
      "孽": 1041,
      "宁": 1042,
      "它": 1043,
      "宅": 1044,
      "宇": 1045,
      "守": 1046,
      "安": 1047,
      "宋": 1048,
      "完": 1049,
      "宏": 1050,
      "宕": 1051,
      "宗": 1052,
      "官": 1053,
      "宙": 1054,
      "定": 1055,
      "宛": 1056,
      "宜": 1057,
      "宝": 1058,
      "实": 1059,
      "宠": 1060,
      "审": 1061,
      "客": 1062,
      "宣": 1063,
      "室": 1064,
      "宪": 1065,
      "宫": 1066,
      "宮": 1067,
      "宰": 1068,
      "害": 1069,
      "宴": 1070,
      "宵": 1071,
      "家": 1072,
      "容": 1073,
      "宽": 1074,
      "宾": 1075,
      "宿": 1076,
      "寂": 1077,
      "寄": 1078,
      "密": 1079,
      "寇": 1080,
      "富": 1081,
      "寒": 1082,
      "寓": 1083,
      "寝": 1084,
      "寞": 1085,
      "察": 1086,
      "寡": 1087,
      "實": 1088,
      "寧": 1089,
      "寨": 1090,
      "寮": 1091,
      "寶": 1092,
      "寸": 1093,
      "对": 1094,
      "寺": 1095,
      "寻": 1096,
      "导": 1097,
      "寿": 1098,
      "封": 1099,
      "射": 1100,
      "将": 1101,
      "將": 1102,
      "尉": 1103,
      "尊": 1104,
      "導": 1105,
      "小": 1106,
      "少": 1107,
      "尔": 1108,
      "尖": 1109,
      "尘": 1110,
      "尚": 1111,
      "尝": 1112,
      "尤": 1113,
      "尧": 1114,
      "尬": 1115,
      "就": 1116,
      "尴": 1117,
      "尸": 1118,
      "尺": 1119,
      "尼": 1120,
      "尽": 1121,
      "尾": 1122,
      "尿": 1123,
      "局": 1124,
      "屁": 1125,
      "层": 1126,
      "居": 1127,
      "屆": 1128,
      "屈": 1129,
      "屉": 1130,
      "届": 1131,
      "屋": 1132,
      "屏": 1133,
      "屑": 1134,
      "展": 1135,
      "属": 1136,
      "屠": 1137,
      "屡": 1138,
      "履": 1139,
      "屬": 1140,
      "屯": 1141,
      "山": 1142,
      "屹": 1143,
      "屿": 1144,
      "岁": 1145,
      "岂": 1146,
      "岌": 1147,
      "岐": 1148,
      "岑": 1149,
      "岔": 1150,
      "岖": 1151,
      "岗": 1152,
      "岛": 1153,
      "岡": 1154,
      "岩": 1155,
      "岭": 1156,
      "岳": 1157,
      "岷": 1158,
      "岸": 1159,
      "峙": 1160,
      "峡": 1161,
      "峦": 1162,
      "峨": 1163,
      "峪": 1164,
      "峭": 1165,
      "峰": 1166,
      "島": 1167,
      "峻": 1168,
      "崇": 1169,
      "崎": 1170,
      "崔": 1171,
      "崖": 1172,
      "崗": 1173,
      "崛": 1174,
      "崧": 1175,
      "崩": 1176,
      "崭": 1177,
      "崽": 1178,
      "嵌": 1179,
      "嶼": 1180,
      "巅": 1181,
      "巍": 1182,
      "川": 1183,
      "州": 1184,
      "巡": 1185,
      "巢": 1186,
      "工": 1187,
      "左": 1188,
      "巧": 1189,
      "巨": 1190,
      "巩": 1191,
      "巫": 1192,
      "差": 1193,
      "己": 1194,
      "已": 1195,
      "巴": 1196,
      "巷": 1197,
      "巾": 1198,
      "巿": 1199,
      "币": 1200,
      "市": 1201,
      "布": 1202,
      "帅": 1203,
      "帆": 1204,
      "师": 1205,
      "希": 1206,
      "帐": 1207,
      "帕": 1208,
      "帖": 1209,
      "帘": 1210,
      "帙": 1211,
      "帜": 1212,
      "帝": 1213,
      "带": 1214,
      "帧": 1215,
      "師": 1216,
      "席": 1217,
      "帮": 1218,
      "帶": 1219,
      "帷": 1220,
      "常": 1221,
      "帽": 1222,
      "幅": 1223,
      "幌": 1224,
      "幔": 1225,
      "幕": 1226,
      "幢": 1227,
      "干": 1228,
      "平": 1229,
      "年": 1230,
      "并": 1231,
      "幸": 1232,
      "幻": 1233,
      "幼": 1234,
      "幽": 1235,
      "广": 1236,
      "庄": 1237,
      "庆": 1238,
      "庇": 1239,
      "床": 1240,
      "序": 1241,
      "库": 1242,
      "应": 1243,
      "底": 1244,
      "庖": 1245,
      "店": 1246,
      "庙": 1247,
      "府": 1248,
      "庞": 1249,
      "废": 1250,
      "度": 1251,
      "座": 1252,
      "庫": 1253,
      "庭": 1254,
      "康": 1255,
      "庸": 1256,
      "廉": 1257,
      "廊": 1258,
      "廓": 1259,
      "廖": 1260,
      "廠": 1261,
      "廢": 1262,
      "延": 1263,
      "廷": 1264,
      "建": 1265,
      "开": 1266,
      "异": 1267,
      "弃": 1268,
      "弄": 1269,
      "弈": 1270,
      "弊": 1271,
      "式": 1272,
      "弓": 1273,
      "引": 1274,
      "弗": 1275,
      "弘": 1276,
      "弛": 1277,
      "弟": 1278,
      "张": 1279,
      "弥": 1280,
      "弦": 1281,
      "弧": 1282,
      "弯": 1283,
      "弱": 1284,
      "張": 1285,
      "弹": 1286,
      "强": 1287,
      "彈": 1288,
      "归": 1289,
      "当": 1290,
      "录": 1291,
      "彗": 1292,
      "彝": 1293,
      "形": 1294,
      "彤": 1295,
      "彩": 1296,
      "彭": 1297,
      "彰": 1298,
      "影": 1299,
      "役": 1300,
      "彻": 1301,
      "彼": 1302,
      "往": 1303,
      "征": 1304,
      "径": 1305,
      "待": 1306,
      "徇": 1307,
      "很": 1308,
      "律": 1309,
      "後": 1310,
      "徐": 1311,
      "徑": 1312,
      "徒": 1313,
      "得": 1314,
      "徘": 1315,
      "徙": 1316,
      "從": 1317,
      "御": 1318,
      "循": 1319,
      "微": 1320,
      "徵": 1321,
      "德": 1322,
      "徽": 1323,
      "心": 1324,
      "必": 1325,
      "忆": 1326,
      "忌": 1327,
      "忍": 1328,
      "忏": 1329,
      "忒": 1330,
      "志": 1331,
      "忘": 1332,
      "忙": 1333,
      "忠": 1334,
      "忡": 1335,
      "忧": 1336,
      "快": 1337,
      "念": 1338,
      "忸": 1339,
      "忽": 1340,
      "怀": 1341,
      "态": 1342,
      "怂": 1343,
      "怅": 1344,
      "怎": 1345,
      "怒": 1346,
      "怕": 1347,
      "怖": 1348,
      "怜": 1349,
      "思": 1350,
      "急": 1351,
      "怦": 1352,
      "性": 1353,
      "怨": 1354,
      "怩": 1355,
      "怪": 1356,
      "怯": 1357,
      "总": 1358,
      "恃": 1359,
      "恋": 1360,
      "恍": 1361,
      "恐": 1362,
      "恒": 1363,
      "恕": 1364,
      "恙": 1365,
      "恢": 1366,
      "恤": 1367,
      "恨": 1368,
      "恩": 1369,
      "恪": 1370,
      "恫": 1371,
      "恭": 1372,
      "息": 1373,
      "恰": 1374,
      "恳": 1375,
      "恶": 1376,
      "恼": 1377,
      "恿": 1378,
      "悄": 1379,
      "悉": 1380,
      "悍": 1381,
      "悔": 1382,
      "悖": 1383,
      "悚": 1384,
      "悟": 1385,
      "悠": 1386,
      "患": 1387,
      "悦": 1388,
      "您": 1389,
      "悬": 1390,
      "悯": 1391,
      "悲": 1392,
      "悼": 1393,
      "情": 1394,
      "惆": 1395,
      "惊": 1396,
      "惋": 1397,
      "惑": 1398,
      "惕": 1399,
      "惚": 1400,
      "惜": 1401,
      "惟": 1402,
      "惠": 1403,
      "惡": 1404,
      "惧": 1405,
      "惨": 1406,
      "惩": 1407,
      "惫": 1408,
      "惬": 1409,
      "惮": 1410,
      "惯": 1411,
      "惰": 1412,
      "想": 1413,
      "惶": 1414,
      "惹": 1415,
      "愁": 1416,
      "愈": 1417,
      "愉": 1418,
      "意": 1419,
      "愕": 1420,
      "愚": 1421,
      "愛": 1422,
      "感": 1423,
      "愣": 1424,
      "愤": 1425,
      "愧": 1426,
      "愿": 1427,
      "慈": 1428,
      "慌": 1429,
      "慎": 1430,
      "慑": 1431,
      "慕": 1432,
      "慢": 1433,
      "慧": 1434,
      "慨": 1435,
      "慰": 1436,
      "慶": 1437,
      "慷": 1438,
      "憎": 1439,
      "憧": 1440,
      "憬": 1441,
      "憾": 1442,
      "懂": 1443,
      "懈": 1444,
      "懒": 1445,
      "懦": 1446,
      "懷": 1447,
      "戀": 1448,
      "戈": 1449,
      "戊": 1450,
      "戋": 1451,
      "戏": 1452,
      "成": 1453,
      "我": 1454,
      "戒": 1455,
      "或": 1456,
      "战": 1457,
      "戚": 1458,
      "戛": 1459,
      "截": 1460,
      "戮": 1461,
      "戰": 1462,
      "戲": 1463,
      "戳": 1464,
      "戴": 1465,
      "户": 1466,
      "房": 1467,
      "所": 1468,
      "扁": 1469,
      "扇": 1470,
      "手": 1471,
      "才": 1472,
      "扎": 1473,
      "扑": 1474,
      "打": 1475,
      "扔": 1476,
      "托": 1477,
      "扛": 1478,
      "扣": 1479,
      "执": 1480,
      "扩": 1481,
      "扫": 1482,
      "扬": 1483,
      "扭": 1484,
      "扮": 1485,
      "扯": 1486,
      "扰": 1487,
      "扶": 1488,
      "批": 1489,
      "扼": 1490,
      "找": 1491,
      "承": 1492,
      "技": 1493,
      "抄": 1494,
      "抉": 1495,
      "把": 1496,
      "抑": 1497,
      "抒": 1498,
      "抓": 1499,
      "投": 1500,
      "抗": 1501,
      "折": 1502,
      "抚": 1503,
      "抛": 1504,
      "抢": 1505,
      "护": 1506,
      "报": 1507,
      "抨": 1508,
      "披": 1509,
      "抬": 1510,
      "抱": 1511,
      "抵": 1512,
      "抹": 1513,
      "押": 1514,
      "抽": 1515,
      "拂": 1516,
      "担": 1517,
      "拆": 1518,
      "拇": 1519,
      "拉": 1520,
      "拌": 1521,
      "拍": 1522,
      "拐": 1523,
      "拒": 1524,
      "拓": 1525,
      "拔": 1526,
      "拖": 1527,
      "拗": 1528,
      "拘": 1529,
      "拙": 1530,
      "拚": 1531,
      "招": 1532,
      "拜": 1533,
      "拟": 1534,
      "拢": 1535,
      "拣": 1536,
      "拥": 1537,
      "拦": 1538,
      "拨": 1539,
      "择": 1540,
      "括": 1541,
      "拭": 1542,
      "拮": 1543,
      "拯": 1544,
      "拱": 1545,
      "拳": 1546,
      "拴": 1547,
      "拷": 1548,
      "拼": 1549,
      "拽": 1550,
      "拾": 1551,
      "拿": 1552,
      "持": 1553,
      "挂": 1554,
      "指": 1555,
      "按": 1556,
      "挑": 1557,
      "挖": 1558,
      "挚": 1559,
      "挛": 1560,
      "挝": 1561,
      "挠": 1562,
      "挡": 1563,
      "挣": 1564,
      "挤": 1565,
      "挥": 1566,
      "挨": 1567,
      "挪": 1568,
      "挫": 1569,
      "振": 1570,
      "挺": 1571,
      "挽": 1572,
      "捆": 1573,
      "捉": 1574,
      "捌": 1575,
      "捍": 1576,
      "捏": 1577,
      "捐": 1578,
      "捕": 1579,
      "捞": 1580,
      "损": 1581,
      "捡": 1582,
      "换": 1583,
      "捣": 1584,
      "捧": 1585,
      "据": 1586,
      "捱": 1587,
      "捲": 1588,
      "捷": 1589,
      "授": 1590,
      "掉": 1591,
      "掌": 1592,
      "掏": 1593,
      "掐": 1594,
      "排": 1595,
      "掘": 1596,
      "掠": 1597,
      "探": 1598,
      "掣": 1599,
      "接": 1600,
      "控": 1601,
      "推": 1602,
      "掩": 1603,
      "措": 1604,
      "掰": 1605,
      "掳": 1606,
      "掷": 1607,
      "掺": 1608,
      "揉": 1609,
      "揍": 1610,
      "描": 1611,
      "提": 1612,
      "插": 1613,
      "揚": 1614,
      "握": 1615,
      "揩": 1616,
      "揪": 1617,
      "揭": 1618,
      "援": 1619,
      "揽": 1620,
      "揿": 1621,
      "搁": 1622,
      "搂": 1623,
      "搅": 1624,
      "搋": 1625,
      "搏": 1626,
      "搐": 1627,
      "搓": 1628,
      "搜": 1629,
      "搞": 1630,
      "搪": 1631,
      "搬": 1632,
      "搭": 1633,
      "携": 1634,
      "搽": 1635,
      "摁": 1636,
      "摄": 1637,
      "摆": 1638,
      "摇": 1639,
      "摈": 1640,
      "摊": 1641,
      "摒": 1642,
      "摔": 1643,
      "摘": 1644,
      "摧": 1645,
      "摩": 1646,
      "摸": 1647,
      "摺": 1648,
      "撂": 1649,
      "撅": 1650,
      "撇": 1651,
      "撑": 1652,
      "撒": 1653,
      "撕": 1654,
      "撞": 1655,
      "撤": 1656,
      "撩": 1657,
      "播": 1658,
      "撮": 1659,
      "撰": 1660,
      "擅": 1661,
      "擊": 1662,
      "操": 1663,
      "擎": 1664,
      "擦": 1665,
      "攀": 1666,
      "攒": 1667,
      "攥": 1668,
      "支": 1669,
      "收": 1670,
      "攸": 1671,
      "改": 1672,
      "攻": 1673,
      "放": 1674,
      "政": 1675,
      "故": 1676,
      "效": 1677,
      "敌": 1678,
      "敏": 1679,
      "救": 1680,
      "敕": 1681,
      "敖": 1682,
      "教": 1683,
      "敝": 1684,
      "敞": 1685,
      "敢": 1686,
      "散": 1687,
      "敦": 1688,
      "敬": 1689,
      "数": 1690,
      "敲": 1691,
      "整": 1692,
      "敷": 1693,
      "數": 1694,
      "文": 1695,
      "斐": 1696,
      "斑": 1697,
      "斓": 1698,
      "斗": 1699,
      "料": 1700,
      "斜": 1701,
      "斟": 1702,
      "斡": 1703,
      "斤": 1704,
      "斥": 1705,
      "斧": 1706,
      "斩": 1707,
      "断": 1708,
      "斯": 1709,
      "新": 1710,
      "方": 1711,
      "於": 1712,
      "施": 1713,
      "旁": 1714,
      "旅": 1715,
      "旋": 1716,
      "族": 1717,
      "旗": 1718,
      "无": 1719,
      "既": 1720,
      "日": 1721,
      "旦": 1722,
      "旧": 1723,
      "旨": 1724,
      "早": 1725,
      "旬": 1726,
      "旭": 1727,
      "旱": 1728,
      "时": 1729,
      "旷": 1730,
      "旺": 1731,
      "昂": 1732,
      "昆": 1733,
      "昌": 1734,
      "明": 1735,
      "昏": 1736,
      "易": 1737,
      "昔": 1738,
      "昙": 1739,
      "星": 1740,
      "映": 1741,
      "春": 1742,
      "昧": 1743,
      "昨": 1744,
      "昭": 1745,
      "是": 1746,
      "昵": 1747,
      "昼": 1748,
      "显": 1749,
      "時": 1750,
      "晃": 1751,
      "晉": 1752,
      "晋": 1753,
      "晌": 1754,
      "晒": 1755,
      "晓": 1756,
      "晕": 1757,
      "晚": 1758,
      "晡": 1759,
      "晤": 1760,
      "晦": 1761,
      "晨": 1762,
      "普": 1763,
      "景": 1764,
      "晰": 1765,
      "晴": 1766,
      "晶": 1767,
      "智": 1768,
      "晾": 1769,
      "暂": 1770,
      "暑": 1771,
      "暖": 1772,
      "暗": 1773,
      "暧": 1774,
      "暨": 1775,
      "暮": 1776,
      "暴": 1777,
      "暹": 1778,
      "曙": 1779,
      "曜": 1780,
      "曝": 1781,
      "曰": 1782,
      "曲": 1783,
      "曳": 1784,
      "更": 1785,
      "書": 1786,
      "曹": 1787,
      "曼": 1788,
      "曾": 1789,
      "替": 1790,
      "最": 1791,
      "會": 1792,
      "月": 1793,
      "有": 1794,
      "朊": 1795,
      "朋": 1796,
      "服": 1797,
      "朔": 1798,
      "朗": 1799,
      "望": 1800,
      "朝": 1801,
      "期": 1802,
      "朦": 1803,
      "木": 1804,
      "未": 1805,
      "末": 1806,
      "本": 1807,
      "札": 1808,
      "术": 1809,
      "朱": 1810,
      "朴": 1811,
      "朵": 1812,
      "机": 1813,
      "朽": 1814,
      "杀": 1815,
      "杂": 1816,
      "权": 1817,
      "杆": 1818,
      "杉": 1819,
      "李": 1820,
      "杏": 1821,
      "材": 1822,
      "村": 1823,
      "杖": 1824,
      "杜": 1825,
      "杞": 1826,
      "束": 1827,
      "杠": 1828,
      "条": 1829,
      "来": 1830,
      "杨": 1831,
      "杭": 1832,
      "杯": 1833,
      "杰": 1834,
      "東": 1835,
      "松": 1836,
      "板": 1837,
      "极": 1838,
      "构": 1839,
      "枉": 1840,
      "析": 1841,
      "枕": 1842,
      "林": 1843,
      "枚": 1844,
      "果": 1845,
      "枝": 1846,
      "枢": 1847,
      "枣": 1848,
      "枪": 1849,
      "枫": 1850,
      "枯": 1851,
      "架": 1852,
      "枷": 1853,
      "柄": 1854,
      "柏": 1855,
      "某": 1856,
      "柑": 1857,
      "染": 1858,
      "柔": 1859,
      "柜": 1860,
      "柠": 1861,
      "查": 1862,
      "柬": 1863,
      "柯": 1864,
      "柱": 1865,
      "柳": 1866,
      "柴": 1867,
      "柿": 1868,
      "栃": 1869,
      "栅": 1870,
      "标": 1871,
      "栈": 1872,
      "栋": 1873,
      "栎": 1874,
      "栏": 1875,
      "树": 1876,
      "栓": 1877,
      "栖": 1878,
      "校": 1879,
      "株": 1880,
      "样": 1881,
      "核": 1882,
      "根": 1883,
      "格": 1884,
      "栽": 1885,
      "桀": 1886,
      "桂": 1887,
      "桃": 1888,
      "框": 1889,
      "案": 1890,
      "桉": 1891,
      "桌": 1892,
      "桐": 1893,
      "桑": 1894,
      "桔": 1895,
      "档": 1896,
      "桥": 1897,
      "桦": 1898,
      "桨": 1899,
      "桩": 1900,
      "桶": 1901,
      "梁": 1902,
      "梅": 1903,
      "梗": 1904,
      "條": 1905,
      "梢": 1906,
      "梦": 1907,
      "梨": 1908,
      "梭": 1909,
      "梯": 1910,
      "械": 1911,
      "梳": 1912,
      "梵": 1913,
      "检": 1914,
      "棉": 1915,
      "棋": 1916,
      "棍": 1917,
      "棒": 1918,
      "棕": 1919,
      "棘": 1920,
      "棚": 1921,
      "森": 1922,
      "棵": 1923,
      "棺": 1924,
      "椅": 1925,
      "植": 1926,
      "椎": 1927,
      "椒": 1928,
      "椭": 1929,
      "楚": 1930,
      "業": 1931,
      "楼": 1932,
      "概": 1933,
      "榄": 1934,
      "榆": 1935,
      "榈": 1936,
      "榉": 1937,
      "榜": 1938,
      "榨": 1939,
      "榮": 1940,
      "榴": 1941,
      "榷": 1942,
      "構": 1943,
      "槌": 1944,
      "槍": 1945,
      "槛": 1946,
      "槟": 1947,
      "槭": 1948,
      "槲": 1949,
      "槽": 1950,
      "樂": 1951,
      "樓": 1952,
      "標": 1953,
      "樟": 1954,
      "模": 1955,
      "横": 1956,
      "樽": 1957,
      "橄": 1958,
      "橋": 1959,
      "橙": 1960,
      "機": 1961,
      "橡": 1962,
      "橫": 1963,
      "橱": 1964,
      "檬": 1965,
      "權": 1966,
      "欠": 1967,
      "次": 1968,
      "欢": 1969,
      "欣": 1970,
      "欧": 1971,
      "欲": 1972,
      "欺": 1973,
      "欽": 1974,
      "款": 1975,
      "歇": 1976,
      "歉": 1977,
      "歌": 1978,
      "歐": 1979,
      "止": 1980,
      "正": 1981,
      "此": 1982,
      "步": 1983,
      "武": 1984,
      "歧": 1985,
      "歪": 1986,
      "歲": 1987,
      "歷": 1988,
      "歹": 1989,
      "死": 1990,
      "歼": 1991,
      "殃": 1992,
      "殆": 1993,
      "殉": 1994,
      "殊": 1995,
      "残": 1996,
      "殖": 1997,
      "殴": 1998,
      "段": 1999,
      "殷": 2000,
      "殿": 2001,
      "毁": 2002,
      "毅": 2003,
      "毋": 2004,
      "母": 2005,
      "每": 2006,
      "毒": 2007,
      "毓": 2008,
      "比": 2009,
      "毕": 2010,
      "毗": 2011,
      "毛": 2012,
      "毫": 2013,
      "毯": 2014,
      "氏": 2015,
      "民": 2016,
      "氓": 2017,
      "气": 2018,
      "氘": 2019,
      "氛": 2020,
      "氟": 2021,
      "氡": 2022,
      "氢": 2023,
      "氣": 2024,
      "氦": 2025,
      "氧": 2026,
      "氨": 2027,
      "氮": 2028,
      "氯": 2029,
      "氰": 2030,
      "水": 2031,
      "永": 2032,
      "汀": 2033,
      "汁": 2034,
      "求": 2035,
      "汇": 2036,
      "汉": 2037,
      "汐": 2038,
      "汗": 2039,
      "汛": 2040,
      "汞": 2041,
      "江": 2042,
      "池": 2043,
      "污": 2044,
      "汤": 2045,
      "汪": 2046,
      "汰": 2047,
      "汲": 2048,
      "汶": 2049,
      "汹": 2050,
      "汽": 2051,
      "沃": 2052,
      "沈": 2053,
      "沉": 2054,
      "沌": 2055,
      "沐": 2056,
      "沒": 2057,
      "沙": 2058,
      "沟": 2059,
      "没": 2060,
      "沥": 2061,
      "沦": 2062,
      "沪": 2063,
      "沫": 2064,
      "沬": 2065,
      "沭": 2066,
      "沮": 2067,
      "河": 2068,
      "沸": 2069,
      "油": 2070,
      "治": 2071,
      "沼": 2072,
      "沾": 2073,
      "沿": 2074,
      "泄": 2075,
      "泉": 2076,
      "泊": 2077,
      "泌": 2078,
      "法": 2079,
      "泛": 2080,
      "泡": 2081,
      "波": 2082,
      "泣": 2083,
      "泥": 2084,
      "注": 2085,
      "泪": 2086,
      "泰": 2087,
      "泳": 2088,
      "泵": 2089,
      "泻": 2090,
      "泼": 2091,
      "泽": 2092,
      "泾": 2093,
      "洁": 2094,
      "洄": 2095,
      "洋": 2096,
      "洒": 2097,
      "洗": 2098,
      "洙": 2099,
      "洛": 2100,
      "洞": 2101,
      "津": 2102,
      "洪": 2103,
      "洲": 2104,
      "活": 2105,
      "洽": 2106,
      "派": 2107,
      "流": 2108,
      "浅": 2109,
      "浆": 2110,
      "浇": 2111,
      "浊": 2112,
      "测": 2113,
      "济": 2114,
      "浏": 2115,
      "浑": 2116,
      "浒": 2117,
      "浓": 2118,
      "浙": 2119,
      "浣": 2120,
      "浦": 2121,
      "浩": 2122,
      "浪": 2123,
      "浮": 2124,
      "浴": 2125,
      "海": 2126,
      "浸": 2127,
      "涂": 2128,
      "涅": 2129,
      "消": 2130,
      "涉": 2131,
      "涌": 2132,
      "涎": 2133,
      "涕": 2134,
      "涛": 2135,
      "涝": 2136,
      "涡": 2137,
      "涤": 2138,
      "润": 2139,
      "涨": 2140,
      "涩": 2141,
      "涯": 2142,
      "液": 2143,
      "涵": 2144,
      "涸": 2145,
      "淀": 2146,
      "淆": 2147,
      "淇": 2148,
      "淋": 2149,
      "淘": 2150,
      "淡": 2151,
      "淤": 2152,
      "淫": 2153,
      "淬": 2154,
      "深": 2155,
      "混": 2156,
      "淹": 2157,
      "淺": 2158,
      "添": 2159,
      "清": 2160,
      "渊": 2161,
      "渌": 2162,
      "渍": 2163,
      "渎": 2164,
      "渐": 2165,
      "渔": 2166,
      "渗": 2167,
      "渝": 2168,
      "渠": 2169,
      "渡": 2170,
      "渣": 2171,
      "渤": 2172,
      "渥": 2173,
      "温": 2174,
      "渭": 2175,
      "港": 2176,
      "渲": 2177,
      "渴": 2178,
      "游": 2179,
      "渺": 2180,
      "湄": 2181,
      "湍": 2182,
      "湎": 2183,
      "湖": 2184,
      "湛": 2185,
      "湮": 2186,
      "湴": 2187,
      "湾": 2188,
      "湿": 2189,
      "溃": 2190,
      "溅": 2191,
      "溉": 2192,
      "源": 2193,
      "溜": 2194,
      "溢": 2195,
      "溥": 2196,
      "溪": 2197,
      "溫": 2198,
      "溯": 2199,
      "溴": 2200,
      "溶": 2201,
      "溺": 2202,
      "滋": 2203,
      "滏": 2204,
      "滑": 2205,
      "滔": 2206,
      "滕": 2207,
      "滙": 2208,
      "滚": 2209,
      "滞": 2210,
      "满": 2211,
      "滤": 2212,
      "滥": 2213,
      "滨": 2214,
      "滩": 2215,
      "滴": 2216,
      "滿": 2217,
      "漂": 2218,
      "漆": 2219,
      "漏": 2220,
      "漓": 2221,
      "演": 2222,
      "漠": 2223,
      "漩": 2224,
      "漫": 2225,
      "潍": 2226,
      "潘": 2227,
      "潜": 2228,
      "潤": 2229,
      "潦": 2230,
      "潭": 2231,
      "潮": 2232,
      "澄": 2233,
      "澜": 2234,
      "澡": 2235,
      "澤": 2236,
      "澳": 2237,
      "激": 2238,
      "濒": 2239,
      "濛": 2240,
      "濤": 2241,
      "濱": 2242,
      "瀆": 2243,
      "瀑": 2244,
      "瀚": 2245,
      "灌": 2246,
      "灘": 2247,
      "灣": 2248,
      "火": 2249,
      "灭": 2250,
      "灯": 2251,
      "灰": 2252,
      "灵": 2253,
      "灸": 2254,
      "灼": 2255,
      "灾": 2256,
      "灿": 2257,
      "炉": 2258,
      "炊": 2259,
      "炎": 2260,
      "炒": 2261,
      "炔": 2262,
      "炖": 2263,
      "炜": 2264,
      "炫": 2265,
      "炬": 2266,
      "炭": 2267,
      "炮": 2268,
      "炸": 2269,
      "点": 2270,
      "為": 2271,
      "炼": 2272,
      "炽": 2273,
      "烁": 2274,
      "烂": 2275,
      "烃": 2276,
      "烈": 2277,
      "烏": 2278,
      "烘": 2279,
      "烙": 2280,
      "烛": 2281,
      "烟": 2282,
      "烤": 2283,
      "烦": 2284,
      "烧": 2285,
      "烫": 2286,
      "热": 2287,
      "烯": 2288,
      "烷": 2289,
      "烹": 2290,
      "焊": 2291,
      "焓": 2292,
      "焕": 2293,
      "焗": 2294,
      "焘": 2295,
      "焙": 2296,
      "焚": 2297,
      "焦": 2298,
      "焰": 2299,
      "然": 2300,
      "煌": 2301,
      "煎": 2302,
      "煤": 2303,
      "照": 2304,
      "煮": 2305,
      "煽": 2306,
      "熄": 2307,
      "熊": 2308,
      "熏": 2309,
      "熔": 2310,
      "熙": 2311,
      "熟": 2312,
      "熨": 2313,
      "熬": 2314,
      "熱": 2315,
      "熵": 2316,
      "燃": 2317,
      "燈": 2318,
      "燎": 2319,
      "燔": 2320,
      "燕": 2321,
      "營": 2322,
      "燥": 2323,
      "爆": 2324,
      "爬": 2325,
      "爭": 2326,
      "爱": 2327,
      "爵": 2328,
      "父": 2329,
      "爷": 2330,
      "爸": 2331,
      "爽": 2332,
      "爾": 2333,
      "片": 2334,
      "版": 2335,
      "牌": 2336,
      "牙": 2337,
      "牛": 2338,
      "牟": 2339,
      "牡": 2340,
      "牢": 2341,
      "牧": 2342,
      "物": 2343,
      "牲": 2344,
      "牵": 2345,
      "特": 2346,
      "牺": 2347,
      "犀": 2348,
      "犁": 2349,
      "犊": 2350,
      "犟": 2351,
      "犬": 2352,
      "犯": 2353,
      "状": 2354,
      "犹": 2355,
      "狀": 2356,
      "狂": 2357,
      "狄": 2358,
      "狐": 2359,
      "狗": 2360,
      "狙": 2361,
      "狠": 2362,
      "狡": 2363,
      "狩": 2364,
      "独": 2365,
      "狭": 2366,
      "狮": 2367,
      "狱": 2368,
      "狸": 2369,
      "狼": 2370,
      "猎": 2371,
      "猕": 2372,
      "猖": 2373,
      "猛": 2374,
      "猜": 2375,
      "猝": 2376,
      "猡": 2377,
      "猥": 2378,
      "猩": 2379,
      "猪": 2380,
      "猫": 2381,
      "猬": 2382,
      "献": 2383,
      "猴": 2384,
      "猾": 2385,
      "獅": 2386,
      "獎": 2387,
      "獗": 2388,
      "獠": 2389,
      "獲": 2390,
      "率": 2391,
      "玉": 2392,
      "王": 2393,
      "玖": 2394,
      "玛": 2395,
      "玩": 2396,
      "玫": 2397,
      "环": 2398,
      "现": 2399,
      "玲": 2400,
      "玷": 2401,
      "玺": 2402,
      "玻": 2403,
      "珀": 2404,
      "珂": 2405,
      "珈": 2406,
      "珊": 2407,
      "珍": 2408,
      "珑": 2409,
      "珞": 2410,
      "珠": 2411,
      "珥": 2412,
      "班": 2413,
      "珲": 2414,
      "球": 2415,
      "琅": 2416,
      "理": 2417,
      "琉": 2418,
      "琌": 2419,
      "琐": 2420,
      "琢": 2421,
      "琪": 2422,
      "琳": 2423,
      "琴": 2424,
      "琺": 2425,
      "琼": 2426,
      "瑕": 2427,
      "瑙": 2428,
      "瑚": 2429,
      "瑜": 2430,
      "瑞": 2431,
      "瑟": 2432,
      "瑰": 2433,
      "瑾": 2434,
      "璃": 2435,
      "璐": 2436,
      "璧": 2437,
      "環": 2438,
      "瓜": 2439,
      "瓣": 2440,
      "瓦": 2441,
      "瓶": 2442,
      "瓷": 2443,
      "甄": 2444,
      "甘": 2445,
      "甚": 2446,
      "甜": 2447,
      "生": 2448,
      "產": 2449,
      "用": 2450,
      "甩": 2451,
      "甫": 2452,
      "甬": 2453,
      "田": 2454,
      "由": 2455,
      "甲": 2456,
      "申": 2457,
      "电": 2458,
      "男": 2459,
      "甸": 2460,
      "町": 2461,
      "画": 2462,
      "甾": 2463,
      "畅": 2464,
      "界": 2465,
      "畏": 2466,
      "畔": 2467,
      "留": 2468,
      "畜": 2469,
      "略": 2470,
      "番": 2471,
      "畫": 2472,
      "異": 2473,
      "畴": 2474,
      "當": 2475,
      "畸": 2476,
      "疆": 2477,
      "疏": 2478,
      "疑": 2479,
      "疗": 2480,
      "疚": 2481,
      "疟": 2482,
      "疡": 2483,
      "疤": 2484,
      "疫": 2485,
      "疯": 2486,
      "疲": 2487,
      "疵": 2488,
      "疹": 2489,
      "疼": 2490,
      "疾": 2491,
      "病": 2492,
      "症": 2493,
      "痉": 2494,
      "痒": 2495,
      "痕": 2496,
      "痘": 2497,
      "痛": 2498,
      "痞": 2499,
      "痢": 2500,
      "痪": 2501,
      "痫": 2502,
      "痰": 2503,
      "痱": 2504,
      "痴": 2505,
      "痹": 2506,
      "痿": 2507,
      "瘘": 2508,
      "瘠": 2509,
      "瘢": 2510,
      "瘤": 2511,
      "瘦": 2512,
      "瘪": 2513,
      "瘫": 2514,
      "瘰": 2515,
      "瘾": 2516,
      "瘿": 2517,
      "療": 2518,
      "癌": 2519,
      "癖": 2520,
      "癫": 2521,
      "登": 2522,
      "發": 2523,
      "白": 2524,
      "百": 2525,
      "皂": 2526,
      "的": 2527,
      "皆": 2528,
      "皇": 2529,
      "皎": 2530,
      "皖": 2531,
      "皙": 2532,
      "皮": 2533,
      "皱": 2534,
      "皿": 2535,
      "盂": 2536,
      "盃": 2537,
      "盆": 2538,
      "盈": 2539,
      "益": 2540,
      "盎": 2541,
      "盏": 2542,
      "盐": 2543,
      "监": 2544,
      "盒": 2545,
      "盔": 2546,
      "盖": 2547,
      "盗": 2548,
      "盘": 2549,
      "盛": 2550,
      "盟": 2551,
      "盧": 2552,
      "目": 2553,
      "盯": 2554,
      "盲": 2555,
      "直": 2556,
      "相": 2557,
      "盼": 2558,
      "盾": 2559,
      "省": 2560,
      "眉": 2561,
      "看": 2562,
      "眔": 2563,
      "真": 2564,
      "眠": 2565,
      "眨": 2566,
      "眩": 2567,
      "眯": 2568,
      "眷": 2569,
      "眼": 2570,
      "着": 2571,
      "睁": 2572,
      "睐": 2573,
      "睑": 2574,
      "睛": 2575,
      "睡": 2576,
      "督": 2577,
      "睦": 2578,
      "睫": 2579,
      "睬": 2580,
      "睹": 2581,
      "睾": 2582,
      "睿": 2583,
      "瞄": 2584,
      "瞅": 2585,
      "瞌": 2586,
      "瞎": 2587,
      "瞒": 2588,
      "瞧": 2589,
      "瞩": 2590,
      "瞪": 2591,
      "瞬": 2592,
      "瞰": 2593,
      "瞳": 2594,
      "瞻": 2595,
      "矛": 2596,
      "矢": 2597,
      "知": 2598,
      "矩": 2599,
      "矫": 2600,
      "短": 2601,
      "矮": 2602,
      "石": 2603,
      "矶": 2604,
      "矾": 2605,
      "矿": 2606,
      "码": 2607,
      "砂": 2608,
      "砌": 2609,
      "砍": 2610,
      "砒": 2611,
      "研": 2612,
      "砖": 2613,
      "砚": 2614,
      "砰": 2615,
      "砲": 2616,
      "破": 2617,
      "砷": 2618,
      "砸": 2619,
      "础": 2620,
      "硂": 2621,
      "硅": 2622,
      "硕": 2623,
      "硝": 2624,
      "硫": 2625,
      "硬": 2626,
      "确": 2627,
      "碌": 2628,
      "碍": 2629,
      "碎": 2630,
      "碑": 2631,
      "碗": 2632,
      "碘": 2633,
      "碞": 2634,
      "碟": 2635,
      "碧": 2636,
      "碩": 2637,
      "碰": 2638,
      "碱": 2639,
      "碳": 2640,
      "磁": 2641,
      "磅": 2642,
      "磋": 2643,
      "磨": 2644,
      "磷": 2645,
      "磺": 2646,
      "礁": 2647,
      "示": 2648,
      "礼": 2649,
      "社": 2650,
      "祀": 2651,
      "祂": 2652,
      "祈": 2653,
      "祉": 2654,
      "祖": 2655,
      "祝": 2656,
      "神": 2657,
      "祟": 2658,
      "祥": 2659,
      "票": 2660,
      "祭": 2661,
      "祷": 2662,
      "祸": 2663,
      "禀": 2664,
      "禁": 2665,
      "禄": 2666,
      "福": 2667,
      "禮": 2668,
      "离": 2669,
      "禽": 2670,
      "禾": 2671,
      "秀": 2672,
      "私": 2673,
      "秃": 2674,
      "秉": 2675,
      "秋": 2676,
      "种": 2677,
      "科": 2678,
      "秒": 2679,
      "秖": 2680,
      "秘": 2681,
      "租": 2682,
      "秤": 2683,
      "秦": 2684,
      "秩": 2685,
      "积": 2686,
      "称": 2687,
      "移": 2688,
      "秽": 2689,
      "稀": 2690,
      "程": 2691,
      "稍": 2692,
      "税": 2693,
      "稚": 2694,
      "稠": 2695,
      "稣": 2696,
      "稳": 2697,
      "稻": 2698,
      "稼": 2699,
      "稽": 2700,
      "稿": 2701,
      "穆": 2702,
      "穴": 2703,
      "究": 2704,
      "穷": 2705,
      "空": 2706,
      "穿": 2707,
      "突": 2708,
      "窃": 2709,
      "窄": 2710,
      "窈": 2711,
      "窍": 2712,
      "窑": 2713,
      "窒": 2714,
      "窕": 2715,
      "窗": 2716,
      "窘": 2717,
      "窝": 2718,
      "窟": 2719,
      "窥": 2720,
      "窦": 2721,
      "立": 2722,
      "竓": 2723,
      "竖": 2724,
      "站": 2725,
      "竞": 2726,
      "竟": 2727,
      "章": 2728,
      "竣": 2729,
      "童": 2730,
      "竭": 2731,
      "端": 2732,
      "竹": 2733,
      "竿": 2734,
      "笃": 2735,
      "笋": 2736,
      "笏": 2737,
      "笑": 2738,
      "笔": 2739,
      "笛": 2740,
      "笠": 2741,
      "符": 2742,
      "笨": 2743,
      "第": 2744,
      "笺": 2745,
      "笼": 2746,
      "等": 2747,
      "筋": 2748,
      "筑": 2749,
      "筒": 2750,
      "答": 2751,
      "策": 2752,
      "筛": 2753,
      "筝": 2754,
      "筵": 2755,
      "筷": 2756,
      "筹": 2757,
      "签": 2758,
      "简": 2759,
      "箍": 2760,
      "箔": 2761,
      "算": 2762,
      "管": 2763,
      "箭": 2764,
      "箱": 2765,
      "節": 2766,
      "篇": 2767,
      "築": 2768,
      "篝": 2769,
      "篡": 2770,
      "篤": 2771,
      "篮": 2772,
      "篱": 2773,
      "篷": 2774,
      "簇": 2775,
      "簧": 2776,
      "簸": 2777,
      "簿": 2778,
      "籍": 2779,
      "米": 2780,
      "类": 2781,
      "籽": 2782,
      "粉": 2783,
      "粒": 2784,
      "粗": 2785,
      "粘": 2786,
      "粟": 2787,
      "粤": 2788,
      "粪": 2789,
      "粮": 2790,
      "粹": 2791,
      "精": 2792,
      "糊": 2793,
      "糕": 2794,
      "糖": 2795,
      "糙": 2796,
      "糟": 2797,
      "糠": 2798,
      "糯": 2799,
      "系": 2800,
      "紀": 2801,
      "約": 2802,
      "紊": 2803,
      "納": 2804,
      "紐": 2805,
      "級": 2806,
      "素": 2807,
      "索": 2808,
      "紧": 2809,
      "紫": 2810,
      "累": 2811,
      "終": 2812,
      "組": 2813,
      "絋": 2814,
      "結": 2815,
      "絕": 2816,
      "絮": 2817,
      "統": 2818,
      "經": 2819,
      "維": 2820,
      "綱": 2821,
      "網": 2822,
      "緊": 2823,
      "線": 2824,
      "縣": 2825,
      "總": 2826,
      "繁": 2827,
      "織": 2828,
      "纂": 2829,
      "纠": 2830,
      "红": 2831,
      "纤": 2832,
      "约": 2833,
      "级": 2834,
      "纨": 2835,
      "纪": 2836,
      "纬": 2837,
      "纯": 2838,
      "纱": 2839,
      "纲": 2840,
      "纳": 2841,
      "纵": 2842,
      "纶": 2843,
      "纷": 2844,
      "纸": 2845,
      "纹": 2846,
      "纺": 2847,
      "纽": 2848,
      "纾": 2849,
      "线": 2850,
      "练": 2851,
      "组": 2852,
      "绅": 2853,
      "细": 2854,
      "织": 2855,
      "终": 2856,
      "绊": 2857,
      "绌": 2858,
      "绍": 2859,
      "经": 2860,
      "绑": 2861,
      "绒": 2862,
      "结": 2863,
      "绕": 2864,
      "绘": 2865,
      "给": 2866,
      "绚": 2867,
      "络": 2868,
      "绝": 2869,
      "绞": 2870,
      "统": 2871,
      "绢": 2872,
      "绣": 2873,
      "绥": 2874,
      "继": 2875,
      "绩": 2876,
      "绪": 2877,
      "续": 2878,
      "绰": 2879,
      "绳": 2880,
      "维": 2881,
      "绵": 2882,
      "绷": 2883,
      "绸": 2884,
      "综": 2885,
      "绿": 2886,
      "缀": 2887,
      "缅": 2888,
      "缆": 2889,
      "缇": 2890,
      "缉": 2891,
      "缎": 2892,
      "缓": 2893,
      "缔": 2894,
      "缕": 2895,
      "编": 2896,
      "缘": 2897,
      "缚": 2898,
      "缝": 2899,
      "缠": 2900,
      "缤": 2901,
      "缩": 2902,
      "缪": 2903,
      "缭": 2904,
      "缮": 2905,
      "缰": 2906,
      "缴": 2907,
      "缸": 2908,
      "缺": 2909,
      "罂": 2910,
      "罐": 2911,
      "网": 2912,
      "罔": 2913,
      "罕": 2914,
      "罗": 2915,
      "罚": 2916,
      "罢": 2917,
      "罩": 2918,
      "罪": 2919,
      "置": 2920,
      "署": 2921,
      "罹": 2922,
      "羁": 2923,
      "羅": 2924,
      "羊": 2925,
      "羌": 2926,
      "美": 2927,
      "羔": 2928,
      "羚": 2929,
      "羞": 2930,
      "羟": 2931,
      "羡": 2932,
      "群": 2933,
      "義": 2934,
      "羰": 2935,
      "羹": 2936,
      "羽": 2937,
      "翁": 2938,
      "翅": 2939,
      "翌": 2940,
      "翔": 2941,
      "翘": 2942,
      "翠": 2943,
      "翩": 2944,
      "翰": 2945,
      "翻": 2946,
      "翼": 2947,
      "耀": 2948,
      "老": 2949,
      "考": 2950,
      "者": 2951,
      "而": 2952,
      "耍": 2953,
      "耐": 2954,
      "耕": 2955,
      "耗": 2956,
      "耘": 2957,
      "耦": 2958,
      "耳": 2959,
      "耶": 2960,
      "耸": 2961,
      "耻": 2962,
      "耽": 2963,
      "聂": 2964,
      "聆": 2965,
      "聊": 2966,
      "聋": 2967,
      "职": 2968,
      "联": 2969,
      "聘": 2970,
      "聚": 2971,
      "聪": 2972,
      "聯": 2973,
      "職": 2974,
      "肃": 2975,
      "肆": 2976,
      "肇": 2977,
      "肉": 2978,
      "肋": 2979,
      "肌": 2980,
      "肓": 2981,
      "肖": 2982,
      "肘": 2983,
      "肚": 2984,
      "肝": 2985,
      "肠": 2986,
      "股": 2987,
      "肢": 2988,
      "肤": 2989,
      "肥": 2990,
      "肩": 2991,
      "肪": 2992,
      "肮": 2993,
      "肯": 2994,
      "肱": 2995,
      "育": 2996,
      "肴": 2997,
      "肺": 2998,
      "肾": 2999,
      "肿": 3000,
      "胀": 3001,
      "胁": 3002,
      "胃": 3003,
      "胄": 3004,
      "胆": 3005,
      "背": 3006,
      "胎": 3007,
      "胖": 3008,
      "胚": 3009,
      "胛": 3010,
      "胜": 3011,
      "胞": 3012,
      "胡": 3013,
      "胧": 3014,
      "胫": 3015,
      "胰": 3016,
      "胳": 3017,
      "胶": 3018,
      "胸": 3019,
      "胺": 3020,
      "能": 3021,
      "脂": 3022,
      "脆": 3023,
      "脉": 3024,
      "脊": 3025,
      "脏": 3026,
      "脑": 3027,
      "脖": 3028,
      "脚": 3029,
      "脫": 3030,
      "脯": 3031,
      "脱": 3032,
      "脸": 3033,
      "脾": 3034,
      "腆": 3035,
      "腈": 3036,
      "腊": 3037,
      "腌": 3038,
      "腐": 3039,
      "腓": 3040,
      "腔": 3041,
      "腥": 3042,
      "腧": 3043,
      "腭": 3044,
      "腮": 3045,
      "腰": 3046,
      "腱": 3047,
      "腸": 3048,
      "腹": 3049,
      "腺": 3050,
      "腻": 3051,
      "腼": 3052,
      "腾": 3053,
      "腿": 3054,
      "膀": 3055,
      "膊": 3056,
      "膏": 3057,
      "膜": 3058,
      "膝": 3059,
      "膠": 3060,
      "膨": 3061,
      "膳": 3062,
      "臀": 3063,
      "臂": 3064,
      "臆": 3065,
      "臣": 3066,
      "自": 3067,
      "臭": 3068,
      "至": 3069,
      "致": 3070,
      "臺": 3071,
      "臻": 3072,
      "舀": 3073,
      "舆": 3074,
      "與": 3075,
      "舉": 3076,
      "舊": 3077,
      "舌": 3078,
      "舍": 3079,
      "舒": 3080,
      "舞": 3081,
      "舟": 3082,
      "航": 3083,
      "般": 3084,
      "舰": 3085,
      "舱": 3086,
      "舵": 3087,
      "舶": 3088,
      "船": 3089,
      "艇": 3090,
      "艘": 3091,
      "艦": 3092,
      "良": 3093,
      "艰": 3094,
      "色": 3095,
      "艳": 3096,
      "艺": 3097,
      "艾": 3098,
      "节": 3099,
      "芋": 3100,
      "芒": 3101,
      "芙": 3102,
      "芜": 3103,
      "芝": 3104,
      "芥": 3105,
      "芦": 3106,
      "芪": 3107,
      "芬": 3108,
      "芭": 3109,
      "芯": 3110,
      "花": 3111,
      "芳": 3112,
      "芹": 3113,
      "芽": 3114,
      "苇": 3115,
      "苍": 3116,
      "苏": 3117,
      "苑": 3118,
      "苒": 3119,
      "苔": 3120,
      "苗": 3121,
      "苛": 3122,
      "苜": 3123,
      "苞": 3124,
      "苟": 3125,
      "苡": 3126,
      "苣": 3127,
      "若": 3128,
      "苦": 3129,
      "苯": 3130,
      "英": 3131,
      "苷": 3132,
      "苹": 3133,
      "茂": 3134,
      "范": 3135,
      "茄": 3136,
      "茅": 3137,
      "茉": 3138,
      "茎": 3139,
      "茜": 3140,
      "茨": 3141,
      "茫": 3142,
      "茬": 3143,
      "茱": 3144,
      "茲": 3145,
      "茵": 3146,
      "茶": 3147,
      "荃": 3148,
      "草": 3149,
      "荏": 3150,
      "荐": 3151,
      "荒": 3152,
      "荚": 3153,
      "荡": 3154,
      "荣": 3155,
      "荧": 3156,
      "荫": 3157,
      "药": 3158,
      "荷": 3159,
      "荼": 3160,
      "莅": 3161,
      "莉": 3162,
      "莊": 3163,
      "莎": 3164,
      "莓": 3165,
      "莫": 3166,
      "莱": 3167,
      "莲": 3168,
      "获": 3169,
      "莹": 3170,
      "莽": 3171,
      "菇": 3172,
      "菊": 3173,
      "菌": 3174,
      "菜": 3175,
      "華": 3176,
      "菱": 3177,
      "菲": 3178,
      "萃": 3179,
      "萄": 3180,
      "萊": 3181,
      "萌": 3182,
      "萎": 3183,
      "萘": 3184,
      "萜": 3185,
      "萝": 3186,
      "萤": 3187,
      "营": 3188,
      "萧": 3189,
      "萨": 3190,
      "萱": 3191,
      "萼": 3192,
      "落": 3193,
      "葆": 3194,
      "葉": 3195,
      "著": 3196,
      "葙": 3197,
      "葛": 3198,
      "葡": 3199,
      "董": 3200,
      "葬": 3201,
      "葱": 3202,
      "葵": 3203,
      "葶": 3204,
      "葺": 3205,
      "蒂": 3206,
      "蒙": 3207,
      "蒜": 3208,
      "蒲": 3209,
      "蒸": 3210,
      "蒿": 3211,
      "蓄": 3212,
      "蓋": 3213,
      "蓝": 3214,
      "蓟": 3215,
      "蓦": 3216,
      "蓬": 3217,
      "蓿": 3218,
      "蔑": 3219,
      "蔓": 3220,
      "蔗": 3221,
      "蔚": 3222,
      "蔡": 3223,
      "蔬": 3224,
      "蔷": 3225,
      "蔻": 3226,
      "蔼": 3227,
      "蔽": 3228,
      "蕃": 3229,
      "蕉": 3230,
      "蕴": 3231,
      "蕾": 3232,
      "薄": 3233,
      "薅": 3234,
      "薇": 3235,
      "薩": 3236,
      "薪": 3237,
      "薯": 3238,
      "薰": 3239,
      "藉": 3240,
      "藏": 3241,
      "藐": 3242,
      "藕": 3243,
      "藝": 3244,
      "藤": 3245,
      "藥": 3246,
      "藩": 3247,
      "藻": 3248,
      "蘇": 3249,
      "蘑": 3250,
      "蘭": 3251,
      "虎": 3252,
      "虏": 3253,
      "虐": 3254,
      "虑": 3255,
      "虔": 3256,
      "虚": 3257,
      "號": 3258,
      "虫": 3259,
      "虹": 3260,
      "虽": 3261,
      "虾": 3262,
      "蚀": 3263,
      "蚁": 3264,
      "蚂": 3265,
      "蚊": 3266,
      "蚝": 3267,
      "蛀": 3268,
      "蛇": 3269,
      "蛋": 3270,
      "蛎": 3271,
      "蛔": 3272,
      "蛙": 3273,
      "蛛": 3274,
      "蛤": 3275,
      "蛮": 3276,
      "蜀": 3277,
      "蜂": 3278,
      "蜃": 3279,
      "蜆": 3280,
      "蜍": 3281,
      "蜒": 3282,
      "蜓": 3283,
      "蜗": 3284,
      "蜘": 3285,
      "蜚": 3286,
      "蜜": 3287,
      "蜡": 3288,
      "蜥": 3289,
      "蜴": 3290,
      "蜻": 3291,
      "蜿": 3292,
      "蝇": 3293,
      "蝉": 3294,
      "蝎": 3295,
      "蝗": 3296,
      "蝙": 3297,
      "蝠": 3298,
      "蝴": 3299,
      "蝶": 3300,
      "螂": 3301,
      "螃": 3302,
      "螅": 3303,
      "螈": 3304,
      "融": 3305,
      "螢": 3306,
      "螨": 3307,
      "螺": 3308,
      "蟑": 3309,
      "蟒": 3310,
      "蟲": 3311,
      "蟹": 3312,
      "蟾": 3313,
      "蠊": 3314,
      "蠕": 3315,
      "蠢": 3316,
      "血": 3317,
      "衅": 3318,
      "行": 3319,
      "衍": 3320,
      "術": 3321,
      "衔": 3322,
      "街": 3323,
      "衛": 3324,
      "衡": 3325,
      "衣": 3326,
      "补": 3327,
      "表": 3328,
      "衫": 3329,
      "衬": 3330,
      "衰": 3331,
      "衷": 3332,
      "袄": 3333,
      "袋": 3334,
      "袍": 3335,
      "袖": 3336,
      "袜": 3337,
      "袤": 3338,
      "被": 3339,
      "袭": 3340,
      "裁": 3341,
      "裂": 3342,
      "装": 3343,
      "裔": 3344,
      "裕": 3345,
      "裙": 3346,
      "裤": 3347,
      "裨": 3348,
      "裳": 3349,
      "裴": 3350,
      "裸": 3351,
      "裹": 3352,
      "裾": 3353,
      "褐": 3354,
      "褒": 3355,
      "褥": 3356,
      "褪": 3357,
      "褲": 3358,
      "褶": 3359,
      "西": 3360,
      "要": 3361,
      "覆": 3362,
      "見": 3363,
      "視": 3364,
      "親": 3365,
      "覺": 3366,
      "觀": 3367,
      "见": 3368,
      "观": 3369,
      "规": 3370,
      "觅": 3371,
      "视": 3372,
      "览": 3373,
      "觉": 3374,
      "角": 3375,
      "解": 3376,
      "触": 3377,
      "言": 3378,
      "計": 3379,
      "訏": 3380,
      "詩": 3381,
      "詭": 3382,
      "該": 3383,
      "詳": 3384,
      "詹": 3385,
      "誉": 3386,
      "誌": 3387,
      "認": 3388,
      "誓": 3389,
      "語": 3390,
      "說": 3391,
      "論": 3392,
      "諾": 3393,
      "謝": 3394,
      "譚": 3395,
      "譜": 3396,
      "警": 3397,
      "譬": 3398,
      "譯": 3399,
      "議": 3400,
      "護": 3401,
      "讀": 3402,
      "變": 3403,
      "讓": 3404,
      "计": 3405,
      "订": 3406,
      "认": 3407,
      "讥": 3408,
      "讧": 3409,
      "讨": 3410,
      "让": 3411,
      "讪": 3412,
      "讫": 3413,
      "讬": 3414,
      "训": 3415,
      "议": 3416,
      "讯": 3417,
      "记": 3418,
      "讲": 3419,
      "讶": 3420,
      "许": 3421,
      "讹": 3422,
      "论": 3423,
      "讼": 3424,
      "讽": 3425,
      "设": 3426,
      "访": 3427,
      "诀": 3428,
      "证": 3429,
      "评": 3430,
      "识": 3431,
      "诈": 3432,
      "诉": 3433,
      "诊": 3434,
      "诋": 3435,
      "诌": 3436,
      "词": 3437,
      "译": 3438,
      "试": 3439,
      "诗": 3440,
      "诘": 3441,
      "诚": 3442,
      "话": 3443,
      "诞": 3444,
      "诠": 3445,
      "诡": 3446,
      "询": 3447,
      "该": 3448,
      "详": 3449,
      "诧": 3450,
      "诫": 3451,
      "诬": 3452,
      "语": 3453,
      "误": 3454,
      "诱": 3455,
      "说": 3456,
      "请": 3457,
      "诸": 3458,
      "诺": 3459,
      "读": 3460,
      "诽": 3461,
      "课": 3462,
      "诿": 3463,
      "谁": 3464,
      "调": 3465,
      "谅": 3466,
      "谈": 3467,
      "谊": 3468,
      "谋": 3469,
      "谍": 3470,
      "谎": 3471,
      "谐": 3472,
      "谒": 3473,
      "谓": 3474,
      "谘": 3475,
      "谚": 3476,
      "谛": 3477,
      "谜": 3478,
      "谢": 3479,
      "谣": 3480,
      "谤": 3481,
      "谦": 3482,
      "谨": 3483,
      "谩": 3484,
      "谬": 3485,
      "谭": 3486,
      "谱": 3487,
      "谴": 3488,
      "谵": 3489,
      "谷": 3490,
      "豁": 3491,
      "豆": 3492,
      "豇": 3493,
      "豉": 3494,
      "豌": 3495,
      "豐": 3496,
      "豚": 3497,
      "象": 3498,
      "豪": 3499,
      "豫": 3500,
      "豹": 3501,
      "貂": 3502,
      "貌": 3503,
      "貘": 3504,
      "貝": 3505,
      "財": 3506,
      "賀": 3507,
      "資": 3508,
      "賈": 3509,
      "賓": 3510,
      "質": 3511,
      "賭": 3512,
      "賴": 3513,
      "賺": 3514,
      "賽": 3515,
      "贊": 3516,
      "贝": 3517,
      "贞": 3518,
      "负": 3519,
      "贡": 3520,
      "财": 3521,
      "责": 3522,
      "败": 3523,
      "账": 3524,
      "货": 3525,
      "质": 3526,
      "贩": 3527,
      "贪": 3528,
      "贫": 3529,
      "贬": 3530,
      "购": 3531,
      "贮": 3532,
      "贯": 3533,
      "贱": 3534,
      "贴": 3535,
      "贵": 3536,
      "贷": 3537,
      "贸": 3538,
      "费": 3539,
      "贺": 3540,
      "贼": 3541,
      "贾": 3542,
      "贿": 3543,
      "赁": 3544,
      "赂": 3545,
      "赃": 3546,
      "资": 3547,
      "赈": 3548,
      "赋": 3549,
      "赌": 3550,
      "赎": 3551,
      "赏": 3552,
      "赐": 3553,
      "赔": 3554,
      "赖": 3555,
      "赘": 3556,
      "赚": 3557,
      "赛": 3558,
      "赞": 3559,
      "赠": 3560,
      "赡": 3561,
      "赢": 3562,
      "赣": 3563,
      "赤": 3564,
      "赦": 3565,
      "赫": 3566,
      "走": 3567,
      "赴": 3568,
      "赵": 3569,
      "赶": 3570,
      "起": 3571,
      "趁": 3572,
      "超": 3573,
      "越": 3574,
      "趋": 3575,
      "趙": 3576,
      "趟": 3577,
      "趣": 3578,
      "足": 3579,
      "趾": 3580,
      "跃": 3581,
      "跌": 3582,
      "跑": 3583,
      "跚": 3584,
      "距": 3585,
      "跟": 3586,
      "跨": 3587,
      "跪": 3588,
      "路": 3589,
      "跳": 3590,
      "践": 3591,
      "踊": 3592,
      "踌": 3593,
      "踏": 3594,
      "踢": 3595,
      "踩": 3596,
      "踪": 3597,
      "踱": 3598,
      "蹂": 3599,
      "蹄": 3600,
      "蹈": 3601,
      "蹒": 3602,
      "蹦": 3603,
      "蹭": 3604,
      "蹲": 3605,
      "蹼": 3606,
      "躁": 3607,
      "躇": 3608,
      "躏": 3609,
      "身": 3610,
      "躯": 3611,
      "躲": 3612,
      "躺": 3613,
      "車": 3614,
      "軍": 3615,
      "軟": 3616,
      "軸": 3617,
      "輛": 3618,
      "轉": 3619,
      "车": 3620,
      "轧": 3621,
      "轨": 3622,
      "轩": 3623,
      "转": 3624,
      "轮": 3625,
      "软": 3626,
      "轰": 3627,
      "轴": 3628,
      "轶": 3629,
      "轻": 3630,
      "载": 3631,
      "较": 3632,
      "辅": 3633,
      "辆": 3634,
      "辈": 3635,
      "辉": 3636,
      "辊": 3637,
      "辍": 3638,
      "辐": 3639,
      "辑": 3640,
      "输": 3641,
      "辖": 3642,
      "辙": 3643,
      "辛": 3644,
      "辜": 3645,
      "辞": 3646,
      "辟": 3647,
      "辣": 3648,
      "辨": 3649,
      "辩": 3650,
      "辰": 3651,
      "辱": 3652,
      "農": 3653,
      "边": 3654,
      "辽": 3655,
      "达": 3656,
      "迁": 3657,
      "迄": 3658,
      "迅": 3659,
      "过": 3660,
      "迈": 3661,
      "迎": 3662,
      "运": 3663,
      "近": 3664,
      "返": 3665,
      "还": 3666,
      "这": 3667,
      "进": 3668,
      "远": 3669,
      "违": 3670,
      "连": 3671,
      "迟": 3672,
      "迥": 3673,
      "迦": 3674,
      "迪": 3675,
      "迫": 3676,
      "迭": 3677,
      "述": 3678,
      "迷": 3679,
      "迹": 3680,
      "迺": 3681,
      "追": 3682,
      "退": 3683,
      "送": 3684,
      "适": 3685,
      "逃": 3686,
      "逅": 3687,
      "逆": 3688,
      "选": 3689,
      "逊": 3690,
      "逍": 3691,
      "透": 3692,
      "逐": 3693,
      "递": 3694,
      "途": 3695,
      "逗": 3696,
      "這": 3697,
      "通": 3698,
      "逛": 3699,
      "逝": 3700,
      "逞": 3701,
      "速": 3702,
      "造": 3703,
      "逢": 3704,
      "連": 3705,
      "逮": 3706,
      "進": 3707,
      "逸": 3708,
      "逻": 3709,
      "逼": 3710,
      "逾": 3711,
      "遁": 3712,
      "遂": 3713,
      "遇": 3714,
      "遊": 3715,
      "運": 3716,
      "遍": 3717,
      "遏": 3718,
      "道": 3719,
      "達": 3720,
      "遗": 3721,
      "遙": 3722,
      "遠": 3723,
      "遣": 3724,
      "遥": 3725,
      "遭": 3726,
      "遮": 3727,
      "遴": 3728,
      "遵": 3729,
      "選": 3730,
      "遺": 3731,
      "避": 3732,
      "邀": 3733,
      "邁": 3734,
      "邂": 3735,
      "邃": 3736,
      "邊": 3737,
      "邑": 3738,
      "邓": 3739,
      "那": 3740,
      "邦": 3741,
      "邪": 3742,
      "邮": 3743,
      "邱": 3744,
      "邸": 3745,
      "邹": 3746,
      "邻": 3747,
      "郁": 3748,
      "郊": 3749,
      "郎": 3750,
      "郑": 3751,
      "郡": 3752,
      "部": 3753,
      "郭": 3754,
      "都": 3755,
      "鄂": 3756,
      "鄉": 3757,
      "鄙": 3758,
      "鄧": 3759,
      "酊": 3760,
      "酋": 3761,
      "酌": 3762,
      "配": 3763,
      "酒": 3764,
      "酗": 3765,
      "酚": 3766,
      "酝": 3767,
      "酥": 3768,
      "酪": 3769,
      "酬": 3770,
      "酮": 3771,
      "酯": 3772,
      "酰": 3773,
      "酱": 3774,
      "酵": 3775,
      "酶": 3776,
      "酷": 3777,
      "酸": 3778,
      "酿": 3779,
      "醇": 3780,
      "醉": 3781,
      "醋": 3782,
      "醒": 3783,
      "醚": 3784,
      "醛": 3785,
      "醫": 3786,
      "采": 3787,
      "释": 3788,
      "釋": 3789,
      "里": 3790,
      "重": 3791,
      "野": 3792,
      "量": 3793,
      "金": 3794,
      "釓": 3795,
      "釜": 3796,
      "鈴": 3797,
      "鉀": 3798,
      "鉴": 3799,
      "銀": 3800,
      "銅": 3801,
      "銦": 3802,
      "錄": 3803,
      "錦": 3804,
      "錫": 3805,
      "鍾": 3806,
      "鎬": 3807,
      "鎮": 3808,
      "鎵": 3809,
      "鏡": 3810,
      "鏨": 3811,
      "鐘": 3812,
      "鐵": 3813,
      "鐸": 3814,
      "鑣": 3815,
      "钆": 3816,
      "针": 3817,
      "钉": 3818,
      "钓": 3819,
      "钙": 3820,
      "钚": 3821,
      "钛": 3822,
      "钝": 3823,
      "钞": 3824,
      "钟": 3825,
      "钠": 3826,
      "钡": 3827,
      "钢": 3828,
      "钥": 3829,
      "钦": 3830,
      "钨": 3831,
      "钩": 3832,
      "钮": 3833,
      "钱": 3834,
      "钳": 3835,
      "钴": 3836,
      "钻": 3837,
      "钾": 3838,
      "铀": 3839,
      "铁": 3840,
      "铂": 3841,
      "铃": 3842,
      "铅": 3843,
      "铉": 3844,
      "铐": 3845,
      "铜": 3846,
      "铝": 3847,
      "铣": 3848,
      "铪": 3849,
      "铬": 3850,
      "铭": 3851,
      "铲": 3852,
      "银": 3853,
      "铷": 3854,
      "铸": 3855,
      "铺": 3856,
      "链": 3857,
      "销": 3858,
      "锁": 3859,
      "锂": 3860,
      "锅": 3861,
      "锆": 3862,
      "锈": 3863,
      "锉": 3864,
      "锋": 3865,
      "锌": 3866,
      "锏": 3867,
      "锐": 3868,
      "错": 3869,
      "锚": 3870,
      "锡": 3871,
      "锤": 3872,
      "锥": 3873,
      "锦": 3874,
      "键": 3875,
      "锯": 3876,
      "锰": 3877,
      "锲": 3878,
      "锶": 3879,
      "锹": 3880,
      "锻": 3881,
      "镀": 3882,
      "镁": 3883,
      "镇": 3884,
      "镉": 3885,
      "镍": 3886,
      "镑": 3887,
      "镓": 3888,
      "镖": 3889,
      "镛": 3890,
      "镜": 3891,
      "镰": 3892,
      "镳": 3893,
      "長": 3894,
      "长": 3895,
      "門": 3896,
      "閒": 3897,
      "間": 3898,
      "閘": 3899,
      "閣": 3900,
      "關": 3901,
      "门": 3902,
      "闩": 3903,
      "闪": 3904,
      "闭": 3905,
      "问": 3906,
      "闯": 3907,
      "闲": 3908,
      "间": 3909,
      "闷": 3910,
      "闸": 3911,
      "闹": 3912,
      "闺": 3913,
      "闻": 3914,
      "闽": 3915,
      "阀": 3916,
      "阁": 3917,
      "阂": 3918,
      "阅": 3919,
      "阈": 3920,
      "阉": 3921,
      "阐": 3922,
      "阔": 3923,
      "阜": 3924,
      "队": 3925,
      "阪": 3926,
      "阮": 3927,
      "阱": 3928,
      "防": 3929,
      "阳": 3930,
      "阴": 3931,
      "阵": 3932,
      "阶": 3933,
      "阻": 3934,
      "阿": 3935,
      "陀": 3936,
      "附": 3937,
      "际": 3938,
      "陆": 3939,
      "陈": 3940,
      "陋": 3941,
      "陌": 3942,
      "降": 3943,
      "限": 3944,
      "陛": 3945,
      "陡": 3946,
      "院": 3947,
      "除": 3948,
      "陨": 3949,
      "险": 3950,
      "陪": 3951,
      "陰": 3952,
      "陳": 3953,
      "陵": 3954,
      "陶": 3955,
      "陷": 3956,
      "陸": 3957,
      "隆": 3958,
      "隊": 3959,
      "随": 3960,
      "隐": 3961,
      "隔": 3962,
      "隘": 3963,
      "隙": 3964,
      "際": 3965,
      "障": 3966,
      "隧": 3967,
      "隨": 3968,
      "隶": 3969,
      "难": 3970,
      "雀": 3971,
      "雄": 3972,
      "雅": 3973,
      "集": 3974,
      "雇": 3975,
      "雌": 3976,
      "雍": 3977,
      "雏": 3978,
      "雕": 3979,
      "雙": 3980,
      "雨": 3981,
      "雪": 3982,
      "雯": 3983,
      "雲": 3984,
      "雳": 3985,
      "零": 3986,
      "雷": 3987,
      "電": 3988,
      "雾": 3989,
      "需": 3990,
      "震": 3991,
      "霉": 3992,
      "霍": 3993,
      "霎": 3994,
      "霜": 3995,
      "霞": 3996,
      "露": 3997,
      "霸": 3998,
      "霹": 3999,
      "青": 4000,
      "靓": 4001,
      "靖": 4002,
      "静": 4003,
      "靜": 4004,
      "非": 4005,
      "靠": 4006,
      "靡": 4007,
      "面": 4008,
      "革": 4009,
      "靴": 4010,
      "靶": 4011,
      "鞋": 4012,
      "鞣": 4013,
      "鞭": 4014,
      "韋": 4015,
      "韦": 4016,
      "韧": 4017,
      "韩": 4018,
      "音": 4019,
      "韵": 4020,
      "頁": 4021,
      "頂": 4022,
      "項": 4023,
      "順": 4024,
      "頓": 4025,
      "領": 4026,
      "題": 4027,
      "類": 4028,
      "页": 4029,
      "顶": 4030,
      "顷": 4031,
      "项": 4032,
      "顺": 4033,
      "须": 4034,
      "顽": 4035,
      "顾": 4036,
      "顿": 4037,
      "颁": 4038,
      "颂": 4039,
      "预": 4040,
      "颅": 4041,
      "领": 4042,
      "颇": 4043,
      "颈": 4044,
      "颊": 4045,
      "频": 4046,
      "颓": 4047,
      "颖": 4048,
      "颗": 4049,
      "题": 4050,
      "颚": 4051,
      "颜": 4052,
      "额": 4053,
      "颠": 4054,
      "颤": 4055,
      "颧": 4056,
      "風": 4057,
      "颶": 4058,
      "风": 4059,
      "飓": 4060,
      "飘": 4061,
      "飙": 4062,
      "飛": 4063,
      "飞": 4064,
      "食": 4065,
      "飯": 4066,
      "餐": 4067,
      "館": 4068,
      "饥": 4069,
      "饪": 4070,
      "饭": 4071,
      "饮": 4072,
      "饯": 4073,
      "饰": 4074,
      "饱": 4075,
      "饲": 4076,
      "饵": 4077,
      "饶": 4078,
      "饷": 4079,
      "饺": 4080,
      "饼": 4081,
      "饿": 4082,
      "馀": 4083,
      "馅": 4084,
      "馆": 4085,
      "馈": 4086,
      "馏": 4087,
      "馑": 4088,
      "馒": 4089,
      "首": 4090,
      "香": 4091,
      "馨": 4092,
      "馬": 4093,
      "駐": 4094,
      "驄": 4095,
      "驅": 4096,
      "马": 4097,
      "驮": 4098,
      "驯": 4099,
      "驰": 4100,
      "驱": 4101,
      "驳": 4102,
      "驴": 4103,
      "驶": 4104,
      "驹": 4105,
      "驻": 4106,
      "驼": 4107,
      "驾": 4108,
      "骁": 4109,
      "骂": 4110,
      "骄": 4111,
      "骆": 4112,
      "骇": 4113,
      "骋": 4114,
      "验": 4115,
      "骏": 4116,
      "骑": 4117,
      "骗": 4118,
      "骚": 4119,
      "骜": 4120,
      "骝": 4121,
      "骤": 4122,
      "骨": 4123,
      "骰": 4124,
      "骸": 4125,
      "骼": 4126,
      "髋": 4127,
      "髓": 4128,
      "體": 4129,
      "高": 4130,
      "髦": 4131,
      "髻": 4132,
      "鬥": 4133,
      "鬻": 4134,
      "鬼": 4135,
      "魁": 4136,
      "魂": 4137,
      "魄": 4138,
      "魅": 4139,
      "魏": 4140,
      "魔": 4141,
      "魚": 4142,
      "魯": 4143,
      "鮭": 4144,
      "鯊": 4145,
      "鯛": 4146,
      "鯰": 4147,
      "鯽": 4148,
      "鰧": 4149,
      "鱂": 4150,
      "鱥": 4151,
      "鱼": 4152,
      "鱿": 4153,
      "鲁": 4154,
      "鲍": 4155,
      "鲑": 4156,
      "鲜": 4157,
      "鲤": 4158,
      "鲨": 4159,
      "鲫": 4160,
      "鲸": 4161,
      "鲿": 4162,
      "鳃": 4163,
      "鳄": 4164,
      "鳍": 4165,
      "鳏": 4166,
      "鳓": 4167,
      "鳗": 4168,
      "鳚": 4169,
      "鳞": 4170,
      "鳢": 4171,
      "鳥": 4172,
      "鴨": 4173,
      "鵂": 4174,
      "鵟": 4175,
      "鶹": 4176,
      "鸟": 4177,
      "鸠": 4178,
      "鸡": 4179,
      "鸣": 4180,
      "鸦": 4181,
      "鸭": 4182,
      "鸵": 4183,
      "鸽": 4184,
      "鸿": 4185,
      "鹅": 4186,
      "鹑": 4187,
      "鹤": 4188,
      "鹫": 4189,
      "鹬": 4190,
      "鹭": 4191,
      "鹰": 4192,
      "鹿": 4193,
      "麗": 4194,
      "麝": 4195,
      "麥": 4196,
      "麦": 4197,
      "麪": 4198,
      "麻": 4199,
      "麽": 4200,
      "黄": 4201,
      "黍": 4202,
      "黎": 4203,
      "黏": 4204,
      "黑": 4205,
      "默": 4206,
      "黛": 4207,
      "黜": 4208,
      "黝": 4209,
      "黯": 4210,
      "鼎": 4211,
      "鼓": 4212,
      "鼠": 4213,
      "鼻": 4214,
      "齊": 4215,
      "齐": 4216,
      "齒": 4217,
      "齿": 4218,
      "龄": 4219,
      "龅": 4220,
      "龍": 4221,
      "龙": 4222,
      "龟": 4223,
      "": 4224,
      "": 4225,
      "": 4226,
      "": 4227,
      "": 4228,
      "": 4229,
      "": 4230,
      "": 4231,
      "": 4232,
      "": 4233,
      "": 4234,
      "": 4235,
      "": 4236,
      "": 4237,
      "": 4238,
      "﹣": 4239,
      "！": 4240,
      "％": 4241,
      "＇": 4242,
      "（": 4243,
      "）": 4244,
      "＊": 4245,
      "＋": 4246,
      "，": 4247,
      "－": 4248,
      "．": 4249,
      "／": 4250,
      "０": 4251,
      "１": 4252,
      "２": 4253,
      "３": 4254,
      "４": 4255,
      "５": 4256,
      "６": 4257,
      "７": 4258,
      "８": 4259,
      "９": 4260,
      "：": 4261,
      "；": 4262,
      "＝": 4263,
      "？": 4264,
      "Ｂ": 4265,
      "Ｊ": 4266,
      "Ｏ": 4267,
      "Ｐ": 4268,
      "Ｓ": 4269,
      "Ｔ": 4270,
      "Ｗ": 4271,
      "［": 4272,
      "］": 4273,
      "＿": 4274,
      "ａ": 4275,
      "ｂ": 4276,
      "ｃ": 4277,
      "ｄ": 4278,
      "ｅ": 4279,
      "～": 4280,
      "�": 4281,
      "20": 4282,
      "国家": 4283,
      "委员": 4284,
      "委员会": 4285,
      "问题": 4286,
      "工作": 4287,
      "会议": 4288,
      "200": 4289,
      "联合": 4290,
      "国际": 4291,
      "发展": 4292,
      "联合国": 4293,
      "组织": 4294,
      "我们": 4295,
      "报告": 4296,
      "一个": 4297,
      "19": 4298,
      "政府": 4299,
      "提供": 4300,
      "以及": 4301,
      "方面": 4302,
      "这些": 4303,
      "进行": 4304,
      "社会": 4305,
      "关于": 4306,
      "包括": 4307,
      "情况": 4308,
      "其他": 4309,
      "通过": 4310,
      "方案": 4311,
      "行动": 4312,
      "机构": 4313,
      "10": 4314,
      "所有": 4315,
      "经济": 4316,
      "他们": 4317,
      "有关": 4318,
      "特别": 4319,
      "代表": 4320,
      "执行": 4321,
      "人权": 4322,
      "没有": 4323,
      "人员": 4324,
      "安全": 4325,
      "活动": 4326,
      "妇女": 4327,
      "199": 4328,
      "合作": 4329,
      "公约": 4330,
      "12": 4331,
      "建议": 4332,
      "需要": 4333,
      "可能": 4334,
      "秘书": 4335,
      "计划": 4336,
      "项目": 4337,
      "规定": 4338,
      "可以": 4339,
      "管理": 4340,
      "决议": 4341,
      "技术": 4342,
      "缔约": 4343,
      "大会": 4344,
      "区域": 4345,
      "11": 4346,
      "儿童": 4347,
      "理事": 4348,
      "措施": 4349,
      "权利": 4350,
      "提出": 4351,
      "重要": 4352,
      "理事会": 4353,
      "系统": 4354,
      "法律": 4355,
      "这一": 4356,
      "支持": 4357,
      "世界": 4358,
      "采取": 4359,
      "00": 4360,
      "决定": 4361,
      "必须": 4362,
      "根据": 4363,
      "影响": 4364,
      "服务": 4365,
      "政策": 4366,
      "保护": 4367,
      "资源": 4368,
      "认为": 4369,
      "加强": 4370,
      "继续": 4371,
      "主义": 4372,
      "研究": 4373,
      "使用": 4374,
      "和平": 4375,
      "一些": 4376,
      "要求": 4377,
      "基金": 4378,
      "促进": 4379,
      "努力": 4380,
      "教育": 4381,
      "确保": 4382,
      "能力": 4383,
      "环境": 4384,
      "缔约国": 4385,
      "目标": 4386,
      "主要": 4387,
      "任何": 4388,
      "这种": 4389,
      "成员": 4390,
      "行为": 4391,
      "注意": 4392,
      "人民": 4393,
      "建立": 4394,
      "作为": 4395,
      "美元": 4396,
      "部门": 4397,
      "秘书长": 4398,
      "信息": 4399,
      "已经": 4400,
      "实现": 4401,
      "和国": 4402,
      "全球": 4403,
      "如果": 4404,
      "的人": 4405,
      "--": 4406,
      "因为": 4407,
      "13": 4408,
      "因此": 4409,
      "部分": 4410,
      "中国": 4411,
      "这个": 4412,
      "共和国": 4413,
      "主席": 4414,
      "援助": 4415,
      "协调": 4416,
      "领域": 4417,
      "武器": 4418,
      "提交": 4419,
      "的一": 4420,
      "举行": 4421,
      "关系": 4422,
      "得到": 4423,
      "增加": 4424,
      "有效": 4425,
      "地区": 4426,
      "表示": 4427,
      "考虑": 4428,
      "实施": 4429,
      "各国": 4430,
      "15": 4431,
      "政治": 4432,
      "开展": 4433,
      "非洲": 4434,
      "届会议": 4435,
      "参与": 4436,
      "审议": 4437,
      "持续": 4438,
      "解决": 4439,
      "讨论": 4440,
      "事务": 4441,
      "14": 4442,
      "作用": 4443,
      "程序": 4444,
      "审查": 4445,
      "号决议": 4446,
      "作出": 4447,
      "获得": 4448,
      "方面的": 4449,
      "之间": 4450,
      "指出": 4451,
      "期间": 4452,
      "战略": 4453,
      "美国": 4454,
      "预算": 4455,
      "第二": 4456,
      "相关": 4457,
      "月2": 4458,
      "自己": 4459,
      "的是": 4460,
      "中的": 4461,
      "基础": 4462,
      "9年": 4463,
      "人的": 4464,
      "时间": 4465,
      "能够": 4466,
      "但是": 4467,
      "犯罪": 4468,
      "斯坦": 4469,
      "培训": 4470,
      "正在": 4471,
      "处理": 4472,
      "方法": 4473,
      "提高": 4474,
      "人口": 4475,
      "公司": 4476,
      "小组": 4477,
      "贸易": 4478,
      "其中": 4479,
      "目前": 4480,
      "行政": 4481,
      "标准": 4482,
      "中心": 4483,
      "由于": 4484,
      "的工作": 4485,
      "它们": 4486,
      "而且": 4487,
      "不是": 4488,
      "开始": 4489,
      "资料": 4490,
      "许多": 4491,
      "什么": 4492,
      "机制": 4493,
      "特派": 4494,
      "意见": 4495,
      "同时": 4496,
      "支助": 4497,
      "方式": 4498,
      "数据": 4499,
      "注意到": 4500,
      "特别是": 4501,
      "文件": 4502,
      "发展中": 4503,
      "代表团": 4504,
      "具有": 4505,
      "第一": 4506,
      "取得": 4507,
      "特派团": 4508,
      "参加": 4509,
      "发言": 4510,
      "司法": 4511,
      "5年": 4512,
      "7年": 4513,
      "法院": 4514,
      "30": 4515,
      "任务": 4516,
      "制定": 4517,
      "自由": 4518,
      "8年": 4519,
      "专家": 4520,
      "发展中国家": 4521,
      "投资": 4522,
      "利用": 4523,
      "基本": 4524,
      "条约": 4525,
      "用于": 4526,
      "一步": 4527,
      "及其": 4528,
      "的问题": 4529,
      "的情况": 4530,
      "新的": 4531,
      "安全理事会": 4532,
      "确定": 4533,
      "草案": 4534,
      "了一": 4535,
      "责任": 4536,
      "利亚": 4537,
      "各种": 4538,
      "减少": 4539,
      "办法": 4540,
      "平等": 4541,
      "暴力": 4542,
      "不同": 4543,
      "市场": 4544,
      "文化": 4545,
      "条件": 4546,
      "调查": 4547,
      "必要": 4548,
      "的国家": 4549,
      "进一步": 4550,
      "18": 4551,
      "生活": 4552,
      "制度": 4553,
      "原则": 4554,
      "伙伴": 4555,
      "生产": 4556,
      "对于": 4557,
      "工作人员": 4558,
      "现在": 4559,
      "先生": 4560,
      "16": 4561,
      "开发": 4562,
      "会员": 4563,
      "充分": 4564,
      "家庭": 4565,
      "说明": 4566,
      "进程": 4567,
      "共同": 4568,
      "为了": 4569,
      "机会": 4570,
      "问题的": 4571,
      "尼亚": 4572,
      "议程": 4573,
      "是否": 4574,
      "框架": 4575,
      "冲突": 4576,
      "受到": 4577,
      "应当": 4578,
      "存在": 4579,
      "强调": 4580,
      "建设": 4581,
      "这样": 4582,
      "造成": 4583,
      "民主": 4584,
      "企业": 4585,
      "发生": 4586,
      "评估": 4587,
      "适当": 4588,
      "严重": 4589,
      "具体": 4590,
      "歧视": 4591,
      "会员国": 4592,
      "他的": 4593,
      "希望": 4594,
      "进展": 4595,
      "全面": 4596,
      "分析": 4597,
      "负责": 4598,
      "就是": 4599,
      "17": 4600,
      "6年": 4601,
      "应该": 4602,
      "欧洲": 4603,
      "结果": 4604,
      "难民": 4605,
      "4年": 4606,
      "地方": 4607,
      "接受": 4608,
      "联盟": 4609,
      "不能": 4610,
      "部队": 4611,
      "0年": 4612,
      "和其他": 4613,
      "范围": 4614,
      "资金": 4615,
      "可持续": 4616,
      "如何": 4617,
      "办事": 4618,
      "的报告": 4619,
      "秘书处": 4620,
      "义务": 4621,
      "恐怖": 4622,
      "费用": 4623,
      "阿拉": 4624,
      "一种": 4625,
      "咨询": 4626,
      "此外": 4627,
      "第三": 4628,
      "承诺": 4629,
      "成为": 4630,
      "办事处": 4631,
      "1日": 4632,
      "以便": 4633,
      "人道": 4634,
      "工作组": 4635,
      "你的": 4636,
      "消除": 4637,
      "健康": 4638,
      "大的": 4639,
      "按照": 4640,
      "高级": 4641,
      "个人": 4642,
      "公共": 4643,
      "3年": 4644,
      "一项": 4645,
      "帮助": 4646,
      "12月": 4647,
      "阿拉伯": 4648,
      "各项": 4649,
      "在这": 4650,
      "维持": 4651,
      "国内": 4652,
      "产生": 4653,
      "协助": 4654,
      "改革": 4655,
      "独立": 4656,
      "欢迎": 4657,
      "积极": 4658,
      "议定": 4659,
      "设施": 4660,
      "事项": 4661,
      "以色": 4662,
      "变化": 4663,
      "以色列": 4664,
      "2年": 4665,
      "上的": 4666,
      "性的": 4667,
      "我的": 4668,
      "关切": 4669,
      "预防": 4670,
      "最后": 4671,
      "第2": 4672,
      "并且": 4673,
      "改善": 4674,
      "滋病": 4675,
      "增长": 4676,
      "当局": 4677,
      "形式": 4678,
      "实际": 4679,
      "性别": 4680,
      "正式": 4681,
      "监测": 4682,
      "艾滋病": 4683,
      "限制": 4684,
      "做法": 4685,
      "协定": 4686,
      "知道": 4687,
      "设立": 4688,
      "非常": 4689,
      "议定书": 4690,
      "领土": 4691,
      "立法": 4692,
      ")。": 4693,
      "利益": 4694,
      "或者": 4695,
      "2010": 4696,
      "2011": 4697,
      "以下": 4698,
      "办公": 4699,
      "卫生": 4700,
      "控制": 4701,
      "第五": 4702,
      "人们": 4703,
      "无法": 4704,
      "过程": 4705,
      "缔约方": 4706,
      "军事": 4707,
      "鼓励": 4708,
      "尤其": 4709,
      "时候": 4710,
      "选举": 4711,
      "地位": 4712,
      "挑战": 4713,
      "这是": 4714,
      "人道主义": 4715,
      "例如": 4716,
      "巴勒": 4717,
      "两个": 4718,
      "成果": 4719,
      "禁止": 4720,
      "第6": 4721,
      "尽管": 4722,
      "涉及": 4723,
      "规则": 4724,
      "那些": 4725,
      "银行": 4726,
      "刑事": 4727,
      "业务": 4728,
      "土著": 4729,
      "监督": 4730,
      "规划": 4731,
      "巴勒斯坦": 4732,
      "批准": 4733,
      "安排": 4734,
      "协商": 4735,
      "理会": 4736,
      "一致": 4737,
      "次会议": 4738,
      "第十": 4739,
      "国家的": 4740,
      "之前": 4741,
      "第5": 4742,
      "罗斯": 4743,
      "更多": 4744,
      "仍然": 4745,
      "科学": 4746,
      "综合": 4747,
      "认识": 4748,
      "评价": 4749,
      "领导": 4750,
      "2005年": 4751,
      "2007年": 4752,
      "以来": 4753,
      "财政": 4754,
      "这项": 4755,
      "非政府": 4756,
      "6月": 4757,
      "关注": 4758,
      "安理会": 4759,
      "一般": 4760,
      "某些": 4761,
      "联邦": 4762,
      "原因": 4763,
      "完成": 4764,
      "目的": 4765,
      "直接": 4766,
      "法庭": 4767,
      "金融": 4768,
      "提出的": 4769,
      "介绍": 4770,
      "发达": 4771,
      "履行": 4772,
      "社区": 4773,
      "2009年": 4774,
      "知识": 4775,
      "有关的": 4776,
      "1年": 4777,
      "一切": 4778,
      "优先": 4779,
      "俄罗斯": 4780,
      "完全": 4781,
      "案件": 4782,
      "过去": 4783,
      "保障": 4784,
      "威胁": 4785,
      "就业": 4786,
      "广泛": 4787,
      "比亚": 4788,
      "稳定": 4789,
      "经验": 4790,
      "选择": 4791,
      "产品": 4792,
      "表明": 4793,
      "全国": 4794,
      "状况": 4795,
      "空间": 4796,
      "国际社会": 4797,
      "办公室": 4798,
      "成功": 4799,
      "残疾": 4800,
      "之间的": 4801,
      "发挥": 4802,
      "第3": 4803,
      "谈判": 4804,
      "恐怖主义": 4805,
      "武装": 4806,
      "结束": 4807,
      "结构": 4808,
      "之后": 4809,
      "呼吁": 4810,
      "种族": 4811,
      "2012": 4812,
      "虽然": 4813,
      "2010年": 4814,
      "出现": 4815,
      "星期": 4816,
      "的权利": 4817,
      "第4": 4818,
      "2011年": 4819,
      "的影响": 4820,
      "观察": 4821,
      "集团": 4822,
      "一次": 4823,
      "联系": 4824,
      "遵守": 4825,
      "采用": 4826,
      "保健": 4827,
      "保证": 4828,
      "受害": 4829,
      "材料": 4830,
      "防止": 4831,
      "收入": 4832,
      "然而": 4833,
      "的主要": 4834,
      "运动": 4835,
      "需求": 4836,
      "非政府组织": 4837,
      "不会": 4838,
      "总统": 4839,
      "来的": 4840,
      "程度": 4841,
      "长期": 4842,
      "000": 4843,
      "一直": 4844,
      "公民": 4845,
      "国的": 4846,
      "审计": 4847,
      "对话": 4848,
      "现有": 4849,
      "经费": 4850,
      "针对": 4851,
      "协议": 4852,
      "因素": 4853,
      "部长": 4854,
      "2008年": 4855,
      "自己的": 4856,
      "内的": 4857,
      "规定的": 4858,
      "普遍": 4859,
      "设计": 4860,
      "不可": 4861,
      "价值": 4862,
      "内部": 4863,
      "明确": 4864,
      "自然": 4865,
      "警察": 4866,
      "重申": 4867,
      "2006年": 4868,
      "之一": 4869,
      "多数": 4870,
      "24": 4871,
      "加入": 4872,
      "同意": 4873,
      "指导": 4874,
      "推动": 4875,
      "论坛": 4876,
      "到了": 4877,
      "第四": 4878,
      "两年": 4879,
      "准备": 4880,
      "25": 4881,
      "定期": 4882,
      "宣言": 4883,
      "导致": 4884,
      "核武器": 4885,
      "质量": 4886,
      "我们的": 4887,
      "》，": 4888,
      "出口": 4889,
      "感到": 4890,
      "新闻": 4891,
      "最近": 4892,
      "来自": 4893,
      "非法": 4894,
      "内容": 4895,
      "只有": 4896,
      "工程": 4897,
      "网络": 4898,
      "裁军": 4899,
      "重点": 4900,
      "专业": 4901,
      "专门": 4902,
      "农业": 4903,
      "条款": 4904,
      "者的": 4905,
      "专员": 4906,
      "了解": 4907,
      "准则": 4908,
      "好的": 4909,
      "风险": 4910,
      "上述": 4911,
      "劳动": 4912,
      "发现": 4913,
      "土地": 4914,
      "申请": 4915,
      "人类": 4916,
      "反对": 4917,
      "保持": 4918,
      "都是": 4919,
      "2013": 4920,
      "报告员": 4921,
      "他们的": 4922,
      "侵犯": 4923,
      "制订": 4924,
      "所需": 4925,
      "打击": 4926,
      "有助": 4927,
      "设备": 4928,
      "重新": 4929,
      "）。": 4930,
      "城市": 4931,
      "日本": 4932,
      "日至": 4933,
      "的国际": 4934,
      "的一个": 4935,
      "提供了": 4936,
      "尤其是": 4937,
      "生物": 4938,
      "组成": 4939,
      "还有": 4940,
      "2002年": 4941,
      "进行了": 4942,
      "和国际": 4943,
      "大学": 4944,
      "定的": 4945,
      "整个": 4946,
      "经常": 4947,
      "23": 4948,
      "官员": 4949,
      "构成": 4950,
      "死亡": 4951,
      "民族": 4952,
      "的最": 4953,
      "群体": 4954,
      "计算": 4955,
      "不断": 4956,
      "事件": 4957,
      "登记": 4958,
      "财务": 4959,
      "达成": 4960,
      "会议的": 4961,
      "临时": 4962,
      "更加": 4963,
      "符合": 4964,
      "附件": 4965,
      "工作的": 4966,
      "在其": 4967,
      "承认": 4968,
      "拉克": 4969,
      "旨在": 4970,
      "委员会的": 4971,
      "2004年": 4972,
      "198": 4973,
      "重要的": 4974,
      "7月": 4975,
      "的规定": 4976,
      "第六": 4977,
      "适用": 4978,
      "2000年": 4979,
      "组织的": 4980,
      "50": 4981,
      "事实": 4982,
      "改变": 4983,
      "竞争": 4984,
      "结论": 4985,
      "阶段": 4986,
      "提供的": 4987,
      "27": 4988,
      "年度": 4989,
      "证明": 4990,
      "违反": 4991,
      "伙伴关系": 4992,
      "有助于": 4993,
      "估计": 4994,
      "危机": 4995,
      "同样": 4996,
      "扩大": 4997,
      "确认": 4998,
      "在这方面": 4999,
      "不过": 5000,
      "宣传": 5001,
      "气候": 5002,
      "美洲": 5003,
      "青年": 5004,
      "面临": 5005,
      "考虑到": 5006,
      "发达国家": 5007,
      "26": 5008,
      "价格": 5009,
      "关键": 5010,
      "法官": 5011,
      "满足": 5012,
      "资产": 5013,
      "首脑": 5014,
      "2003年": 5015,
      "可持续发展": 5016,
      "合同": 5017,
      "尊重": 5018,
      "我国": 5019,
      "重大": 5020,
      "联合国系统": 5021,
      "宪法": 5022,
      "拥有": 5023,
      "改进": 5024,
      "的重要": 5025,
      "纳入": 5026,
      "给予": 5027,
      "西亚": 5028,
      "请求": 5029,
      "情况下": 5030,
      "28": 5031,
      "印度": 5032,
      "学校": 5033,
      "局势": 5034,
      "是一个": 5035,
      "显示": 5036,
      "粮食": 5037,
      "统计": 5038,
      "\"。": 5039,
      "基于": 5040,
      "学生": 5041,
      "起来": 5042,
      "运输": 5043,
      "一样": 5044,
      "伊拉克": 5045,
      "医疗": 5046,
      "宗教": 5047,
      "电子": 5048,
      "10月": 5049,
      "11月": 5050,
      "2012年": 5051,
      "从而": 5052,
      "和社会": 5053,
      "该国": 5054,
      "还是": 5055,
      "5月": 5056,
      "9月": 5057,
      "一级": 5058,
      "一起": 5059,
      "检查": 5060,
      "能源": 5061,
      "享有": 5062,
      "捐助": 5063,
      "水平": 5064,
      "精神": 5065,
      "编制": 5066,
      "1999年": 5067,
      "2013年": 5068,
      "你们": 5069,
      "力的": 5070,
      "工具": 5071,
      "恢复": 5072,
      "现象": 5073,
      "管制": 5074,
      "维护": 5075,
      "特别报告员": 5076,
      "举行的": 5077,
      "传统": 5078,
      "化学": 5079,
      "成立": 5080,
      "的法律": 5081,
      "贡献": 5082,
      "应对": 5083,
      "很多": 5084,
      "海洋": 5085,
      "的所有": 5086,
      "相互": 5087,
      "贩运": 5088,
      "达到": 5089,
      "通知": 5090,
      "不得": 5091,
      "债务": 5092,
      "外交": 5093,
      "总部": 5094,
      "进入": 5095,
      "22": 5096,
      "也是": 5097,
      "有些": 5098,
      "的能力": 5099,
      "扩散": 5100,
      "看到": 5101,
      "紧急": 5102,
      "而言": 5103,
      "2001年": 5104,
      "1月": 5105,
      "不仅": 5106,
      "保留": 5107,
      "大量": 5108,
      "工业": 5109,
      "意义": 5110,
      "来说": 5111,
      "缺乏": 5112,
      "落实": 5113,
      "农村": 5114,
      "员额": 5115,
      "宣布": 5116,
      "文书": 5117,
      "有人": 5118,
      "记录": 5119,
      "执行情况": 5120,
      "下列": 5121,
      "举办": 5122,
      "收到": 5123,
      "访问": 5124,
      "马里": 5125,
      "国际法": 5126,
      "个月": 5127,
      "创造": 5128,
      "外国": 5129,
      "孩子": 5130,
      "并不": 5131,
      "所述": 5132,
      "编写": 5133,
      "基金会": 5134,
      "维持和平": 5135,
      "交易": 5136,
      "签署": 5137,
      "解释": 5138,
      "成员国": 5139,
      "万美元": 5140,
      "做出": 5141,
      "分配": 5142,
      "危险": 5143,
      "大多数": 5144,
      "寻求": 5145,
      "应用": 5146,
      "最不": 5147,
      "纽约": 5148,
      "通过的": 5149,
      "第五十": 5150,
      "交流": 5151,
      "十分": 5152,
      "日内": 5153,
      "的情况下": 5154,
      "4月": 5155,
      "今天": 5156,
      "令人": 5157,
      "性和": 5158,
      "来源": 5159,
      "森林": 5160,
      "若干": 5161,
      "补充": 5162,
      "两年期": 5163,
      "各方": 5164,
      "回顾": 5165,
      "条例": 5166,
      "规模": 5167,
      "调整": 5168,
      "了一个": 5169,
      "历史": 5170,
      "少数": 5171,
      "成本": 5172,
      "手段": 5173,
      "有限": 5174,
      "特殊": 5175,
      "的方式": 5176,
      "那么": 5177,
      "2014": 5178,
      "倡议": 5179,
      "困难": 5180,
      "当地": 5181,
      "最终": 5182,
      "核心": 5183,
      "毒品": 5184,
      "药物": 5185,
      "酷刑": 5186,
      "进行的": 5187,
      "3月": 5188,
      "亿美元": 5189,
      "加拿": 5190,
      "如此": 5191,
      "29": 5192,
      "40": 5193,
      "不足": 5194,
      "实体": 5195,
      "宪章": 5196,
      "步骤": 5197,
      "比较": 5198,
      "职业": 5199,
      "行动计划": 5200,
      ")；": 5201,
      "多样": 5202,
      "并在": 5203,
      "拟议": 5204,
      "最高": 5205,
      "相信": 5206,
      "避免": 5207,
      "机构的": 5208,
      "从事": 5209,
      "列入": 5210,
      "喜欢": 5211,
      "声明": 5212,
      "多边": 5213,
      "所以": 5214,
      "才能": 5215,
      "效率": 5216,
      "概念": 5217,
      "英语": 5218,
      "议程项目": 5219,
      "受害者": 5220,
      "加拿大": 5221,
      "21": 5222,
      "为此": 5223,
      "允许": 5224,
      "全体": 5225,
      "支付": 5226,
      "生命": 5227,
      "第1": 5228,
      "诉讼": 5229,
      "贫穷": 5230,
      "30日": 5231,
      "艾滋病毒": 5232,
      "%。": 5233,
      "人数": 5234,
      "公平": 5235,
      "召开": 5236,
      "在本": 5237,
      "年来": 5238,
      "贫困": 5239,
      "部署": 5240,
      "里亚": 5241,
      "第二十": 5242,
      "日内瓦": 5243,
      "一份": 5244,
      "下的": 5245,
      "伊斯": 5246,
      "伊朗": 5247,
      "加以": 5248,
      "媒体": 5249,
      "富汗": 5250,
      "性质": 5251,
      "模式": 5252,
      "申诉": 5253,
      "的时候": 5254,
      "阿富汗": 5255,
      "计划署": 5256,
      ")、": 5257,
      "体制": 5258,
      "体系": 5259,
      "商业": 5260,
      "境内": 5261,
      "是在": 5262,
      "有所": 5263,
      "权力": 5264,
      "的发展": 5265,
      "的基础": 5266,
      "香港": 5267,
      "协会": 5268,
      "双方": 5269,
      "感谢": 5270,
      "拘留": 5271,
      "支出": 5272,
      "未来": 5273,
      "的活动": 5274,
      "的措施": 5275,
      "管辖": 5276,
      "障碍": 5277,
      "60": 5278,
      "8月": 5279,
      "》。": 5280,
      "东西": 5281,
      "今后": 5282,
      "发表": 5283,
      "如下": 5284,
      "学习": 5285,
      "实行": 5286,
      "民间": 5287,
      "的信": 5288,
      "职能": 5289,
      "运作": 5290,
      "政府间": 5291,
      "00美元": 5292,
      ")，": 5293,
      "主任": 5294,
      "修订": 5295,
      "全部": 5296,
      "她们": 5297,
      "尚未": 5298,
      "德国": 5299,
      "战争": 5300,
      "敦促": 5301,
      "机关": 5302,
      "英国": 5303,
      "证据": 5304,
      "财产": 5305,
      "采购": 5306,
      "妇女的": 5307,
      "伊斯兰": 5308,
      "似乎": 5309,
      "单位": 5310,
      "反应": 5311,
      "理由": 5312,
      "甚至": 5313,
      "移民": 5314,
      "通常": 5315,
      "发展目标": 5316,
      "提出了": 5317,
      "取得的": 5318,
      "下午": 5319,
      "千年": 5320,
      "有权": 5321,
      "超过": 5322,
      "妇女和": 5323,
      "气候变化": 5324,
      "一定": 5325,
      "供应": 5326,
      "再次": 5327,
      "居民": 5328,
      "提议": 5329,
      "数量": 5330,
      "治疗": 5331,
      "消费": 5332,
      "王国": 5333,
      "的努力": 5334,
      "自愿": 5335,
      "1998年": 5336,
      "提交人": 5337,
      "人力": 5338,
      "公开": 5339,
      "其它": 5340,
      "反映": 5341,
      "合法": 5342,
      "将在": 5343,
      "属于": 5344,
      "然后": 5345,
      "男女": 5346,
      "的建议": 5347,
      "的政策": 5348,
      "统一": 5349,
      "维亚": 5350,
      "苏丹": 5351,
      "33": 5352,
      "31日": 5353,
      "不要": 5354,
      "专题": 5355,
      "只是": 5356,
      "拒绝": 5357,
      "法国": 5358,
      "移徙": 5359,
      "转让": 5360,
      "鉴于": 5361,
      "阿尔": 5362,
      "除了": 5363,
      "首先": 5364,
      "组织和": 5365,
      "方案的": 5366,
      "决议草案": 5367,
      "35": 5368,
      "传播": 5369,
      "依照": 5370,
      "叙利亚": 5371,
      "年的": 5372,
      "提到": 5373,
      "系列": 5374,
      "行的": 5375,
      "过程中": 5376,
      "古巴": 5377,
      "和技术": 5378,
      "所作": 5379,
      "收集": 5380,
      "筹备": 5381,
      "身份": 5382,
      "随着": 5383,
      "三个": 5384,
      "主管": 5385,
      "各个": 5386,
      "女孩": 5387,
      "委会": 5388,
      "议会": 5389,
      "详细": 5390,
      "各国政府": 5391,
      "基础设施": 5392,
      "交通": 5393,
      "告诉": 5394,
      "形成": 5395,
      "往往": 5396,
      "所载": 5397,
      "授权": 5398,
      "班牙": 5399,
      "索马里": 5400,
      "西班牙": 5401,
      "1994年": 5402,
      "观察员": 5403,
      "一名": 5404,
      "刚果": 5405,
      "及社会": 5406,
      "合理": 5407,
      "地点": 5408,
      "墨西": 5409,
      "检察": 5410,
      "每个": 5411,
      "满意": 5412,
      "的事": 5413,
      "纲领": 5414,
      "讲习": 5415,
      "这类": 5416,
      "100": 5417,
      "活动的": 5418,
      "行为的": 5419,
      "适当的": 5420,
      "最不发达国家": 5421,
      "墨西哥": 5422,
      "他说": 5423,
      "以前": 5424,
      "密切": 5425,
      "指控": 5426,
      "本国": 5427,
      "电话": 5428,
      "私营": 5429,
      "语言": 5430,
      "过渡": 5431,
      "遭受": 5432,
      "预期": 5433,
      "民间社会": 5434,
      "保险": 5435,
      "公众": 5436,
      "和经济": 5437,
      "增强": 5438,
      "失所": 5439,
      "女性": 5440,
      "承担": 5441,
      "指标": 5442,
      "流离": 5443,
      "立即": 5444,
      "观点": 5445,
      "重视": 5446,
      "，《": 5447,
      "造成的": 5448,
      "住房": 5449,
      "修正": 5450,
      "劳工": 5451,
      "复杂": 5452,
      "对其": 5453,
      "数字": 5454,
      "此种": 5455,
      "福利": 5456,
      "起诉": 5457,
      "趋势": 5458,
      "顾问": 5459,
      "流离失所": 5460,
      "2月": 5461,
      "——": 5462,
      "以上": 5463,
      "后续": 5464,
      "和保护": 5465,
      "实质": 5466,
      "损害": 5467,
      "的大": 5468,
      "的新": 5469,
      "答复": 5470,
      "适用于": 5471,
      "），": 5472,
      "咨询委员会": 5473,
      "与会": 5474,
      "亚洲": 5475,
      "候选": 5476,
      "出了": 5477,
      "占领": 5478,
      "容易": 5479,
      "巴西": 5480,
      "平民": 5481,
      "本身": 5482,
      "物质": 5483,
      "致力": 5484,
      "赔偿": 5485,
      "通信": 5486,
      "1995年": 5487,
      "和平与": 5488,
      "2014年": 5489,
      "力量": 5490,
      "引起": 5491,
      "的那": 5492,
      "的时间": 5493,
      "透明": 5494,
      "降低": 5495,
      "土著人民": 5496,
      "及社会理事会": 5497,
      "37": 5498,
      "主题": 5499,
      "予以": 5500,
      "任命": 5501,
      "另外": 5502,
      "各级": 5503,
      "审判": 5504,
      "年龄": 5505,
      "心理": 5506,
      "意识": 5507,
      "提案": 5508,
      "的不": 5509,
      "的行为": 5510,
      "相当": 5511,
      "类似": 5512,
      "索赔": 5513,
      "至少": 5514,
      "课程": 5515,
      "行动的": 5516,
      "能力建设": 5517,
      "认识到": 5518,
      "以外": 5519,
      "即使": 5520,
      "当前": 5521,
      "律师": 5522,
      "来越": 5523,
      "每年": 5524,
      "的信息": 5525,
      "目的是": 5526,
      "背景": 5527,
      "越来越": 5528,
      "机构和": 5529,
      "9日": 5530,
      "为什么": 5531,
      "决策": 5532,
      "出席": 5533,
      "另一": 5534,
      "在国家": 5535,
      "在内的": 5536,
      "愿意": 5537,
      "日益": 5538,
      "是个": 5539,
      "比例": 5540,
      "的任何": 5541,
      "试验": 5542,
      "邀请": 5543,
      "非正式": 5544,
      "领域的": 5545,
      "其中包括": 5546,
      "开发署": 5547,
      "首脑会议": 5548,
      "8日": 5549,
      "依据": 5550,
      "日期": 5551,
      "污染": 5552,
      "灾害": 5553,
      "的机会": 5554,
      "的各项": 5555,
      "职责": 5556,
      "虐待": 5557,
      "训练": 5558,
      "迅速": 5559,
      "197": 5560,
      "次会议上": 5561,
      "讲习班": 5562,
      "致力于": 5563,
      "48": 5564,
      "上午": 5565,
      "二十": 5566,
      "任择": 5567,
      "修改": 5568,
      "公正": 5569,
      "几乎": 5570,
      "和联合国": 5571,
      "大利": 5572,
      "技能": 5573,
      "拟订": 5574,
      "明显": 5575,
      "有利": 5576,
      "澳大": 5577,
      "疾病": 5578,
      "的作用": 5579,
      "第7": 5580,
      "罗马": 5581,
      "通报": 5582,
      "集体": 5583,
      "必要的": 5584,
      "范围内": 5585,
      "高级专员": 5586,
      "第六十": 5587,
      "主权": 5588,
      "原子": 5589,
      "和发展": 5590,
      "定义": 5591,
      "岛屿": 5592,
      "态度": 5593,
      "意大利": 5594,
      "特定": 5595,
      "的项目": 5596,
      "至关": 5597,
      "赞赏": 5598,
      "委员会还": 5599,
      "联合王国": 5600,
      "1996年": 5601,
      "的一部分": 5602,
      "领导人": 5603,
      "千年发展目标": 5604,
      "澳大利亚": 5605,
      "34": 5606,
      "不到": 5607,
      "北京": 5608,
      "处于": 5609,
      "损失": 5610,
      "欧盟": 5611,
      "流动": 5612,
      "父母": 5613,
      "真正": 5614,
      "贷款": 5615,
      "预计": 5616,
      "经济及社会理事会": 5617,
      "可能会": 5618,
      "有效的": 5619,
      "不同的": 5620,
      "残疾人": 5621,
      "36": 5622,
      "6日": 5623,
      "世纪": 5624,
      "享受": 5625,
      "化的": 5626,
      "另一个": 5627,
      "团体": 5628,
      "地注意到": 5629,
      "建筑": 5630,
      "当事": 5631,
      "意味": 5632,
      "截至": 5633,
      "有一": 5634,
      "的话": 5635,
      "腐败": 5636,
      "资助": 5637,
      "飞机": 5638,
      "报告中": 5639,
      "通过了": 5640,
      "%，": 5641,
      "下降": 5642,
      "众国": 5643,
      "兴趣": 5644,
      "几个": 5645,
      "制裁": 5646,
      "加勒": 5647,
      "动物": 5648,
      "发出": 5649,
      "商品": 5650,
      "在此": 5651,
      "她的": 5652,
      "带来": 5653,
      "常驻": 5654,
      "平均": 5655,
      "接触": 5656,
      "现代": 5657,
      "用的": 5658,
      "的其他": 5659,
      "的目标": 5660,
      "表决": 5661,
      "足够": 5662,
      "政策和": 5663,
      "人口基金": 5664,
      "人力资源": 5665,
      "任择议定书": 5666,
      "3日": 5667,
      "45": 5668,
      "上诉": 5669,
      "两性": 5670,
      "外部": 5671,
      "大规模": 5672,
      "它的": 5673,
      "怎么": 5674,
      "我想": 5675,
      "投票": 5676,
      "本报告": 5677,
      "此类": 5678,
      "海地": 5679,
      "生态": 5680,
      "生效": 5681,
      "表现": 5682,
      "表达": 5683,
      "贸发": 5684,
      "适应": 5685,
      "途径": 5686,
      "食物": 5687,
      "委员会建议": 5688,
      "儿童权利": 5689,
      "俄罗斯联邦": 5690,
      "加勒比": 5691,
      "7日": 5692,
      "不扩散": 5693,
      "之外": 5694,
      "也不": 5695,
      "以后": 5696,
      "以确保": 5697,
      "及时": 5698,
      "地雷": 5699,
      "担任": 5700,
      "第七": 5701,
      "者和": 5702,
      "行使": 5703,
      "道路": 5704,
      "那个": 5705,
      "：“": 5706,
      "儿童基金会": 5707,
      "专家组": 5708,
      "与会者": 5709,
      "80": 5710,
      "严格": 5711,
      "制造": 5712,
      "国民": 5713,
      "将会": 5714,
      "巴基": 5715,
      "巴嫩": 5716,
      "平衡": 5717,
      "待遇": 5718,
      "执法": 5719,
      "找到": 5720,
      "拉丁": 5721,
      "电视": 5722,
      "磋商": 5723,
      "而不是": 5724,
      "脆弱": 5725,
      "视为": 5726,
      "请秘书长": 5727,
      "达尔": 5728,
      "都有": 5729,
      "重建": 5730,
      "黎巴嫩": 5731,
      "刑事司法": 5732,
      "意味着": 5733,
      "47": 5734,
      "书面": 5735,
      "塞尔": 5736,
      "大约": 5737,
      "小时": 5738,
      "工人": 5739,
      "并将": 5740,
      "延长": 5741,
      "拉夫": 5742,
      "有时": 5743,
      "的行动": 5744,
      "离开": 5745,
      "觉得": 5746,
      "起草": 5747,
      "2015": 5748,
      "2008": 5749,
      "国际公约": 5750,
      "特别代表": 5751,
      "1997年": 5752,
      "----": 5753,
      "欧洲联盟": 5754,
      "私营部门": 5755,
      "中央": 5756,
      "举措": 5757,
      "供资": 5758,
      "停止": 5759,
      "分发": 5760,
      "十年": 5761,
      "名单": 5762,
      "国籍": 5763,
      "大使": 5764,
      "对妇女": 5765,
      "层面": 5766,
      "布隆": 5767,
      "年轻": 5768,
      "本组织": 5769,
      "理解": 5770,
      "破坏": 5771,
      "艺术": 5772,
      "账户": 5773,
      "货物": 5774,
      "集中": 5775,
      "经济和社会": 5776,
      "系统的": 5777,
      "民主共和国": 5778,
      "巴基斯坦": 5779,
      "38": 5780,
      "5日": 5781,
      "。”": 5782,
      "人士": 5783,
      "会计": 5784,
      "作了": 5785,
      "加拉": 5786,
      "压力": 5787,
      "各自": 5788,
      "商定": 5789,
      "增进": 5790,
      "实验": 5791,
      "总体": 5792,
      "投入": 5793,
      "排放": 5794,
      "方针": 5795,
      "时期": 5796,
      "是一": 5797,
      "有可能": 5798,
      "权的": 5799,
      "男子": 5800,
      "研讨": 5801,
      "职位": 5802,
      "辩论": 5803,
      "采取行动": 5804,
      "犯罪和": 5805,
      "第一次": 5806,
      "第三十": 5807,
      "原子能": 5808,
      "剥夺": 5809,
      "学院": 5810,
      "强迫": 5811,
      "探讨": 5812,
      "朋友": 5813,
      "核准": 5814,
      "的儿童": 5815,
      "监狱": 5816,
      "科索": 5817,
      "简单": 5818,
      "袭击": 5819,
      "语文": 5820,
      "报告的": 5821,
      "介绍了": 5822,
      "布隆迪": 5823,
      "科索沃": 5824,
      "中东": 5825,
      "出来": 5826,
      "分子": 5827,
      "分钟": 5828,
      "后果": 5829,
      "在一起": 5830,
      "官方": 5831,
      "客户": 5832,
      "少年": 5833,
      "常设": 5834,
      "开放": 5835,
      "所涉": 5836,
      "核查": 5837,
      "的技术": 5838,
      "的任务": 5839,
      "相对": 5840,
      "补救": 5841,
      "评论": 5842,
      "货币": 5843,
      "那里": 5844,
      "题为": 5845,
      "高兴": 5846,
      "人权理事会": 5847,
      "协调员": 5848,
      "地区的": 5849,
      "高级别": 5850,
      "拉丁美洲": 5851,
      "\"，": 5852,
      "人和": 5853,
      "南部": 5854,
      "在联合国": 5855,
      "救济": 5856,
      "查明": 5857,
      "次级": 5858,
      "理论": 5859,
      "百分": 5860,
      "的合作": 5861,
      "的要求": 5862,
      "科技": 5863,
      "结合": 5864,
      "身体": 5865,
      "行动纲领": 5866,
      "武装冲突": 5867,
      "贸发会议": 5868,
      "研讨会": 5869,
      "32": 5870,
      "一年": 5871,
      "也许": 5872,
      "全世界": 5873,
      "出版": 5874,
      "切实": 5875,
      "刑法": 5876,
      "利比": 5877,
      "南非": 5878,
      "启动": 5879,
      "埃及": 5880,
      "太平": 5881,
      "失业": 5882,
      "子女": 5883,
      "就会": 5884,
      "干事": 5885,
      "打算": 5886,
      "效果": 5887,
      "无论": 5888,
      "汽车": 5889,
      "相同": 5890,
      "第9": 5891,
      "车辆": 5892,
      "会议上": 5893,
      "人权委员会": 5894,
      "采取措施": 5895,
      "更多的": 5896,
      "伤害": 5897,
      "体育": 5898,
      "依赖": 5899,
      "南斯": 5900,
      "双边": 5901,
      "取消": 5902,
      "后的": 5903,
      "和犯罪": 5904,
      "报道": 5905,
      "攻击": 5906,
      "最佳": 5907,
      "的决定": 5908,
      "的地方": 5909,
      "立场": 5910,
      "维和": 5911,
      "良好": 5912,
      "资本": 5913,
      "错误": 5914,
      "政府和": 5915,
      "人权事务": 5916,
      "儿童的": 5917,
      "小组委员会": 5918,
      "开发计划署": 5919,
      "形式的": 5920,
      "利比里亚": 5921,
      "南斯拉夫": 5922,
      "39": 5923,
      "4日": 5924,
      "56": 5925,
      "70": 5926,
      "》、": 5927,
      "不应": 5928,
      "在于": 5929,
      "将继续": 5930,
      "尼日": 5931,
      "居住": 5932,
      "废物": 5933,
      "有的": 5934,
      "本文": 5935,
      "根本": 5936,
      "每一": 5937,
      "派遣": 5938,
      "的方法": 5939,
      "的资料": 5940,
      "跨国": 5941,
      "速度": 5942,
      "遗憾": 5943,
      "包括在": 5944,
      "研究所": 5945,
      "的一项": 5946,
      "特别是在": 5947,
      "维持和平行动": 5948,
      "77": 5949,
      "上升": 5950,
      "使其": 5951,
      "克斯坦": 5952,
      "出生": 5953,
      "利坚": 5954,
      "女士": 5955,
      "推广": 5956,
      "数目": 5957,
      "更好": 5958,
      "朝鲜": 5959,
      "每天": 5960,
      "私人": 5961,
      "美利坚": 5962,
      "自治": 5963,
      "行业": 5964,
      "工作队": 5965,
      "2006": 5966,
      "1993年": 5967,
      "采取了": 5968,
      "信息和": 5969,
      "有效地": 5970,
      "优先事项": 5971,
      "化学品": 5972,
      "太平洋": 5973,
      "美利坚合": 5974,
      "一下": 5975,
      "与其他": 5976,
      "个国家": 5977,
      "主持": 5978,
      "便利": 5979,
      "值得": 5980,
      "克服": 5981,
      "包含": 5982,
      "医生": 5983,
      "卫星": 5984,
      "对此": 5985,
      "思想": 5986,
      "是不": 5987,
      "瑞士": 5988,
      "生殖": 5989,
      "的小": 5990,
      "的支持": 5991,
      "的研究": 5992,
      "的一些": 5993,
      "的具体": 5994,
      "罪行": 5995,
      "高度": 5996,
      "2004": 5997,
      "方案和": 5998,
      "人员的": 5999,
      "全球化": 6000,
      "举行了": 6001,
      "2015年": 6002,
      "41": 6003,
      "49": 6004,
      "与此": 6005,
      "也纳": 6006,
      "公布": 6007,
      "创新": 6008,
      "唯一": 6009,
      "并没有": 6010,
      "斯洛": 6011,
      "混合": 6012,
      "清楚": 6013,
      "用户": 6014,
      "的经济": 6015,
      "监察": 6016,
      "着重": 6017,
      "维也纳": 6018,
      "获取": 6019,
      "规范": 6020,
      "这么": 6021,
      "政府的": 6022,
      "取得了": 6023,
      "了一项": 6024,
      "18日": 6025,
      "实际上": 6026,
      "毒品和犯罪": 6027,
      "多样性": 6028,
      "43": 6029,
      "55": 6030,
      "为基础": 6031,
      "交换": 6032,
      "今年": 6033,
      "使得": 6034,
      "公务": 6035,
      "出的": 6036,
      "卢旺": 6037,
      "变得": 6038,
      "土耳": 6039,
      "在国际": 6040,
      "塞拉": 6041,
      "大家": 6042,
      "富尔": 6043,
      "展开": 6044,
      "巩固": 6045,
      "帝汶": 6046,
      "当然": 6047,
      "教师": 6048,
      "数额": 6049,
      "期限": 6050,
      "根廷": 6051,
      "经历": 6052,
      "营养": 6053,
      "订正": 6054,
      "试图": 6055,
      "这里": 6056,
      "阿根廷": 6057,
      "面对": 6058,
      "所有的": 6059,
      "相关的": 6060,
      "种族歧视": 6061,
      "第四十": 6062,
      "检察官": 6063,
      "达尔富尔": 6064,
      "毒品和犯罪问题": 6065,
      "卢旺达": 6066,
      "土耳其": 6067,
      "59": 6068,
      "伦比亚": 6069,
      "依然": 6070,
      "信托": 6071,
      "功能": 6072,
      "协作": 6073,
      "各地": 6074,
      "哥伦比亚": 6075,
      "回答": 6076,
      "在该": 6077,
      "大部分": 6078,
      "失踪": 6079,
      "婚姻": 6080,
      "实践": 6081,
      "小岛屿": 6082,
      "尔兰": 6083,
      "工资": 6084,
      "很大": 6085,
      "总额": 6086,
      "正如": 6087,
      "殖民": 6088,
      "测试": 6089,
      "清单": 6090,
      "用来": 6091,
      "相应": 6092,
      "网站": 6093,
      "而是": 6094,
      "裁决": 6095,
      "讲话": 6096,
      "购买": 6097,
      "这次": 6098,
      "遭到": 6099,
      "委员会在": 6100,
      "社会和": 6101,
      "人权和": 6102,
      "11日": 6103,
      "非洲联盟": 6104,
      "参加了": 6105,
      "发展中国家的": 6106,
      "不利": 6107,
      "东帝汶": 6108,
      "为止": 6109,
      "事规则": 6110,
      "侵害": 6111,
      "克兰": 6112,
      "同一": 6113,
      "吸引": 6114,
      "多少": 6115,
      "女童": 6116,
      "年人": 6117,
      "当时": 6118,
      "教学": 6119,
      "教科": 6120,
      "旅行": 6121,
      "最大": 6122,
      "正确": 6123,
      "比赛": 6124,
      "法案": 6125,
      "爱尔兰": 6126,
      "的原因": 6127,
      "类型": 6128,
      "转移": 6129,
      "销售": 6130,
      "马拉": 6131,
      "195": 6132,
      "机构间": 6133,
      "安全的": 6134,
      "技术援助": 6135,
      "这样的": 6136,
      "6月30日": 6137,
      "广泛的": 6138,
      "刚果民主共和国": 6139,
      "候选人": 6140,
      "美利坚合众国": 6141,
      "不再": 6142,
      "与发展": 6143,
      "人在": 6144,
      "人都": 6145,
      "和解": 6146,
      "多的": 6147,
      "对象": 6148,
      "尼西亚": 6149,
      "差距": 6150,
      "强制": 6151,
      "快速": 6152,
      "惩罚": 6153,
      "指示": 6154,
      "攸关": 6155,
      "更为": 6156,
      "替代": 6157,
      "有一个": 6158,
      "未能": 6159,
      "次区域": 6160,
      "母亲": 6161,
      "法治": 6162,
      "石油": 6163,
      "约束": 6164,
      "经过": 6165,
      "肯定": 6166,
      "航空": 6167,
      "进步": 6168,
      "预测": 6169,
      "12日": 6170,
      "使用的": 6171,
      "增加了": 6172,
      "15日": 6173,
      "规划署": 6174,
      "工程处": 6175,
      "事实上": 6176,
      "的重要性": 6177,
      "实质性": 6178,
      "至关重要": 6179,
      "46": 6180,
      "一位": 6181,
      "一体": 6182,
      "事情": 6183,
      "只要": 6184,
      "可靠": 6185,
      "将其": 6186,
      "小型": 6187,
      "工发": 6188,
      "常规": 6189,
      "干预": 6190,
      "我要": 6191,
      "指南": 6192,
      "指定": 6193,
      "放在": 6194,
      "方向": 6195,
      "正常": 6196,
      "治理": 6197,
      "深入": 6198,
      "现金": 6199,
      "的资源": 6200,
      "看法": 6201,
      "第15": 6202,
      "筹资": 6203,
      "纪念": 6204,
      "荷兰": 6205,
      "逮捕": 6206,
      "防治": 6207,
      "面的": 6208,
      "国家和": 6209,
      "委员会注意到": 6210,
      "会议和": 6211,
      "以及在": 6212,
      "可能性": 6213,
      "管理和": 6214,
      "这一点": 6215,
      "服务的": 6216,
      "利益攸关": 6217,
      "的基础上": 6218,
      "两性平等": 6219,
      "57": 6220,
      "不受": 6221,
      "之中": 6222,
      "内亚": 6223,
      "分别": 6224,
      "初步": 6225,
      "利昂": 6226,
      "和国家": 6227,
      "和执行": 6228,
      "和政治": 6229,
      "外地": 6230,
      "完整": 6231,
      "并非": 6232,
      "康复": 6233,
      "总理": 6234,
      "感觉": 6235,
      "捐款": 6236,
      "普通": 6237,
      "有必要": 6238,
      "来看": 6239,
      "模型": 6240,
      "永远": 6241,
      "法规": 6242,
      "特点": 6243,
      "的结果": 6244,
      "第8": 6245,
      "许可": 6246,
      "资格": 6247,
      "赋予": 6248,
      "雇员": 6249,
      "，”": 6250,
      "196": 6251,
      "人民共和国": 6252,
      "这样做": 6253,
      "预防犯罪和": 6254,
      "原子能机构": 6255,
      "44": 6256,
      "》(": 6257,
      "三年": 6258,
      "习惯": 6259,
      "仲裁": 6260,
      "共识": 6261,
      "决心": 6262,
      "几内亚": 6263,
      "受益": 6264,
      "坚持": 6265,
      "处罚": 6266,
      "威特": 6267,
      "将于": 6268,
      "差异": 6269,
      "弹药": 6270,
      "得以": 6271,
      "或其他": 6272,
      "提请": 6273,
      "是一种": 6274,
      "状态": 6275,
      "的代表": 6276,
      "的政治": 6277,
      "的标准": 6278,
      "的基本": 6279,
      "科威特": 6280,
      "第18": 6281,
      "赞成": 6282,
      "食品": 6283,
      "马来": 6284,
      "联合国宪章": 6285,
      "1990年": 6286,
      "如果你": 6287,
      "讨论会": 6288,
      "性别平等": 6289,
      "次级方案": 6290,
      "塞拉利昂": 6291,
      "42": 6292,
      "一条": 6293,
      "乌克兰": 6294,
      "促请": 6295,
      "信任": 6296,
      "减轻": 6297,
      "区的": 6298,
      "周期": 6299,
      "团结": 6300,
      "多个": 6301,
      "对该": 6302,
      "意思": 6303,
      "持久": 6304,
      "推进": 6305,
      "来文": 6306,
      "极端": 6307,
      "案文": 6308,
      "毫无": 6309,
      "用途": 6310,
      "的安全": 6311,
      "的意见": 6312,
      "的义务": 6313,
      "的做法": 6314,
      "的执行情况": 6315,
      "相比": 6316,
      "第13": 6317,
      "而不": 6318,
      "自动": 6319,
      "西非": 6320,
      "边界": 6321,
      "返回": 6322,
      "那样": 6323,
      "额外": 6324,
      "妇女在": 6325,
      "教育和": 6326,
      "建立了": 6327,
      "提交的": 6328,
      "事务部": 6329,
      "尼日利亚": 6330,
      "31": 6331,
      "66": 6332,
      "90": 6333,
      "与联合国": 6334,
      "也没有": 6335,
      "军队": 6336,
      "医院": 6337,
      "卖淫": 6338,
      "及其他": 6339,
      "吁请": 6340,
      "听取": 6341,
      "和不": 6342,
      "和管理": 6343,
      "塞拜": 6344,
      "实地": 6345,
      "摩洛": 6346,
      "放弃": 6347,
      "整体": 6348,
      "有组织": 6349,
      "灵活": 6350,
      "秩序": 6351,
      "突出": 6352,
      "观念": 6353,
      "阻碍": 6354,
      "阿塞拜": 6355,
      "难以": 6356,
      "颁布": 6357,
      "会议室": 6358,
      "发展的": 6359,
      "19日": 6360,
      "1992年": 6361,
      "部门的": 6362,
      "届会议上": 6363,
      "17日": 6364,
      "人道主义法": 6365,
      "取得的进展": 6366,
      "》、《": 6367,
      "马来西亚": 6368,
      "摩洛哥": 6369,
      "阿塞拜疆": 6370,
      "58": 6371,
      "一点": 6372,
      "中非": 6373,
      "利比亚": 6374,
      "包容": 6375,
      "发布": 6376,
      "和评价": 6377,
      "在一个": 6378,
      "安保": 6379,
      "希腊": 6380,
      "应在": 6381,
      "律宾": 6382,
      "效力": 6383,
      "效益": 6384,
      "旅游": 6385,
      "的原则": 6386,
      "结婚": 6387,
      "自身": 6388,
      "菲律宾": 6389,
      "诸如": 6390,
      "载有": 6391,
      "迄今": 6392,
      "道德": 6393,
      "里的": 6394,
      "驱逐": 6395,
      "国际合作": 6396,
      "特别委员会": 6397,
      "健康和": 6398,
      "劳工组织": 6399,
      "利益攸关方": 6400,
      "500": 6401,
      "中期": 6402,
      "代理": 6403,
      "位置": 6404,
      "克罗": 6405,
      "制止": 6406,
      "剥削": 6407,
      "命令": 6408,
      "和建议": 6409,
      "地利": 6410,
      "好处": 6411,
      "完善": 6412,
      "审理": 6413,
      "就此": 6414,
      "尼斯": 6415,
      "很快": 6416,
      "很难": 6417,
      "想要": 6418,
      "担保": 6419,
      "敏感": 6420,
      "显然": 6421,
      "更新": 6422,
      "民众": 6423,
      "海关": 6424,
      "消息": 6425,
      "消耗": 6426,
      "爆炸": 6427,
      "现行": 6428,
      "瑞典": 6429,
      "白俄罗斯": 6430,
      "的资金": 6431,
      "的承诺": 6432,
      "短期": 6433,
      "科特": 6434,
      "第九": 6435,
      "第12": 6436,
      "缺少": 6437,
      "群岛": 6438,
      "肯尼亚": 6439,
      "融入": 6440,
      "认真": 6441,
      "调动": 6442,
      "20日": 6443,
      "10日": 6444,
      "所有国家": 6445,
      "执行局": 6446,
      "人员和": 6447,
      "得到了": 6448,
      "解决办法": 6449,
      "难民署": 6450,
      "一般性": 6451,
      "侵犯人权": 6452,
      "印度尼西亚": 6453,
      "信托基金": 6454,
      "预防犯罪和刑事司法": 6455,
      "6月2": 6456,
      "一旦": 6457,
      "不可能": 6458,
      "了关于": 6459,
      "争端": 6460,
      "人居": 6461,
      "以往": 6462,
      "俄比亚": 6463,
      "加快": 6464,
      "危害": 6465,
      "在地": 6466,
      "埃塞": 6467,
      "外勤": 6468,
      "多种": 6469,
      "奥地利": 6470,
      "尽可能": 6471,
      "巴布": 6472,
      "并对": 6473,
      "志愿": 6474,
      "提及": 6475,
      "斯尼亚": 6476,
      "极为": 6477,
      "概述": 6478,
      "特征": 6479,
      "现实": 6480,
      "生育": 6481,
      "的有": 6482,
      "的各种": 6483,
      "确实": 6484,
      "第10": 6485,
      "第17": 6486,
      "细胞": 6487,
      "经营": 6488,
      "给我": 6489,
      "证券": 6490,
      "谴责": 6491,
      "赞扬": 6492,
      "近年来": 6493,
      "进口": 6494,
      "）、": 6495,
      "2000": 6496,
      "妇女地位": 6497,
      "项目的": 6498,
      "共同体": 6499,
      "阿拉伯叙利亚": 6500,
      "组成部分": 6501,
      "阿尔及": 6502,
      "后续行动": 6503,
      "教科文": 6504,
      "工发组织": 6505,
      "埃塞俄比亚": 6506,
      "52": 6507,
      "争取": 6508,
      "亚太": 6509,
      "例子": 6510,
      "共计": 6511,
      "几年": 6512,
      "去年": 6513,
      "号决定": 6514,
      "和黑": 6515,
      "和加勒比": 6516,
      "外层": 6517,
      "大幅": 6518,
      "妨碍": 6519,
      "并为": 6520,
      "情报": 6521,
      "成就": 6522,
      "挪威": 6523,
      "最低": 6524,
      "波斯尼亚": 6525,
      "涵盖": 6526,
      "滥用": 6527,
      "特设": 6528,
      "瑞拉": 6529,
      "色的": 6530,
      "运用": 6531,
      "这两": 6532,
      "这方面的": 6533,
      "发展和": 6534,
      "我们在": 6535,
      "一个人": 6536,
      "经济增长": 6537,
      "技术和": 6538,
      "技术合作": 6539,
      "权利的": 6540,
      "人民的": 6541,
      "消除对妇女": 6542,
      "种族主义": 6543,
      "专门知识": 6544,
      "计算机": 6545,
      "公务员": 6546,
      "毒品和犯罪问题办公室": 6547,
      "有组织犯罪": 6548,
      "外层空间": 6549,
      "2日": 6550,
      "下来": 6551,
      "信仰": 6552,
      "加坡": 6553,
      "动机": 6554,
      "助理": 6555,
      "十字": 6556,
      "反恐": 6557,
      "受理": 6558,
      "和方案": 6559,
      "基地": 6560,
      "大大": 6561,
      "孟加拉": 6562,
      "并向": 6563,
      "恶化": 6564,
      "我不": 6565,
      "所谓": 6566,
      "拉圭": 6567,
      "操作": 6568,
      "更大": 6569,
      "条规定": 6570,
      "民事": 6571,
      "民国": 6572,
      "沙特": 6573,
      "津贴": 6574,
      "潜在": 6575,
      "燃料": 6576,
      "父亲": 6577,
      "用品": 6578,
      "的名": 6579,
      "的费用": 6580,
      "董事": 6581,
      "衡量": 6582,
      "被告": 6583,
      "议事规则": 6584,
      "迪瓦": 6585,
      "逐步": 6586,
      "通讯": 6587,
      "顺利": 6588,
      "，“": 6589,
      "工作方案": 6590,
      "2009": 6591,
      "国际组织": 6592,
      "我们必须": 6593,
      "1999": 6594,
      "可能是": 6595,
      "这一问题": 6596,
      "采取的": 6597,
      "第二次": 6598,
      "目前的": 6599,
      "16日": 6600,
      "框架内": 6601,
      "建设和平": 6602,
      "严重的": 6603,
      "缔约方会议": 6604,
      "000美元": 6605,
      "死亡率": 6606,
      "消费者": 6607,
      "流离失所者": 6608,
      "上午10": 6609,
      "有利于": 6610,
      "阿尔及利亚": 6611,
      ")：": 6612,
      "62": 6613,
      "75": 6614,
      "78": 6615,
      "一天": 6616,
      "上文": 6617,
      "主流": 6618,
      "了一些": 6619,
      "付款": 6620,
      "任期": 6621,
      "促使": 6622,
      "储存": 6623,
      "内瑞拉": 6624,
      "分摊": 6625,
      "判决": 6626,
      "加工": 6627,
      "匈牙": 6628,
      "单独": 6629,
      "参考": 6630,
      "合并": 6631,
      "员工": 6632,
      "场所": 6633,
      "大韩": 6634,
      "巨大的": 6635,
      "并确保": 6636,
      "强烈": 6637,
      "总是": 6638,
      "担心": 6639,
      "拨款": 6640,
      "捷克": 6641,
      "斯特": 6642,
      "新加坡": 6643,
      "是为了": 6644,
      "最新": 6645,
      "波兰": 6646,
      "照顾": 6647,
      "玻利": 6648,
      "的培训": 6649,
      "第八": 6650,
      "粮农": 6651,
      "自我": 6652,
      "融资": 6653,
      "西兰": 6654,
      "要素": 6655,
      "贩卖": 6656,
      "都会": 6657,
      "长的": 6658,
      "问责": 6659,
      "随后": 6660,
      "委员会主席": 6661,
      "2001": 6662,
      "方案预算": 6663,
      "建立一个": 6664,
      "这个问题": 6665,
      "暴力行为": 6666,
      "暴力侵害": 6667,
      "程度上": 6668,
      "面临的": 6669,
      "第1款": 6670,
      "和平与安全": 6671,
      "阿拉伯叙利亚共和国": 6672,
      "教科文组织": 6673,
      "匈牙利": 6674,
      "64": 6675,
      "不管": 6676,
      "中华": 6677,
      "免费": 6678,
      "决于": 6679,
      "力和": 6680,
      "发了": 6681,
      "取决于": 6682,
      "可行": 6683,
      "和对": 6684,
      "图书": 6685,
      "地亚": 6686,
      "塞哥": 6687,
      "声音": 6688,
      "委内瑞拉": 6689,
      "常常": 6690,
      "庇护": 6691,
      "形势": 6692,
      "我还": 6693,
      "战斗": 6694,
      "所得": 6695,
      "手册": 6696,
      "拟定": 6697,
      "推迟": 6698,
      "新西兰": 6699,
      "无核武器": 6700,
      "是对": 6701,
      "最好": 6702,
      "期望": 6703,
      "毁灭": 6704,
      "的数据": 6705,
      "的责任": 6706,
      "监管": 6707,
      "第11": 6708,
      "类别": 6709,
      "紧张": 6710,
      "约翰": 6711,
      "认可": 6712,
      "赞同": 6713,
      "运行": 6714,
      "这两个": 6715,
      "逐渐": 6716,
      "阁下": 6717,
      "我们认为": 6718,
      "以及对": 6719,
      "儿童和": 6720,
      "权利国际公约": 6721,
      "法律和": 6722,
      "世界上": 6723,
      "环境署": 6724,
      "13日": 6725,
      "14日": 6726,
      "关切的是": 6727,
      "附件一": 6728,
      "不得不": 6729,
      "所述期间": 6730,
      "申诉人": 6731,
      "更好地": 6732,
      "与此同时": 6733,
      "科特迪瓦": 6734,
      "大韩民国": 6735,
      "67": 6736,
      "97": 6737,
      "七届会议": 6738,
      "丹麦": 6739,
      "也可以": 6740,
      "产业": 6741,
      "会的": 6742,
      "体现": 6743,
      "你可以": 6744,
      "准确": 6745,
      "南方": 6746,
      "发射": 6747,
      "只能": 6748,
      "和区域": 6749,
      "因而": 6750,
      "在我": 6751,
      "培养": 6752,
      "失去": 6753,
      "对待": 6754,
      "开支": 6755,
      "弱势": 6756,
      "彻底": 6757,
      "成绩": 6758,
      "我在": 6759,
      "所列": 6760,
      "摘要": 6761,
      "文职": 6762,
      "有着": 6763,
      "格的": 6764,
      "死刑": 6765,
      "法的": 6766,
      "澄清": 6767,
      "特性": 6768,
      "的办法": 6769,
      "维那": 6770,
      "老师": 6771,
      "联络": 6772,
      "英文": 6773,
      "角度": 6774,
      "让我": 6775,
      "负担": 6776,
      "越南": 6777,
      "软件": 6778,
      "还应": 6779,
      "阐述": 6780,
      "附加": 6781,
      "附属": 6782,
      "除非": 6783,
      "，\"": 6784,
      "：\"": 6785,
      "委员会和": 6786,
      "2005": 6787,
      "国际人权": 6788,
      "所有人": 6789,
      "1991年": 6790,
      "合作的": 6791,
      "计划的": 6792,
      "重要的是": 6793,
      "这种情况": 6794,
      "武器和": 6795,
      "的一种": 6796,
      "的一般": 6797,
      "讨论了": 6798,
      "事务厅": 6799,
      "目前正在": 6800,
      "发言者": 6801,
      "专家小组": 6802,
      "投资者": 6803,
      "家庭暴力": 6804,
      "1日至": 6805,
      "禁止酷刑": 6806,
      "部长级": 6807,
      "自然资源": 6808,
      "估计数": 6809,
      "通信技术": 6810,
      "当事人": 6811,
      "一体化": 6812,
      "孟加拉国": 6813,
      "塞哥维那": 6814,
      "4月2": 6815,
      "下去": 6816,
      "丰富": 6817,
      "之下": 6818,
      "事业": 6819,
      "产妇": 6820,
      "会上": 6821,
      "位于": 6822,
      "作品": 6823,
      "你能": 6824,
      "具备": 6825,
      "即将": 6826,
      "发起": 6827,
      "可是": 6828,
      "各区域": 6829,
      "向大会": 6830,
      "和非": 6831,
      "咨委会": 6832,
      "国务": 6833,
      "国集团": 6834,
      "在执行": 6835,
      "在过去": 6836,
      "塞浦": 6837,
      "安装": 6838,
      "尽快": 6839,
      "干达": 6840,
      "性能": 6841,
      "您的": 6842,
      "房子": 6843,
      "指挥": 6844,
      "提醒": 6845,
      "时代": 6846,
      "显著": 6847,
      "有点": 6848,
      "有义务": 6849,
      "机场": 6850,
      "痛苦": 6851,
      "的社会": 6852,
      "的关于": 6853,
      "的关系": 6854,
      "的限制": 6855,
      "的东西": 6856,
      "破产": 6857,
      "确立": 6858,
      "示范": 6859,
      "秘密": 6860,
      "第一个": 6861,
      "简要": 6862,
      "绝对": 6863,
      "缅甸": 6864,
      "职权": 6865,
      "葡萄": 6866,
      "行预": 6867,
      "表面": 6868,
      "规约": 6869,
      "让我们": 6870,
      "设置": 6871,
      "证实": 6872,
      "路斯": 6873,
      "连续": 6874,
      "重复": 6875,
      "驻地": 6876,
      "问题国际": 6877,
      "我们将": 6878,
      "人权的": 6879,
      "措施的": 6880,
      "影响到": 6881,
      "审议了": 6882,
      "全体会议": 6883,
      "男女平等": 6884,
      "透明度": 6885,
      "小岛屿发展中国家": 6886,
      "图书馆": 6887,
      "塞浦路斯": 6888,
      "行预咨委会": 6889,
      "65": 6890,
      "7月2": 6891,
      "98": 6892,
      "丈夫": 6893,
      "两国": 6894,
      "为期": 6895,
      "乌干达": 6896,
      "仅仅": 6897,
      "他在": 6898,
      "农民": 6899,
      "减贫": 6900,
      "削减": 6901,
      "加上": 6902,
      "加速": 6903,
      "北部": 6904,
      "后勤": 6905,
      "和华": 6906,
      "回到": 6907,
      "寻找": 6908,
      "已在": 6909,
      "应急": 6910,
      "我是": 6911,
      "我认为": 6912,
      "掌握": 6913,
      "有害": 6914,
      "格鲁": 6915,
      "欧元": 6916,
      "比如": 6917,
      "毛里": 6918,
      "泰国": 6919,
      "游戏": 6920,
      "灾难": 6921,
      "电影": 6922,
      "的文件": 6923,
      "的经验": 6924,
      "的需求": 6925,
      "相反": 6926,
      "眼睛": 6927,
      "突尼斯": 6928,
      "立特": 6929,
      "第14": 6930,
      "第16": 6931,
      "翻译": 6932,
      "职务": 6933,
      "自行": 6934,
      "被认为": 6935,
      "言论": 6936,
      "边境": 6937,
      "连接": 6938,
      "青少年": 6939,
      "面前": 6940,
      "问题上": 6941,
      "执行主任": 6942,
      "重要作用": 6943,
      "世界银行": 6944,
      "目标是": 6945,
      "主席团": 6946,
      "程序的": 6947,
      "12月31日": 6948,
      "原因是": 6949,
      "一切形式": 6950,
      "塞尔维亚": 6951,
      "拉丁美洲和加勒比": 6952,
      "百分比": 6953,
      "粮农组织": 6954,
      "68": 6955,
      "9月2": 6956,
      "不久": 6957,
      "专办": 6958,
      "业绩": 6959,
      "中所": 6960,
      "主动": 6961,
      "于是": 6962,
      "以加强": 6963,
      "十二": 6964,
      "厄立特": 6965,
      "和加强": 6966,
      "哪些": 6967,
      "回应": 6968,
      "在一": 6969,
      "声称": 6970,
      "大楼": 6971,
      "平台": 6972,
      "并不是": 6973,
      "很少": 6974,
      "意愿": 6975,
      "报表": 6976,
      "摊款": 6977,
      "汇率": 6978,
      "的前": 6979,
      "的有关": 6980,
      "的需要": 6981,
      "的区域": 6982,
      "的环境": 6983,
      "直到": 6984,
      "至于": 6985,
      "芬兰": 6986,
      "药品": 6987,
      "蒙特": 6988,
      "覆盖": 6989,
      "设法": 6990,
      "该项目": 6991,
      "豁免": 6992,
      "还将": 6993,
      "遇到": 6994,
      "限于": 6995,
      "隔离": 6996,
      "高专办": 6997,
      "国际贸易": 6998,
      "194": 6999,
      "以及其他": 7000,
      "10月2": 7001,
      "人权利": 7002,
      "秘书长关于": 7003,
      "的一切": 7004,
      "开展的": 7005,
      "的工作人员": 7006,
      "进展情况": 7007,
      "阿拉伯国家": 7008,
      "产生的": 7009,
      "协商一致": 7010,
      "仍然是": 7011,
      "公民权利": 7012,
      "劳动力": 7013,
      "高级专员办事处": 7014,
      "生态系统": 7015,
      "克罗地亚": 7016,
      "厄立特里亚": 7017,
      "3月2": 7018,
      "61": 7019,
      "73": 7020,
      "”。": 7021,
      "一部分": 7022,
      "东道": 7023,
      "主张": 7024,
      "也会": 7025,
      "也有": 7026,
      "事故": 7027,
      "五年": 7028,
      "仍有": 7029,
      "以期": 7030,
      "传染": 7031,
      "保存": 7032,
      "号和": 7033,
      "在所有": 7034,
      "失败": 7035,
      "始终": 7036,
      "学术": 7037,
      "容忍": 7038,
      "就能": 7039,
      "巨大": 7040,
      "并与": 7041,
      "废除": 7042,
      "得出": 7043,
      "必需": 7044,
      "快乐": 7045,
      "怀疑": 7046,
      "感染": 7047,
      "排除": 7048,
      "撒冷": 7049,
      "方的": 7050,
      "族裔": 7051,
      "是由": 7052,
      "是因为": 7053,
      "暂停": 7054,
      "某种": 7055,
      "检测": 7056,
      "每一个": 7057,
      "法令": 7058,
      "的各": 7059,
      "监禁": 7060,
      "看看": 7061,
      "筹措": 7062,
      "耶路": 7063,
      "耶和华": 7064,
      "转型": 7065,
      "配合": 7066,
      "金属": 7067,
      "音乐": 7068,
      "高的": 7069,
      "％。": 7070,
      "发展援助": 7071,
      "提供援助": 7072,
      "其他国家": 7073,
      "他们在": 7074,
      "安全和": 7075,
      "1998": 7076,
      "合作伙伴": 7077,
      "12月2": 7078,
      "规定了": 7079,
      "11月2": 7080,
      "一些国家": 7081,
      "教育的": 7082,
      "基础上": 7083,
      "市场的": 7084,
      "巴勒斯坦人民": 7085,
      "少数群体": 7086,
      "罗马尼亚": 7087,
      "耶路撒冷": 7088,
      "一系列": 7089,
      "产出": 7090,
      "优势": 7091,
      "伦敦": 7092,
      "依法": 7093,
      "公路": 7094,
      "共体": 7095,
      "关心": 7096,
      "内陆": 7097,
      "再生": 7098,
      "初级": 7099,
      "制作": 7100,
      "副主席": 7101,
      "动的": 7102,
      "各会员国": 7103,
      "吉亚": 7104,
      "名额": 7105,
      "在纽约": 7106,
      "地下": 7107,
      "地球": 7108,
      "地理": 7109,
      "塔尔": 7110,
      "天的": 7111,
      "妈妈": 7112,
      "工会": 7113,
      "带来的": 7114,
      "幸福": 7115,
      "开幕": 7116,
      "当选": 7117,
      "征聘": 7118,
      "成了": 7119,
      "故事": 7120,
      "某一": 7121,
      "比利": 7122,
      "气体": 7123,
      "渔业": 7124,
      "物的": 7125,
      "的使用": 7126,
      "的成员": 7127,
      "的全球": 7128,
      "的条款": 7129,
      "继承": 7130,
      "联网": 7131,
      "节目": 7132,
      "薪金": 7133,
      "衣服": 7134,
      "视察": 7135,
      "解除": 7136,
      "记者": 7137,
      "调解": 7138,
      "近东": 7139,
      "还没有": 7140,
      "酌情": 7141,
      "阐明": 7142,
      "阻止": 7143,
      "2002": 7144,
      "联合国的": 7145,
      "这些国家": 7146,
      "人权高专办": 7147,
      "可能的": 7148,
      "区域和": 7149,
      "保护和": 7150,
      "的人数": 7151,
      "作出了": 7152,
      "作出的": 7153,
      "第2款": 7154,
      "履行其": 7155,
      "一直在": 7156,
      "经常预算": 7157,
      "的那样": 7158,
      "意识到": 7159,
      "常驻联合国": 7160,
      "格鲁吉亚": 7161,
      "53": 7162,
      "5月2": 7163,
      "84": 7164,
      "一只": 7165,
      "一道": 7166,
      "与其": 7167,
      "中有": 7168,
      "也在": 7169,
      "事先": 7170,
      "他是": 7171,
      "他还": 7172,
      "任意": 7173,
      "伐克": 7174,
      "但我": 7175,
      "使之": 7176,
      "儿子": 7177,
      "出于": 7178,
      "分享": 7179,
      "动态": 7180,
      "北爱尔兰": 7181,
      "受伤": 7182,
      "后来": 7183,
      "周围": 7184,
      "国防": 7185,
      "在许多": 7186,
      "大不": 7187,
      "天气": 7188,
      "妻子": 7189,
      "季度": 7190,
      "导言": 7191,
      "将是": 7192,
      "尊严": 7193,
      "就要": 7194,
      "德里": 7195,
      "手术": 7196,
      "承包": 7197,
      "投诉": 7198,
      "教训": 7199,
      "最大的": 7200,
      "核可": 7201,
      "毕业": 7202,
      "流行": 7203,
      "清洁": 7204,
      "界定": 7205,
      "病毒": 7206,
      "的人权": 7207,
      "的关键": 7208,
      "的危险": 7209,
      "真是": 7210,
      "秘鲁": 7211,
      "称为": 7212,
      "红十字": 7213,
      "约旦": 7214,
      "组合": 7215,
      "自决": 7216,
      "补助": 7217,
      "补贴": 7218,
      "议员": 7219,
      "证书": 7220,
      "过境": 7221,
      "首次": 7222,
      "首长": 7223,
      "2007": 7224,
      "方面发挥": 7225,
      "经济发展": 7226,
      "需要的": 7227,
      "可以在": 7228,
      "世界首脑会议": 7229,
      "资源的": 7230,
      "作为一个": 7231,
      "人口的": 7232,
      "公司的": 7233,
      "数据库": 7234,
      "安全理事会主席": 7235,
      "发生的": 7236,
      "预防和": 7237,
      "第61": 7238,
      "现有的": 7239,
      "外交部": 7240,
      "斯洛伐克": 7241,
      ")(": 7242,
      "上帝": 7243,
      "不论": 7244,
      "不平等": 7245,
      "丧失": 7246,
      "九届会议": 7247,
      "买卖": 7248,
      "争议": 7249,
      "亚美": 7250,
      "他人": 7251,
      "以英语": 7252,
      "会谈": 7253,
      "你是": 7254,
      "侧重": 7255,
      "六条": 7256,
      "养恤": 7257,
      "分类": 7258,
      "别人": 7259,
      "南亚": 7260,
      "及北爱尔兰": 7261,
      "变革": 7262,
      "听到": 7263,
      "和安全": 7264,
      "哈拉": 7265,
      "四个": 7266,
      "在与": 7267,
      "在实现": 7268,
      "大陆": 7269,
      "它还": 7270,
      "定于": 7271,
      "对联合国": 7272,
      "差别": 7273,
      "并未": 7274,
      "并请": 7275,
      "彼此": 7276,
      "感兴趣": 7277,
      "护理": 7278,
      "拉斯": 7279,
      "排雷": 7280,
      "提升": 7281,
      "时的": 7282,
      "昨天": 7283,
      "最初": 7284,
      "款项": 7285,
      "注册": 7286,
      "注重": 7287,
      "清除": 7288,
      "渠道": 7289,
      "灭绝": 7290,
      "照料": 7291,
      "玻璃": 7292,
      "生存": 7293,
      "看见": 7294,
      "移交": 7295,
      "突然": 7296,
      "证人": 7297,
      "退休": 7298,
      "间接": 7299,
      "除其他": 7300,
      "委员会对": 7301,
      "委员会认为": 7302,
      "报告所述期间": 7303,
      "影响的": 7304,
      "政策的": 7305,
      "基金的": 7306,
      "表示关切": 7307,
      "行政和": 7308,
      "中心的": 7309,
      "它们的": 7310,
      "公共部门": 7311,
      "监督厅": 7312,
      "观察团": 7313,
      "新闻部": 7314,
      "所需资源": 7315,
      "登记册": 7316,
      "违反了": 7317,
      "伊斯兰共和国": 7318,
      "下午3": 7319,
      "沙特阿拉伯": 7320,
      "中华人民共和国": 7321,
      "亚美尼亚": 7322,
      "2号决议": 7323,
      "54": 7324,
      "上海": 7325,
      "与合作": 7326,
      "主导": 7327,
      "之处": 7328,
      "以此": 7329,
      "件事": 7330,
      "低于": 7331,
      "你会": 7332,
      "你知道": 7333,
      "停火": 7334,
      "关税": 7335,
      "出去": 7336,
      "列颠": 7337,
      "利率": 7338,
      "到达": 7339,
      "加尔": 7340,
      "化和": 7341,
      "取代": 7342,
      "员和": 7343,
      "四条": 7344,
      "团队": 7345,
      "固定": 7346,
      "在内": 7347,
      "在这一": 7348,
      "在全球": 7349,
      "在这个": 7350,
      "地震": 7351,
      "基准": 7352,
      "备忘": 7353,
      "备选": 7354,
      "太阳": 7355,
      "夫人": 7356,
      "如今": 7357,
      "宗旨": 7358,
      "家人": 7359,
      "巴尼亚": 7360,
      "得不到": 7361,
      "总数": 7362,
      "情形": 7363,
      "想法": 7364,
      "成效": 7365,
      "所在": 7366,
      "探索": 7367,
      "描述": 7368,
      "收益": 7369,
      "政党": 7370,
      "方便": 7371,
      "旅费": 7372,
      "是一项": 7373,
      "更好的": 7374,
      "有力的": 7375,
      "氧化": 7376,
      "特遣": 7377,
      "生的": 7378,
      "男人": 7379,
      "男性": 7380,
      "的世界": 7381,
      "的战略": 7382,
      "的相关": 7383,
      "的说明": 7384,
      "移动": 7385,
      "紧迫": 7386,
      "纠正": 7387,
      "经社会": 7388,
      "缔结": 7389,
      "考试": 7390,
      "而非": 7391,
      "联刚": 7392,
      "蒙古": 7393,
      "询问": 7394,
      "该项": 7395,
      "这场": 7396,
      "迫切": 7397,
      "释放": 7398,
      "间的": 7399,
      "联合会": 7400,
      "国际法院": 7401,
      "国际人道主义法": 7402,
      "特别会议": 7403,
      "管理局": 7404,
      "采取一切": 7405,
      "必须在": 7406,
      "促进发展": 7407,
      "的人道": 7408,
      "战略计划": 7409,
      "美国的": 7410,
      "培训和": 7411,
      "行政当局": 7412,
      "特派团的": 7413,
      "了一次": 7414,
      "文化权利": 7415,
      "第三次": 7416,
      "设立了": 7417,
      "第五委员会": 7418,
      "第十二": 7419,
      "自然灾害": 7420,
      "定期报告": 7421,
      "1989年": 7422,
      "修正案": 7423,
      "委员会建议缔约国": 7424,
      "葡萄牙": 7425,
      "以英语发言": 7426,
      "及北爱尔兰联合王国": 7427,
      "列颠及北爱尔兰联合王国": 7428,
      "备忘录": 7429,
      "51": 7430,
      "69": 7431,
      "74": 7432,
      "三条": 7433,
      "下面": 7434,
      "两种": 7435,
      "产权": 7436,
      "人为": 7437,
      "任职": 7438,
      "你要": 7439,
      "依靠": 7440,
      "做到": 7441,
      "入学": 7442,
      "创建": 7443,
      "加沙": 7444,
      "区别": 7445,
      "参数": 7446,
      "各位": 7447,
      "同等": 7448,
      "和报告": 7449,
      "和政府": 7450,
      "囚犯": 7451,
      "在这些": 7452,
      "坚决": 7453,
      "处境": 7454,
      "多尔": 7455,
      "多年": 7456,
      "大型": 7457,
      "契约": 7458,
      "奥巴": 7459,
      "子里": 7460,
      "宏观": 7461,
      "小的": 7462,
      "尽量": 7463,
      "引渡": 7464,
      "强奸": 7465,
      "很有": 7466,
      "授予": 7467,
      "效应": 7468,
      "斗争": 7469,
      "晚上": 7470,
      "曾经": 7471,
      "有了": 7472,
      "正规": 7473,
      "段时间": 7474,
      "气象": 7475,
      "温室": 7476,
      "犹太": 7477,
      "用作": 7478,
      "疑问": 7479,
      "病人": 7480,
      "的确": 7481,
      "的方案": 7482,
      "的必要": 7483,
      "的案件": 7484,
      "看来": 7485,
      "种种": 7486,
      "空缺": 7487,
      "纲要": 7488,
      "终止": 7489,
      "绩效": 7490,
      "老龄": 7491,
      "荒漠": 7492,
      "补偿": 7493,
      "裁定": 7494,
      "规章": 7495,
      "负面": 7496,
      "辅助": 7497,
      "这位": 7498,
      "邮件": 7499,
      "销毁": 7500,
      "陈述": 7501,
      "面向": 7502,
      "飞行": 7503,
      "饥饿": 7504,
      "马尔": 7505,
      "）：": 7506,
      "委员会成员": 7507,
      "工作中": 7508,
      "社会发展": 7509,
      "公约的": 7510,
      "建议的": 7511,
      "世界各地": 7512,
      "继续努力": 7513,
      "表示关注": 7514,
      "开展工作": 7515,
      "取得进展": 7516,
      "进程的": 7517,
      "刑事诉讼": 7518,
      "所需的": 7519,
      "临时议程": 7520,
      "贩运人口": 7521,
      "管辖权": 7522,
      "阿尔巴尼亚": 7523,
      "所作的": 7524,
      "的事情": 7525,
      "儿童权利公约": 7526,
      "信息和通信技术": 7527,
      "毁灭性": 7528,
      "国务院": 7529,
      "比利时": 7530,
      "的人道主义": 7531,
      "..": 7532,
      "1号决议": 7533,
      "63": 7534,
      "》（": 7535,
      "两名": 7536,
      "作业": 7537,
      "信贷": 7538,
      "元首": 7539,
      "先前": 7540,
      "六届会议": 7541,
      "前往": 7542,
      "动力": 7543,
      "十五": 7544,
      "协同": 7545,
      "单一": 7546,
      "南南": 7547,
      "卡塔尔": 7548,
      "厄瓜": 7549,
      "和环境": 7550,
      "国和": 7551,
      "在这种": 7552,
      "坚定": 7553,
      "多哈": 7554,
      "天然": 7555,
      "学家": 7556,
      "安置": 7557,
      "定居": 7558,
      "封锁": 7559,
      "广播": 7560,
      "度的": 7561,
      "性暴力": 7562,
      "恐惧": 7563,
      "或是": 7564,
      "或有": 7565,
      "或许": 7566,
      "所做": 7567,
      "放射": 7568,
      "政权": 7569,
      "文本": 7570,
      "是有": 7571,
      "期待": 7572,
      "未来的": 7573,
      "条第1款": 7574,
      "植物": 7575,
      "正是": 7576,
      "法定": 7577,
      "流程": 7578,
      "测量": 7579,
      "物品": 7580,
      "用以": 7581,
      "由此": 7582,
      "电脑": 7583,
      "男孩": 7584,
      "的服务": 7585,
      "的目的": 7586,
      "的风险": 7587,
      "目录": 7588,
      "真实": 7589,
      "真的": 7590,
      "纪律": 7591,
      "经理": 7592,
      "罪行的": 7593,
      "良好的": 7594,
      "获悉": 7595,
      "被占": 7596,
      "被视为": 7597,
      "装置": 7598,
      "要点": 7599,
      "负债": 7600,
      "距离": 7601,
      "较为": 7602,
      "过来": 7603,
      "还在": 7604,
      "还要": 7605,
      "这就是": 7606,
      "那儿": 7607,
      "部和": 7608,
      "铭记": 7609,
      "雇用": 7610,
      "革命": 7611,
      "饮食": 7612,
      "）；": 7613,
      "问题特别报告员": 7614,
      "联合国各": 7615,
      "报告说": 7616,
      "这些问题": 7617,
      "社会的": 7618,
      "情况的": 7619,
      "所有这些": 7620,
      "没有任何": 7621,
      "项目厅": 7622,
      "大会的": 7623,
      "加强对": 7624,
      "环境规划署": 7625,
      "非洲国家": 7626,
      "法院的": 7627,
      "基本自由": 7628,
      "先生阁下": 7629,
      "在这里": 7630,
      "独立的": 7631,
      "独立专家": 7632,
      "武装部队": 7633,
      "我国代表团": 7634,
      "告诉我": 7635,
      "在国家一级": 7636,
      "许可证": 7637,
      "和黑塞哥维那": 7638,
      "波斯尼亚和黑塞哥维那": 7639,
      "捷克共和国": 7640,
      "玻利维亚": 7641,
      "大不列颠及北爱尔兰联合王国": 7642,
      "特遣队": 7643,
      "厄瓜多尔": 7644,
      "1月2": 7645,
      "3个": 7646,
      "6个": 7647,
      "不妨": 7648,
      "了其": 7649,
      "仍在": 7650,
      "份报告": 7651,
      "优惠": 7652,
      "会和": 7653,
      "先进": 7654,
      "分之一": 7655,
      "发基金": 7656,
      "变动": 7657,
      "口头": 7658,
      "后者": 7659,
      "周年": 7660,
      "和支持": 7661,
      "和协调": 7662,
      "和实施": 7663,
      "咖啡": 7664,
      "商定的": 7665,
      "四年": 7666,
      "土壤": 7667,
      "在他": 7668,
      "在任何": 7669,
      "在某些": 7670,
      "地面": 7671,
      "她说": 7672,
      "对我": 7673,
      "已有": 7674,
      "当今": 7675,
      "当你": 7676,
      "成年人": 7677,
      "我就": 7678,
      "房屋": 7679,
      "房间": 7680,
      "打开": 7681,
      "扩展": 7682,
      "持有": 7683,
      "推行": 7684,
      "教授": 7685,
      "无效": 7686,
      "普及": 7687,
      "有许多": 7688,
      "有什么": 7689,
      "有责任": 7690,
      "本法": 7691,
      "来到": 7692,
      "正义": 7693,
      "比率": 7694,
      "没收": 7695,
      "海上": 7696,
      "特网": 7697,
      "独特": 7698,
      "的妇女": 7699,
      "的家庭": 7700,
      "的理由": 7701,
      "着手": 7702,
      "童工": 7703,
      "等等": 7704,
      "签证": 7705,
      "给你": 7706,
      "绿色": 7707,
      "缺陷": 7708,
      "被拘留": 7709,
      "订立": 7710,
      "认定": 7711,
      "记得": 7712,
      "谅解": 7713,
      "足球": 7714,
      "路线": 7715,
      "选民": 7716,
      "都能": 7717,
      "阅读": 7718,
      "工作计划": 7719,
      "提供资料": 7720,
      "经济体": 7721,
      "世界贸易": 7722,
      "促进和保护": 7723,
      "的人口": 7724,
      "武器的": 7725,
      "关系的": 7726,
      "美国和": 7727,
      "第二条": 7728,
      "发言人": 7729,
      "条约的": 7730,
      "生产和": 7731,
      "强调了": 7732,
      "歧视公约": 7733,
      "消除贫穷": 7734,
      "产生了": 7735,
      "积极参与": 7736,
      "设立的": 7737,
      "设立一个": 7738,
      "地位的": 7739,
      "知识产权": 7740,
      "星期二": 7741,
      "农村地区": 7742,
      "举办了": 7743,
      "伊朗伊斯兰共和国": 7744,
      "下午1": 7745,
      "不扩散条约": 7746,
      "遗憾的是": 7747,
      "除其他外": 7748,
      "奥巴马": 7749,
      "2月2": 7750,
      "85": 7751,
      "89": 7752,
      "一届会议": 7753,
      "不对": 7754,
      "世贸": 7755,
      "中间": 7756,
      "为实现": 7757,
      "之日": 7758,
      "买加": 7759,
      "京都": 7760,
      "以为": 7761,
      "以使": 7762,
      "企图": 7763,
      "会晤": 7764,
      "你在": 7765,
      "储备": 7766,
      "充足": 7767,
      "刺激": 7768,
      "动员": 7769,
      "即便": 7770,
      "反腐败": 7771,
      "可在": 7772,
      "吉尔": 7773,
      "同事": 7774,
      "否认": 7775,
      "四届会议": 7776,
      "在日内瓦": 7777,
      "填补": 7778,
      "处决": 7779,
      "外债": 7780,
      "大力": 7781,
      "婴儿": 7782,
      "将由": 7783,
      "应付": 7784,
      "循环": 7785,
      "总结": 7786,
      "愿望": 7787,
      "我对": 7788,
      "我知道": 7789,
      "或在": 7790,
      "房地": 7791,
      "打破": 7792,
      "抓住": 7793,
      "接收": 7794,
      "无线": 7795,
      "日常": 7796,
      "时刻": 7797,
      "明天": 7798,
      "暂行": 7799,
      "更高": 7800,
      "村庄": 7801,
      "格兰": 7802,
      "正当": 7803,
      "此项": 7804,
      "段中": 7805,
      "气氛": 7806,
      "水资源": 7807,
      "永久": 7808,
      "的可": 7809,
      "的会议": 7810,
      "的管理": 7811,
      "的共同": 7812,
      "直升": 7813,
      "神经": 7814,
      "种植": 7815,
      "空气": 7816,
      "立陶": 7817,
      "第20": 7818,
      "签名": 7819,
      "维修": 7820,
      "老年": 7821,
      "老年人": 7822,
      "自从": 7823,
      "角色": 7824,
      "警告": 7825,
      "警方": 7826,
      "该区域": 7827,
      "质疑": 7828,
      "运送": 7829,
      "这将": 7830,
      "遵循": 7831,
      "那种": 7832,
      "都在": 7833,
      "首席": 7834,
      "高等": 7835,
      "国家一级": 7836,
      "发展议程": 7837,
      "我们希望": 7838,
      "政府在": 7839,
      "提供有关": 7840,
      "计划生育": 7841,
      "大会第六十": 7842,
      "缔约国应": 7843,
      "主要是": 7844,
      "开展了": 7845,
      "期间的": 7846,
      "第二个": 7847,
      "条约机构": 7848,
      "条件下": 7849,
      "建设性": 7850,
      "全面的": 7851,
      "第21": 7852,
      "缔约方大会": 7853,
      "这是一个": 7854,
      "人道主义援助": 7855,
      "安理会成员": 7856,
      "受害人": 7857,
      "程度的": 7858,
      "指导方针": 7859,
      "的最新": 7860,
      "少数民族": 7861,
      "供应商": 7862,
      "足够的": 7863,
      "东道国": 7864,
      "温室气体": 7865,
      "立陶宛": 7866,
      "\"、": 7867,
      "120": 7868,
      "300": 7869,
      "400": 7870,
      "82": 7871,
      "87": 7872,
      "一场": 7873,
      "一套": 7874,
      "上涨": 7875,
      "不在": 7876,
      "两项": 7877,
      "人人": 7878,
      "众多": 7879,
      "倡导": 7880,
      "倾向": 7881,
      "做了": 7882,
      "免疫": 7883,
      "入境": 7884,
      "共享": 7885,
      "共有": 7886,
      "准入": 7887,
      "分庭": 7888,
      "分散": 7889,
      "分区域": 7890,
      "判断": 7891,
      "前南斯拉夫": 7892,
      "加剧": 7893,
      "危地": 7894,
      "发电": 7895,
      "受影响": 7896,
      "变成": 7897,
      "口译": 7898,
      "合适": 7899,
      "向委员会": 7900,
      "和儿童": 7901,
      "和法律": 7902,
      "和政策": 7903,
      "因特网": 7904,
      "图像": 7905,
      "在国内": 7906,
      "地域": 7907,
      "多米": 7908,
      "女人": 7909,
      "学位": 7910,
      "学科": 7911,
      "宝贵": 7912,
      "就像": 7913,
      "就可以": 7914,
      "尼泊": 7915,
      "并就": 7916,
      "广告": 7917,
      "很好": 7918,
      "惯例": 7919,
      "意外": 7920,
      "我也": 7921,
      "所设": 7922,
      "提起": 7923,
      "摆脱": 7924,
      "撒哈拉": 7925,
      "数百": 7926,
      "文明": 7927,
      "斯里": 7928,
      "早期": 7929,
      "是的": 7930,
      "是什么": 7931,
      "最多": 7932,
      "本人": 7933,
      "机械": 7934,
      "次数": 7935,
      "款的": 7936,
      "武力": 7937,
      "残忍": 7938,
      "沙尼亚": 7939,
      "沿海": 7940,
      "洗钱": 7941,
      "海外": 7942,
      "爱沙尼亚": 7943,
      "牙买加": 7944,
      "物资": 7945,
      "瓦尔": 7946,
      "电信": 7947,
      "的实施": 7948,
      "的讨论": 7949,
      "的第一": 7950,
      "的挑战": 7951,
      "相似": 7952,
      "等方面": 7953,
      "签订": 7954,
      "繁荣": 7955,
      "细则": 7956,
      "结盟": 7957,
      "统治": 7958,
      "编列": 7959,
      "老人": 7960,
      "而在": 7961,
      "能否": 7962,
      "行星": 7963,
      "解放": 7964,
      "让你": 7965,
      "议题": 7966,
      "诉诸": 7967,
      "语发言": 7968,
      "谈会": 7969,
      "辱人": 7970,
      "重返": 7971,
      "量的": 7972,
      "阿布": 7973,
      "雇主": 7974,
      "雇佣": 7975,
      "国家对": 7976,
      "这些目标": 7977,
      "有关国家": 7978,
      "有关的问题": 7979,
      "采取的措施": 7980,
      "缔约国在": 7981,
      "因为它": 7982,
      "举行会议": 7983,
      "非洲的": 7984,
      "审议大会": 7985,
      "方面的作用": 7986,
      "提高妇女地位": 7987,
      "标准的": 7988,
      "许多人": 7989,
      "减少了": 7990,
      "文化和": 7991,
      "存在的": 7992,
      "负责人": 7993,
      "积极的": 7994,
      "人们对": 7995,
      "稳定团": 7996,
      "星期一": 7997,
      "生物多样性": 7998,
      "签署了": 7999,
      "大规模毁灭性": 8000,
      "会计准则": 8001,
      "维和行动": 8002,
      "人居署": 8003,
      "公民权利和政治": 8004,
      "京都议定书": 8005,
      "危地马拉": 8006,
      "多米尼": 8007,
      "尼泊尔": 8008,
      "2个": 8009,
      "92": 8010,
      "三届会议": 8011,
      "上周": 8012,
      "不用": 8013,
      "不起": 8014,
      "不符合": 8015,
      "个人的": 8016,
      "中亚": 8017,
      "乌兹": 8018,
      "了对": 8019,
      "事态": 8020,
      "互动": 8021,
      "互联网": 8022,
      "五届会议": 8023,
      "从未": 8024,
      "以促进": 8025,
      "何种": 8026,
      "债券": 8027,
      "假设": 8028,
      "儿基": 8029,
      "兄弟": 8030,
      "公园": 8031,
      "兰卡": 8032,
      "养老": 8033,
      "内加尔": 8034,
      "分布": 8035,
      "列为": 8036,
      "列出": 8037,
      "利息": 8038,
      "反恐怖主义": 8039,
      "可怕": 8040,
      "可再生": 8041,
      "名字": 8042,
      "否则": 8043,
      "吸收": 8044,
      "和在": 8045,
      "和无": 8046,
      "和服务": 8047,
      "和文化": 8048,
      "和家庭": 8049,
      "响应": 8050,
      "哥拉": 8051,
      "商务": 8052,
      "回家": 8053,
      "回来": 8054,
      "国外": 8055,
      "坐在": 8056,
      "埔寨": 8057,
      "塞内加尔": 8058,
      "士兵": 8059,
      "处的": 8060,
      "外汇": 8061,
      "多么": 8062,
      "太太": 8063,
      "好了": 8064,
      "子的": 8065,
      "安哥拉": 8066,
      "客观": 8067,
      "对所有": 8068,
      "将与": 8069,
      "尝试": 8070,
      "岁以下": 8071,
      "巴黎": 8072,
      "常见": 8073,
      "干涉": 8074,
      "并加强": 8075,
      "并鼓励": 8076,
      "应以": 8077,
      "开办": 8078,
      "当中": 8079,
      "怀孕": 8080,
      "我谨": 8081,
      "提名": 8082,
      "无限": 8083,
      "明白": 8084,
      "是根据": 8085,
      "智利": 8086,
      "有机会": 8087,
      "机遇": 8088,
      "权威": 8089,
      "极其": 8090,
      "柬埔寨": 8091,
      "样的": 8092,
      "核裁军": 8093,
      "根源": 8094,
      "格式": 8095,
      "每次": 8096,
      "水和": 8097,
      "汇报": 8098,
      "沟通": 8099,
      "添加": 8100,
      "爱的": 8101,
      "率为": 8102,
      "电力": 8103,
      "的保护": 8104,
      "的协调": 8105,
      "的有效": 8106,
      "的预算": 8107,
      "的增长": 8108,
      "的内容": 8109,
      "的定义": 8110,
      "监护": 8111,
      "知情": 8112,
      "禁运": 8113,
      "种类": 8114,
      "第19": 8115,
      "策略": 8116,
      "纤维": 8117,
      "细节": 8118,
      "经合": 8119,
      "编辑": 8120,
      "草稿": 8121,
      "装备": 8122,
      "该地区": 8123,
      "说的": 8124,
      "跟踪": 8125,
      "辩护": 8126,
      "过度": 8127,
      "进度": 8128,
      "遗产": 8129,
      "遣返": 8130,
      "避孕": 8131,
      "那时": 8132,
      "阶层": 8133,
      "陷入": 8134,
      "随时": 8135,
      "顾客": 8136,
      "领袖": 8137,
      "驾驶": 8138,
      "高效": 8139,
      "麻醉": 8140,
      "）（": 8141,
      "问题和": 8142,
      "2003": 8143,
      "提供关于": 8144,
      "方面所": 8145,
      "需要在": 8146,
      "技术的": 8147,
      "权利和": 8148,
      "重要性": 8149,
      "继续进行": 8150,
      "人民法院": 8151,
      "秘书长的报告": 8152,
      "表示欢迎": 8153,
      "实施的": 8154,
      "程序和": 8155,
      "制定了": 8156,
      "生活在": 8157,
      "生活的": 8158,
      "造成了": 8159,
      "卫生组织": 8160,
      "一般事务": 8161,
      "直接投资": 8162,
      "提出的建议": 8163,
      "发达国家的": 8164,
      "对话和": 8165,
      "之一是": 8166,
      "重点是": 8167,
      "财务报表": 8168,
      "外交部长": 8169,
      "孩子们": 8170,
      "妇女和女童": 8171,
      "密切合作": 8172,
      "赞赏地注意到": 8173,
      "派遣国": 8174,
      "约束力的": 8175,
      "中非共和国": 8176,
      "董事会": 8177,
      "上午10时": 8178,
      "负面影响": 8179,
      "斯里兰卡": 8180,
      "乌兹别": 8181,
      "4个": 8182,
      "5个": 8183,
      "600": 8184,
      "83": 8185,
      "86": 8186,
      "一家": 8187,
      "三十": 8188,
      "下一": 8189,
      "不幸": 8190,
      "不必": 8191,
      "不稳定": 8192,
      "中部": 8193,
      "习俗": 8194,
      "他对": 8195,
      "会对": 8196,
      "会费": 8197,
      "但在": 8198,
      "例外": 8199,
      "促成": 8200,
      "保加": 8201,
      "偿还": 8202,
      "克拉": 8203,
      "公里": 8204,
      "其余": 8205,
      "养护": 8206,
      "军备": 8207,
      "分歧": 8208,
      "利润": 8209,
      "制品": 8210,
      "制约": 8211,
      "副秘书长": 8212,
      "加斯": 8213,
      "加纳": 8214,
      "印刷": 8215,
      "友好": 8216,
      "可用": 8217,
      "台湾": 8218,
      "各组织": 8219,
      "告知": 8220,
      "和我": 8221,
      "和相关": 8222,
      "回收": 8223,
      "国别": 8224,
      "垃圾": 8225,
      "奥运": 8226,
      "审评": 8227,
      "对外": 8228,
      "尼加拉": 8229,
      "工艺": 8230,
      "左右": 8231,
      "庆祝": 8232,
      "很大的": 8233,
      "忽视": 8234,
      "总值": 8235,
      "患者": 8236,
      "我会": 8237,
      "我希望": 8238,
      "我相信": 8239,
      "所属": 8240,
      "托克": 8241,
      "指数": 8242,
      "指称": 8243,
      "文尼亚": 8244,
      "斯先生": 8245,
      "明的": 8246,
      "是不是": 8247,
      "未经": 8248,
      "本地": 8249,
      "机器": 8250,
      "杀害": 8251,
      "条第2款": 8252,
      "模拟": 8253,
      "次报告": 8254,
      "法和": 8255,
      "津巴布": 8256,
      "演讲": 8257,
      "潜力": 8258,
      "物理": 8259,
      "理想": 8260,
      "的联合国": 8261,
      "的生活": 8262,
      "的过程": 8263,
      "矛盾": 8264,
      "知名": 8265,
      "祝贺": 8266,
      "福祉": 8267,
      "税务": 8268,
      "经社": 8269,
      "缩小": 8270,
      "考察": 8271,
      "联塞": 8272,
      "色情": 8273,
      "被剥夺": 8274,
      "议院": 8275,
      "记忆": 8276,
      "谋杀": 8277,
      "边缘": 8278,
      "过了": 8279,
      "酋长": 8280,
      "配置": 8281,
      "里面": 8282,
      "重的": 8283,
      "重大的": 8284,
      "面积": 8285,
      "韩国": 8286,
      "骚扰": 8287,
      "％，": 8288,
      "国家元首": 8289,
      "问题是": 8290,
      "所有会员国": 8291,
      "可以通过": 8292,
      "区域和国际": 8293,
      "服务和": 8294,
      "建立和": 8295,
      "建立的": 8296,
      "的人们": 8297,
      "协调和": 8298,
      "机制的": 8299,
      "了一份": 8300,
      "了一系列": 8301,
      "制度的": 8302,
      "民主主义": 8303,
      "发生了": 8304,
      "关切地注意到": 8305,
      "批准了": 8306,
      "财政资源": 8307,
      "第3条": 8308,
      "裁军谈判": 8309,
      "专业人员": 8310,
      "专门机构": 8311,
      "7月1日至": 8312,
      "收到的": 8313,
      "历史上": 8314,
      "出席了": 8315,
      "至关重要的": 8316,
      "经济和社会发展": 8317,
      "增进和保护": 8318,
      "官方发展援助": 8319,
      "补救办法": 8320,
      "最佳做法": 8321,
      "斯洛文尼亚": 8322,
      "为基础的": 8323,
      "志愿人员": 8324,
      "发了言": 8325,
      "驻地协调员": 8326,
      "问题国际法庭": 8327,
      "荒漠化": 8328,
      "在这种情况下": 8329,
      "无线电": 8330,
      "辱人格的": 8331,
      "多米尼加": 8332,
      "保加利亚": 8333,
      "尼加拉瓜": 8334,
      "津巴布韦": 8335,
      "71": 8336,
      "76": 8337,
      "79": 8338,
      "95": 8339,
      "99": 8340,
      "”，": 8341,
      "一半": 8342,
      "一方": 8343,
      "下文": 8344,
      "不良": 8345,
      "东盟": 8346,
      "中等": 8347,
      "为1": 8348,
      "也将": 8349,
      "争论": 8350,
      "仔细": 8351,
      "住所": 8352,
      "余额": 8353,
      "使他们": 8354,
      "信心": 8355,
      "全力": 8356,
      "公报": 8357,
      "其实": 8358,
      "内政": 8359,
      "净额": 8360,
      "分开": 8361,
      "削弱": 8362,
      "各类": 8363,
      "向秘书长": 8364,
      "和分析": 8365,
      "国会": 8366,
      "在同": 8367,
      "在对": 8368,
      "在美国": 8369,
      "均衡": 8370,
      "基因": 8371,
      "外来": 8372,
      "多次": 8373,
      "她在": 8374,
      "导航": 8375,
      "小行星": 8376,
      "岁的": 8377,
      "巴拉圭": 8378,
      "年底": 8379,
      "并通过": 8380,
      "建造": 8381,
      "强化": 8382,
      "强有力的": 8383,
      "形象": 8384,
      "怎样": 8385,
      "性恋": 8386,
      "成长": 8387,
      "我已经": 8388,
      "找出": 8389,
      "抵抗": 8390,
      "拉脱": 8391,
      "接待": 8392,
      "接近": 8393,
      "文章": 8394,
      "施加": 8395,
      "施工": 8396,
      "更大的": 8397,
      "最重要的": 8398,
      "某个": 8399,
      "标志": 8400,
      "案例": 8401,
      "欧安": 8402,
      "求斯": 8403,
      "海岸": 8404,
      "消极": 8405,
      "消灭": 8406,
      "港口": 8407,
      "激励": 8408,
      "照片": 8409,
      "煽动": 8410,
      "环保": 8411,
      "现场": 8412,
      "电台": 8413,
      "的特别": 8414,
      "的地区": 8415,
      "的同时": 8416,
      "的调查": 8417,
      "的歧视": 8418,
      "的个人": 8419,
      "的立法": 8420,
      "的成果": 8421,
      "的价值": 8422,
      "的目的是": 8423,
      "的可能性": 8424,
      "直至": 8425,
      "空中": 8426,
      "等问题": 8427,
      "给了": 8428,
      "股票": 8429,
      "膨胀": 8430,
      "至今": 8431,
      "花费": 8432,
      "被判": 8433,
      "裁谈会": 8434,
      "让人": 8435,
      "该组织": 8436,
      "说法": 8437,
      "走了": 8438,
      "足以": 8439,
      "跨界": 8440,
      "轨道": 8441,
      "转变": 8442,
      "较低": 8443,
      "适合": 8444,
      "都没有": 8445,
      "采访": 8446,
      "页次": 8447,
      "首要": 8448,
      "马达": 8449,
      "验证": 8450,
      "高于": 8451,
      "高速": 8452,
      "国际和平与安全": 8453,
      "联合国在": 8454,
      "提供资金": 8455,
      "这些活动": 8456,
      "这些措施": 8457,
      "关于在": 8458,
      "他们对": 8459,
      "中国的": 8460,
      "解决方案": 8461,
      "号决议中": 8462,
      "能够在": 8463,
      "文件的": 8464,
      "了一种": 8465,
      "说明了": 8466,
      "是否有": 8467,
      "咨询小组": 8468,
      "阿拉伯联合": 8469,
      "正式语文": 8470,
      "监测和评价": 8471,
      "科学家": 8472,
      "就业机会": 8473,
      "残疾人权利": 8474,
      "结束时": 8475,
      "出现的": 8476,
      "星期五": 8477,
      "星期四": 8478,
      "第四次": 8479,
      "只有在": 8480,
      "尤其是在": 8481,
      "成本效益": 8482,
      "背景下": 8483,
      "另一方面": 8484,
      "真正的": 8485,
      "救济工程处": 8486,
      "跨国有组织犯罪": 8487,
      "维持和平行动部": 8488,
      "生殖健康": 8489,
      "2015年后": 8490,
      "常规武器": 8491,
      "包容性": 8492,
      "所谓的": 8493,
      "问责制": 8494,
      "世界贸易组织": 8495,
      "世贸组织": 8496,
      "\"、\"": 8497,
      "儿基会": 8498,
      "经合组织": 8499,
      "乌兹别克斯坦": 8500,
      "拉脱维亚": 8501,
      "1个": 8502,
      "8月2": 8503,
      "96": 8504,
      "○○": 8505,
      "》；": 8506,
      "一支": 8507,
      "下放": 8508,
      "不限": 8509,
      "不人道": 8510,
      "两次": 8511,
      "中小": 8512,
      "中发挥": 8513,
      "为在": 8514,
      "主办": 8515,
      "主教": 8516,
      "乌拉圭": 8517,
      "你想": 8518,
      "信号": 8519,
      "信用": 8520,
      "修建": 8521,
      "充满": 8522,
      "八届会议": 8523,
      "其对": 8524,
      "其顿": 8525,
      "冲击": 8526,
      "出售": 8527,
      "分列": 8528,
      "划界": 8529,
      "前景": 8530,
      "加大": 8531,
      "北方": 8532,
      "单方面": 8533,
      "原料": 8534,
      "参照": 8535,
      "受教育": 8536,
      "含义": 8537,
      "吸烟": 8538,
      "和东": 8539,
      "和多": 8540,
      "和人权": 8541,
      "和资源": 8542,
      "和使用": 8543,
      "和教育": 8544,
      "和社区": 8545,
      "咨商": 8546,
      "哈萨": 8547,
      "哥斯": 8548,
      "哪里": 8549,
      "圣诞": 8550,
      "地带": 8551,
      "地的": 8552,
      "塔吉": 8553,
      "大脑": 8554,
      "奖励": 8555,
      "姑娘": 8556,
      "定为": 8557,
      "定位": 8558,
      "定罪": 8559,
      "实用": 8560,
      "害怕": 8561,
      "对这些": 8562,
      "将通过": 8563,
      "尔瓦": 8564,
      "就必须": 8565,
      "尽早": 8566,
      "展示": 8567,
      "工商": 8568,
      "带有": 8569,
      "并应": 8570,
      "很高兴": 8571,
      "思考": 8572,
      "性意见": 8573,
      "把它": 8574,
      "担忧": 8575,
      "排斥": 8576,
      "提倡": 8577,
      "支配": 8578,
      "文学": 8579,
      "新兴": 8580,
      "是从": 8581,
      "是要": 8582,
      "更换": 8583,
      "最好的": 8584,
      "有机": 8585,
      "有罪": 8586,
      "杀伤": 8587,
      "权益": 8588,
      "条草案": 8589,
      "极大": 8590,
      "查阅": 8591,
      "桑比": 8592,
      "每日": 8593,
      "清理": 8594,
      "爆发": 8595,
      "现状": 8596,
      "由联合国": 8597,
      "的和": 8598,
      "的核": 8599,
      "的非": 8600,
      "的公约": 8601,
      "的参与": 8602,
      "的市场": 8603,
      "的适当": 8604,
      "的综合": 8605,
      "的认识": 8606,
      "的设计": 8607,
      "的核心": 8608,
      "的唯一": 8609,
      "第199": 8610,
      "经委会": 8611,
      "缓解": 8612,
      "网上": 8613,
      "罪犯": 8614,
      "美丽": 8615,
      "耳他": 8616,
      "能量": 8617,
      "脱离": 8618,
      "蛋白": 8619,
      "西方": 8620,
      "该报告": 8621,
      "该决议": 8622,
      "负责任": 8623,
      "赞助": 8624,
      "身上": 8625,
      "载于": 8626,
      "达黎": 8627,
      "还注意到": 8628,
      "追求": 8629,
      "追究": 8630,
      "退化": 8631,
      "那就是": 8632,
      "配偶": 8633,
      "酒店": 8634,
      "里斯": 8635,
      "铁路": 8636,
      "长时间": 8637,
      "附近": 8638,
      "预警": 8639,
      "马其顿": 8640,
      "马耳他": 8641,
      "国家人权": 8642,
      "问题工作组": 8643,
      "工作者": 8644,
      "国际刑事": 8645,
      "国际劳工组织": 8646,
      "我们要": 8647,
      "我们需要": 8648,
      "提供支助": 8649,
      "社会保障": 8650,
      "项目标": 8651,
      "大会第6": 8652,
      "111": 8653,
      "世界人权": 8654,
      "根据其": 8655,
      "确保所有": 8656,
      "主要的": 8657,
      "信息技术": 8658,
      "已经在": 8659,
      "实现千年发展目标": 8660,
      "中国政府": 8661,
      "共和国总统": 8662,
      "协调一致": 8663,
      "提交了": 8664,
      "事务处": 8665,
      "作出贡献": 8666,
      "预算和": 8667,
      "贸易和": 8668,
      "行政首长": 8669,
      "司法部": 8670,
      "确定了": 8671,
      "生产总值": 8672,
      "强调指出": 8673,
      "阿拉伯利比亚": 8674,
      "金融机构": 8675,
      "金融危机": 8676,
      "成功的": 8677,
      "宣言和": 8678,
      "人类住": 8679,
      "的一个重要": 8680,
      "生物多样": 8681,
      "和国际组织": 8682,
      "构成部分": 8683,
      "达成的": 8684,
      "首脑会议的": 8685,
      "不仅仅": 8686,
      "举办的": 8687,
      "回顾其": 8688,
      "药物管制": 8689,
      "效率和": 8690,
      "引起的": 8691,
      "索赔人": 8692,
      "实验室": 8693,
      "强迫失踪": 8694,
      "达尔富尔混合": 8695,
      "社会和文化权利": 8696,
      "消除对妇女一切形式": 8697,
      "武器和轻": 8698,
      "毛里求斯": 8699,
      "言论自由": 8700,
      "常驻联合国代表": 8701,
      "下午3时": 8702,
      "联刚特派团": 8703,
      "南南合作": 8704,
      "放射性": 8705,
      "直升机": 8706,
      "可再生能源": 8707,
      "酋长国": 8708,
      "多米尼加共和国": 8709,
      "哈萨克斯坦": 8710,
      "哥斯达黎": 8711,
      "哥斯达黎加": 8712,
      "3条": 8713,
      "72": 8714,
      "一件": 8715,
      "一词": 8716,
      "一边": 8717,
      "七条": 8718,
      "上去": 8719,
      "下了": 8720,
      "不安": 8721,
      "不应该": 8722,
      "不知道": 8723,
      "个体": 8724,
      "中小型": 8725,
      "临床": 8726,
      "为其": 8727,
      "之二": 8728,
      "乍得": 8729,
      "也应": 8730,
      "也就是": 8731,
      "二条": 8732,
      "于2002年": 8733,
      "互相": 8734,
      "五个": 8735,
      "人事": 8736,
      "人才": 8737,
      "仇外": 8738,
      "从中": 8739,
      "以法": 8740,
      "以提高": 8741,
      "但不": 8742,
      "侵略": 8743,
      "信通": 8744,
      "假如": 8745,
      "健全": 8746,
      "克尔": 8747,
      "免受": 8748,
      "全民": 8749,
      "公安": 8750,
      "其在": 8751,
      "其次": 8752,
      "出一": 8753,
      "分割": 8754,
      "分裂": 8755,
      "加紧": 8756,
      "卷入": 8757,
      "各缔约国": 8758,
      "吉斯": 8759,
      "向其": 8760,
      "听说": 8761,
      "和性": 8762,
      "和有关": 8763,
      "和其它": 8764,
      "品牌": 8765,
      "哲学": 8766,
      "国王": 8767,
      "土库": 8768,
      "在你": 8769,
      "在家": 8770,
      "在同一": 8771,
      "地说": 8772,
      "坦桑": 8773,
      "城镇": 8774,
      "基伍": 8775,
      "基督": 8776,
      "塔尼亚": 8777,
      "复苏": 8778,
      "大气": 8779,
      "对付": 8780,
      "导弹": 8781,
      "将为": 8782,
      "将这些": 8783,
      "小学": 8784,
      "就在": 8785,
      "局长": 8786,
      "布雷": 8787,
      "带着": 8788,
      "常会": 8789,
      "广大": 8790,
      "征求": 8791,
      "成年": 8792,
      "成熟": 8793,
      "披露": 8794,
      "拖延": 8795,
      "撤离": 8796,
      "支援": 8797,
      "改造": 8798,
      "数学": 8799,
      "新伙伴关系": 8800,
      "早上": 8801,
      "是为": 8802,
      "曼斯坦": 8803,
      "杂志": 8804,
      "枪支": 8805,
      "核定": 8806,
      "格林": 8807,
      "每个人": 8808,
      "海军": 8809,
      "温度": 8810,
      "生计": 8811,
      "生长": 8812,
      "申明": 8813,
      "的执行": 8814,
      "的支助": 8815,
      "的产品": 8816,
      "的声明": 8817,
      "盟约": 8818,
      "真相": 8819,
      "离职": 8820,
      "科研": 8821,
      "简报": 8822,
      "终了": 8823,
      "罚款": 8824,
      "职工": 8825,
      "自主": 8826,
      "莫桑比": 8827,
      "薪酬": 8828,
      "融合": 8829,
      "行事": 8830,
      "被迫": 8831,
      "被占领": 8832,
      "设想": 8833,
      "证件": 8834,
      "识别": 8835,
      "该公司": 8836,
      "贝尔": 8837,
      "负有": 8838,
      "财富": 8839,
      "资讯": 8840,
      "赢得": 8841,
      "起到": 8842,
      "身边": 8843,
      "转交": 8844,
      "转换": 8845,
      "输入": 8846,
      "迁移": 8847,
      "过的": 8848,
      "还指出": 8849,
      "这对": 8850,
      "违背": 8851,
      "述了": 8852,
      "迹象": 8853,
      "那天": 8854,
      "都要": 8855,
      "金额": 8856,
      "震惊": 8857,
      "领取": 8858,
      "首都": 8859,
      "马上": 8860,
      "20年": 8861,
      "委员会将": 8862,
      "委员会的工作": 8863,
      "我们应该": 8864,
      "政府官员": 8865,
      "提供支持": 8866,
      "包括对": 8867,
      "105": 8868,
      "10个": 8869,
      "10年": 8870,
      "经济合作": 8871,
      "代表性": 8872,
      "人权问题": 8873,
      "没有得到": 8874,
      "没有什么": 8875,
      "妇女权利": 8876,
      "管理的": 8877,
      "管理人员": 8878,
      "大会第5": 8879,
      "提出建议": 8880,
      "支持和": 8881,
      "决定将": 8882,
      "和平利用": 8883,
      "一些人": 8884,
      "成员的": 8885,
      "成员名额": 8886,
      "因为他们": 8887,
      "协调委员会": 8888,
      "非洲发展": 8889,
      "审议的": 8890,
      "审查了": 8891,
      "审查和": 8892,
      "号决议所设": 8893,
      "预算的": 8894,
      "提高认识": 8895,
      "贸易和发展": 8896,
      "而且还": 8897,
      "第一百": 8898,
      "制定的": 8899,
      "专家会议": 8900,
      "基本权利": 8901,
      "必要措施": 8902,
      "存在着": 8903,
      "企业家": 8904,
      "具体的": 8905,
      "部队派遣国": 8906,
      "0年代": 8907,
      "恐怖分子": 8908,
      "咨询意见": 8909,
      "性别问题": 8910,
      "卫生部": 8911,
      "刑事责任": 8912,
      "土著人": 8913,
      "这项工作": 8914,
      "案件的": 8915,
      "就业和": 8916,
      "产品的": 8917,
      "防止和": 8918,
      "审计委员会": 8919,
      "加入了": 8920,
      "年度报告": 8921,
      "粮食计划署": 8922,
      "该国政府": 8923,
      "捐助者": 8924,
      "1月1日": 8925,
      "有限的": 8926,
      "职业培训": 8927,
      "拟议预算": 8928,
      "最高法院": 8929,
      "政府间组织": 8930,
      "妇女和女孩": 8931,
      "移徙者": 8932,
      "所载的": 8933,
      "年轻人": 8934,
      "常设论坛": 8935,
      "出版物": 8936,
      "良好做法": 8937,
      "人权事务委员会": 8938,
      "朝鲜民主主义": 8939,
      "相应的": 8940,
      "不利影响": 8941,
      "亚太经社会": 8942,
      "的名义": 8943,
      "可行性": 8944,
      "近东救济工程处": 8945,
      "侧重于": 8946,
      "公共部门会计准则": 8947,
      "迫切需要": 8948,
      "或有辱人格的": 8949,
      "重返社会": 8950,
      "阿拉伯联合酋长国": 8951,
      "消除对妇女一切形式歧视公约": 8952,
      "土库曼斯坦": 8953,
      "坦桑尼亚": 8954,
      "莫桑比克": 8955,
      "朝鲜民主主义人民共和国": 8956,
      "6号决议": 8957,
      "93": 8958,
      "……": 8959,
      "一届": 8960,
      "万人": 8961,
      "上了": 8962,
      "上有": 8963,
      "上面": 8964,
      "与国际": 8965,
      "专利": 8966,
      "东京": 8967,
      "为何": 8968,
      "之内": 8969,
      "之所以": 8970,
      "乐观": 8971,
      "也很": 8972,
      "了吗": 8973,
      "二届会议": 8974,
      "互助": 8975,
      "从来": 8976,
      "代价": 8977,
      "代码": 8978,
      "份额": 8979,
      "休息": 8980,
      "伯利": 8981,
      "你有": 8982,
      "使命": 8983,
      "使我们": 8984,
      "保密": 8985,
      "债权": 8986,
      "先决": 8987,
      "克斯": 8988,
      "公认": 8989,
      "关押": 8990,
      "关联": 8991,
      "几个月": 8992,
      "列表": 8993,
      "制的": 8994,
      "办理": 8995,
      "勇敢": 8996,
      "半年": 8997,
      "博士": 8998,
      "卡尔": 8999,
      "卡拉": 9000,
      "参观": 9001,
      "反馈": 9002,
      "发送": 9003,
      "句话": 9004,
      "可信": 9005,
      "合成": 9006,
      "合格": 9007,
      "后面": 9008,
      "向你": 9009,
      "和地方": 9010,
      "和人道主义": 9011,
      "和精神": 9012,
      "和海洋": 9013,
      "品质": 9014,
      "哈马": 9015,
      "商店": 9016,
      "喀麦": 9017,
      "回返": 9018,
      "围绕": 9019,
      "在大会": 9020,
      "在全国": 9021,
      "境内的": 9022,
      "复原": 9023,
      "多年来": 9024,
      "大众": 9025,
      "妥善": 9026,
      "嫌疑": 9027,
      "家属": 9028,
      "对抗": 9029,
      "对策": 9030,
      "小武器和轻": 9031,
      "层次": 9032,
      "巴赫": 9033,
      "平面": 9034,
      "延迟": 9035,
      "开会": 9036,
      "引发": 9037,
      "很可能": 9038,
      "很容易": 9039,
      "心里": 9040,
      "必然": 9041,
      "想象": 9042,
      "成的": 9043,
      "我和": 9044,
      "我可以": 9045,
      "或处罚": 9046,
      "所提供的": 9047,
      "扩张": 9048,
      "报复": 9049,
      "招聘": 9050,
      "指责": 9051,
      "指定的": 9052,
      "捕捞": 9053,
      "据报告": 9054,
      "撤销": 9055,
      "支柱": 9056,
      "收到了": 9057,
      "敌对": 9058,
      "更有": 9059,
      "本决议": 9060,
      "本组织的": 9061,
      "权和": 9062,
      "林业": 9063,
      "欺诈": 9064,
      "每月": 9065,
      "比绍": 9066,
      "比额": 9067,
      "民众国": 9068,
      "汇编": 9069,
      "治安": 9070,
      "测定": 9071,
      "牺牲": 9072,
      "的多": 9073,
      "的水": 9074,
      "的高": 9075,
      "的组织": 9076,
      "的人员": 9077,
      "的审议": 9078,
      "的发言": 9079,
      "的分析": 9080,
      "的军事": 9081,
      "的成功": 9082,
      "的谈判": 9083,
      "的价格": 9084,
      "的证据": 9085,
      "的合法": 9086,
      "真诚": 9087,
      "税收": 9088,
      "等级": 9089,
      "简化": 9090,
      "约有": 9091,
      "级别": 9092,
      "纳米": 9093,
      "组建": 9094,
      "罗毕": 9095,
      "老挝": 9096,
      "营地": 9097,
      "观测": 9098,
      "设在": 9099,
      "诊断": 9100,
      "调节": 9101,
      "谢谢": 9102,
      "这儿": 9103,
      "这意味着": 9104,
      "进出口": 9105,
      "远的": 9106,
      "违法": 9107,
      "通货": 9108,
      "邻国": 9109,
      "都不": 9110,
      "队伍": 9111,
      "项下": 9112,
      "马德里": 9113,
      "国家安全": 9114,
      "委员会关于": 9115,
      "委员会欢迎": 9116,
      "发展集团": 9117,
      "社会保护": 9118,
      "通过议程": 9119,
      "101": 9120,
      "所有其他": 9121,
      "有关决议": 9122,
      "人员地雷": 9123,
      "活动中": 9124,
      "115": 9125,
      "理事国": 9126,
      "提出报告": 9127,
      "系统和": 9128,
      "法律文书": 9129,
      "服务中心": 9130,
      "研究和": 9131,
      "使用或": 9132,
      "环境和": 9133,
      "环境基金": 9134,
      "成员国的": 9135,
      "行为者": 9136,
      "信息的": 9137,
      "信息系统": 9138,
      "如果不": 9139,
      "解决冲突": 9140,
      "作出决定": 9141,
      "获得的": 9142,
      "战略和": 9143,
      "中的作用": 9144,
      "时间表": 9145,
      "培训方案": 9146,
      "人口贩运": 9147,
      "行政部门": 9148,
      "基本上": 9149,
      "确定的": 9150,
      "工作人员的": 9151,
      "开发银行": 9152,
      "这样一个": 9153,
      "企业的": 9154,
      "难民事务": 9155,
      "难民专员": 9156,
      "以便在": 9157,
      "各项建议": 9158,
      "国内法": 9159,
      "第22": 9160,
      "巴勒斯坦领土": 9161,
      "更多地": 9162,
      "科学和技术": 9163,
      "之间的关系": 9164,
      "星期三": 9165,
      "第48": 9166,
      "经费的": 9167,
      "不可避免": 9168,
      "内部监督": 9169,
      "指导原则": 9170,
      "核武器国家": 9171,
      "条款草案": 9172,
      "达成协议": 9173,
      "1988年": 9174,
      "结论性意见": 9175,
      "面临着": 9176,
      "粮食及": 9177,
      "统计数据": 9178,
      "捐助方": 9179,
      "外国人": 9180,
      "最不发达国家的": 9181,
      "有限公司": 9182,
      "召开的": 9183,
      "在本报告所述期间": 9184,
      "性质和": 9185,
      "修订的": 9186,
      "妇女和儿童": 9187,
      "筹备工作": 9188,
      "提案国": 9189,
      "类似的": 9190,
      "第七十": 9191,
      "排放量": 9192,
      "货币基金": 9193,
      "77国集团": 9194,
      "人权和基本自由": 9195,
      "几内亚比绍": 9196,
      "灵活性": 9197,
      "弱势群体": 9198,
      "劳动力市场": 9199,
      "传染病": 9200,
      "内陆发展中国家": 9201,
      "补助金": 9202,
      "行政和预算": 9203,
      "被占领土": 9204,
      "公民权利和政治权利国际公约": 9205,
      "养老金": 9206,
      "不人道或有辱人格的": 9207,
      "杀伤人员地雷": 9208,
      "世界人权宣言": 9209,
      "先决条件": 9210,
      "喀麦隆": 9211,
      "不人道或有辱人格的待遇": 9212,
      "\"；": 9213,
      "5条": 9214,
      "500美元": 9215,
      "700美元": 9216,
      "91": 9217,
      "三名": 9218,
      "三次": 9219,
      "下述": 9220,
      "不需要": 9221,
      "不确定": 9222,
      "不一定": 9223,
      "不结盟": 9224,
      "中被": 9225,
      "中美洲": 9226,
      "之时": 9227,
      "也门": 9228,
      "了有关": 9229,
      "了新的": 9230,
      "于2005年": 9231,
      "交付": 9232,
      "仇恨": 9233,
      "以供": 9234,
      "以支持": 9235,
      "伯特": 9236,
      "使他": 9237,
      "做好": 9238,
      "僵局": 9239,
      "入侵": 9240,
      "其工作": 9241,
      "减免": 9242,
      "分离": 9243,
      "利班": 9244,
      "到的": 9245,
      "北极": 9246,
      "区分": 9247,
      "医学": 9248,
      "升级": 9249,
      "去看": 9250,
      "双重": 9251,
      "另有": 9252,
      "呼吸": 9253,
      "和关于": 9254,
      "和行政": 9255,
      "和非政府组织": 9256,
      "团长": 9257,
      "困境": 9258,
      "在中国": 9259,
      "地上": 9260,
      "坚信": 9261,
      "塔利班": 9262,
      "增值": 9263,
      "处置": 9264,
      "外面": 9265,
      "大西": 9266,
      "头发": 9267,
      "奇怪": 9268,
      "存款": 9269,
      "学会": 9270,
      "实在": 9271,
      "对发展中国家": 9272,
      "尔多": 9273,
      "尔德": 9274,
      "尽力": 9275,
      "工厂": 9276,
      "巴巴": 9277,
      "市政": 9278,
      "市的": 9279,
      "布鲁": 9280,
      "常任": 9281,
      "干旱": 9282,
      "并建议": 9283,
      "并指出": 9284,
      "应收": 9285,
      "应由": 9286,
      "引导": 9287,
      "当作": 9288,
      "必不可": 9289,
      "总务": 9290,
      "总干事": 9291,
      "恶劣": 9292,
      "情绪": 9293,
      "愉快": 9294,
      "意图": 9295,
      "我能": 9296,
      "我觉得": 9297,
      "截止": 9298,
      "手续": 9299,
      "抢劫": 9300,
      "提前": 9301,
      "文字": 9302,
      "斯基": 9303,
      "施行": 9304,
      "旋转": 9305,
      "日子": 9306,
      "早就": 9307,
      "有力": 9308,
      "期的": 9309,
      "本质": 9310,
      "校园": 9311,
      "检验": 9312,
      "概算": 9313,
      "民兵": 9314,
      "民用": 9315,
      "法典": 9316,
      "法委员会": 9317,
      "清晰": 9318,
      "澳门": 9319,
      "牵头": 9320,
      "特定的": 9321,
      "留在": 9322,
      "的海": 9323,
      "的联合": 9324,
      "的计划": 9325,
      "的和平": 9326,
      "的领域": 9327,
      "的文化": 9328,
      "的冲突": 9329,
      "的会员国": 9330,
      "的全面": 9331,
      "的最后": 9332,
      "的业务": 9333,
      "的选择": 9334,
      "的长期": 9335,
      "的概念": 9336,
      "的总体": 9337,
      "的意思": 9338,
      "的声音": 9339,
      "看起来": 9340,
      "确信": 9341,
      "示威": 9342,
      "私有": 9343,
      "精力": 9344,
      "给秘书长": 9345,
      "群众": 9346,
      "而已": 9347,
      "脂肪": 9348,
      "行李": 9349,
      "见附件": 9350,
      "论点": 9351,
      "该方案": 9352,
      "赤道": 9353,
      "走向": 9354,
      "起了": 9355,
      "超越": 9356,
      "辐射": 9357,
      "过于": 9358,
      "遵照": 9359,
      "邮票": 9360,
      "部件": 9361,
      "金钱": 9362,
      "防护": 9363,
      "除外": 9364,
      "集会": 9365,
      "马克": 9366,
      "高质量": 9367,
      "？”": 9368,
      "发展战略": 9369,
      "联合国机构": 9370,
      "报告称": 9371,
      "方面取得的进展": 9372,
      "行动和": 9373,
      "行动方案": 9374,
      "区域中心": 9375,
      "儿童保护": 9376,
      "这一目标": 9377,
      "决定在": 9378,
      "研究报告": 9379,
      "和平进程": 9380,
      "环境保护": 9381,
      "任何人": 9382,
      "建立信任": 9383,
      "实现了": 9384,
      "全球经济": 9385,
      "增加到": 9386,
      "表示感谢": 9387,
      "实施了": 9388,
      "参与了": 9389,
      "获得通过": 9390,
      "正在进行": 9391,
      "标准和": 9392,
      "同时也": 9393,
      "文件中": 9394,
      "代表团认为": 9395,
      "具有法律": 9396,
      "投资的": 9397,
      "条件的": 9398,
      "必要时": 9399,
      "生产的": 9400,
      "可持续性": 9401,
      "设施和": 9402,
      "第60": 9403,
      "涉及到": 9404,
      "第十四条": 9405,
      "第59": 9406,
      "联邦政府": 9407,
      "成功地": 9408,
      "第31": 9409,
      "结构的": 9410,
      "保健服务": 9411,
      "普遍定期": 9412,
      "价值观": 9413,
      "警察部队": 9414,
      "的最佳": 9415,
      "的最大": 9416,
      "竞争力": 9417,
      "27日": 9418,
      "青年人": 9419,
      "捐助国": 9420,
      "你们的": 9421,
      "大量的": 9422,
      "解释性": 9423,
      "森林管理": 9424,
      "今后的": 9425,
      "反映了": 9426,
      "合理的": 9427,
      "委员会还建议": 9428,
      "建筑物": 9429,
      "脆弱性": 9430,
      "集中在": 9431,
      "刑法典": 9432,
      "人权事务高级专员办事处": 9433,
      "监察员": 9434,
      "干预措施": 9435,
      "毫无疑问": 9436,
      "迄今为止": 9437,
      "外勤支助": 9438,
      "消除对妇女歧视": 9439,
      "暴力侵害妇女": 9440,
      "文职人员": 9441,
      "被认为是": 9442,
      "隔离墙": 9443,
      "天然气": 9444,
      "吉尔吉斯": 9445,
      "倾向于": 9446,
      "加斯加": 9447,
      "托克劳": 9448,
      "马其顿共和国": 9449,
      "阿拉伯利比亚民众国": 9450,
      "人类住区": 9451,
      "中小型企业": 9452,
      "比额表": 9453,
      "通货膨胀": 9454,
      "粮食及农业": 9455,
      "大西洋": 9456,
      "必不可少": 9457,
      "%)": 9458,
      "119": 9459,
      "3号决议": 9460,
      "6条": 9461,
      "7条": 9462,
      "700": 9463,
      "81": 9464,
      "88": 9465,
      "8号决议": 9466,
      "9个": 9467,
      "”“": 9468,
      "一再": 9469,
      "一贯": 9470,
      "上学": 9471,
      "上空": 9472,
      "不了": 9473,
      "专用": 9474,
      "东部": 9475,
      "东南亚": 9476,
      "中立": 9477,
      "中没有": 9478,
      "为依据": 9479,
      "九条": 9480,
      "也就": 9481,
      "也可能": 9482,
      "书记": 9483,
      "事宜": 9484,
      "于2000年": 9485,
      "交叉": 9486,
      "人以": 9487,
      "人或": 9488,
      "人生": 9489,
      "今日": 9490,
      "他用": 9491,
      "他认为": 9492,
      "以南": 9493,
      "以上的": 9494,
      "仪式": 9495,
      "任用": 9496,
      "优化": 9497,
      "会期间": 9498,
      "但这": 9499,
      "作者": 9500,
      "你说": 9501,
      "使人": 9502,
      "使团": 9503,
      "供水": 9504,
      "修复": 9505,
      "六个月": 9506,
      "其任务": 9507,
      "内罗毕": 9508,
      "冻结": 9509,
      "出境": 9510,
      "函数": 9511,
      "切割": 9512,
      "列支": 9513,
      "刚刚": 9514,
      "别的": 9515,
      "前的": 9516,
      "力求": 9517,
      "区内": 9518,
      "半岛": 9519,
      "华盛": 9520,
      "南苏丹": 9521,
      "印发": 9522,
      "及太平洋": 9523,
      "友谊": 9524,
      "发动": 9525,
      "发放": 9526,
      "各代表团": 9527,
      "名义": 9528,
      "名称": 9529,
      "含量": 9530,
      "和有": 9531,
      "和大会": 9532,
      "和促进": 9533,
      "和可持续": 9534,
      "器和": 9535,
      "在新": 9536,
      "在线": 9537,
      "在我们": 9538,
      "在2009年": 9539,
      "在2008年": 9540,
      "塞人": 9541,
      "塞族": 9542,
      "境外": 9543,
      "士登": 9544,
      "复员": 9545,
      "多斯": 9546,
      "多项": 9547,
      "大批": 9548,
      "女儿": 9549,
      "奴隶": 9550,
      "好吗": 9551,
      "威士": 9552,
      "孕产妇": 9553,
      "它是": 9554,
      "实习": 9555,
      "家园": 9556,
      "对我们": 9557,
      "对妇女的": 9558,
      "封信": 9559,
      "将从": 9560,
      "将使": 9561,
      "将军": 9562,
      "将成为": 9563,
      "小姐": 9564,
      "巡逻": 9565,
      "已开始": 9566,
      "巴塞尔": 9567,
      "布什": 9568,
      "布拉": 9569,
      "席位": 9570,
      "并强调": 9571,
      "开了": 9572,
      "开设": 9573,
      "很好的": 9574,
      "忘记": 9575,
      "总共": 9576,
      "才会": 9577,
      "按性别": 9578,
      "振兴": 9579,
      "捍卫": 9580,
      "据说": 9581,
      "接着": 9582,
      "摧毁": 9583,
      "收容": 9584,
      "收费": 9585,
      "敦士登": 9586,
      "斯科": 9587,
      "施政": 9588,
      "无疑": 9589,
      "是以": 9590,
      "是我": 9591,
      "是最": 9592,
      "是通过": 9593,
      "显得": 9594,
      "暂时": 9595,
      "更改": 9596,
      "更容易": 9597,
      "有待": 9598,
      "有益": 9599,
      "有能力": 9600,
      "本次": 9601,
      "本着": 9602,
      "梦想": 9603,
      "概况": 9604,
      "此后": 9605,
      "段和": 9606,
      "民政": 9607,
      "河流": 9608,
      "流通": 9609,
      "海事": 9610,
      "消失": 9611,
      "深信": 9612,
      "熟悉": 9613,
      "物体": 9614,
      "特使": 9615,
      "由国家": 9616,
      "的持续": 9617,
      "的程序": 9618,
      "的不同": 9619,
      "的条件": 9620,
      "的实际": 9621,
      "的某些": 9622,
      "的威胁": 9623,
      "的状况": 9624,
      "的结构": 9625,
      "的学生": 9626,
      "的精神": 9627,
      "的数量": 9628,
      "的态度": 9629,
      "礼物": 9630,
      "称赞": 9631,
      "空白": 9632,
      "签发": 9633,
      "纠纷": 9634,
      "终于": 9635,
      "维尔": 9636,
      "缴付": 9637,
      "罗姆": 9638,
      "罢工": 9639,
      "老板": 9640,
      "联科": 9641,
      "联黎": 9642,
      "胜利": 9643,
      "自主权": 9644,
      "航天": 9645,
      "草坪": 9646,
      "著名": 9647,
      "蔬菜": 9648,
      "要么": 9649,
      "见了": 9650,
      "警务": 9651,
      "论文": 9652,
      "该国的": 9653,
      "详情": 9654,
      "诸多": 9655,
      "谈到": 9656,
      "还不": 9657,
      "还包括": 9658,
      "还必须": 9659,
      "这笔": 9660,
      "这方面": 9661,
      "选出": 9662,
      "部委": 9663,
      "都将": 9664,
      "都可以": 9665,
      "都必须": 9666,
      "配备": 9667,
      "采矿": 9668,
      "野生": 9669,
      "限度": 9670,
      "鼓舞": 9671,
      "问题咨询委员会": 9672,
      "工作地点": 9673,
      "国际文书": 9674,
      "发展筹资": 9675,
      "组织在": 9676,
      "我们会": 9677,
      "我们可以": 9678,
      "进行合作": 9679,
      "进行审查": 9680,
      "关于联合国": 9681,
      "行动者": 9682,
      "行动纲要": 9683,
      "所有各方": 9684,
      "代表的": 9685,
      "妇女署": 9686,
      "1990": 9687,
      "1992": 9688,
      "合作和": 9689,
      "区域办事处": 9690,
      "法律框架": 9691,
      "这一问题的": 9692,
      "采取步骤": 9693,
      "采取的行动": 9694,
      "加强与": 9695,
      "加强联合国": 9696,
      "继续与": 9697,
      "继续在": 9698,
      "和平协定": 9699,
      "基金和": 9700,
      "确保其": 9701,
      "能力的": 9702,
      "目标的": 9703,
      "这种做法": 9704,
      "人民政府": 9705,
      "部门和": 9706,
      "因为他": 9707,
      "援助团": 9708,
      "提交给": 9709,
      "提交的报告": 9710,
      "开展合作": 9711,
      "非洲人": 9712,
      "讨论的": 9713,
      "作出努力": 9714,
      "美国人": 9715,
      "培训班": 9716,
      "方法和": 9717,
      "许多国家": 9718,
      "意见和": 9719,
      "取得成功": 9720,
      "原则和": 9721,
      "进程中": 9722,
      "接受的": 9723,
      "和其他残忍": 9724,
      "咨询服务": 9725,
      "高级官员": 9726,
      "监测和": 9727,
      "非常重要": 9728,
      "巴勒斯坦人": 9729,
      "第51": 9730,
      "履行机构": 9731,
      "知识和": 9732,
      "状况的": 9733,
      "残疾儿童": 9734,
      "发挥作用": 9735,
      "出现了": 9736,
      "000名": 9737,
      "部长们": 9738,
      "准备金": 9739,
      "最近的": 9740,
      "反对派": 9741,
      "打击恐怖主义": 9742,
      "打击跨国有组织犯罪": 9743,
      "旨在促进": 9744,
      "1987年": 9745,
      "结论和建议": 9746,
      "提供的资料": 9747,
      "联合国系统各": 9748,
      "宗教和": 9749,
      "电子邮件": 9750,
      "成立了": 9751,
      "总部举行": 9752,
      "工业化": 9753,
      "维持和平特派团": 9754,
      "29日": 9755,
      "为此目的": 9756,
      "她们的": 9757,
      "亚洲及太平洋": 9758,
      "带来了": 9759,
      "现代化": 9760,
      "并将其": 9761,
      "百分之": 9762,
      "殖民化": 9763,
      "殖民地": 9764,
      "强制执行": 9765,
      "外地办事处": 9766,
      "指挥官": 9767,
      "毛里塔尼亚": 9768,
      "解除武装": 9769,
      "自决权": 9770,
      "安全理事会主席的信": 9771,
      "谅解备忘录": 9772,
      "大规模毁灭性武器": 9773,
      "事态发展": 9774,
      "裁军谈判会议": 9775,
      "马达加斯加": 9776,
      "难民专员办事处": 9777,
      "不人道或有辱人格的待遇或处罚": 9778,
      "巴巴多斯": 9779,
      "普遍定期审议": 9780,
      "粮食及农业组织": 9781,
      "列支敦士登": 9782,
      "华盛顿": 9783,
      "联黎部队": 9784,
      "1名": 9785,
      "110": 9786,
      "3日至": 9787,
      "4段": 9788,
      "600美元": 9789,
      "8个": 9790,
      "一国": 9791,
      "一张": 9792,
      "一方面": 9793,
      "三项": 9794,
      "上限": 9795,
      "下一个": 9796,
      "不予": 9797,
      "不大": 9798,
      "不太": 9799,
      "不当": 9800,
      "不知": 9801,
      "不罚": 9802,
      "与他": 9803,
      "东耶路撒冷": 9804,
      "个别": 9805,
      "中学": 9806,
      "为该": 9807,
      "举报": 9808,
      "买方": 9809,
      "了与": 9810,
      "于2007年": 9811,
      "五条": 9812,
      "仍未": 9813,
      "他表示": 9814,
      "会前": 9815,
      "但也": 9816,
      "体面": 9817,
      "你应该": 9818,
      "修理": 9819,
      "偏见": 9820,
      "做的": 9821,
      "储蓄": 9822,
      "催化": 9823,
      "全权": 9824,
      "几天": 9825,
      "出发": 9826,
      "分为": 9827,
      "删除": 9828,
      "利尔": 9829,
      "前面": 9830,
      "力度": 9831,
      "加深": 9832,
      "勇气": 9833,
      "包装": 9834,
      "危及": 9835,
      "原始": 9836,
      "去了": 9837,
      "发明": 9838,
      "另一项": 9839,
      "召集": 9840,
      "可行的": 9841,
      "号码": 9842,
      "各机构": 9843,
      "同性恋": 9844,
      "员的": 9845,
      "和中国": 9846,
      "和标准": 9847,
      "和多边": 9848,
      "哈根": 9849,
      "哥本": 9850,
      "回去": 9851,
      "地址": 9852,
      "型的": 9853,
      "基层": 9854,
      "多元": 9855,
      "奠定": 9856,
      "好像": 9857,
      "委托": 9858,
      "媒介": 9859,
      "守则": 9860,
      "安德": 9861,
      "实物": 9862,
      "宽容": 9863,
      "对他": 9864,
      "对在": 9865,
      "对手": 9866,
      "寿命": 9867,
      "已成为": 9868,
      "市民": 9869,
      "布尔": 9870,
      "布罗": 9871,
      "干扰": 9872,
      "并使": 9873,
      "并提供": 9874,
      "并要求": 9875,
      "并促进": 9876,
      "应将": 9877,
      "应根据": 9878,
      "得出的": 9879,
      "心的": 9880,
      "性问题": 9881,
      "性剥削": 9882,
      "恰当": 9883,
      "惩治": 9884,
      "感受": 9885,
      "我说": 9886,
      "或其": 9887,
      "所占": 9888,
      "所要求": 9889,
      "所规定的": 9890,
      "所面临的": 9891,
      "扶持": 9892,
      "承受": 9893,
      "技巧": 9894,
      "抑制": 9895,
      "投标": 9896,
      "指派": 9897,
      "据称": 9898,
      "提到了": 9899,
      "摩尔多": 9900,
      "救助": 9901,
      "整合": 9902,
      "无关": 9903,
      "无辜": 9904,
      "既定": 9905,
      "普查": 9906,
      "最为": 9907,
      "有两": 9908,
      "有多": 9909,
      "木材": 9910,
      "来了": 9911,
      "构想": 9912,
      "架构": 9913,
      "核实": 9914,
      "森堡": 9915,
      "此时": 9916,
      "每周": 9917,
      "沙漠": 9918,
      "波动": 9919,
      "深刻": 9920,
      "深感": 9921,
      "火车": 9922,
      "焦点": 9923,
      "物种": 9924,
      "用了": 9925,
      "界限": 9926,
      "疟疾": 9927,
      "疫苗": 9928,
      "百万": 9929,
      "的天": 9930,
      "的部分": 9931,
      "的暴力": 9932,
      "的范围": 9933,
      "的专业": 9934,
      "的土地": 9935,
      "的补充": 9936,
      "的特殊": 9937,
      "的决议草案": 9938,
      "的观点": 9939,
      "的答复": 9940,
      "的立场": 9941,
      "皮肤": 9942,
      "监视": 9943,
      "看出": 9944,
      "短缺": 9945,
      "碎片": 9946,
      "离婚": 9947,
      "穿着": 9948,
      "穿过": 9949,
      "站在": 9950,
      "等待": 9951,
      "等方面的": 9952,
      "答案": 9953,
      "算法": 9954,
      "精确": 9955,
      "索托": 9956,
      "细菌": 9957,
      "结核": 9958,
      "给他": 9959,
      "给安全理事会主席的信": 9960,
      "罕默": 9961,
      "置于": 9962,
      "耶稣": 9963,
      "联利": 9964,
      "能在": 9965,
      "自卫": 9966,
      "自杀": 9967,
      "臭氧": 9968,
      "花园": 9969,
      "英格兰": 9970,
      "范畴": 9971,
      "萨尔瓦": 9972,
      "蔓延": 9973,
      "血管": 9974,
      "行径": 9975,
      "街头": 9976,
      "西部": 9977,
      "要想": 9978,
      "警卫": 9979,
      "计量": 9980,
      "识字": 9981,
      "该法": 9982,
      "该委员会": 9983,
      "谈论": 9984,
      "赤贫": 9985,
      "超级": 9986,
      "路上": 9987,
      "过滤": 9988,
      "还需要": 9989,
      "这就": 9990,
      "这件事": 9991,
      "远程": 9992,
      "远远": 9993,
      "通行": 9994,
      "遗传": 9995,
      "邮政": 9996,
      "里约": 9997,
      "闭幕": 9998,
      "阿卜": 9999
    },
    "merges": [
      [
        "2",
        "0"
      ],
      [
        "国",
        "家"
      ],
      [
        "委",
        "员"
      ],
      [
        "委员",
        "会"
      ],
      [
        "问",
        "题"
      ],
      [
        "工",
        "作"
      ],
      [
        "会",
        "议"
      ],
      [
        "20",
        "0"
      ],
      [
        "联",
        "合"
      ],
      [
        "国",
        "际"
      ],
      [
        "发",
        "展"
      ],
      [
        "联合",
        "国"
      ],
      [
        "组",
        "织"
      ],
      [
        "我",
        "们"
      ],
      [
        "报",
        "告"
      ],
      [
        "一",
        "个"
      ],
      [
        "1",
        "9"
      ],
      [
        "政",
        "府"
      ],
      [
        "提",
        "供"
      ],
      [
        "以",
        "及"
      ],
      [
        "方",
        "面"
      ],
      [
        "这",
        "些"
      ],
      [
        "进",
        "行"
      ],
      [
        "社",
        "会"
      ],
      [
        "关",
        "于"
      ],
      [
        "包",
        "括"
      ],
      [
        "情",
        "况"
      ],
      [
        "其",
        "他"
      ],
      [
        "通",
        "过"
      ],
      [
        "方",
        "案"
      ],
      [
        "行",
        "动"
      ],
      [
        "机",
        "构"
      ],
      [
        "1",
        "0"
      ],
      [
        "所",
        "有"
      ],
      [
        "经",
        "济"
      ],
      [
        "他",
        "们"
      ],
      [
        "有",
        "关"
      ],
      [
        "特",
        "别"
      ],
      [
        "代",
        "表"
      ],
      [
        "执",
        "行"
      ],
      [
        "人",
        "权"
      ],
      [
        "没",
        "有"
      ],
      [
        "人",
        "员"
      ],
      [
        "安",
        "全"
      ],
      [
        "活",
        "动"
      ],
      [
        "妇",
        "女"
      ],
      [
        "19",
        "9"
      ],
      [
        "合",
        "作"
      ],
      [
        "公",
        "约"
      ],
      [
        "1",
        "2"
      ],
      [
        "建",
        "议"
      ],
      [
        "需",
        "要"
      ],
      [
        "可",
        "能"
      ],
      [
        "秘",
        "书"
      ],
      [
        "计",
        "划"
      ],
      [
        "项",
        "目"
      ],
      [
        "规",
        "定"
      ],
      [
        "可",
        "以"
      ],
      [
        "管",
        "理"
      ],
      [
        "决",
        "议"
      ],
      [
        "技",
        "术"
      ],
      [
        "缔",
        "约"
      ],
      [
        "大",
        "会"
      ],
      [
        "区",
        "域"
      ],
      [
        "1",
        "1"
      ],
      [
        "儿",
        "童"
      ],
      [
        "理",
        "事"
      ],
      [
        "措",
        "施"
      ],
      [
        "权",
        "利"
      ],
      [
        "提",
        "出"
      ],
      [
        "重",
        "要"
      ],
      [
        "理事",
        "会"
      ],
      [
        "系",
        "统"
      ],
      [
        "法",
        "律"
      ],
      [
        "这",
        "一"
      ],
      [
        "支",
        "持"
      ],
      [
        "世",
        "界"
      ],
      [
        "采",
        "取"
      ],
      [
        "0",
        "0"
      ],
      [
        "决",
        "定"
      ],
      [
        "必",
        "须"
      ],
      [
        "根",
        "据"
      ],
      [
        "影",
        "响"
      ],
      [
        "服",
        "务"
      ],
      [
        "政",
        "策"
      ],
      [
        "保",
        "护"
      ],
      [
        "资",
        "源"
      ],
      [
        "认",
        "为"
      ],
      [
        "加",
        "强"
      ],
      [
        "继",
        "续"
      ],
      [
        "主",
        "义"
      ],
      [
        "研",
        "究"
      ],
      [
        "使",
        "用"
      ],
      [
        "和",
        "平"
      ],
      [
        "一",
        "些"
      ],
      [
        "要",
        "求"
      ],
      [
        "基",
        "金"
      ],
      [
        "促",
        "进"
      ],
      [
        "努",
        "力"
      ],
      [
        "教",
        "育"
      ],
      [
        "确",
        "保"
      ],
      [
        "能",
        "力"
      ],
      [
        "环",
        "境"
      ],
      [
        "缔约",
        "国"
      ],
      [
        "目",
        "标"
      ],
      [
        "主",
        "要"
      ],
      [
        "任",
        "何"
      ],
      [
        "这",
        "种"
      ],
      [
        "成",
        "员"
      ],
      [
        "行",
        "为"
      ],
      [
        "注",
        "意"
      ],
      [
        "人",
        "民"
      ],
      [
        "建",
        "立"
      ],
      [
        "作",
        "为"
      ],
      [
        "美",
        "元"
      ],
      [
        "部",
        "门"
      ],
      [
        "秘书",
        "长"
      ],
      [
        "信",
        "息"
      ],
      [
        "已",
        "经"
      ],
      [
        "实",
        "现"
      ],
      [
        "和",
        "国"
      ],
      [
        "全",
        "球"
      ],
      [
        "如",
        "果"
      ],
      [
        "的",
        "人"
      ],
      [
        "-",
        "-"
      ],
      [
        "因",
        "为"
      ],
      [
        "1",
        "3"
      ],
      [
        "因",
        "此"
      ],
      [
        "部",
        "分"
      ],
      [
        "中",
        "国"
      ],
      [
        "这",
        "个"
      ],
      [
        "共",
        "和国"
      ],
      [
        "主",
        "席"
      ],
      [
        "援",
        "助"
      ],
      [
        "协",
        "调"
      ],
      [
        "领",
        "域"
      ],
      [
        "武",
        "器"
      ],
      [
        "提",
        "交"
      ],
      [
        "的",
        "一"
      ],
      [
        "举",
        "行"
      ],
      [
        "关",
        "系"
      ],
      [
        "得",
        "到"
      ],
      [
        "增",
        "加"
      ],
      [
        "有",
        "效"
      ],
      [
        "地",
        "区"
      ],
      [
        "表",
        "示"
      ],
      [
        "考",
        "虑"
      ],
      [
        "实",
        "施"
      ],
      [
        "各",
        "国"
      ],
      [
        "1",
        "5"
      ],
      [
        "政",
        "治"
      ],
      [
        "开",
        "展"
      ],
      [
        "非",
        "洲"
      ],
      [
        "届",
        "会议"
      ],
      [
        "参",
        "与"
      ],
      [
        "审",
        "议"
      ],
      [
        "持",
        "续"
      ],
      [
        "解",
        "决"
      ],
      [
        "讨",
        "论"
      ],
      [
        "事",
        "务"
      ],
      [
        "1",
        "4"
      ],
      [
        "作",
        "用"
      ],
      [
        "程",
        "序"
      ],
      [
        "审",
        "查"
      ],
      [
        "号",
        "决议"
      ],
      [
        "作",
        "出"
      ],
      [
        "获",
        "得"
      ],
      [
        "方面",
        "的"
      ],
      [
        "之",
        "间"
      ],
      [
        "指",
        "出"
      ],
      [
        "期",
        "间"
      ],
      [
        "战",
        "略"
      ],
      [
        "美",
        "国"
      ],
      [
        "预",
        "算"
      ],
      [
        "第",
        "二"
      ],
      [
        "相",
        "关"
      ],
      [
        "月",
        "2"
      ],
      [
        "自",
        "己"
      ],
      [
        "的",
        "是"
      ],
      [
        "中",
        "的"
      ],
      [
        "基",
        "础"
      ],
      [
        "9",
        "年"
      ],
      [
        "人",
        "的"
      ],
      [
        "时",
        "间"
      ],
      [
        "能",
        "够"
      ],
      [
        "但",
        "是"
      ],
      [
        "犯",
        "罪"
      ],
      [
        "斯",
        "坦"
      ],
      [
        "培",
        "训"
      ],
      [
        "正",
        "在"
      ],
      [
        "处",
        "理"
      ],
      [
        "方",
        "法"
      ],
      [
        "提",
        "高"
      ],
      [
        "人",
        "口"
      ],
      [
        "公",
        "司"
      ],
      [
        "小",
        "组"
      ],
      [
        "贸",
        "易"
      ],
      [
        "其",
        "中"
      ],
      [
        "目",
        "前"
      ],
      [
        "行",
        "政"
      ],
      [
        "标",
        "准"
      ],
      [
        "中",
        "心"
      ],
      [
        "由",
        "于"
      ],
      [
        "的",
        "工作"
      ],
      [
        "它",
        "们"
      ],
      [
        "而",
        "且"
      ],
      [
        "不",
        "是"
      ],
      [
        "开",
        "始"
      ],
      [
        "资",
        "料"
      ],
      [
        "许",
        "多"
      ],
      [
        "什",
        "么"
      ],
      [
        "机",
        "制"
      ],
      [
        "特",
        "派"
      ],
      [
        "意",
        "见"
      ],
      [
        "同",
        "时"
      ],
      [
        "支",
        "助"
      ],
      [
        "方",
        "式"
      ],
      [
        "数",
        "据"
      ],
      [
        "注意",
        "到"
      ],
      [
        "特别",
        "是"
      ],
      [
        "文",
        "件"
      ],
      [
        "发展",
        "中"
      ],
      [
        "代表",
        "团"
      ],
      [
        "具",
        "有"
      ],
      [
        "第",
        "一"
      ],
      [
        "取",
        "得"
      ],
      [
        "特派",
        "团"
      ],
      [
        "参",
        "加"
      ],
      [
        "发",
        "言"
      ],
      [
        "司",
        "法"
      ],
      [
        "5",
        "年"
      ],
      [
        "7",
        "年"
      ],
      [
        "法",
        "院"
      ],
      [
        "3",
        "0"
      ],
      [
        "任",
        "务"
      ],
      [
        "制",
        "定"
      ],
      [
        "自",
        "由"
      ],
      [
        "8",
        "年"
      ],
      [
        "专",
        "家"
      ],
      [
        "发展中",
        "国家"
      ],
      [
        "投",
        "资"
      ],
      [
        "利",
        "用"
      ],
      [
        "基",
        "本"
      ],
      [
        "条",
        "约"
      ],
      [
        "用",
        "于"
      ],
      [
        "一",
        "步"
      ],
      [
        "及",
        "其"
      ],
      [
        "的",
        "问题"
      ],
      [
        "的",
        "情况"
      ],
      [
        "新",
        "的"
      ],
      [
        "安全",
        "理事会"
      ],
      [
        "确",
        "定"
      ],
      [
        "草",
        "案"
      ],
      [
        "了",
        "一"
      ],
      [
        "责",
        "任"
      ],
      [
        "利",
        "亚"
      ],
      [
        "各",
        "种"
      ],
      [
        "减",
        "少"
      ],
      [
        "办",
        "法"
      ],
      [
        "平",
        "等"
      ],
      [
        "暴",
        "力"
      ],
      [
        "不",
        "同"
      ],
      [
        "市",
        "场"
      ],
      [
        "文",
        "化"
      ],
      [
        "条",
        "件"
      ],
      [
        "调",
        "查"
      ],
      [
        "必",
        "要"
      ],
      [
        "的",
        "国家"
      ],
      [
        "进",
        "一步"
      ],
      [
        "1",
        "8"
      ],
      [
        "生",
        "活"
      ],
      [
        "制",
        "度"
      ],
      [
        "原",
        "则"
      ],
      [
        "伙",
        "伴"
      ],
      [
        "生",
        "产"
      ],
      [
        "对",
        "于"
      ],
      [
        "工作",
        "人员"
      ],
      [
        "现",
        "在"
      ],
      [
        "先",
        "生"
      ],
      [
        "1",
        "6"
      ],
      [
        "开",
        "发"
      ],
      [
        "会",
        "员"
      ],
      [
        "充",
        "分"
      ],
      [
        "家",
        "庭"
      ],
      [
        "说",
        "明"
      ],
      [
        "进",
        "程"
      ],
      [
        "共",
        "同"
      ],
      [
        "为",
        "了"
      ],
      [
        "机",
        "会"
      ],
      [
        "问题",
        "的"
      ],
      [
        "尼",
        "亚"
      ],
      [
        "议",
        "程"
      ],
      [
        "是",
        "否"
      ],
      [
        "框",
        "架"
      ],
      [
        "冲",
        "突"
      ],
      [
        "受",
        "到"
      ],
      [
        "应",
        "当"
      ],
      [
        "存",
        "在"
      ],
      [
        "强",
        "调"
      ],
      [
        "建",
        "设"
      ],
      [
        "这",
        "样"
      ],
      [
        "造",
        "成"
      ],
      [
        "民",
        "主"
      ],
      [
        "企",
        "业"
      ],
      [
        "发",
        "生"
      ],
      [
        "评",
        "估"
      ],
      [
        "适",
        "当"
      ],
      [
        "严",
        "重"
      ],
      [
        "具",
        "体"
      ],
      [
        "歧",
        "视"
      ],
      [
        "会员",
        "国"
      ],
      [
        "他",
        "的"
      ],
      [
        "希",
        "望"
      ],
      [
        "进",
        "展"
      ],
      [
        "全",
        "面"
      ],
      [
        "分",
        "析"
      ],
      [
        "负",
        "责"
      ],
      [
        "就",
        "是"
      ],
      [
        "1",
        "7"
      ],
      [
        "6",
        "年"
      ],
      [
        "应",
        "该"
      ],
      [
        "欧",
        "洲"
      ],
      [
        "结",
        "果"
      ],
      [
        "难",
        "民"
      ],
      [
        "4",
        "年"
      ],
      [
        "地",
        "方"
      ],
      [
        "接",
        "受"
      ],
      [
        "联",
        "盟"
      ],
      [
        "不",
        "能"
      ],
      [
        "部",
        "队"
      ],
      [
        "0",
        "年"
      ],
      [
        "和",
        "其他"
      ],
      [
        "范",
        "围"
      ],
      [
        "资",
        "金"
      ],
      [
        "可",
        "持续"
      ],
      [
        "如",
        "何"
      ],
      [
        "办",
        "事"
      ],
      [
        "的",
        "报告"
      ],
      [
        "秘书",
        "处"
      ],
      [
        "义",
        "务"
      ],
      [
        "恐",
        "怖"
      ],
      [
        "费",
        "用"
      ],
      [
        "阿",
        "拉"
      ],
      [
        "一",
        "种"
      ],
      [
        "咨",
        "询"
      ],
      [
        "此",
        "外"
      ],
      [
        "第",
        "三"
      ],
      [
        "承",
        "诺"
      ],
      [
        "成",
        "为"
      ],
      [
        "办事",
        "处"
      ],
      [
        "1",
        "日"
      ],
      [
        "以",
        "便"
      ],
      [
        "人",
        "道"
      ],
      [
        "工作",
        "组"
      ],
      [
        "你",
        "的"
      ],
      [
        "消",
        "除"
      ],
      [
        "健",
        "康"
      ],
      [
        "大",
        "的"
      ],
      [
        "按",
        "照"
      ],
      [
        "高",
        "级"
      ],
      [
        "个",
        "人"
      ],
      [
        "公",
        "共"
      ],
      [
        "3",
        "年"
      ],
      [
        "一",
        "项"
      ],
      [
        "帮",
        "助"
      ],
      [
        "12",
        "月"
      ],
      [
        "阿拉",
        "伯"
      ],
      [
        "各",
        "项"
      ],
      [
        "在",
        "这"
      ],
      [
        "维",
        "持"
      ],
      [
        "国",
        "内"
      ],
      [
        "产",
        "生"
      ],
      [
        "协",
        "助"
      ],
      [
        "改",
        "革"
      ],
      [
        "独",
        "立"
      ],
      [
        "欢",
        "迎"
      ],
      [
        "积",
        "极"
      ],
      [
        "议",
        "定"
      ],
      [
        "设",
        "施"
      ],
      [
        "事",
        "项"
      ],
      [
        "以",
        "色"
      ],
      [
        "变",
        "化"
      ],
      [
        "以色",
        "列"
      ],
      [
        "2",
        "年"
      ],
      [
        "上",
        "的"
      ],
      [
        "性",
        "的"
      ],
      [
        "我",
        "的"
      ],
      [
        "关",
        "切"
      ],
      [
        "预",
        "防"
      ],
      [
        "最",
        "后"
      ],
      [
        "第",
        "2"
      ],
      [
        "并",
        "且"
      ],
      [
        "改",
        "善"
      ],
      [
        "滋",
        "病"
      ],
      [
        "增",
        "长"
      ],
      [
        "当",
        "局"
      ],
      [
        "形",
        "式"
      ],
      [
        "实",
        "际"
      ],
      [
        "性",
        "别"
      ],
      [
        "正",
        "式"
      ],
      [
        "监",
        "测"
      ],
      [
        "艾",
        "滋病"
      ],
      [
        "限",
        "制"
      ],
      [
        "做",
        "法"
      ],
      [
        "协",
        "定"
      ],
      [
        "知",
        "道"
      ],
      [
        "设",
        "立"
      ],
      [
        "非",
        "常"
      ],
      [
        "议定",
        "书"
      ],
      [
        "领",
        "土"
      ],
      [
        "立",
        "法"
      ],
      [
        ")",
        "。"
      ],
      [
        "利",
        "益"
      ],
      [
        "或",
        "者"
      ],
      [
        "20",
        "10"
      ],
      [
        "20",
        "11"
      ],
      [
        "以",
        "下"
      ],
      [
        "办",
        "公"
      ],
      [
        "卫",
        "生"
      ],
      [
        "控",
        "制"
      ],
      [
        "第",
        "五"
      ],
      [
        "人",
        "们"
      ],
      [
        "无",
        "法"
      ],
      [
        "过",
        "程"
      ],
      [
        "缔约",
        "方"
      ],
      [
        "军",
        "事"
      ],
      [
        "鼓",
        "励"
      ],
      [
        "尤",
        "其"
      ],
      [
        "时",
        "候"
      ],
      [
        "选",
        "举"
      ],
      [
        "地",
        "位"
      ],
      [
        "挑",
        "战"
      ],
      [
        "这",
        "是"
      ],
      [
        "人道",
        "主义"
      ],
      [
        "例",
        "如"
      ],
      [
        "巴",
        "勒"
      ],
      [
        "两",
        "个"
      ],
      [
        "成",
        "果"
      ],
      [
        "禁",
        "止"
      ],
      [
        "第",
        "6"
      ],
      [
        "尽",
        "管"
      ],
      [
        "涉",
        "及"
      ],
      [
        "规",
        "则"
      ],
      [
        "那",
        "些"
      ],
      [
        "银",
        "行"
      ],
      [
        "刑",
        "事"
      ],
      [
        "业",
        "务"
      ],
      [
        "土",
        "著"
      ],
      [
        "监",
        "督"
      ],
      [
        "规",
        "划"
      ],
      [
        "巴勒",
        "斯坦"
      ],
      [
        "批",
        "准"
      ],
      [
        "安",
        "排"
      ],
      [
        "协",
        "商"
      ],
      [
        "理",
        "会"
      ],
      [
        "一",
        "致"
      ],
      [
        "次",
        "会议"
      ],
      [
        "第",
        "十"
      ],
      [
        "国家",
        "的"
      ],
      [
        "之",
        "前"
      ],
      [
        "第",
        "5"
      ],
      [
        "罗",
        "斯"
      ],
      [
        "更",
        "多"
      ],
      [
        "仍",
        "然"
      ],
      [
        "科",
        "学"
      ],
      [
        "综",
        "合"
      ],
      [
        "认",
        "识"
      ],
      [
        "评",
        "价"
      ],
      [
        "领",
        "导"
      ],
      [
        "200",
        "5年"
      ],
      [
        "200",
        "7年"
      ],
      [
        "以",
        "来"
      ],
      [
        "财",
        "政"
      ],
      [
        "这",
        "项"
      ],
      [
        "非",
        "政府"
      ],
      [
        "6",
        "月"
      ],
      [
        "关",
        "注"
      ],
      [
        "安",
        "理会"
      ],
      [
        "一",
        "般"
      ],
      [
        "某",
        "些"
      ],
      [
        "联",
        "邦"
      ],
      [
        "原",
        "因"
      ],
      [
        "完",
        "成"
      ],
      [
        "目",
        "的"
      ],
      [
        "直",
        "接"
      ],
      [
        "法",
        "庭"
      ],
      [
        "金",
        "融"
      ],
      [
        "提出",
        "的"
      ],
      [
        "介",
        "绍"
      ],
      [
        "发",
        "达"
      ],
      [
        "履",
        "行"
      ],
      [
        "社",
        "区"
      ],
      [
        "200",
        "9年"
      ],
      [
        "知",
        "识"
[...]
