{
  "version": "1.0",
  "truncation": null,
  "padding": null,
  "added_tokens": [
    {
      "id": 0,
      "content": "[UNK]",
      "single_word": false,
      "lstrip": false,
      "rstrip": false,
      "normalized": false,
      "special": true
    },
    {
      "id": 1,
      "content": "[PAD]",
      "single_word": false,
      "lstrip": false,
      "rstrip": false,
      "normalized": false,
      "special": true
    },
    {
      "id": 2,
      "content": "[SOS]",
      "single_word": false,
      "lstrip": false,
      "rstrip": false,
      "normalized": false,
      "special": true
    },
    {
      "id": 3,
      "content": "[EOS]",
      "single_word": false,
      "lstrip": false,
      "rstrip": false,
      "normalized": false,
      "special": true
    }
  ],
  "normalizer": null,
  "pre_tokenizer": {
    "type": "Whitespace"
  },
  "post_processor": null,
  "decoder": null,
  "model": {
    "type": "BPE",
    "dropout": null,
    "unk_token": "[UNK]",
    "continuing_subword_prefix": null,
    "end_of_word_suffix": null,
    "fuse_unk": false,
    "byte_fallback": false,
    "ignore_merges": false,
    "vocab": {
      "[UNK]": 0,
      "[PAD]": 1,
      "[SOS]": 2,
      "[EOS]": 3,
      "!": 4,
      "\"": 5,
      "#": 6,
      "$": 7,
      "%": 8,
      "&": 9,
      "'": 10,
      "(": 11,
      ")": 12,
      "*": 13,
      "+": 14,
      ",": 15,
      "-": 16,
      ".": 17,
      "/": 18,
      "0": 19,
      "1": 20,
      "2": 21,
      "3": 22,
      "4": 23,
      "5": 24,
      "6": 25,
      "7": 26,
      "8": 27,
      "9": 28,
      ":": 29,
      ";": 30,
      "<": 31,
      "=": 32,
      ">": 33,
      "?": 34,
      "[": 35,
      "]": 36,
      "^": 37,
      "_": 38,
      "`": 39,
      "°": 40,
      "·": 41,
      "º": 42,
      "é": 43,
      "í": 44,
      "β": 45,
      "Ϻ": 46,
      "ٱ": 47,
      "–": 48,
      "—": 49,
      "‘": 50,
      "’": 51,
      "“": 52,
      "”": 53,
      "•": 54,
      "…": 55,
      "Ⅱ": 56,
      "ⅶ": 57,
      "∶": 58,
      "①": 59,
      "③": 60,
      "④": 61,
      "⑤": 62,
      "⑦": 63,
      "⑴": 64,
      "⑵": 65,
      "⑶": 66,
      "─": 67,
      "━": 68,
      "□": 69,
      "○": 70,
      "●": 71,
      "、": 72,
      "。": 73,
      "〇": 74,
      "〈": 75,
      "〉": 76,
      "《": 77,
      "》": 78,
      "「": 79,
      "」": 80,
      "『": 81,
      "』": 82,
      "【": 83,
      "】": 84,
      "〔": 85,
      "〕": 86,
      "㈠": 87,
      "㈡": 88,
      "㈢": 89,
      "㈣": 90,
      "㈤": 91,
      "㈥": 92,
      "㈦": 93,
      "㈨": 94,
      "㖸": 95,
      "一": 96,
      "丁": 97,
      "七": 98,
      "万": 99,
      "丈": 100,
      "三": 101,
      "上": 102,
      "下": 103,
      "不": 104,
      "与": 105,
      "丐": 106,
      "丑": 107,
      "专": 108,
      "且": 109,
      "世": 110,
      "丘": 111,
      "丙": 112,
      "业": 113,
      "丛": 114,
      "东": 115,
      "丝": 116,
      "丢": 117,
      "两": 118,
      "严": 119,
      "丧": 120,
      "个": 121,
      "丫": 122,
      "中": 123,
      "丰": 124,
      "串": 125,
      "临": 126,
      "丸": 127,
      "丹": 128,
      "为": 129,
      "主": 130,
      "丽": 131,
      "举": 132,
      "乃": 133,
      "久": 134,
      "么": 135,
      "义": 136,
      "之": 137,
      "乌": 138,
      "乍": 139,
      "乎": 140,
      "乏": 141,
      "乐": 142,
      "乒": 143,
      "乓": 144,
      "乔": 145,
      "乘": 146,
      "乙": 147,
      "九": 148,
      "乞": 149,
      "也": 150,
      "习": 151,
      "乡": 152,
      "书": 153,
      "乩": 154,
      "买": 155,
      "乱": 156,
      "乳": 157,
      "乾": 158,
      "了": 159,
      "予": 160,
      "争": 161,
      "事": 162,
      "二": 163,
      "于": 164,
      "亏": 165,
      "云": 166,
      "互": 167,
      "五": 168,
      "井": 169,
      "亚": 170,
      "些": 171,
      "亞": 172,
      "亟": 173,
      "亡": 174,
      "亢": 175,
      "交": 176,
      "亥": 177,
      "亦": 178,
      "产": 179,
      "亨": 180,
      "亩": 181,
      "享": 182,
      "京": 183,
      "亭": 184,
      "亮": 185,
      "亲": 186,
      "亵": 187,
      "人": 188,
      "亿": 189,
      "什": 190,
      "仁": 191,
      "仅": 192,
      "仆": 193,
      "仇": 194,
      "今": 195,
      "介": 196,
      "仍": 197,
      "从": 198,
      "仑": 199,
      "仓": 200,
      "仔": 201,
      "他": 202,
      "仗": 203,
      "付": 204,
      "仙": 205,
      "代": 206,
      "令": 207,
      "以": 208,
      "仪": 209,
      "们": 210,
      "仰": 211,
      "仲": 212,
      "件": 213,
      "价": 214,
      "任": 215,
      "份": 216,
      "仿": 217,
      "企": 218,
      "伊": 219,
      "伍": 220,
      "伎": 221,
      "伏": 222,
      "伐": 223,
      "休": 224,
      "众": 225,
      "优": 226,
      "伙": 227,
      "会": 228,
      "伞": 229,
      "伟": 230,
      "传": 231,
      "伤": 232,
      "伦": 233,
      "伪": 234,
      "伯": 235,
      "估": 236,
      "伴": 237,
      "伸": 238,
      "似": 239,
      "伽": 240,
      "但": 241,
      "佈": 242,
      "位": 243,
      "低": 244,
      "住": 245,
      "佐": 246,
      "佑": 247,
      "体": 248,
      "佔": 249,
      "何": 250,
      "余": 251,
      "佛": 252,
      "作": 253,
      "你": 254,
      "佣": 255,
      "佩": 256,
      "佰": 257,
      "佳": 258,
      "佼": 259,
      "使": 260,
      "侃": 261,
      "侄": 262,
      "來": 263,
      "例": 264,
      "侍": 265,
      "供": 266,
      "依": 267,
      "侠": 268,
      "侣": 269,
      "侥": 270,
      "侦": 271,
      "侧": 272,
      "侨": 273,
      "侪": 274,
      "侬": 275,
      "侮": 276,
      "侯": 277,
      "侵": 278,
      "便": 279,
      "係": 280,
      "促": 281,
      "俄": 282,
      "俊": 283,
      "俑": 284,
      "俗": 285,
      "俘": 286,
      "保": 287,
      "俞": 288,
      "俟": 289,
      "俠": 290,
      "信": 291,
      "俣": 292,
      "俨": 293,
      "俩": 294,
      "俭": 295,
      "修": 296,
      "俯": 297,
      "俱": 298,
      "俸": 299,
      "俺": 300,
      "俾": 301,
      "倍": 302,
      "們": 303,
      "倒": 304,
      "倘": 305,
      "候": 306,
      "倚": 307,
      "借": 308,
      "倡": 309,
      "倦": 310,
      "倩": 311,
      "倪": 312,
      "倫": 313,
      "债": 314,
      "值": 315,
      "倾": 316,
      "假": 317,
      "偏": 318,
      "偕": 319,
      "做": 320,
      "停": 321,
      "健": 322,
      "偶": 323,
      "偷": 324,
      "偿": 325,
      "傀": 326,
      "傅": 327,
      "傍": 328,
      "傑": 329,
      "備": 330,
      "储": 331,
      "催": 332,
      "傲": 333,
      "傳": 334,
      "傻": 335,
      "像": 336,
      "僚": 337,
      "僧": 338,
      "僭": 339,
      "僵": 340,
      "僻": 341,
      "儀": 342,
      "儂": 343,
      "儆": 344,
      "儒": 345,
      "儡": 346,
      "儿": 347,
      "允": 348,
      "元": 349,
      "兄": 350,
      "充": 351,
      "兆": 352,
      "先": 353,
      "光": 354,
      "克": 355,
      "免": 356,
      "兑": 357,
      "兔": 358,
      "党": 359,
      "兜": 360,
      "入": 361,
      "內": 362,
      "全": 363,
      "八": 364,
      "公": 365,
      "六": 366,
      "兰": 367,
      "共": 368,
      "关": 369,
      "兴": 370,
      "兵": 371,
      "其": 372,
      "具": 373,
      "典": 374,
      "兹": 375,
      "养": 376,
      "兼": 377,
      "兽": 378,
      "内": 379,
      "冈": 380,
      "冉": 381,
      "册": 382,
      "再": 383,
      "冒": 384,
      "冕": 385,
      "冗": 386,
      "写": 387,
      "军": 388,
      "农": 389,
      "冠": 390,
      "冢": 391,
      "冤": 392,
      "冥": 393,
      "冬": 394,
      "冯": 395,
      "冰": 396,
      "冲": 397,
      "决": 398,
      "况": 399,
      "冶": 400,
      "冷": 401,
      "冻": 402,
      "净": 403,
      "凄": 404,
      "准": 405,
      "凉": 406,
      "凋": 407,
      "凌": 408,
      "减": 409,
      "凑": 410,
      "凝": 411,
      "几": 412,
      "凡": 413,
      "凭": 414,
      "凯": 415,
      "凱": 416,
      "凳": 417,
      "凶": 418,
      "凸": 419,
      "凹": 420,
      "出": 421,
      "击": 422,
      "函": 423,
      "凿": 424,
      "刀": 425,
      "刃": 426,
      "分": 427,
      "切": 428,
      "刈": 429,
      "刊": 430,
      "刋": 431,
      "刑": 432,
      "划": 433,
      "列": 434,
      "刘": 435,
      "则": 436,
      "刚": 437,
      "创": 438,
      "初": 439,
      "删": 440,
      "判": 441,
      "別": 442,
      "利": 443,
      "别": 444,
      "刮": 445,
      "到": 446,
      "制": 447,
      "刷": 448,
      "券": 449,
      "刹": 450,
      "刺": 451,
      "刻": 452,
      "剂": 453,
      "剃": 454,
      "削": 455,
      "剌": 456,
      "前": 457,
      "剑": 458,
      "剔": 459,
      "剖": 460,
      "剛": 461,
      "剥": 462,
      "剧": 463,
      "剩": 464,
      "剪": 465,
      "副": 466,
      "割": 467,
      "創": 468,
      "剽": 469,
      "劃": 470,
      "劇": 471,
      "劍": 472,
      "劑": 473,
      "力": 474,
      "劝": 475,
      "办": 476,
      "功": 477,
      "加": 478,
      "务": 479,
      "劣": 480,
      "动": 481,
      "助": 482,
      "努": 483,
      "劫": 484,
      "励": 485,
      "劲": 486,
      "劳": 487,
      "効": 488,
      "势": 489,
      "勃": 490,
      "勇": 491,
      "勉": 492,
      "勋": 493,
      "勒": 494,
      "動": 495,
      "勘": 496,
      "募": 497,
      "勤": 498,
      "勺": 499,
      "勾": 500,
      "勿": 501,
      "匀": 502,
      "包": 503,
      "匆": 504,
      "匈": 505,
      "化": 506,
      "北": 507,
      "匙": 508,
      "匝": 509,
      "匠": 510,
      "匣": 511,
      "匪": 512,
      "匮": 513,
      "匹": 514,
      "区": 515,
      "医": 516,
      "匿": 517,
      "區": 518,
      "十": 519,
      "千": 520,
      "升": 521,
      "午": 522,
      "半": 523,
      "华": 524,
      "协": 525,
      "卑": 526,
      "卒": 527,
      "卓": 528,
      "協": 529,
      "单": 530,
      "卖": 531,
      "南": 532,
      "博": 533,
      "卜": 534,
      "占": 535,
      "卡": 536,
      "卢": 537,
      "卤": 538,
      "卦": 539,
      "卧": 540,
      "卫": 541,
      "印": 542,
      "危": 543,
      "即": 544,
      "却": 545,
      "卵": 546,
      "卷": 547,
      "卸": 548,
      "卻": 549,
      "卿": 550,
      "厂": 551,
      "厄": 552,
      "厅": 553,
      "历": 554,
      "厉": 555,
      "压": 556,
      "厌": 557,
      "厕": 558,
      "厘": 559,
      "厚": 560,
      "原": 561,
      "厥": 562,
      "厦": 563,
      "厨": 564,
      "厩": 565,
      "厲": 566,
      "去": 567,
      "县": 568,
      "叁": 569,
      "参": 570,
      "參": 571,
      "又": 572,
      "叉": 573,
      "及": 574,
      "友": 575,
      "双": 576,
      "反": 577,
      "发": 578,
      "叔": 579,
      "取": 580,
      "受": 581,
      "变": 582,
      "叙": 583,
      "叛": 584,
      "叠": 585,
      "口": 586,
      "古": 587,
      "句": 588,
      "另": 589,
      "叨": 590,
      "只": 591,
      "叫": 592,
      "召": 593,
      "叮": 594,
      "可": 595,
      "台": 596,
      "史": 597,
      "右": 598,
      "叵": 599,
      "叶": 600,
      "号": 601,
      "司": 602,
      "叹": 603,
      "吁": 604,
      "吃": 605,
      "各": 606,
      "合": 607,
      "吉": 608,
      "吊": 609,
      "同": 610,
      "名": 611,
      "后": 612,
      "吏": 613,
      "吐": 614,
      "向": 615,
      "吓": 616,
      "吕": 617,
      "吗": 618,
      "君": 619,
      "吝": 620,
      "吞": 621,
      "吠": 622,
      "吡": 623,
      "否": 624,
      "吧": 625,
      "吨": 626,
      "吩": 627,
      "含": 628,
      "听": 629,
      "启": 630,
      "吴": 631,
      "吵": 632,
      "吸": 633,
      "吹": 634,
      "吻": 635,
      "吼": 636,
      "吾": 637,
      "呀": 638,
      "呃": 639,
      "呆": 640,
      "呈": 641,
      "告": 642,
      "员": 643,
      "呢": 644,
      "周": 645,
      "味": 646,
      "呵": 647,
      "呼": 648,
      "命": 649,
      "咀": 650,
      "咆": 651,
      "和": 652,
      "咐": 653,
      "咒": 654,
      "咖": 655,
      "咙": 656,
      "咛": 657,
      "咦": 658,
      "咨": 659,
      "咪": 660,
      "咬": 661,
      "咱": 662,
      "咳": 663,
      "咸": 664,
      "咽": 665,
      "哀": 666,
      "品": 667,
      "哄": 668,
      "哈": 669,
      "哌": 670,
      "响": 671,
      "哎": 672,
      "哒": 673,
      "哗": 674,
      "員": 675,
      "哥": 676,
      "哦": 677,
      "哨": 678,
      "哩": 679,
      "哪": 680,
      "哭": 681,
      "哮": 682,
      "哲": 683,
      "哺": 684,
      "哼": 685,
      "唆": 686,
      "唇": 687,
      "唐": 688,
      "唑": 689,
      "唔": 690,
      "唠": 691,
      "唤": 692,
      "唧": 693,
      "唬": 694,
      "售": 695,
      "唯": 696,
      "唱": 697,
      "唾": 698,
      "啄": 699,
      "商": 700,
      "啉": 701,
      "啊": 702,
      "問": 703,
      "啡": 704,
      "啤": 705,
      "啦": 706,
      "啬": 707,
      "啮": 708,
      "啶": 709,
      "啸": 710,
      "喀": 711,
      "喂": 712,
      "善": 713,
      "喇": 714,
      "喉": 715,
      "喊": 716,
      "喏": 717,
      "喔": 718,
      "喘": 719,
      "喙": 720,
      "喜": 721,
      "喝": 722,
      "喧": 723,
      "單": 724,
      "喷": 725,
      "喹": 726,
      "喻": 727,
      "喽": 728,
      "嗅": 729,
      "嗔": 730,
      "嗖": 731,
      "嗜": 732,
      "嗤": 733,
      "嗨": 734,
      "嗪": 735,
      "嗯": 736,
      "嗽": 737,
      "嘅": 738,
      "嘉": 739,
      "嘛": 740,
      "嘱": 741,
      "嘲": 742,
      "嘴": 743,
      "嘶": 744,
      "嘿": 745,
      "噢": 746,
      "器": 747,
      "噩": 748,
      "噪": 749,
      "噬": 750,
      "噶": 751,
      "嚏": 752,
      "嚣": 753,
      "嚷": 754,
      "嚼": 755,
      "囊": 756,
      "囚": 757,
      "四": 758,
      "回": 759,
      "因": 760,
      "团": 761,
      "囤": 762,
      "园": 763,
      "困": 764,
      "围": 765,
      "固": 766,
      "国": 767,
      "图": 768,
      "圆": 769,
      "圈": 770,
      "國": 771,
      "園": 772,
      "圖": 773,
      "團": 774,
      "土": 775,
      "圣": 776,
      "在": 777,
      "圭": 778,
      "地": 779,
      "圳": 780,
      "场": 781,
      "圾": 782,
      "址": 783,
      "均": 784,
      "坊": 785,
      "坎": 786,
      "坏": 787,
      "坐": 788,
      "坑": 789,
      "块": 790,
      "坚": 791,
      "坛": 792,
      "坝": 793,
      "坞": 794,
      "坟": 795,
      "坠": 796,
      "坡": 797,
      "坦": 798,
      "坪": 799,
      "垂": 800,
      "垃": 801,
      "垄": 802,
      "型": 803,
      "垒": 804,
      "垢": 805,
      "垦": 806,
      "垫": 807,
      "垮": 808,
      "埃": 809,
      "埋": 810,
      "城": 811,
      "埔": 812,
      "域": 813,
      "埸": 814,
      "培": 815,
      "基": 816,
      "堂": 817,
      "堆": 818,
      "堑": 819,
      "堕": 820,
      "堡": 821,
      "堤": 822,
      "堪": 823,
      "報": 824,
      "場": 825,
      "堵": 826,
      "塌": 827,
      "塑": 828,
      "塔": 829,
      "塘": 830,
      "塞": 831,
      "填": 832,
      "境": 833,
      "墅": 834,
      "墓": 835,
      "墙": 836,
      "增": 837,
      "墟": 838,
      "墨": 839,
      "墩": 840,
      "壁": 841,
      "壇": 842,
      "壕": 843,
      "壤": 844,
      "士": 845,
      "壮": 846,
      "声": 847,
      "壳": 848,
      "壹": 849,
      "处": 850,
      "备": 851,
      "复": 852,
      "夏": 853,
      "夕": 854,
      "外": 855,
      "多": 856,
      "夜": 857,
      "够": 858,
      "夥": 859,
      "大": 860,
      "天": 861,
      "太": 862,
      "夫": 863,
      "夭": 864,
      "央": 865,
      "夯": 866,
      "失": 867,
      "头": 868,
      "夷": 869,
      "夸": 870,
      "夹": 871,
      "夺": 872,
      "奄": 873,
      "奇": 874,
      "奈": 875,
      "奉": 876,
      "奋": 877,
      "奎": 878,
      "奏": 879,
      "契": 880,
      "奔": 881,
      "奖": 882,
      "套": 883,
      "奠": 884,
      "奢": 885,
      "奥": 886,
      "奧": 887,
      "女": 888,
      "奴": 889,
      "奶": 890,
      "奸": 891,
      "她": 892,
      "好": 893,
      "妁": 894,
      "如": 895,
      "妃": 896,
      "妄": 897,
      "妆": 898,
      "妇": 899,
      "妈": 900,
      "妊": 901,
      "妒": 902,
      "妓": 903,
      "妖": 904,
      "妙": 905,
      "妞": 906,
      "妥": 907,
      "妨": 908,
      "妮": 909,
      "妹": 910,
      "妻": 911,
      "姆": 912,
      "姊": 913,
      "始": 914,
      "姐": 915,
      "姑": 916,
      "姓": 917,
      "委": 918,
      "姚": 919,
      "姜": 920,
      "姨": 921,
      "姬": 922,
      "姻": 923,
      "姿": 924,
      "威": 925,
      "娃": 926,
      "娅": 927,
      "娇": 928,
      "娘": 929,
      "娜": 930,
      "娠": 931,
      "娩": 932,
      "娱": 933,
      "娼": 934,
      "婆": 935,
      "婉": 936,
      "婚": 937,
      "婪": 938,
      "婴": 939,
      "婶": 940,
      "媒": 941,
      "媚": 942,
      "媛": 943,
      "媲": 944,
      "媳": 945,
      "嫁": 946,
      "嫉": 947,
      "嫌": 948,
      "嫣": 949,
      "嫩": 950,
      "嬉": 951,
      "子": 952,
      "孔": 953,
      "孕": 954,
      "字": 955,
      "存": 956,
      "孙": 957,
      "孚": 958,
      "孝": 959,
      "孟": 960,
      "季": 961,
      "孤": 962,
      "学": 963,
      "孩": 964,
      "孪": 965,
      "孳": 966,
      "孵": 967,
      "學": 968,
      "孺": 969,
      "孽": 970,
      "宁": 971,
      "它": 972,
      "宅": 973,
      "宇": 974,
      "守": 975,
      "安": 976,
      "完": 977,
      "宏": 978,
      "宕": 979,
      "宗": 980,
      "官": 981,
      "宙": 982,
      "定": 983,
      "宛": 984,
      "宜": 985,
      "宝": 986,
      "实": 987,
      "宠": 988,
      "审": 989,
      "客": 990,
      "宣": 991,
      "室": 992,
      "宪": 993,
      "宫": 994,
      "宰": 995,
      "害": 996,
      "宴": 997,
      "宵": 998,
      "家": 999,
      "容": 1000,
      "宽": 1001,
      "宾": 1002,
      "宿": 1003,
      "寂": 1004,
      "寄": 1005,
      "密": 1006,
      "寇": 1007,
      "富": 1008,
      "寒": 1009,
      "寓": 1010,
      "寝": 1011,
      "寞": 1012,
      "察": 1013,
      "寡": 1014,
      "寧": 1015,
      "寨": 1016,
      "寮": 1017,
      "寶": 1018,
      "寸": 1019,
      "对": 1020,
      "寺": 1021,
      "寻": 1022,
      "导": 1023,
      "寿": 1024,
      "封": 1025,
      "射": 1026,
      "将": 1027,
      "尉": 1028,
      "尊": 1029,
      "小": 1030,
      "少": 1031,
      "尔": 1032,
      "尖": 1033,
      "尘": 1034,
      "尚": 1035,
      "尝": 1036,
      "尤": 1037,
      "尬": 1038,
      "就": 1039,
      "尴": 1040,
      "尸": 1041,
      "尺": 1042,
      "尼": 1043,
      "尽": 1044,
      "尾": 1045,
      "尿": 1046,
      "局": 1047,
      "屁": 1048,
      "层": 1049,
      "居": 1050,
      "屆": 1051,
      "屈": 1052,
      "屉": 1053,
      "届": 1054,
      "屋": 1055,
      "屏": 1056,
      "屑": 1057,
      "展": 1058,
      "属": 1059,
      "屠": 1060,
      "屡": 1061,
      "履": 1062,
      "屬": 1063,
      "屯": 1064,
      "山": 1065,
      "屹": 1066,
      "屿": 1067,
      "岁": 1068,
      "岂": 1069,
      "岌": 1070,
      "岐": 1071,
      "岑": 1072,
      "岔": 1073,
      "岖": 1074,
      "岗": 1075,
      "岛": 1076,
      "岡": 1077,
      "岩": 1078,
      "岭": 1079,
      "岳": 1080,
      "岸": 1081,
      "峙": 1082,
      "峡": 1083,
      "峦": 1084,
      "峨": 1085,
      "峪": 1086,
      "峭": 1087,
      "峰": 1088,
      "島": 1089,
      "峻": 1090,
      "崇": 1091,
      "崎": 1092,
      "崔": 1093,
      "崖": 1094,
      "崗": 1095,
      "崛": 1096,
      "崧": 1097,
      "崩": 1098,
      "崭": 1099,
      "崽": 1100,
      "嵌": 1101,
      "嶼": 1102,
      "巅": 1103,
      "巍": 1104,
      "川": 1105,
      "州": 1106,
      "巡": 1107,
      "巢": 1108,
      "工": 1109,
      "左": 1110,
      "巧": 1111,
      "巨": 1112,
      "巩": 1113,
      "巫": 1114,
      "差": 1115,
      "己": 1116,
      "已": 1117,
      "巴": 1118,
      "巷": 1119,
      "巾": 1120,
      "巿": 1121,
      "币": 1122,
      "市": 1123,
      "布": 1124,
      "帅": 1125,
      "帆": 1126,
      "师": 1127,
      "希": 1128,
      "帐": 1129,
      "帕": 1130,
      "帖": 1131,
      "帘": 1132,
      "帙": 1133,
      "帜": 1134,
      "帝": 1135,
      "带": 1136,
      "師": 1137,
      "席": 1138,
      "帮": 1139,
      "帶": 1140,
      "常": 1141,
      "帽": 1142,
      "幅": 1143,
      "幌": 1144,
      "幔": 1145,
      "幕": 1146,
      "幢": 1147,
      "干": 1148,
      "平": 1149,
      "年": 1150,
      "并": 1151,
      "幸": 1152,
      "幻": 1153,
      "幼": 1154,
      "幽": 1155,
      "广": 1156,
      "庄": 1157,
      "庆": 1158,
      "庇": 1159,
      "床": 1160,
      "序": 1161,
      "库": 1162,
      "应": 1163,
      "底": 1164,
      "庖": 1165,
      "店": 1166,
      "庙": 1167,
      "府": 1168,
      "庞": 1169,
      "废": 1170,
      "度": 1171,
      "座": 1172,
      "庫": 1173,
      "庭": 1174,
      "康": 1175,
      "庸": 1176,
      "廉": 1177,
      "廊": 1178,
      "廓": 1179,
      "廖": 1180,
      "廠": 1181,
      "廢": 1182,
      "延": 1183,
      "廷": 1184,
      "建": 1185,
      "开": 1186,
      "异": 1187,
      "弃": 1188,
      "弄": 1189,
      "弈": 1190,
      "弊": 1191,
      "式": 1192,
      "弓": 1193,
      "引": 1194,
      "弗": 1195,
      "弘": 1196,
      "弟": 1197,
      "张": 1198,
      "弥": 1199,
      "弦": 1200,
      "弧": 1201,
      "弯": 1202,
      "弱": 1203,
      "張": 1204,
      "弹": 1205,
      "强": 1206,
      "彈": 1207,
      "归": 1208,
      "当": 1209,
      "录": 1210,
      "彗": 1211,
      "彝": 1212,
      "形": 1213,
      "彤": 1214,
      "彩": 1215,
      "彭": 1216,
      "彰": 1217,
      "影": 1218,
      "役": 1219,
      "彻": 1220,
      "彼": 1221,
      "往": 1222,
      "征": 1223,
      "径": 1224,
      "待": 1225,
      "徇": 1226,
      "很": 1227,
      "律": 1228,
      "後": 1229,
      "徐": 1230,
      "徑": 1231,
      "徒": 1232,
      "得": 1233,
      "徘": 1234,
      "徙": 1235,
      "從": 1236,
      "御": 1237,
      "循": 1238,
      "微": 1239,
      "徵": 1240,
      "德": 1241,
      "徽": 1242,
      "心": 1243,
      "必": 1244,
      "忆": 1245,
      "忌": 1246,
      "忍": 1247,
      "忏": 1248,
      "忒": 1249,
      "志": 1250,
      "忘": 1251,
      "忙": 1252,
      "忠": 1253,
      "忧": 1254,
      "快": 1255,
      "念": 1256,
      "忽": 1257,
      "怀": 1258,
      "态": 1259,
      "怂": 1260,
      "怅": 1261,
      "怎": 1262,
      "怒": 1263,
      "怕": 1264,
      "怖": 1265,
      "怜": 1266,
      "思": 1267,
      "急": 1268,
      "怦": 1269,
      "性": 1270,
      "怨": 1271,
      "怪": 1272,
      "总": 1273,
      "恃": 1274,
      "恋": 1275,
      "恍": 1276,
      "恐": 1277,
      "恒": 1278,
      "恕": 1279,
      "恢": 1280,
      "恤": 1281,
      "恨": 1282,
      "恩": 1283,
      "恪": 1284,
      "恫": 1285,
      "恭": 1286,
      "息": 1287,
      "恰": 1288,
      "恳": 1289,
      "恶": 1290,
      "恼": 1291,
      "恿": 1292,
      "悉": 1293,
      "悍": 1294,
      "悔": 1295,
      "悖": 1296,
      "悟": 1297,
      "悠": 1298,
      "患": 1299,
      "悦": 1300,
      "您": 1301,
      "悬": 1302,
      "悯": 1303,
      "悲": 1304,
      "悼": 1305,
      "情": 1306,
      "惆": 1307,
      "惊": 1308,
      "惋": 1309,
      "惑": 1310,
      "惕": 1311,
      "惚": 1312,
      "惜": 1313,
      "惟": 1314,
      "惠": 1315,
      "惧": 1316,
      "惨": 1317,
      "惩": 1318,
      "惬": 1319,
      "惮": 1320,
      "惯": 1321,
      "惰": 1322,
      "想": 1323,
      "惶": 1324,
      "惹": 1325,
      "愁": 1326,
      "愈": 1327,
      "愉": 1328,
      "意": 1329,
      "愕": 1330,
      "愚": 1331,
      "愛": 1332,
      "感": 1333,
      "愣": 1334,
      "愤": 1335,
      "愧": 1336,
      "愿": 1337,
      "慈": 1338,
      "慌": 1339,
      "慎": 1340,
      "慑": 1341,
      "慕": 1342,
      "慢": 1343,
      "慧": 1344,
      "慨": 1345,
      "慰": 1346,
      "慷": 1347,
      "憾": 1348,
      "懂": 1349,
      "懈": 1350,
      "懒": 1351,
      "懦": 1352,
      "戀": 1353,
      "戈": 1354,
      "戊": 1355,
      "戏": 1356,
      "成": 1357,
      "我": 1358,
      "戒": 1359,
      "或": 1360,
      "战": 1361,
      "戚": 1362,
      "戛": 1363,
      "截": 1364,
      "戮": 1365,
      "戰": 1366,
      "戲": 1367,
      "戳": 1368,
      "戴": 1369,
      "户": 1370,
      "房": 1371,
      "所": 1372,
      "扁": 1373,
      "扇": 1374,
      "手": 1375,
      "才": 1376,
      "扎": 1377,
      "扑": 1378,
      "打": 1379,
      "扔": 1380,
      "托": 1381,
      "扛": 1382,
      "扣": 1383,
      "执": 1384,
      "扩": 1385,
      "扫": 1386,
      "扬": 1387,
      "扭": 1388,
      "扮": 1389,
      "扯": 1390,
      "扰": 1391,
      "扶": 1392,
      "批": 1393,
      "扼": 1394,
      "找": 1395,
      "承": 1396,
      "技": 1397,
      "把": 1398,
      "抑": 1399,
      "抒": 1400,
      "抓": 1401,
      "投": 1402,
      "抗": 1403,
      "折": 1404,
      "抚": 1405,
      "抛": 1406,
      "抢": 1407,
      "护": 1408,
      "报": 1409,
      "抨": 1410,
      "披": 1411,
      "抬": 1412,
      "抱": 1413,
      "抵": 1414,
      "抹": 1415,
      "押": 1416,
      "抽": 1417,
      "拂": 1418,
      "担": 1419,
      "拆": 1420,
      "拇": 1421,
      "拉": 1422,
      "拌": 1423,
      "拍": 1424,
      "拐": 1425,
      "拒": 1426,
      "拓": 1427,
      "拔": 1428,
      "拖": 1429,
      "拘": 1430,
      "拙": 1431,
      "拚": 1432,
      "招": 1433,
      "拜": 1434,
      "拟": 1435,
      "拢": 1436,
      "拣": 1437,
      "拥": 1438,
      "拦": 1439,
      "拨": 1440,
      "择": 1441,
      "括": 1442,
      "拭": 1443,
      "拮": 1444,
      "拯": 1445,
      "拱": 1446,
      "拳": 1447,
      "拴": 1448,
      "拷": 1449,
      "拼": 1450,
      "拽": 1451,
      "拾": 1452,
      "拿": 1453,
      "持": 1454,
      "挂": 1455,
      "指": 1456,
      "按": 1457,
      "挑": 1458,
      "挖": 1459,
      "挚": 1460,
      "挛": 1461,
      "挝": 1462,
      "挠": 1463,
      "挡": 1464,
      "挣": 1465,
      "挤": 1466,
      "挥": 1467,
      "挨": 1468,
      "挪": 1469,
      "挫": 1470,
      "振": 1471,
      "挺": 1472,
      "挽": 1473,
      "捆": 1474,
      "捉": 1475,
      "捌": 1476,
      "捍": 1477,
      "捏": 1478,
      "捐": 1479,
      "捕": 1480,
      "捞": 1481,
      "损": 1482,
      "捡": 1483,
      "换": 1484,
      "捣": 1485,
      "捧": 1486,
      "据": 1487,
      "捱": 1488,
      "捷": 1489,
      "授": 1490,
      "掉": 1491,
      "掌": 1492,
      "掏": 1493,
      "掐": 1494,
      "排": 1495,
      "掘": 1496,
      "掠": 1497,
      "探": 1498,
      "接": 1499,
      "控": 1500,
      "推": 1501,
      "掩": 1502,
      "措": 1503,
      "掷": 1504,
      "掺": 1505,
      "揉": 1506,
      "描": 1507,
      "提": 1508,
      "插": 1509,
      "揚": 1510,
      "握": 1511,
      "揩": 1512,
      "揪": 1513,
      "揭": 1514,
      "援": 1515,
      "揽": 1516,
      "揿": 1517,
      "搁": 1518,
      "搂": 1519,
      "搏": 1520,
      "搓": 1521,
      "搜": 1522,
      "搞": 1523,
      "搬": 1524,
      "搭": 1525,
      "携": 1526,
      "搽": 1527,
      "摁": 1528,
      "摄": 1529,
      "摆": 1530,
      "摇": 1531,
      "摈": 1532,
      "摊": 1533,
      "摒": 1534,
      "摔": 1535,
      "摘": 1536,
      "摧": 1537,
      "摩": 1538,
      "摸": 1539,
      "摺": 1540,
      "撂": 1541,
      "撇": 1542,
      "撑": 1543,
      "撒": 1544,
      "撕": 1545,
      "撞": 1546,
      "撤": 1547,
      "撩": 1548,
      "播": 1549,
      "撮": 1550,
      "撰": 1551,
      "擅": 1552,
      "擊": 1553,
      "操": 1554,
      "擎": 1555,
      "擦": 1556,
      "攀": 1557,
      "攒": 1558,
      "支": 1559,
      "收": 1560,
      "攸": 1561,
      "改": 1562,
      "攻": 1563,
      "放": 1564,
      "政": 1565,
      "故": 1566,
      "效": 1567,
      "敌": 1568,
      "敏": 1569,
      "救": 1570,
      "敕": 1571,
      "教": 1572,
      "敝": 1573,
      "敞": 1574,
      "敢": 1575,
      "散": 1576,
      "敦": 1577,
      "敬": 1578,
      "数": 1579,
      "敲": 1580,
      "整": 1581,
      "敷": 1582,
      "數": 1583,
      "文": 1584,
      "斐": 1585,
      "斑": 1586,
      "斓": 1587,
      "斗": 1588,
      "料": 1589,
      "斜": 1590,
      "斟": 1591,
      "斡": 1592,
      "斤": 1593,
      "斥": 1594,
      "断": 1595,
      "斯": 1596,
      "新": 1597,
      "方": 1598,
      "於": 1599,
      "施": 1600,
      "旁": 1601,
      "旅": 1602,
      "旋": 1603,
      "族": 1604,
      "旗": 1605,
      "无": 1606,
      "既": 1607,
      "日": 1608,
      "旦": 1609,
      "旧": 1610,
      "旨": 1611,
      "早": 1612,
      "旬": 1613,
      "旭": 1614,
      "旱": 1615,
      "时": 1616,
      "旷": 1617,
      "旺": 1618,
      "昂": 1619,
      "昆": 1620,
      "昌": 1621,
      "明": 1622,
      "昏": 1623,
      "易": 1624,
      "昔": 1625,
      "星": 1626,
      "映": 1627,
      "春": 1628,
      "昧": 1629,
      "昨": 1630,
      "昭": 1631,
      "是": 1632,
      "昼": 1633,
      "显": 1634,
      "時": 1635,
      "晃": 1636,
      "晉": 1637,
      "晋": 1638,
      "晌": 1639,
      "晒": 1640,
      "晓": 1641,
      "晕": 1642,
      "晚": 1643,
      "晡": 1644,
      "晤": 1645,
      "晦": 1646,
      "晨": 1647,
      "普": 1648,
      "景": 1649,
      "晰": 1650,
      "晴": 1651,
      "晶": 1652,
      "智": 1653,
      "晾": 1654,
      "暂": 1655,
      "暑": 1656,
      "暖": 1657,
      "暗": 1658,
      "暧": 1659,
      "暨": 1660,
      "暮": 1661,
      "暴": 1662,
      "暹": 1663,
      "曙": 1664,
      "曜": 1665,
      "曝": 1666,
      "曰": 1667,
      "曲": 1668,
      "曳": 1669,
      "更": 1670,
      "書": 1671,
      "曹": 1672,
      "曼": 1673,
      "曾": 1674,
      "替": 1675,
      "最": 1676,
      "會": 1677,
      "月": 1678,
      "有": 1679,
      "朋": 1680,
      "服": 1681,
      "朗": 1682,
      "望": 1683,
      "朝": 1684,
      "期": 1685,
      "朦": 1686,
      "木": 1687,
      "未": 1688,
      "末": 1689,
      "本": 1690,
      "札": 1691,
      "术": 1692,
      "朱": 1693,
      "朴": 1694,
      "朵": 1695,
      "机": 1696,
      "朽": 1697,
      "杀": 1698,
      "杂": 1699,
      "权": 1700,
      "杆": 1701,
      "杉": 1702,
      "李": 1703,
      "杏": 1704,
      "材": 1705,
      "村": 1706,
      "杖": 1707,
      "杜": 1708,
      "杞": 1709,
      "束": 1710,
      "杠": 1711,
      "条": 1712,
      "来": 1713,
      "杨": 1714,
      "杭": 1715,
      "杯": 1716,
      "杰": 1717,
      "東": 1718,
      "松": 1719,
      "板": 1720,
      "极": 1721,
      "构": 1722,
      "枉": 1723,
      "析": 1724,
      "枕": 1725,
      "林": 1726,
      "枚": 1727,
      "果": 1728,
      "枝": 1729,
      "枢": 1730,
      "枪": 1731,
      "枫": 1732,
      "枯": 1733,
      "架": 1734,
      "枷": 1735,
      "柄": 1736,
      "柏": 1737,
      "某": 1738,
      "柑": 1739,
      "染": 1740,
      "柔": 1741,
      "柜": 1742,
      "柠": 1743,
      "查": 1744,
      "柬": 1745,
      "柯": 1746,
      "柱": 1747,
      "柳": 1748,
      "柴": 1749,
      "柿": 1750,
      "栅": 1751,
      "标": 1752,
      "栈": 1753,
      "栋": 1754,
      "栎": 1755,
      "栏": 1756,
      "树": 1757,
      "栓": 1758,
      "栖": 1759,
      "校": 1760,
      "株": 1761,
      "样": 1762,
      "核": 1763,
      "根": 1764,
      "格": 1765,
      "栽": 1766,
      "桂": 1767,
      "桃": 1768,
      "框": 1769,
      "案": 1770,
      "桉": 1771,
      "桌": 1772,
      "桐": 1773,
      "桑": 1774,
      "桔": 1775,
      "档": 1776,
      "桥": 1777,
      "桨": 1778,
      "桩": 1779,
      "桶": 1780,
      "梁": 1781,
      "梅": 1782,
      "梗": 1783,
      "條": 1784,
      "梢": 1785,
      "梦": 1786,
      "梨": 1787,
      "梭": 1788,
      "梯": 1789,
      "械": 1790,
      "梳": 1791,
      "梵": 1792,
      "检": 1793,
      "棉": 1794,
      "棋": 1795,
      "棍": 1796,
      "棒": 1797,
      "棕": 1798,
      "棘": 1799,
      "棚": 1800,
      "森": 1801,
      "棵": 1802,
      "椅": 1803,
      "植": 1804,
      "椎": 1805,
      "椒": 1806,
      "椭": 1807,
      "楚": 1808,
      "業": 1809,
      "楼": 1810,
      "概": 1811,
      "榄": 1812,
      "榆": 1813,
      "榈": 1814,
      "榉": 1815,
      "榜": 1816,
      "榨": 1817,
      "榮": 1818,
      "榴": 1819,
      "榷": 1820,
      "槌": 1821,
      "槛": 1822,
      "槟": 1823,
      "槲": 1824,
      "槽": 1825,
      "樂": 1826,
      "樓": 1827,
      "標": 1828,
      "模": 1829,
      "横": 1830,
      "樽": 1831,
      "橄": 1832,
      "橋": 1833,
      "橙": 1834,
      "機": 1835,
      "橡": 1836,
      "橱": 1837,
      "檬": 1838,
      "權": 1839,
      "欠": 1840,
      "次": 1841,
      "欢": 1842,
      "欣": 1843,
      "欧": 1844,
      "欲": 1845,
      "欺": 1846,
      "欽": 1847,
      "款": 1848,
      "歇": 1849,
      "歉": 1850,
      "歌": 1851,
      "歐": 1852,
      "止": 1853,
      "正": 1854,
      "此": 1855,
      "步": 1856,
      "武": 1857,
      "歧": 1858,
      "歪": 1859,
      "歲": 1860,
      "歷": 1861,
      "死": 1862,
      "歼": 1863,
      "殆": 1864,
      "殉": 1865,
      "殊": 1866,
      "残": 1867,
      "殖": 1868,
      "殴": 1869,
      "段": 1870,
      "殷": 1871,
      "殿": 1872,
      "毁": 1873,
      "毅": 1874,
      "毋": 1875,
      "母": 1876,
      "每": 1877,
      "毒": 1878,
      "比": 1879,
      "毕": 1880,
      "毗": 1881,
      "毛": 1882,
      "毫": 1883,
      "毯": 1884,
      "氏": 1885,
      "民": 1886,
      "气": 1887,
      "氘": 1888,
      "氛": 1889,
      "氟": 1890,
      "氢": 1891,
      "氣": 1892,
      "氧": 1893,
      "氨": 1894,
      "氮": 1895,
      "氯": 1896,
      "氰": 1897,
      "水": 1898,
      "永": 1899,
      "汀": 1900,
      "汁": 1901,
      "求": 1902,
      "汇": 1903,
      "汉": 1904,
      "汐": 1905,
      "汗": 1906,
      "汞": 1907,
      "江": 1908,
      "池": 1909,
      "污": 1910,
      "汤": 1911,
      "汪": 1912,
      "汰": 1913,
      "汲": 1914,
      "汶": 1915,
      "汹": 1916,
      "汽": 1917,
      "沃": 1918,
      "沈": 1919,
      "沉": 1920,
      "沌": 1921,
      "沐": 1922,
      "沒": 1923,
      "沙": 1924,
      "沟": 1925,
      "没": 1926,
      "沥": 1927,
      "沦": 1928,
      "沪": 1929,
      "沫": 1930,
      "沬": 1931,
      "沭": 1932,
      "沮": 1933,
      "河": 1934,
      "沸": 1935,
      "油": 1936,
      "治": 1937,
      "沼": 1938,
      "沾": 1939,
      "沿": 1940,
      "泄": 1941,
      "泉": 1942,
      "泊": 1943,
      "泌": 1944,
      "法": 1945,
      "泛": 1946,
      "泡": 1947,
      "波": 1948,
      "泥": 1949,
      "注": 1950,
      "泪": 1951,
      "泰": 1952,
      "泳": 1953,
      "泵": 1954,
      "泻": 1955,
      "泼": 1956,
      "泽": 1957,
      "洁": 1958,
      "洄": 1959,
      "洋": 1960,
      "洒": 1961,
      "洗": 1962,
      "洙": 1963,
      "洛": 1964,
      "洞": 1965,
      "津": 1966,
      "洪": 1967,
      "洲": 1968,
      "活": 1969,
      "洽": 1970,
      "派": 1971,
      "流": 1972,
      "浅": 1973,
      "浆": 1974,
      "浇": 1975,
      "测": 1976,
      "济": 1977,
      "浏": 1978,
      "浑": 1979,
      "浒": 1980,
      "浓": 1981,
      "浙": 1982,
      "浣": 1983,
      "浦": 1984,
      "浩": 1985,
      "浪": 1986,
      "浮": 1987,
      "浴": 1988,
      "海": 1989,
      "浸": 1990,
      "涂": 1991,
      "涅": 1992,
      "消": 1993,
      "涉": 1994,
      "涌": 1995,
      "涕": 1996,
      "涛": 1997,
      "涝": 1998,
      "涡": 1999,
      "润": 2000,
      "涨": 2001,
      "涩": 2002,
      "涯": 2003,
      "液": 2004,
      "涵": 2005,
      "淀": 2006,
      "淆": 2007,
      "淇": 2008,
      "淋": 2009,
      "淘": 2010,
      "淡": 2011,
      "淤": 2012,
      "淫": 2013,
      "淬": 2014,
      "深": 2015,
      "混": 2016,
      "淹": 2017,
      "淺": 2018,
      "添": 2019,
      "清": 2020,
      "渊": 2021,
      "渌": 2022,
      "渍": 2023,
      "渎": 2024,
      "渐": 2025,
      "渔": 2026,
      "渗": 2027,
      "渝": 2028,
      "渠": 2029,
      "渡": 2030,
      "渣": 2031,
      "渥": 2032,
      "温": 2033,
      "港": 2034,
      "渲": 2035,
      "渴": 2036,
      "游": 2037,
      "渺": 2038,
      "湄": 2039,
      "湍": 2040,
      "湎": 2041,
      "湖": 2042,
      "湛": 2043,
      "湮": 2044,
      "湾": 2045,
      "湿": 2046,
      "溃": 2047,
      "溅": 2048,
      "溉": 2049,
      "源": 2050,
      "溜": 2051,
      "溢": 2052,
      "溥": 2053,
      "溪": 2054,
      "溯": 2055,
      "溴": 2056,
      "溶": 2057,
      "溺": 2058,
      "滋": 2059,
      "滏": 2060,
      "滑": 2061,
      "滔": 2062,
      "滕": 2063,
      "滙": 2064,
      "滚": 2065,
      "滞": 2066,
      "满": 2067,
      "滤": 2068,
      "滥": 2069,
      "滨": 2070,
      "滩": 2071,
      "滴": 2072,
      "滿": 2073,
      "漂": 2074,
      "漆": 2075,
      "漏": 2076,
      "漓": 2077,
      "演": 2078,
      "漠": 2079,
      "漩": 2080,
      "漫": 2081,
      "潘": 2082,
      "潜": 2083,
      "潤": 2084,
      "潦": 2085,
      "潭": 2086,
      "潮": 2087,
      "澄": 2088,
      "澜": 2089,
      "澡": 2090,
      "澤": 2091,
      "澳": 2092,
      "激": 2093,
      "濒": 2094,
      "濛": 2095,
      "瀑": 2096,
      "灌": 2097,
      "灘": 2098,
      "灣": 2099,
      "火": 2100,
      "灭": 2101,
      "灯": 2102,
      "灰": 2103,
      "灵": 2104,
      "灸": 2105,
      "灼": 2106,
      "灾": 2107,
      "灿": 2108,
      "炉": 2109,
      "炊": 2110,
      "炎": 2111,
      "炒": 2112,
      "炔": 2113,
      "炜": 2114,
      "炫": 2115,
      "炬": 2116,
      "炭": 2117,
      "炮": 2118,
      "炸": 2119,
      "点": 2120,
      "為": 2121,
      "炼": 2122,
      "炽": 2123,
      "烁": 2124,
      "烂": 2125,
      "烃": 2126,
      "烈": 2127,
      "烏": 2128,
      "烘": 2129,
      "烛": 2130,
      "烟": 2131,
      "烤": 2132,
      "烦": 2133,
      "烧": 2134,
      "烫": 2135,
      "热": 2136,
      "烯": 2137,
      "烷": 2138,
      "烹": 2139,
      "焊": 2140,
      "焕": 2141,
      "焙": 2142,
      "焚": 2143,
      "焦": 2144,
      "焰": 2145,
      "然": 2146,
      "煌": 2147,
      "煎": 2148,
      "煤": 2149,
      "照": 2150,
      "煮": 2151,
      "煽": 2152,
      "熄": 2153,
      "熊": 2154,
      "熏": 2155,
      "熔": 2156,
      "熟": 2157,
      "熨": 2158,
      "熱": 2159,
      "熵": 2160,
      "燃": 2161,
      "燈": 2162,
      "燎": 2163,
      "燕": 2164,
      "營": 2165,
      "燥": 2166,
      "爆": 2167,
      "爬": 2168,
      "爭": 2169,
      "爱": 2170,
      "爵": 2171,
      "父": 2172,
      "爷": 2173,
      "爸": 2174,
      "爽": 2175,
      "爾": 2176,
      "片": 2177,
      "版": 2178,
      "牌": 2179,
      "牙": 2180,
      "牛": 2181,
      "牡": 2182,
      "牢": 2183,
      "牧": 2184,
      "物": 2185,
      "牲": 2186,
      "牵": 2187,
      "特": 2188,
      "牺": 2189,
      "犀": 2190,
      "犁": 2191,
      "犊": 2192,
      "犟": 2193,
      "犬": 2194,
      "犯": 2195,
      "状": 2196,
      "犹": 2197,
      "狂": 2198,
      "狄": 2199,
      "狐": 2200,
      "狗": 2201,
      "狠": 2202,
      "狡": 2203,
      "狩": 2204,
      "独": 2205,
      "狭": 2206,
      "狮": 2207,
      "狱": 2208,
      "狸": 2209,
      "狼": 2210,
      "猎": 2211,
      "猕": 2212,
      "猖": 2213,
      "猛": 2214,
      "猜": 2215,
      "猝": 2216,
      "猡": 2217,
      "猥": 2218,
      "猩": 2219,
      "猪": 2220,
      "猫": 2221,
      "猬": 2222,
      "献": 2223,
      "猴": 2224,
      "猾": 2225,
      "獅": 2226,
      "獎": 2227,
      "獗": 2228,
      "獠": 2229,
      "獲": 2230,
      "率": 2231,
      "玉": 2232,
      "王": 2233,
      "玖": 2234,
      "玛": 2235,
      "玩": 2236,
      "玫": 2237,
      "环": 2238,
      "现": 2239,
      "玺": 2240,
      "玻": 2241,
      "珀": 2242,
      "珊": 2243,
      "珍": 2244,
      "珞": 2245,
      "珠": 2246,
      "班": 2247,
      "球": 2248,
      "琅": 2249,
      "理": 2250,
      "琉": 2251,
      "琐": 2252,
      "琢": 2253,
      "琪": 2254,
      "琳": 2255,
      "琴": 2256,
      "琺": 2257,
      "琼": 2258,
      "瑙": 2259,
      "瑚": 2260,
      "瑜": 2261,
      "瑞": 2262,
      "瑟": 2263,
      "瑰": 2264,
      "瑾": 2265,
      "璃": 2266,
      "璐": 2267,
      "環": 2268,
      "瓜": 2269,
      "瓣": 2270,
      "瓦": 2271,
      "瓶": 2272,
      "瓷": 2273,
      "甄": 2274,
      "甘": 2275,
      "甚": 2276,
      "甜": 2277,
      "生": 2278,
      "產": 2279,
      "用": 2280,
      "甩": 2281,
      "甫": 2282,
      "甬": 2283,
      "田": 2284,
      "由": 2285,
      "甲": 2286,
      "申": 2287,
      "电": 2288,
      "男": 2289,
      "甸": 2290,
      "町": 2291,
      "画": 2292,
      "甾": 2293,
      "畅": 2294,
      "界": 2295,
      "畏": 2296,
      "畔": 2297,
      "留": 2298,
      "畜": 2299,
      "略": 2300,
      "番": 2301,
      "畫": 2302,
      "異": 2303,
      "畴": 2304,
      "畸": 2305,
      "疆": 2306,
      "疏": 2307,
      "疑": 2308,
      "疗": 2309,
      "疚": 2310,
      "疟": 2311,
      "疡": 2312,
      "疫": 2313,
      "疯": 2314,
      "疲": 2315,
      "疹": 2316,
      "疼": 2317,
      "疾": 2318,
      "病": 2319,
      "症": 2320,
      "痉": 2321,
      "痕": 2322,
      "痛": 2323,
      "痞": 2324,
      "痢": 2325,
      "痪": 2326,
      "痫": 2327,
      "痰": 2328,
      "痴": 2329,
      "痹": 2330,
      "痿": 2331,
      "瘘": 2332,
      "瘠": 2333,
      "瘢": 2334,
      "瘤": 2335,
      "瘦": 2336,
      "瘫": 2337,
      "瘰": 2338,
      "瘾": 2339,
      "瘿": 2340,
      "療": 2341,
      "癌": 2342,
      "癖": 2343,
      "癫": 2344,
      "登": 2345,
      "發": 2346,
      "白": 2347,
      "百": 2348,
      "皂": 2349,
      "的": 2350,
      "皆": 2351,
      "皇": 2352,
      "皎": 2353,
      "皖": 2354,
      "皙": 2355,
      "皮": 2356,
      "皱": 2357,
      "皿": 2358,
      "盂": 2359,
      "盃": 2360,
      "盆": 2361,
      "盈": 2362,
      "益": 2363,
      "盎": 2364,
      "盏": 2365,
      "盐": 2366,
      "监": 2367,
      "盒": 2368,
      "盔": 2369,
      "盖": 2370,
      "盗": 2371,
      "盘": 2372,
      "盛": 2373,
      "盟": 2374,
      "盧": 2375,
      "目": 2376,
      "盯": 2377,
      "盲": 2378,
      "直": 2379,
      "相": 2380,
      "盼": 2381,
      "盾": 2382,
      "省": 2383,
      "眉": 2384,
      "看": 2385,
      "真": 2386,
      "眠": 2387,
      "眨": 2388,
      "眩": 2389,
      "眯": 2390,
      "眷": 2391,
      "眼": 2392,
      "着": 2393,
      "睁": 2394,
      "睐": 2395,
      "睑": 2396,
      "睛": 2397,
      "睡": 2398,
      "督": 2399,
      "睦": 2400,
      "睫": 2401,
      "睬": 2402,
      "睹": 2403,
      "睾": 2404,
      "睿": 2405,
      "瞄": 2406,
      "瞌": 2407,
      "瞒": 2408,
      "瞧": 2409,
      "瞩": 2410,
      "瞪": 2411,
      "瞬": 2412,
      "瞻": 2413,
      "矛": 2414,
      "矢": 2415,
      "知": 2416,
      "矩": 2417,
      "矫": 2418,
      "短": 2419,
      "矮": 2420,
      "石": 2421,
      "矶": 2422,
      "矿": 2423,
      "码": 2424,
      "砂": 2425,
      "砌": 2426,
      "砍": 2427,
      "砒": 2428,
      "研": 2429,
      "砖": 2430,
      "砰": 2431,
      "砲": 2432,
      "破": 2433,
      "砷": 2434,
      "砸": 2435,
      "础": 2436,
      "硅": 2437,
      "硕": 2438,
      "硝": 2439,
      "硫": 2440,
      "硬": 2441,
      "确": 2442,
      "碌": 2443,
      "碍": 2444,
      "碎": 2445,
      "碑": 2446,
      "碗": 2447,
      "碘": 2448,
      "碟": 2449,
      "碧": 2450,
      "碩": 2451,
      "碰": 2452,
      "碱": 2453,
      "碳": 2454,
      "磁": 2455,
      "磅": 2456,
      "磋": 2457,
      "磨": 2458,
      "磷": 2459,
      "磺": 2460,
      "礁": 2461,
      "示": 2462,
      "礼": 2463,
      "社": 2464,
      "祀": 2465,
      "祈": 2466,
      "祉": 2467,
      "祖": 2468,
      "祝": 2469,
      "神": 2470,
      "祥": 2471,
      "票": 2472,
      "祭": 2473,
      "祷": 2474,
      "祸": 2475,
      "禁": 2476,
      "禄": 2477,
      "福": 2478,
      "禮": 2479,
      "离": 2480,
      "禽": 2481,
      "禾": 2482,
      "秀": 2483,
      "私": 2484,
      "秃": 2485,
      "秉": 2486,
      "秋": 2487,
      "种": 2488,
      "科": 2489,
      "秒": 2490,
      "秘": 2491,
      "租": 2492,
      "秤": 2493,
      "秦": 2494,
      "秩": 2495,
      "积": 2496,
      "称": 2497,
      "移": 2498,
      "秽": 2499,
      "稀": 2500,
      "程": 2501,
      "稍": 2502,
      "税": 2503,
      "稚": 2504,
      "稠": 2505,
      "稣": 2506,
      "稳": 2507,
      "稻": 2508,
      "稼": 2509,
      "稽": 2510,
      "稿": 2511,
      "穆": 2512,
      "穴": 2513,
      "究": 2514,
      "穷": 2515,
      "空": 2516,
      "穿": 2517,
      "突": 2518,
      "窃": 2519,
      "窄": 2520,
      "窈": 2521,
      "窍": 2522,
      "窑": 2523,
      "窕": 2524,
      "窗": 2525,
      "窘": 2526,
      "窝": 2527,
      "窟": 2528,
      "窥": 2529,
      "窦": 2530,
      "立": 2531,
      "竓": 2532,
      "竖": 2533,
      "站": 2534,
      "竞": 2535,
      "竟": 2536,
      "章": 2537,
      "竣": 2538,
      "童": 2539,
      "竭": 2540,
      "端": 2541,
      "竹": 2542,
      "竿": 2543,
      "笃": 2544,
      "笑": 2545,
      "笔": 2546,
      "笛": 2547,
      "笠": 2548,
      "符": 2549,
      "笨": 2550,
      "第": 2551,
      "笺": 2552,
      "笼": 2553,
      "等": 2554,
      "筋": 2555,
      "筑": 2556,
      "筒": 2557,
      "答": 2558,
      "策": 2559,
      "筛": 2560,
      "筝": 2561,
      "筵": 2562,
      "筷": 2563,
      "筹": 2564,
      "签": 2565,
      "简": 2566,
      "箍": 2567,
      "算": 2568,
      "管": 2569,
      "箭": 2570,
      "箱": 2571,
      "節": 2572,
      "篇": 2573,
      "築": 2574,
      "篤": 2575,
      "篮": 2576,
      "篱": 2577,
      "篷": 2578,
      "簇": 2579,
      "簧": 2580,
      "簿": 2581,
      "籍": 2582,
      "米": 2583,
      "类": 2584,
      "籽": 2585,
      "粉": 2586,
      "粒": 2587,
      "粗": 2588,
      "粘": 2589,
      "粤": 2590,
      "粪": 2591,
      "粮": 2592,
      "粹": 2593,
      "精": 2594,
      "糊": 2595,
      "糕": 2596,
      "糖": 2597,
      "糙": 2598,
      "糟": 2599,
      "系": 2600,
      "紀": 2601,
      "約": 2602,
      "紊": 2603,
      "納": 2604,
      "紐": 2605,
      "級": 2606,
      "素": 2607,
      "索": 2608,
      "紧": 2609,
      "紫": 2610,
      "累": 2611,
      "終": 2612,
      "組": 2613,
      "結": 2614,
      "絕": 2615,
      "絮": 2616,
      "統": 2617,
      "經": 2618,
      "維": 2619,
      "綱": 2620,
      "網": 2621,
      "緊": 2622,
      "線": 2623,
      "縣": 2624,
      "總": 2625,
      "繁": 2626,
      "纂": 2627,
      "纠": 2628,
      "红": 2629,
      "纤": 2630,
      "约": 2631,
      "级": 2632,
      "纪": 2633,
      "纬": 2634,
      "纯": 2635,
      "纱": 2636,
      "纲": 2637,
      "纳": 2638,
      "纵": 2639,
      "纶": 2640,
      "纷": 2641,
      "纸": 2642,
      "纹": 2643,
      "纺": 2644,
      "纽": 2645,
      "纾": 2646,
      "线": 2647,
      "练": 2648,
      "组": 2649,
      "绅": 2650,
      "细": 2651,
      "织": 2652,
      "终": 2653,
      "绊": 2654,
      "绍": 2655,
      "经": 2656,
      "绑": 2657,
      "绒": 2658,
      "结": 2659,
      "绕": 2660,
      "绘": 2661,
      "给": 2662,
      "绚": 2663,
      "络": 2664,
      "绝": 2665,
      "绞": 2666,
      "统": 2667,
      "绢": 2668,
      "绣": 2669,
      "继": 2670,
      "绩": 2671,
      "绪": 2672,
      "续": 2673,
      "绰": 2674,
      "绳": 2675,
      "维": 2676,
      "绵": 2677,
      "绷": 2678,
      "绸": 2679,
      "综": 2680,
      "绿": 2681,
      "缀": 2682,
      "缅": 2683,
      "缆": 2684,
      "缉": 2685,
      "缎": 2686,
      "缓": 2687,
      "缔": 2688,
      "编": 2689,
      "缘": 2690,
      "缚": 2691,
      "缝": 2692,
      "缠": 2693,
      "缤": 2694,
      "缩": 2695,
      "缪": 2696,
      "缭": 2697,
      "缮": 2698,
      "缰": 2699,
      "缴": 2700,
      "缸": 2701,
      "缺": 2702,
      "罐": 2703,
      "网": 2704,
      "罔": 2705,
      "罕": 2706,
      "罗": 2707,
      "罚": 2708,
      "罢": 2709,
      "罩": 2710,
      "罪": 2711,
      "置": 2712,
      "署": 2713,
      "罹": 2714,
      "羁": 2715,
      "羅": 2716,
      "羊": 2717,
      "羌": 2718,
      "美": 2719,
      "羔": 2720,
      "羚": 2721,
      "羞": 2722,
      "羟": 2723,
      "羡": 2724,
      "群": 2725,
      "義": 2726,
      "羰": 2727,
      "羽": 2728,
      "翁": 2729,
      "翅": 2730,
      "翔": 2731,
      "翘": 2732,
      "翠": 2733,
      "翩": 2734,
      "翰": 2735,
      "翻": 2736,
      "翼": 2737,
      "耀": 2738,
      "老": 2739,
      "考": 2740,
      "者": 2741,
      "而": 2742,
      "耍": 2743,
      "耐": 2744,
      "耕": 2745,
      "耗": 2746,
      "耘": 2747,
      "耦": 2748,
      "耳": 2749,
      "耶": 2750,
      "耸": 2751,
      "耻": 2752,
      "耽": 2753,
      "聂": 2754,
      "聆": 2755,
      "聊": 2756,
      "聋": 2757,
      "职": 2758,
      "联": 2759,
      "聘": 2760,
      "聚": 2761,
      "聪": 2762,
      "聯": 2763,
      "肃": 2764,
      "肆": 2765,
      "肇": 2766,
      "肉": 2767,
      "肋": 2768,
      "肌": 2769,
      "肖": 2770,
      "肘": 2771,
      "肚": 2772,
      "肝": 2773,
      "肠": 2774,
      "股": 2775,
      "肢": 2776,
      "肤": 2777,
      "肥": 2778,
      "肩": 2779,
      "肪": 2780,
      "肮": 2781,
      "肯": 2782,
      "肱": 2783,
      "育": 2784,
      "肴": 2785,
      "肺": 2786,
      "肾": 2787,
      "肿": 2788,
      "胀": 2789,
      "胁": 2790,
      "胃": 2791,
      "胄": 2792,
      "胆": 2793,
      "背": 2794,
      "胎": 2795,
      "胖": 2796,
      "胚": 2797,
      "胛": 2798,
      "胜": 2799,
      "胞": 2800,
      "胡": 2801,
      "胧": 2802,
      "胰": 2803,
      "胳": 2804,
      "胶": 2805,
      "胸": 2806,
      "胺": 2807,
      "能": 2808,
      "脂": 2809,
      "脆": 2810,
      "脉": 2811,
      "脊": 2812,
      "脏": 2813,
      "脑": 2814,
      "脖": 2815,
      "脚": 2816,
      "脫": 2817,
      "脱": 2818,
      "脸": 2819,
      "脾": 2820,
      "腈": 2821,
      "腊": 2822,
      "腐": 2823,
      "腓": 2824,
      "腔": 2825,
      "腥": 2826,
      "腧": 2827,
      "腮": 2828,
      "腰": 2829,
      "腹": 2830,
      "腺": 2831,
      "腻": 2832,
      "腾": 2833,
      "腿": 2834,
      "膀": 2835,
      "膊": 2836,
      "膏": 2837,
      "膜": 2838,
      "膝": 2839,
      "膠": 2840,
      "膨": 2841,
      "膳": 2842,
      "臀": 2843,
      "臂": 2844,
      "臆": 2845,
      "臣": 2846,
      "自": 2847,
      "臭": 2848,
      "至": 2849,
      "致": 2850,
      "臺": 2851,
      "臻": 2852,
      "舀": 2853,
      "舆": 2854,
      "與": 2855,
      "舉": 2856,
      "舌": 2857,
      "舍": 2858,
      "舒": 2859,
      "舞": 2860,
      "舟": 2861,
      "航": 2862,
      "般": 2863,
      "舰": 2864,
      "舱": 2865,
      "舵": 2866,
      "舶": 2867,
      "船": 2868,
      "艇": 2869,
      "艘": 2870,
      "艦": 2871,
      "良": 2872,
      "艰": 2873,
      "色": 2874,
      "艳": 2875,
      "艺": 2876,
      "艾": 2877,
      "节": 2878,
      "芋": 2879,
      "芒": 2880,
      "芙": 2881,
      "芜": 2882,
      "芝": 2883,
      "芪": 2884,
      "芬": 2885,
      "芯": 2886,
      "花": 2887,
      "芳": 2888,
      "芹": 2889,
      "芽": 2890,
      "苍": 2891,
      "苏": 2892,
      "苒": 2893,
      "苔": 2894,
      "苗": 2895,
      "苛": 2896,
      "苜": 2897,
      "苞": 2898,
      "苟": 2899,
      "苡": 2900,
      "苣": 2901,
      "若": 2902,
      "苦": 2903,
      "苯": 2904,
      "英": 2905,
      "苷": 2906,
      "苹": 2907,
      "茂": 2908,
      "范": 2909,
      "茄": 2910,
      "茅": 2911,
      "茉": 2912,
      "茎": 2913,
      "茜": 2914,
      "茨": 2915,
      "茫": 2916,
      "茬": 2917,
      "茲": 2918,
      "茵": 2919,
      "茶": 2920,
      "荃": 2921,
      "草": 2922,
      "荏": 2923,
      "荐": 2924,
      "荒": 2925,
      "荡": 2926,
      "荣": 2927,
      "荧": 2928,
      "荫": 2929,
      "药": 2930,
      "荷": 2931,
      "莅": 2932,
      "莉": 2933,
      "莎": 2934,
      "莓": 2935,
      "莫": 2936,
      "莱": 2937,
      "莲": 2938,
      "获": 2939,
      "莹": 2940,
      "莽": 2941,
      "菇": 2942,
      "菊": 2943,
      "菌": 2944,
      "菜": 2945,
      "華": 2946,
      "菱": 2947,
      "菲": 2948,
      "萃": 2949,
      "萄": 2950,
      "萊": 2951,
      "萌": 2952,
      "萎": 2953,
      "萘": 2954,
      "萜": 2955,
      "萝": 2956,
      "萤": 2957,
      "营": 2958,
      "萧": 2959,
      "萨": 2960,
      "萱": 2961,
      "萼": 2962,
      "落": 2963,
      "葆": 2964,
      "葉": 2965,
      "著": 2966,
      "葙": 2967,
      "葛": 2968,
      "葡": 2969,
      "董": 2970,
      "葬": 2971,
      "葱": 2972,
      "葶": 2973,
      "葺": 2974,
      "蒂": 2975,
      "蒙": 2976,
      "蒜": 2977,
      "蒲": 2978,
      "蒸": 2979,
      "蒿": 2980,
      "蓄": 2981,
      "蓋": 2982,
      "蓝": 2983,
      "蓬": 2984,
      "蓿": 2985,
      "蔑": 2986,
      "蔓": 2987,
      "蔗": 2988,
      "蔚": 2989,
      "蔡": 2990,
      "蔬": 2991,
      "蔻": 2992,
      "蔼": 2993,
      "蔽": 2994,
      "蕃": 2995,
      "蕉": 2996,
      "蕴": 2997,
      "蕾": 2998,
      "薄": 2999,
      "薅": 3000,
      "薩": 3001,
      "薪": 3002,
      "薯": 3003,
      "薰": 3004,
      "藉": 3005,
      "藏": 3006,
      "藐": 3007,
      "藕": 3008,
      "藝": 3009,
      "藤": 3010,
      "藥": 3011,
      "藩": 3012,
      "藻": 3013,
      "蘇": 3014,
      "蘑": 3015,
      "蘭": 3016,
      "虎": 3017,
      "虏": 3018,
      "虐": 3019,
      "虑": 3020,
      "虔": 3021,
      "虚": 3022,
      "號": 3023,
      "虫": 3024,
      "虹": 3025,
      "虽": 3026,
      "虾": 3027,
      "蚀": 3028,
      "蚁": 3029,
      "蚂": 3030,
      "蚊": 3031,
      "蚝": 3032,
      "蛇": 3033,
      "蛋": 3034,
      "蛎": 3035,
      "蛔": 3036,
      "蛙": 3037,
      "蛛": 3038,
      "蛮": 3039,
      "蜀": 3040,
      "蜂": 3041,
      "蜃": 3042,
      "蜆": 3043,
      "蜍": 3044,
      "蜒": 3045,
      "蜗": 3046,
      "蜘": 3047,
      "蜚": 3048,
      "蜜": 3049,
      "蜡": 3050,
      "蜥": 3051,
      "蜿": 3052,
      "蝇": 3053,
      "蝎": 3054,
      "蝗": 3055,
      "蝙": 3056,
      "蝠": 3057,
      "蝴": 3058,
      "蝶": 3059,
      "螃": 3060,
      "螅": 3061,
      "螈": 3062,
      "融": 3063,
      "螢": 3064,
      "螨": 3065,
      "螺": 3066,
      "蟑": 3067,
      "蟹": 3068,
      "蟾": 3069,
      "蠊": 3070,
      "蠢": 3071,
      "血": 3072,
      "衅": 3073,
      "行": 3074,
      "衍": 3075,
      "術": 3076,
      "衔": 3077,
      "街": 3078,
      "衛": 3079,
      "衡": 3080,
      "衣": 3081,
      "补": 3082,
      "表": 3083,
      "衫": 3084,
      "衬": 3085,
      "衰": 3086,
      "衷": 3087,
      "袄": 3088,
      "袋": 3089,
      "袍": 3090,
      "袖": 3091,
      "袜": 3092,
      "袤": 3093,
      "被": 3094,
      "袭": 3095,
      "裁": 3096,
      "裂": 3097,
      "装": 3098,
      "裔": 3099,
      "裕": 3100,
      "裙": 3101,
      "裤": 3102,
      "裨": 3103,
      "裴": 3104,
      "裸": 3105,
      "裹": 3106,
      "褒": 3107,
      "褪": 3108,
      "褲": 3109,
      "褶": 3110,
      "西": 3111,
      "要": 3112,
      "覆": 3113,
      "見": 3114,
      "視": 3115,
      "见": 3116,
      "观": 3117,
      "规": 3118,
      "觅": 3119,
      "视": 3120,
      "览": 3121,
      "觉": 3122,
      "角": 3123,
      "解": 3124,
      "触": 3125,
      "言": 3126,
      "計": 3127,
      "訏": 3128,
      "詩": 3129,
      "該": 3130,
      "詹": 3131,
      "誉": 3132,
      "誌": 3133,
      "認": 3134,
      "誓": 3135,
      "語": 3136,
      "說": 3137,
      "論": 3138,
      "諾": 3139,
      "謝": 3140,
      "譜": 3141,
      "警": 3142,
      "譬": 3143,
      "譯": 3144,
      "議": 3145,
      "讀": 3146,
      "讓": 3147,
      "计": 3148,
      "订": 3149,
      "认": 3150,
      "讥": 3151,
      "讧": 3152,
      "讨": 3153,
      "让": 3154,
      "讪": 3155,
      "讬": 3156,
      "训": 3157,
      "议": 3158,
      "讯": 3159,
      "记": 3160,
      "讲": 3161,
      "讶": 3162,
      "许": 3163,
      "讹": 3164,
      "论": 3165,
      "讼": 3166,
      "讽": 3167,
      "设": 3168,
      "访": 3169,
      "诀": 3170,
      "证": 3171,
      "评": 3172,
      "识": 3173,
      "诈": 3174,
      "诉": 3175,
      "诊": 3176,
      "词": 3177,
      "译": 3178,
      "试": 3179,
      "诗": 3180,
      "诚": 3181,
      "话": 3182,
      "诞": 3183,
      "诠": 3184,
      "诡": 3185,
      "询": 3186,
      "该": 3187,
      "详": 3188,
      "诧": 3189,
      "诫": 3190,
      "诬": 3191,
      "语": 3192,
      "误": 3193,
      "诱": 3194,
      "说": 3195,
      "请": 3196,
      "诸": 3197,
      "诺": 3198,
      "读": 3199,
      "诽": 3200,
      "课": 3201,
      "谁": 3202,
      "调": 3203,
      "谅": 3204,
      "谈": 3205,
      "谊": 3206,
      "谋": 3207,
      "谍": 3208,
      "谎": 3209,
      "谐": 3210,
      "谒": 3211,
      "谓": 3212,
      "谘": 3213,
      "谚": 3214,
      "谛": 3215,
      "谜": 3216,
      "谢": 3217,
      "谣": 3218,
      "谤": 3219,
      "谦": 3220,
      "谨": 3221,
      "谩": 3222,
      "谬": 3223,
      "谭": 3224,
      "谱": 3225,
      "谴": 3226,
      "谵": 3227,
      "谷": 3228,
      "豁": 3229,
      "豆": 3230,
      "豇": 3231,
      "豉": 3232,
      "豐": 3233,
      "豚": 3234,
      "象": 3235,
      "豪": 3236,
      "豫": 3237,
      "豹": 3238,
      "貂": 3239,
      "貌": 3240,
      "貘": 3241,
      "貝": 3242,
      "財": 3243,
      "賀": 3244,
      "賓": 3245,
      "質": 3246,
      "賭": 3247,
      "賴": 3248,
      "賽": 3249,
      "贝": 3250,
      "贞": 3251,
      "负": 3252,
      "贡": 3253,
      "财": 3254,
      "责": 3255,
      "败": 3256,
      "账": 3257,
      "货": 3258,
      "质": 3259,
      "贩": 3260,
      "贪": 3261,
      "贫": 3262,
      "贬": 3263,
      "购": 3264,
      "贮": 3265,
      "贯": 3266,
      "贱": 3267,
      "贴": 3268,
      "贵": 3269,
      "贷": 3270,
      "贸": 3271,
      "费": 3272,
      "贺": 3273,
      "贾": 3274,
      "贿": 3275,
      "赁": 3276,
      "赂": 3277,
      "赃": 3278,
      "资": 3279,
      "赈": 3280,
      "赋": 3281,
      "赌": 3282,
      "赎": 3283,
      "赏": 3284,
      "赐": 3285,
      "赔": 3286,
      "赖": 3287,
      "赘": 3288,
      "赚": 3289,
      "赛": 3290,
      "赞": 3291,
      "赠": 3292,
      "赡": 3293,
      "赢": 3294,
      "赤": 3295,
      "赦": 3296,
      "赫": 3297,
      "走": 3298,
      "赴": 3299,
      "赵": 3300,
      "赶": 3301,
      "起": 3302,
      "趁": 3303,
      "超": 3304,
      "越": 3305,
      "趋": 3306,
      "趣": 3307,
      "足": 3308,
      "趾": 3309,
      "跃": 3310,
      "跌": 3311,
      "跑": 3312,
      "跚": 3313,
      "距": 3314,
      "跟": 3315,
      "跨": 3316,
      "跪": 3317,
      "路": 3318,
      "跳": 3319,
      "践": 3320,
      "踊": 3321,
      "踌": 3322,
      "踏": 3323,
      "踢": 3324,
      "踩": 3325,
      "踪": 3326,
      "踱": 3327,
      "蹂": 3328,
      "蹄": 3329,
      "蹈": 3330,
      "蹒": 3331,
      "蹦": 3332,
      "蹭": 3333,
      "蹲": 3334,
      "蹼": 3335,
      "躁": 3336,
      "躇": 3337,
      "躏": 3338,
      "身": 3339,
      "躯": 3340,
      "躲": 3341,
      "躺": 3342,
      "車": 3343,
      "軍": 3344,
      "軸": 3345,
      "车": 3346,
      "轨": 3347,
      "轩": 3348,
      "转": 3349,
      "轮": 3350,
      "软": 3351,
      "轰": 3352,
      "轴": 3353,
      "轶": 3354,
      "轻": 3355,
      "载": 3356,
      "较": 3357,
      "辅": 3358,
      "辆": 3359,
      "辈": 3360,
      "辉": 3361,
      "辍": 3362,
      "辐": 3363,
      "辑": 3364,
      "输": 3365,
      "辖": 3366,
      "辙": 3367,
      "辛": 3368,
      "辜": 3369,
      "辞": 3370,
      "辟": 3371,
      "辣": 3372,
      "辨": 3373,
      "辩": 3374,
      "辰": 3375,
      "辱": 3376,
      "農": 3377,
      "边": 3378,
      "辽": 3379,
      "达": 3380,
      "迁": 3381,
      "迄": 3382,
      "迅": 3383,
      "过": 3384,
      "迈": 3385,
      "迎": 3386,
      "运": 3387,
      "近": 3388,
      "返": 3389,
      "还": 3390,
      "这": 3391,
      "进": 3392,
      "远": 3393,
      "违": 3394,
      "连": 3395,
      "迟": 3396,
      "迥": 3397,
      "迦": 3398,
      "迪": 3399,
      "迫": 3400,
      "迭": 3401,
      "述": 3402,
      "迷": 3403,
      "迹": 3404,
      "迺": 3405,
      "追": 3406,
      "退": 3407,
      "送": 3408,
      "适": 3409,
      "逃": 3410,
      "逆": 3411,
      "选": 3412,
      "逊": 3413,
      "逍": 3414,
      "透": 3415,
      "逐": 3416,
      "递": 3417,
      "途": 3418,
      "逗": 3419,
      "通": 3420,
      "逛": 3421,
      "逝": 3422,
      "逞": 3423,
      "速": 3424,
      "造": 3425,
      "逢": 3426,
      "連": 3427,
      "逮": 3428,
      "進": 3429,
      "逸": 3430,
      "逻": 3431,
      "逼": 3432,
      "逾": 3433,
      "遂": 3434,
      "遇": 3435,
      "遊": 3436,
      "運": 3437,
      "遍": 3438,
      "遏": 3439,
      "道": 3440,
      "達": 3441,
      "遗": 3442,
      "遙": 3443,
      "遠": 3444,
      "遣": 3445,
      "遥": 3446,
      "遭": 3447,
      "遮": 3448,
      "遴": 3449,
      "遵": 3450,
      "選": 3451,
      "遺": 3452,
      "避": 3453,
      "邀": 3454,
      "邁": 3455,
      "邃": 3456,
      "邊": 3457,
      "邓": 3458,
      "那": 3459,
      "邦": 3460,
      "邪": 3461,
      "邮": 3462,
      "邱": 3463,
      "邸": 3464,
      "邹": 3465,
      "邻": 3466,
      "郁": 3467,
      "郊": 3468,
      "郎": 3469,
      "郑": 3470,
      "郡": 3471,
      "部": 3472,
      "郭": 3473,
      "都": 3474,
      "鄂": 3475,
      "鄉": 3476,
      "鄙": 3477,
      "酊": 3478,
      "酋": 3479,
      "酌": 3480,
      "配": 3481,
      "酒": 3482,
      "酗": 3483,
      "酚": 3484,
      "酝": 3485,
      "酪": 3486,
      "酬": 3487,
      "酮": 3488,
      "酯": 3489,
      "酰": 3490,
      "酱": 3491,
      "酵": 3492,
      "酶": 3493,
      "酷": 3494,
      "酸": 3495,
      "酿": 3496,
      "醇": 3497,
      "醉": 3498,
      "醋": 3499,
      "醒": 3500,
      "醚": 3501,
      "醛": 3502,
      "醫": 3503,
      "采": 3504,
      "释": 3505,
      "釋": 3506,
      "里": 3507,
      "重": 3508,
      "野": 3509,
      "量": 3510,
      "金": 3511,
      "釓": 3512,
      "釜": 3513,
      "鉀": 3514,
      "鉴": 3515,
      "銀": 3516,
      "銅": 3517,
      "銦": 3518,
      "錄": 3519,
      "錦": 3520,
      "錫": 3521,
      "鎬": 3522,
      "鎮": 3523,
      "鎵": 3524,
      "鏡": 3525,
      "鏨": 3526,
      "鐵": 3527,
      "鑣": 3528,
      "钆": 3529,
      "针": 3530,
      "钉": 3531,
      "钓": 3532,
      "钙": 3533,
      "钚": 3534,
      "钛": 3535,
      "钝": 3536,
      "钞": 3537,
      "钟": 3538,
      "钠": 3539,
      "钡": 3540,
      "钢": 3541,
      "钥": 3542,
      "钦": 3543,
      "钩": 3544,
      "钮": 3545,
      "钱": 3546,
      "钳": 3547,
      "钴": 3548,
      "钻": 3549,
      "钾": 3550,
      "铀": 3551,
      "铁": 3552,
      "铂": 3553,
      "铃": 3554,
      "铅": 3555,
      "铐": 3556,
      "铜": 3557,
      "铝": 3558,
      "铣": 3559,
      "铬": 3560,
      "铭": 3561,
      "铲": 3562,
      "银": 3563,
      "铷": 3564,
      "铸": 3565,
      "铺": 3566,
      "链": 3567,
      "销": 3568,
      "锁": 3569,
      "锂": 3570,
      "锅": 3571,
      "锈": 3572,
      "锉": 3573,
      "锋": 3574,
      "锏": 3575,
      "锐": 3576,
      "错": 3577,
      "锡": 3578,
      "锤": 3579,
      "锥": 3580,
      "锦": 3581,
      "键": 3582,
      "锯": 3583,
      "锰": 3584,
      "锶": 3585,
      "锹": 3586,
      "锻": 3587,
      "镀": 3588,
      "镁": 3589,
      "镇": 3590,
      "镉": 3591,
      "镍": 3592,
      "镑": 3593,
      "镓": 3594,
      "镖": 3595,
      "镜": 3596,
      "镳": 3597,
      "長": 3598,
      "长": 3599,
      "門": 3600,
      "間": 3601,
      "閘": 3602,
      "閣": 3603,
      "關": 3604,
      "门": 3605,
      "闩": 3606,
      "闪": 3607,
      "闭": 3608,
      "问": 3609,
      "闯": 3610,
      "闲": 3611,
      "间": 3612,
      "闷": 3613,
      "闸": 3614,
      "闹": 3615,
      "闻": 3616,
      "闽": 3617,
      "阁": 3618,
      "阂": 3619,
      "阅": 3620,
      "阈": 3621,
      "阉": 3622,
      "阐": 3623,
      "阔": 3624,
      "阜": 3625,
      "队": 3626,
      "阪": 3627,
      "阮": 3628,
      "阱": 3629,
      "防": 3630,
      "阳": 3631,
      "阴": 3632,
      "阵": 3633,
      "阶": 3634,
      "阻": 3635,
      "阿": 3636,
      "陀": 3637,
      "附": 3638,
      "际": 3639,
      "陆": 3640,
      "陈": 3641,
      "陋": 3642,
      "陌": 3643,
      "降": 3644,
      "限": 3645,
      "陛": 3646,
      "陡": 3647,
      "院": 3648,
      "除": 3649,
      "陨": 3650,
      "险": 3651,
      "陪": 3652,
      "陰": 3653,
      "陳": 3654,
      "陵": 3655,
      "陶": 3656,
      "陷": 3657,
      "隆": 3658,
      "隊": 3659,
      "随": 3660,
      "隐": 3661,
      "隔": 3662,
      "隘": 3663,
      "隙": 3664,
      "際": 3665,
      "障": 3666,
      "隧": 3667,
      "隨": 3668,
      "隶": 3669,
      "难": 3670,
      "雀": 3671,
      "雄": 3672,
      "雅": 3673,
      "集": 3674,
      "雇": 3675,
      "雌": 3676,
      "雍": 3677,
      "雏": 3678,
      "雕": 3679,
      "雨": 3680,
      "雪": 3681,
      "雯": 3682,
      "雲": 3683,
      "雳": 3684,
      "零": 3685,
      "雷": 3686,
      "電": 3687,
      "雾": 3688,
      "需": 3689,
      "震": 3690,
      "霉": 3691,
      "霍": 3692,
      "霜": 3693,
      "霞": 3694,
      "露": 3695,
      "霸": 3696,
      "霹": 3697,
      "青": 3698,
      "靓": 3699,
      "静": 3700,
      "靜": 3701,
      "非": 3702,
      "靠": 3703,
      "靡": 3704,
      "面": 3705,
      "革": 3706,
      "靴": 3707,
      "靶": 3708,
      "鞋": 3709,
      "鞣": 3710,
      "鞭": 3711,
      "韋": 3712,
      "韦": 3713,
      "韧": 3714,
      "韩": 3715,
      "音": 3716,
      "頁": 3717,
      "頂": 3718,
      "項": 3719,
      "頓": 3720,
      "題": 3721,
      "類": 3722,
      "页": 3723,
      "顶": 3724,
      "顷": 3725,
      "项": 3726,
      "顺": 3727,
      "须": 3728,
      "顽": 3729,
      "顾": 3730,
      "顿": 3731,
      "颁": 3732,
      "颂": 3733,
      "预": 3734,
      "颅": 3735,
      "领": 3736,
      "颇": 3737,
      "颈": 3738,
      "颊": 3739,
      "频": 3740,
      "颓": 3741,
      "颖": 3742,
      "颗": 3743,
      "题": 3744,
      "颜": 3745,
      "额": 3746,
      "颠": 3747,
      "颤": 3748,
      "風": 3749,
      "颶": 3750,
      "风": 3751,
      "飓": 3752,
      "飘": 3753,
      "飙": 3754,
      "飛": 3755,
      "飞": 3756,
      "食": 3757,
      "飯": 3758,
      "餐": 3759,
      "館": 3760,
      "饥": 3761,
      "饪": 3762,
      "饭": 3763,
      "饮": 3764,
      "饯": 3765,
      "饰": 3766,
      "饱": 3767,
      "饲": 3768,
      "饵": 3769,
      "饶": 3770,
      "饷": 3771,
      "饼": 3772,
      "饿": 3773,
      "馀": 3774,
      "馆": 3775,
      "馈": 3776,
      "馏": 3777,
      "馑": 3778,
      "馒": 3779,
      "首": 3780,
      "香": 3781,
      "馨": 3782,
      "馬": 3783,
      "駐": 3784,
      "驄": 3785,
      "驅": 3786,
      "马": 3787,
      "驮": 3788,
      "驯": 3789,
      "驰": 3790,
      "驱": 3791,
      "驳": 3792,
      "驴": 3793,
      "驶": 3794,
      "驹": 3795,
      "驻": 3796,
      "驼": 3797,
      "驾": 3798,
      "骁": 3799,
      "骂": 3800,
      "骄": 3801,
      "骆": 3802,
      "骇": 3803,
      "骋": 3804,
      "验": 3805,
      "骏": 3806,
      "骑": 3807,
      "骗": 3808,
      "骚": 3809,
      "骝": 3810,
      "骤": 3811,
      "骨": 3812,
      "骰": 3813,
      "骸": 3814,
      "骼": 3815,
      "髋": 3816,
      "髓": 3817,
      "體": 3818,
      "高": 3819,
      "髦": 3820,
      "髻": 3821,
      "鬥": 3822,
      "鬼": 3823,
      "魁": 3824,
      "魂": 3825,
      "魄": 3826,
      "魅": 3827,
      "魏": 3828,
      "魔": 3829,
      "魚": 3830,
      "魯": 3831,
      "鮭": 3832,
      "鯊": 3833,
      "鯰": 3834,
      "鱂": 3835,
      "鱥": 3836,
      "鱼": 3837,
      "鱿": 3838,
      "鲁": 3839,
      "鲍": 3840,
      "鲑": 3841,
      "鲜": 3842,
      "鲤": 3843,
      "鲨": 3844,
      "鲫": 3845,
      "鲸": 3846,
      "鲿": 3847,
      "鳄": 3848,
      "鳍": 3849,
      "鳏": 3850,
      "鳚": 3851,
      "鳢": 3852,
      "鳥": 3853,
      "鴨": 3854,
      "鵂": 3855,
      "鶹": 3856,
      "鸟": 3857,
      "鸡": 3858,
      "鸣": 3859,
      "鸦": 3860,
      "鸭": 3861,
      "鸽": 3862,
      "鸿": 3863,
      "鹅": 3864,
      "鹑": 3865,
      "鹤": 3866,
      "鹫": 3867,
      "鹬": 3868,
      "鹭": 3869,
      "鹰": 3870,
      "鹿": 3871,
      "麝": 3872,
      "麥": 3873,
      "麦": 3874,
      "麪": 3875,
      "麻": 3876,
      "麽": 3877,
      "黄": 3878,
      "黎": 3879,
      "黏": 3880,
      "黑": 3881,
      "默": 3882,
      "黛": 3883,
      "黝": 3884,
      "鼎": 3885,
      "鼓": 3886,
      "鼠": 3887,
      "鼻": 3888,
      "齊": 3889,
      "齐": 3890,
      "齒": 3891,
      "齿": 3892,
      "龄": 3893,
      "龍": 3894,
      "龙": 3895,
      "龟": 3896,
      "": 3897,
      "": 3898,
      "": 3899,
      "": 3900,
      "": 3901,
      "": 3902,
      "": 3903,
      "﹣": 3904,
      "！": 3905,
      "％": 3906,
      "＇": 3907,
      "（": 3908,
      "）": 3909,
      "＊": 3910,
      "＋": 3911,
      "，": 3912,
      "－": 3913,
      "．": 3914,
      "／": 3915,
      "０": 3916,
      "１": 3917,
      "２": 3918,
      "３": 3919,
      "４": 3920,
      "５": 3921,
      "６": 3922,
      "７": 3923,
      "８": 3924,
      "９": 3925,
      "：": 3926,
      "；": 3927,
      "？": 3928,
      "Ｂ": 3929,
      "Ｊ": 3930,
      "Ｏ": 3931,
      "Ｐ": 3932,
      "Ｓ": 3933,
      "Ｔ": 3934,
      "Ｗ": 3935,
      "［": 3936,
      "］": 3937,
      "＿": 3938,
      "ａ": 3939,
      "ｂ": 3940,
      "ｃ": 3941,
      "ｄ": 3942,
      "ｅ": 3943,
      "～": 3944,
      "�": 3945,
      "20": 3946,
      "国家": 3947,
      "委员": 3948,
      "委员会": 3949,
      "工作": 3950,
      "会议": 3951,
      "问题": 3952,
      "联合": 3953,
      "国际": 3954,
      "200": 3955,
      "发展": 3956,
      "联合国": 3957,
      "组织": 3958,
      "我们": 3959,
      "一个": 3960,
      "19": 3961,
      "报告": 3962,
      "政府": 3963,
      "提供": 3964,
      "以及": 3965,
      "方面": 3966,
      "社会": 3967,
      "进行": 3968,
      "包括": 3969,
      "这些": 3970,
      "关于": 3971,
      "情况": 3972,
      "通过": 3973,
      "其他": 3974,
      "行动": 3975,
      "所有": 3976,
      "机构": 3977,
      "他们": 3978,
      "10": 3979,
      "特别": 3980,
      "经济": 3981,
      "代表": 3982,
      "方案": 3983,
      "有关": 3984,
      "人员": 3985,
      "执行": 3986,
      "没有": 3987,
      "人权": 3988,
      "合作": 3989,
      "安全": 3990,
      "活动": 3991,
      "妇女": 3992,
      "199": 3993,
      "建议": 3994,
      "12": 3995,
      "公约": 3996,
      "可能": 3997,
      "秘书": 3998,
      "需要": 3999,
      "计划": 4000,
      "项目": 4001,
      "大会": 4002,
      "决议": 4003,
      "11": 4004,
      "理事": 4005,
      "技术": 4006,
      "缔约": 4007,
      "区域": 4008,
      "儿童": 4009,
      "可以": 4010,
      "规定": 4011,
      "管理": 4012,
      "措施": 4013,
      "这一": 4014,
      "系统": 4015,
      "理事会": 4016,
      "重要": 4017,
      "世界": 4018,
      "必须": 4019,
      "支持": 4020,
      "服务": 4021,
      "法律": 4022,
      "00": 4023,
      "提出": 4024,
      "权利": 4025,
      "根据": 4026,
      "采取": 4027,
      "决定": 4028,
      "政策": 4029,
      "使用": 4030,
      "继续": 4031,
      "影响": 4032,
      "保护": 4033,
      "和平": 4034,
      "加强": 4035,
      "研究": 4036,
      "资源": 4037,
      "认为": 4038,
      "要求": 4039,
      "主义": 4040,
      "促进": 4041,
      "一些": 4042,
      "教育": 4043,
      "确保": 4044,
      "努力": 4045,
      "基金": 4046,
      "能力": 4047,
      "目标": 4048,
      "任何": 4049,
      "成员": 4050,
      "这种": 4051,
      "缔约国": 4052,
      "环境": 4053,
      "行为": 4054,
      "主要": 4055,
      "建立": 4056,
      "注意": 4057,
      "和国": 4058,
      "信息": 4059,
      "人民": 4060,
      "部门": 4061,
      "全球": 4062,
      "--": 4063,
      "共和国": 4064,
      "已经": 4065,
      "秘书长": 4066,
      "作为": 4067,
      "如果": 4068,
      "美元": 4069,
      "实现": 4070,
      "13": 4071,
      "援助": 4072,
      "的人": 4073,
      "武器": 4074,
      "中国": 4075,
      "因为": 4076,
      "这个": 4077,
      "开展": 4078,
      "因此": 4079,
      "部分": 4080,
      "有效": 4081,
      "非洲": 4082,
      "关系": 4083,
      "协调": 4084,
      "领域": 4085,
      "的一": 4086,
      "提交": 4087,
      "考虑": 4088,
      "各国": 4089,
      "讨论": 4090,
      "举行": 4091,
      "政治": 4092,
      "增加": 4093,
      "号决议": 4094,
      "地区": 4095,
      "指出": 4096,
      "15": 4097,
      "参与": 4098,
      "表示": 4099,
      "获得": 4100,
      "14": 4101,
      "实施": 4102,
      "持续": 4103,
      "主席": 4104,
      "得到": 4105,
      "审议": 4106,
      "届会议": 4107,
      "解决": 4108,
      "作出": 4109,
      "作用": 4110,
      "培训": 4111,
      "期间": 4112,
      "月2": 4113,
      "程序": 4114,
      "审查": 4115,
      "中的": 4116,
      "犯罪": 4117,
      "方面的": 4118,
      "事务": 4119,
      "处理": 4120,
      "第二": 4121,
      "自己": 4122,
      "的是": 4123,
      "提高": 4124,
      "相关": 4125,
      "之间": 4126,
      "贸易": 4127,
      "但是": 4128,
      "时间": 4129,
      "美国": 4130,
      "资料": 4131,
      "不是": 4132,
      "方法": 4133,
      "战略": 4134,
      "9年": 4135,
      "其中": 4136,
      "斯坦": 4137,
      "的工作": 4138,
      "行政": 4139,
      "而且": 4140,
      "小组": 4141,
      "基础": 4142,
      "目前": 4143,
      "人的": 4144,
      "公司": 4145,
      "它们": 4146,
      "正在": 4147,
      "能够": 4148,
      "标准": 4149,
      "什么": 4150,
      "发言": 4151,
      "具有": 4152,
      "同时": 4153,
      "文件": 4154,
      "数据": 4155,
      "特派": 4156,
      "预算": 4157,
      "发展中": 4158,
      "特别是": 4159,
      "许多": 4160,
      "方式": 4161,
      "机制": 4162,
      "人口": 4163,
      "参加": 4164,
      "开始": 4165,
      "意见": 4166,
      "支助": 4167,
      "代表团": 4168,
      "中心": 4169,
      "任务": 4170,
      "5年": 4171,
      "特派团": 4172,
      "30": 4173,
      "条约": 4174,
      "取得": 4175,
      "由于": 4176,
      "专家": 4177,
      "第一": 4178,
      "责任": 4179,
      "注意到": 4180,
      "发展中国家": 4181,
      "用于": 4182,
      "投资": 4183,
      "自由": 4184,
      "必要": 4185,
      "新的": 4186,
      "基本": 4187,
      "法院": 4188,
      "工作人员": 4189,
      "安全理事会": 4190,
      "利亚": 4191,
      "利用": 4192,
      "尼亚": 4193,
      "办法": 4194,
      "各种": 4195,
      "平等": 4196,
      "的问题": 4197,
      "8年": 4198,
      "不同": 4199,
      "制定": 4200,
      "了一": 4201,
      "一步": 4202,
      "对于": 4203,
      "18": 4204,
      "市场": 4205,
      "司法": 4206,
      "的情况": 4207,
      "生产": 4208,
      "确定": 4209,
      "草案": 4210,
      "原则": 4211,
      "条件": 4212,
      "进一步": 4213,
      "减少": 4214,
      "是否": 4215,
      "现在": 4216,
      "调查": 4217,
      "共同": 4218,
      "及其": 4219,
      "暴力": 4220,
      "会员": 4221,
      "文化": 4222,
      "开发": 4223,
      "16": 4224,
      "为了": 4225,
      "强调": 4226,
      "的国家": 4227,
      "冲突": 4228,
      "建设": 4229,
      "具体": 4230,
      "生活": 4231,
      "议程": 4232,
      "进程": 4233,
      "他的": 4234,
      "伙伴": 4235,
      "7年": 4236,
      "发生": 4237,
      "机会": 4238,
      "评估": 4239,
      "负责": 4240,
      "问题的": 4241,
      "充分": 4242,
      "家庭": 4243,
      "企业": 4244,
      "存在": 4245,
      "民主": 4246,
      "会员国": 4247,
      "制度": 4248,
      "说明": 4249,
      "适当": 4250,
      "造成": 4251,
      "受到": 4252,
      "应当": 4253,
      "这样": 4254,
      "进展": 4255,
      "秘书处": 4256,
      "可持续": 4257,
      "地方": 4258,
      "欧洲": 4259,
      "1日": 4260,
      "4年": 4261,
      "以便": 4262,
      "先生": 4263,
      "全面": 4264,
      "结果": 4265,
      "希望": 4266,
      "应该": 4267,
      "框架": 4268,
      "部队": 4269,
      "联盟": 4270,
      "难民": 4271,
      "公共": 4272,
      "高级": 4273,
      "一种": 4274,
      "分析": 4275,
      "接受": 4276,
      "歧视": 4277,
      "维持": 4278,
      "不能": 4279,
      "范围": 4280,
      "阿拉": 4281,
      "6年": 4282,
      "和其他": 4283,
      "12月": 4284,
      "0年": 4285,
      "资金": 4286,
      "成为": 4287,
      "义务": 4288,
      "人道": 4289,
      "严重": 4290,
      "最后": 4291,
      "的报告": 4292,
      "工作组": 4293,
      "17": 4294,
      "阿拉伯": 4295,
      "健康": 4296,
      "滋病": 4297,
      "费用": 4298,
      "咨询": 4299,
      "恐怖": 4300,
      "个人": 4301,
      "就是": 4302,
      "当局": 4303,
      "欢迎": 4304,
      "艾滋病": 4305,
      "以色": 4306,
      "办事": 4307,
      "在这": 4308,
      "大的": 4309,
      "以色列": 4310,
      "改革": 4311,
      "国内": 4312,
      "如何": 4313,
      "帮助": 4314,
      "此外": 4315,
      "3年": 4316,
      "你的": 4317,
      "承诺": 4318,
      ")。": 4319,
      "一项": 4320,
      "消除": 4321,
      "按照": 4322,
      "设施": 4323,
      "2年": 4324,
      "各项": 4325,
      "控制": 4326,
      "办事处": 4327,
      "产生": 4328,
      "协助": 4329,
      "第三": 4330,
      "预防": 4331,
      "实际": 4332,
      "我的": 4333,
      "立法": 4334,
      "利益": 4335,
      "监测": 4336,
      "第2": 4337,
      "议定": 4338,
      "关注": 4339,
      "非常": 4340,
      "例如": 4341,
      "关切": 4342,
      "性的": 4343,
      "2011": 4344,
      "军事": 4345,
      "独立": 4346,
      "积极": 4347,
      "选举": 4348,
      "协定": 4349,
      "尽管": 4350,
      "变化": 4351,
      "第5": 4352,
      "领土": 4353,
      "上的": 4354,
      "做法": 4355,
      "或者": 4356,
      "改善": 4357,
      "过程": 4358,
      "挑战": 4359,
      "领导": 4360,
      "人道主义": 4361,
      "正式": 4362,
      "议定书": 4363,
      "6月": 4364,
      "更多": 4365,
      "第五": 4366,
      "事项": 4367,
      "尤其": 4368,
      "性别": 4369,
      "第6": 4370,
      "第十": 4371,
      "限制": 4372,
      "次会议": 4373,
      "鼓励": 4374,
      "缔约方": 4375,
      "刑事": 4376,
      "形式": 4377,
      "规划": 4378,
      "规则": 4379,
      "业务": 4380,
      "两个": 4381,
      "地位": 4382,
      "时候": 4383,
      "罗斯": 4384,
      "联邦": 4385,
      "设立": 4386,
      "人们": 4387,
      "完全": 4388,
      "知道": 4389,
      "稳定": 4390,
      "卫生": 4391,
      "评价": 4392,
      "安排": 4393,
      "就业": 4394,
      "监督": 4395,
      "非政府": 4396,
      "禁止": 4397,
      "财政": 4398,
      "以下": 4399,
      "威胁": 4400,
      "那些": 4401,
      "并且": 4402,
      "广泛": 4403,
      "比亚": 4404,
      "认识": 4405,
      "过去": 4406,
      "金融": 4407,
      "提出的": 4408,
      "俄罗斯": 4409,
      "巴勒": 4410,
      "涉及": 4411,
      "这是": 4412,
      "2010": 4413,
      "仍然": 4414,
      "某些": 4415,
      "状况": 4416,
      "理会": 4417,
      "综合": 4418,
      "以来": 4419,
      "办公": 4420,
      "残疾": 4421,
      "结构": 4422,
      "国家的": 4423,
      "增长": 4424,
      "完成": 4425,
      "采用": 4426,
      "银行": 4427,
      "2005年": 4428,
      "巴勒斯坦": 4429,
      "1年": 4430,
      "安理会": 4431,
      "星期": 4432,
      "国际社会": 4433,
      "之后": 4434,
      "协商": 4435,
      "发挥": 4436,
      "成果": 4437,
      "材料": 4438,
      "选择": 4439,
      "2011年": 4440,
      "之前": 4441,
      "发达": 4442,
      "土著": 4443,
      "经验": 4444,
      "介绍": 4445,
      "保证": 4446,
      "出现": 4447,
      "成功": 4448,
      "批准": 4449,
      "无法": 4450,
      "目的": 4451,
      "知识": 4452,
      "重申": 4453,
      "产品": 4454,
      "呼吁": 4455,
      "观察": 4456,
      "这项": 4457,
      "2009年": 4458,
      "有关的": 4459,
      "非政府组织": 4460,
      "保障": 4461,
      "国的": 4462,
      "核武器": 4463,
      "一致": 4464,
      "一般": 4465,
      "然而": 4466,
      "结束": 4467,
      "自己的": 4468,
      "直接": 4469,
      "科学": 4470,
      "空间": 4471,
      "第4": 4472,
      "联系": 4473,
      "警察": 4474,
      "谈判": 4475,
      "2012": 4476,
      "》，": 4477,
      "内的": 4478,
      "武装": 4479,
      "法庭": 4480,
      "的影响": 4481,
      "种族": 4482,
      "000": 4483,
      "一次": 4484,
      "履行": 4485,
      "现有": 4486,
      "表明": 4487,
      "防止": 4488,
      "我们的": 4489,
      "一切": 4490,
      "不会": 4491,
      "受害": 4492,
      "自然": 4493,
      "审计": 4494,
      "收入": 4495,
      "普遍": 4496,
      "的主要": 4497,
      "第3": 4498,
      "规定的": 4499,
      "24": 4500,
      "原因": 4501,
      "日至": 4502,
      "运动": 4503,
      "了解": 4504,
      "公民": 4505,
      "总统": 4506,
      "新闻": 4507,
      "来自": 4508,
      "虽然": 4509,
      "遵守": 4510,
      "恐怖主义": 4511,
      "内部": 4512,
      "出口": 4513,
      "指导": 4514,
      "最近": 4515,
      "社区": 4516,
      "非法": 4517,
      "2007年": 4518,
      "2006年": 4519,
      "之间的": 4520,
      "办公室": 4521,
      "全国": 4522,
      "有助": 4523,
      "重点": 4524,
      "针对": 4525,
      "优先": 4526,
      "案件": 4527,
      "财务": 4528,
      "部长": 4529,
      "2010年": 4530,
      "对话": 4531,
      "集团": 4532,
      "需求": 4533,
      "保健": 4534,
      "加入": 4535,
      "协议": 4536,
      "工程": 4537,
      "推动": 4538,
      "死亡": 4539,
      "组成": 4540,
      "进行了": 4541,
      "25": 4542,
      "劳动": 4543,
      "论坛": 4544,
      "设计": 4545,
      "长期": 4546,
      "2013": 4547,
      "2008年": 4548,
      "感到": 4549,
      "收到": 4550,
      "一直": 4551,
      "专员": 4552,
      "内容": 4553,
      "发现": 4554,
      "只有": 4555,
      "因素": 4556,
      "在其": 4557,
      "多数": 4558,
      "定期": 4559,
      "来的": 4560,
      "竞争": 4561,
      "经常": 4562,
      "计算": 4563,
      "他们的": 4564,
      "价值": 4565,
      "所需": 4566,
      "程度": 4567,
      "粮食": 4568,
      "者的": 4569,
      "风险": 4570,
      "委员会的": 4571,
      "198": 4572,
      "有助于": 4573,
      "专门": 4574,
      "农业": 4575,
      "日本": 4576,
      "的一个": 4577,
      "设备": 4578,
      "都是": 4579,
      "首脑": 4580,
      "2002年": 4581,
      "保持": 4582,
      "制订": 4583,
      "宣言": 4584,
      "导致": 4585,
      "生物": 4586,
      "第四": 4587,
      "附件": 4588,
      "提供了": 4589,
      "在这方面": 4590,
      "人类": 4591,
      "侵犯": 4592,
      "土地": 4593,
      "好的": 4594,
      "满足": 4595,
      "结论": 4596,
      "网络": 4597,
      "证明": 4598,
      "）。": 4599,
      "不可": 4600,
      "准备": 4601,
      "和国际": 4602,
      "扩大": 4603,
      "拉克": 4604,
      "民族": 4605,
      "申请": 4606,
      "裁军": 4607,
      "组织的": 4608,
      "提供的": 4609,
      "尤其是": 4610,
      "23": 4611,
      "7月": 4612,
      "之一": 4613,
      "反对": 4614,
      "学校": 4615,
      "的权利": 4616,
      "运输": 4617,
      "青年": 4618,
      "医疗": 4619,
      "印度": 4620,
      "官员": 4621,
      "整个": 4622,
      "旨在": 4623,
      "条款": 4624,
      "经费": 4625,
      "适用": 4626,
      "阶段": 4627,
      "会议的": 4628,
      "专业": 4629,
      "年度": 4630,
      "打击": 4631,
      "明确": 4632,
      "更加": 4633,
      "第六": 4634,
      "重新": 4635,
      "面临": 4636,
      "2004年": 4637,
      "考虑到": 4638,
      "伙伴关系": 4639,
      "27": 4640,
      "28": 4641,
      "9月": 4642,
      "一级": 4643,
      "临时": 4644,
      "定的": 4645,
      "显示": 4646,
      "确认": 4647,
      "精神": 4648,
      "美洲": 4649,
      "请求": 4650,
      "达到": 4651,
      "达成": 4652,
      "还有": 4653,
      "报告员": 4654,
      "情况下": 4655,
      "上述": 4656,
      "力的": 4657,
      "同意": 4658,
      "符合": 4659,
      "给予": 4660,
      "工作的": 4661,
      "2000年": 4662,
      "举行的": 4663,
      "准则": 4664,
      "合同": 4665,
      "我国": 4666,
      "构成": 4667,
      "群体": 4668,
      "违反": 4669,
      "\"。": 4670,
      "也是": 4671,
      "城市": 4672,
      "承认": 4673,
      "最终": 4674,
      "检查": 4675,
      "2012年": 4676,
      "26": 4677,
      "两年": 4678,
      "基于": 4679,
      "改变": 4680,
      "统计": 4681,
      "质量": 4682,
      "可持续发展": 4683,
      "发达国家": 4684,
      "2013年": 4685,
      "50": 4686,
      "一样": 4687,
      "事件": 4688,
      "交易": 4689,
      "拥有": 4690,
      "水平": 4691,
      "能源": 4692,
      "2003年": 4693,
      "不过": 4694,
      "价格": 4695,
      "伊拉克": 4696,
      "估计": 4697,
      "和社会": 4698,
      "宣布": 4699,
      "电子": 4700,
      "的重要": 4701,
      "该国": 4702,
      "资产": 4703,
      "重大": 4704,
      "国际法": 4705,
      "联合国系统": 4706,
      "11月": 4707,
      "成员国": 4708,
      "一起": 4709,
      "不断": 4710,
      "举办": 4711,
      "学生": 4712,
      "宗教": 4713,
      "宣传": 4714,
      "很多": 4715,
      "是一个": 4716,
      "登记": 4717,
      "西亚": 4718,
      "10月": 4719,
      "事实": 4720,
      "同样": 4721,
      "宪法": 4722,
      "恢复": 4723,
      "改进": 4724,
      "维护": 4725,
      "而言": 4726,
      "基金会": 4727,
      "个月": 4728,
      "从而": 4729,
      "化学": 4730,
      "危机": 4731,
      "工具": 4732,
      "总部": 4733,
      "意义": 4734,
      "气候": 4735,
      "的规定": 4736,
      "管制": 4737,
      "贡献": 4738,
      "还是": 4739,
      "5月": 4740,
      "倡议": 4741,
      "出的": 4742,
      "尊重": 4743,
      "来源": 4744,
      "的法律": 4745,
      "相互": 4746,
      "访问": 4747,
      "重要的": 4748,
      "不得": 4749,
      "享有": 4750,
      "应用": 4751,
      "扩散": 4752,
      "来说": 4753,
      "特殊": 4754,
      "补充": 4755,
      "2001年": 4756,
      "进行的": 4757,
      "关键": 4758,
      "危险": 4759,
      "各方": 4760,
      "孩子": 4761,
      "实体": 4762,
      "起来": 4763,
      "万美元": 4764,
      "了一个": 4765,
      "你们": 4766,
      "员额": 4767,
      "回顾": 4768,
      "局势": 4769,
      "编写": 4770,
      "2014": 4771,
      "通过的": 4772,
      "执行情况": 4773,
      "维持和平": 4774,
      "第五十": 4775,
      "从事": 4776,
      "债务": 4777,
      "创造": 4778,
      "大学": 4779,
      "大量": 4780,
      "成立": 4781,
      "现象": 4782,
      "记录": 4783,
      "调整": 4784,
      "特别报告员": 4785,
      "交流": 4786,
      "农村": 4787,
      "外交": 4788,
      "海洋": 4789,
      "的所有": 4790,
      "的能力": 4791,
      "紧急": 4792,
      "纳入": 4793,
      "药物": 4794,
      "落实": 4795,
      "解释": 4796,
      "通知": 4797,
      "艾滋病毒": 4798,
      "22": 4799,
      "令人": 4800,
      "外国": 4801,
      "并不": 4802,
      "模式": 4803,
      "法官": 4804,
      "的最": 4805,
      "签署": 4806,
      "那么": 4807,
      "政府间": 4808,
      "行动计划": 4809,
      "1月": 4810,
      "3月": 4811,
      "十分": 4812,
      "当地": 4813,
      "成本": 4814,
      "手段": 4815,
      "1999年": 4816,
      "30日": 4817,
      "%。": 4818,
      "29": 4819,
      "下列": 4820,
      "人数": 4821,
      "伊斯": 4822,
      "传统": 4823,
      "修订": 4824,
      "历史": 4825,
      "双方": 4826,
      "年的": 4827,
      "应对": 4828,
      "支付": 4829,
      "日内": 4830,
      "有人": 4831,
      "英语": 4832,
      "4月": 4833,
      "不仅": 4834,
      "单位": 4835,
      "大多数": 4836,
      "宪章": 4837,
      "最不": 4838,
      "有些": 4839,
      "未来": 4840,
      "的国际": 4841,
      "相信": 4842,
      "看到": 4843,
      "马里": 4844,
      "发展目标": 4845,
      "的情况下": 4846,
      ")；": 4847,
      "为此": 4848,
      "境内": 4849,
      "声明": 4850,
      "多边": 4851,
      "少数": 4852,
      "并在": 4853,
      "拒绝": 4854,
      "核心": 4855,
      "的方式": 4856,
      "编制": 4857,
      "若干": 4858,
      "受害者": 4859,
      "40": 4860,
      "一定": 4861,
      "伊朗": 4862,
      "协会": 4863,
      "如下": 4864,
      "所述": 4865,
      "条例": 4866,
      "治疗": 4867,
      "贩运": 4868,
      "进入": 4869,
      "机构的": 4870,
      "计划署": 4871,
      "伊斯兰": 4872,
      ")，": 4873,
      "60": 4874,
      "下午": 4875,
      "亿美元": 4876,
      "今天": 4877,
      "体制": 4878,
      "千年": 4879,
      "富汗": 4880,
      "德国": 4881,
      "比较": 4882,
      "英国": 4883,
      "财产": 4884,
      "酷刑": 4885,
      "阿富汗": 4886,
      "组织和": 4887,
      "》。": 4888,
      "不足": 4889,
      "反应": 4890,
      "媒体": 4891,
      "捐助": 4892,
      "提到": 4893,
      "文书": 4894,
      "贫穷": 4895,
      "日内瓦": 4896,
      "保留": 4897,
      "列入": 4898,
      "如此": 4899,
      "实行": 4900,
      "寻求": 4901,
      "最高": 4902,
      "概念": 4903,
      "移民": 4904,
      "第1": 4905,
      "缺乏": 4906,
      "职业": 4907,
      "规模": 4908,
      "部署": 4909,
      "21": 4910,
      "允许": 4911,
      "公平": 4912,
      "分配": 4913,
      "商业": 4914,
      "喜欢": 4915,
      "工业": 4916,
      "年来": 4917,
      "所以": 4918,
      "支出": 4919,
      "森林": 4920,
      "班牙": 4921,
      "甚至": 4922,
      "的政策": 4923,
      "纽约": 4924,
      "西班牙": 4925,
      "采购": 4926,
      "方案的": 4927,
      "下的": 4928,
      "今后": 4929,
      "加以": 4930,
      "加拿": 4931,
      "反映": 4932,
      "只是": 4933,
      "召开": 4934,
      "学习": 4935,
      "性和": 4936,
      "权力": 4937,
      "毒品": 4938,
      "筹备": 4939,
      "讲习": 4940,
      "提出了": 4941,
      "提交人": 4942,
      "一份": 4943,
      "全体": 4944,
      "感谢": 4945,
      "有限": 4946,
      "本报告": 4947,
      "消费": 4948,
      "王国": 4949,
      "的基础": 4950,
      "统一": 4951,
      "职能": 4952,
      "障碍": 4953,
      "观察员": 4954,
      "两年期": 4955,
      "加拿大": 4956,
      ")、": 4957,
      "31日": 4958,
      "体系": 4959,
      "发表": 4960,
      "她们": 4961,
      "性质": 4962,
      "拘留": 4963,
      "然后": 4964,
      "的措施": 4965,
      "管辖": 4966,
      "行的": 4967,
      "避免": 4968,
      "除了": 4969,
      "议程项目": 4970,
      "不要": 4971,
      "东西": 4972,
      "二十": 4973,
      "传播": 4974,
      "公开": 4975,
      "叙利亚": 4976,
      "古巴": 4977,
      "委会": 4978,
      "形成": 4979,
      "收集": 4980,
      "本国": 4981,
      "理由": 4982,
      "男女": 4983,
      "系列": 4984,
      "证据": 4985,
      "运作": 4986,
      "随着": 4987,
      "香港": 4988,
      "活动的": 4989,
      "气候变化": 4990,
      "33": 4991,
      "一名": 4992,
      "主任": 4993,
      "多样": 4994,
      "尚未": 4995,
      "指控": 4996,
      "敦促": 4997,
      "数量": 4998,
      "有所": 4999,
      "步骤": 5000,
      "民间": 5001,
      "维亚": 5002,
      "苏丹": 5003,
      "这类": 5004,
      "通常": 5005,
      "1995年": 5006,
      "1998年": 5007,
      "1994年": 5008,
      "00美元": 5009,
      "过程中": 5010,
      "做出": 5011,
      "再次": 5012,
      "才能": 5013,
      "授权": 5014,
      "数字": 5015,
      "法国": 5016,
      "生命": 5017,
      "福利": 5018,
      "诉讼": 5019,
      "通信": 5020,
      "鉴于": 5021,
      "行为的": 5022,
      "取得的": 5023,
      "不同的": 5024,
      "任命": 5025,
      "似乎": 5026,
      "墨西": 5027,
      "女孩": 5028,
      "属于": 5029,
      "年龄": 5030,
      "所作": 5031,
      "效率": 5032,
      "有权": 5033,
      "纲领": 5034,
      "贫困": 5035,
      "里亚": 5036,
      "阿尔": 5037,
      "首先": 5038,
      "决议草案": 5039,
      "各国政府": 5040,
      "第二十": 5041,
      "墨西哥": 5042,
      "公众": 5043,
      "其它": 5044,
      "和技术": 5045,
      "往往": 5046,
      "指标": 5047,
      "提议": 5048,
      "此种": 5049,
      "流离": 5050,
      "物质": 5051,
      "的努力": 5052,
      "自愿": 5053,
      "训练": 5054,
      "适用于": 5055,
      "适当的": 5056,
      "领导人": 5057,
      "2014年": 5058,
      "流离失": 5059,
      "主管": 5060,
      "交通": 5061,
      "以上": 5062,
      "以前": 5063,
      "候选": 5064,
      "原子": 5065,
      "合法": 5066,
      "和保护": 5067,
      "将在": 5068,
      "建筑": 5069,
      "的不": 5070,
      "的新": 5071,
      "答复": 5072,
      "预期": 5073,
      "流离失所": 5074,
      "刚果": 5075,
      "到了": 5076,
      "告诉": 5077,
      "和发展": 5078,
      "地点": 5079,
      "大利": 5080,
      "密切": 5081,
      "本身": 5082,
      "检察": 5083,
      "的建议": 5084,
      "索赔": 5085,
      "议会": 5086,
      "超过": 5087,
      "转让": 5088,
      "集体": 5089,
      "，《": 5090,
      "妇女的": 5091,
      "领域的": 5092,
      "基础设施": 5093,
      "首脑会议": 5094,
      "讲习班": 5095,
      "37": 5096,
      "8月": 5097,
      "9日": 5098,
      "不到": 5099,
      "人力": 5100,
      "及社会": 5101,
      "另一": 5102,
      "各个": 5103,
      "意大利": 5104,
      "承担": 5105,
      "来越": 5106,
      "的信": 5107,
      "移徙": 5108,
      "类似": 5109,
      "至关": 5110,
      "赔偿": 5111,
      "越来越": 5112,
      "过渡": 5113,
      "透明": 5114,
      "必要的": 5115,
      "认识到": 5116,
      "最不发达国家": 5117,
      "他说": 5118,
      "依据": 5119,
      "出席": 5120,
      "力量": 5121,
      "化的": 5122,
      "占领": 5123,
      "后续": 5124,
      "和联合国": 5125,
      "增强": 5126,
      "复杂": 5127,
      "容易": 5128,
      "居民": 5129,
      "拟议": 5130,
      "的那": 5131,
      "的时候": 5132,
      "索马里": 5133,
      "试验": 5134,
      "语言": 5135,
      "课程": 5136,
      "趋势": 5137,
      "身份": 5138,
      "三个": 5139,
      "住房": 5140,
      "供应": 5141,
      "依照": 5142,
      "保险": 5143,
      "劳工": 5144,
      "困难": 5145,
      "大使": 5146,
      "它的": 5147,
      "定义": 5148,
      "提案": 5149,
      "机关": 5150,
      "用的": 5151,
      "申诉": 5152,
      "电话": 5153,
      "的行为": 5154,
      "职责": 5155,
      "至少": 5156,
      "遭受": 5157,
      "重视": 5158,
      "非正式": 5159,
      "委员会还": 5160,
      "100": 5161,
      "范围内": 5162,
      "民间社会": 5163,
      "2月": 5164,
      "35": 5165,
      "48": 5166,
      "专题": 5167,
      "之外": 5168,
      "事情": 5169,
      "另外": 5170,
      "心理": 5171,
      "意味": 5172,
      "愿意": 5173,
      "拉丁": 5174,
      "日在": 5175,
      "灾害": 5176,
      "的发展": 5177,
      "磋商": 5178,
      "立即": 5179,
      "罗马": 5180,
      "腐败": 5181,
      "迅速": 5182,
      "道路": 5183,
      "顾问": 5184,
      "预计": 5185,
      "委员会建议": 5186,
      "联合王国": 5187,
      "197": 5188,
      "机构和": 5189,
      "经济及社会": 5190,
      "系统的": 5191,
      "有效的": 5192,
      "专家组": 5193,
      "土著人民": 5194,
      "千年发展目标": 5195,
      "45": 5196,
      "亚洲": 5197,
      "修正": 5198,
      "决策": 5199,
      "加勒": 5200,
      "在内的": 5201,
      "对其": 5202,
      "巴基": 5203,
      "战争": 5204,
      "所载": 5205,
      "技能": 5206,
      "每个": 5207,
      "污染": 5208,
      "满意": 5209,
      "目的是": 5210,
      "私营": 5211,
      "第七": 5212,
      "表达": 5213,
      "通过了": 5214,
      "妇女和": 5215,
      "能力建设": 5216,
      "造成的": 5217,
      "次会议上": 5218,
      "残疾人": 5219,
      "经济及社会理事会": 5220,
      "——": 5221,
      "下降": 5222,
      "北京": 5223,
      "合理": 5224,
      "在此": 5225,
      "审判": 5226,
      "巴嫩": 5227,
      "巴西": 5228,
      "平均": 5229,
      "引起": 5230,
      "当事": 5231,
      "当前": 5232,
      "意识": 5233,
      "拟订": 5234,
      "是个": 5235,
      "是在": 5236,
      "有利": 5237,
      "澳大": 5238,
      "的活动": 5239,
      "而不是": 5240,
      "货物": 5241,
      "赞赏": 5242,
      "起诉": 5243,
      "足够": 5244,
      "那个": 5245,
      "面的": 5246,
      "黎巴嫩": 5247,
      "），": 5248,
      "行动的": 5249,
      "政策和": 5250,
      "----": 5251,
      "其中包括": 5252,
      "高级专员": 5253,
      "原子能": 5254,
      "加勒比": 5255,
      "8日": 5256,
      "予以": 5257,
      "几乎": 5258,
      "制造": 5259,
      "即使": 5260,
      "在国家": 5261,
      "干事": 5262,
      "截至": 5263,
      "找到": 5264,
      "明显": 5265,
      "本组织": 5266,
      "的各项": 5267,
      "背景": 5268,
      "致力": 5269,
      "表现": 5270,
      "视为": 5271,
      "详细": 5272,
      "飞机": 5273,
      "可能会": 5274,
      "和平与": 5275,
      "人口基金": 5276,
      "开发署": 5277,
      "更多的": 5278,
      "巴基斯坦": 5279,
      "澳大利亚": 5280,
      "34": 5281,
      "36": 5282,
      "与会": 5283,
      "主权": 5284,
      "动物": 5285,
      "及时": 5286,
      "塞尔": 5287,
      "处于": 5288,
      "常驻": 5289,
      "平民": 5290,
      "态度": 5291,
      "我想": 5292,
      "担任": 5293,
      "日益": 5294,
      "比例": 5295,
      "流动": 5296,
      "生效": 5297,
      "的大": 5298,
      "脆弱": 5299,
      "虐待": 5300,
      "贸发": 5301,
      "降低": 5302,
      "儿童的": 5303,
      "刑事司法": 5304,
      "意味着": 5305,
      "38": 5306,
      "3日": 5307,
      "一位": 5308,
      "上诉": 5309,
      "个国家": 5310,
      "为什么": 5311,
      "人和": 5312,
      "修改": 5313,
      "分钟": 5314,
      "十年": 5315,
      "另一个": 5316,
      "实质": 5317,
      "将其": 5318,
      "岛屿": 5319,
      "律师": 5320,
      "拉夫": 5321,
      "损害": 5322,
      "日期": 5323,
      "疾病": 5324,
      "的合作": 5325,
      "的方法": 5326,
      "真正": 5327,
      "离开": 5328,
      "维和": 5329,
      "观点": 5330,
      "邀请": 5331,
      "儿童基金会": 5332,
      "犯罪和": 5333,
      "拉丁美洲": 5334,
      "47": 5335,
      "一年": 5336,
      "两性": 5337,
      "中央": 5338,
      "作了": 5339,
      "公正": 5340,
      "出了": 5341,
      "各级": 5342,
      "团体": 5343,
      "女性": 5344,
      "将继续": 5345,
      "方针": 5346,
      "每年": 5347,
      "父母": 5348,
      "的任何": 5349,
      "的作用": 5350,
      "的时间": 5351,
      "的任务": 5352,
      "简单": 5353,
      "获取": 5354,
      "补救": 5355,
      "表决": 5356,
      "评论": 5357,
      "达尔": 5358,
      "报告中": 5359,
      "儿童权利": 5360,
      "%，": 5361,
      "不扩散": 5362,
      "严格": 5363,
      "以外": 5364,
      "以确保": 5365,
      "全部": 5366,
      "出来": 5367,
      "后的": 5368,
      "地雷": 5369,
      "官方": 5370,
      "客户": 5371,
      "小时": 5372,
      "带来": 5373,
      "平衡": 5374,
      "强迫": 5375,
      "执法": 5376,
      "斯洛": 5377,
      "清单": 5378,
      "现代": 5379,
      "的机会": 5380,
      "相当": 5381,
      "自治": 5382,
      "行使": 5383,
      "题为": 5384,
      "的一项": 5385,
      "俄罗斯联邦": 5386,
      "人士": 5387,
      "任择": 5388,
      "众国": 5389,
      "兴趣": 5390,
      "分发": 5391,
      "变得": 5392,
      "地注意到": 5393,
      "增进": 5394,
      "大约": 5395,
      "废物": 5396,
      "探讨": 5397,
      "接触": 5398,
      "有一": 5399,
      "理解": 5400,
      "的目标": 5401,
      "的信息": 5402,
      "艺术": 5403,
      "觉得": 5404,
      "语文": 5405,
      "贷款": 5406,
      "资助": 5407,
      "适应": 5408,
      "都有": 5409,
      "食物": 5410,
      "技术援助": 5411,
      "协调员": 5412,
      "地区的": 5413,
      "欧洲联盟": 5414,
      "高级别": 5415,
      "武装冲突": 5416,
      "化学品": 5417,
      "人力资源": 5418,
      "致力于": 5419,
      "贸发会议": 5420,
      "32": 5421,
      "80": 5422,
      "与其他": 5423,
      "也纳": 5424,
      "也许": 5425,
      "全世界": 5426,
      "南部": 5427,
      "大规模": 5428,
      "将会": 5429,
      "少年": 5430,
      "工人": 5431,
      "常设": 5432,
      "待遇": 5433,
      "损失": 5434,
      "朝鲜": 5435,
      "此类": 5436,
      "特定": 5437,
      "电视": 5438,
      "的话": 5439,
      "的其他": 5440,
      "的行动": 5441,
      "的项目": 5442,
      "的资料": 5443,
      "科索": 5444,
      "第7": 5445,
      "维也纳": 5446,
      "请秘书长": 5447,
      "账户": 5448,
      "途径": 5449,
      "通报": 5450,
      "集中": 5451,
      "的一部分": 5452,
      "小组委员会": 5453,
      "科索沃": 5454,
      "56": 5455,
      "77": 5456,
      "一体": 5457,
      "上午": 5458,
      "不应": 5459,
      "世纪": 5460,
      "中东": 5461,
      "享受": 5462,
      "停止": 5463,
      "分子": 5464,
      "切实": 5465,
      "压力": 5466,
      "名单": 5467,
      "商品": 5468,
      "商定": 5469,
      "埃及": 5470,
      "太平": 5471,
      "尔兰": 5472,
      "帝汶": 5473,
      "延长": 5474,
      "快速": 5475,
      "核查": 5476,
      "欧盟": 5477,
      "相对": 5478,
      "着重": 5479,
      "者和": 5480,
      "规范": 5481,
      "起草": 5482,
      "2015": 5483,
      "以及在": 5484,
      "经济和社会": 5485,
      "1996年": 5486,
      "咨询委员会": 5487,
      "6月30日": 5488,
      "第六十": 5489,
      "6日": 5490,
      "7日": 5491,
      "一下": 5492,
      "与此": 5493,
      "东帝汶": 5494,
      "书面": 5495,
      "交换": 5496,
      "以后": 5497,
      "伦比亚": 5498,
      "供资": 5499,
      "刑法": 5500,
      "加拉": 5501,
      "南斯": 5502,
      "各自": 5503,
      "后果": 5504,
      "启动": 5505,
      "和经济": 5506,
      "哥伦比亚": 5507,
      "国民": 5508,
      "失业": 5509,
      "她的": 5510,
      "实验": 5511,
      "工资": 5512,
      "当时": 5513,
      "投入": 5514,
      "是不": 5515,
      "核准": 5516,
      "次级": 5517,
      "派遣": 5518,
      "爱尔兰": 5519,
      "生态": 5520,
      "百分": 5521,
      "监狱": 5522,
      "破坏": 5523,
      "第9": 5524,
      "约束": 5525,
      "职位": 5526,
      "货币": 5527,
      "这里": 5528,
      "防治": 5529,
      "：“": 5530,
      "工作队": 5531,
      "包括在": 5532,
      "所有的": 5533,
      "人权理事会": 5534,
      "有效地": 5535,
      "第一次": 5536,
      "与会者": 5537,
      "任择议定书": 5538,
      "南斯拉夫": 5539,
      "41": 5540,
      "46": 5541,
      "70": 5542,
      "主持": 5543,
      "伤害": 5544,
      "出版": 5545,
      "子女": 5546,
      "学院": 5547,
      "展开": 5548,
      "布隆": 5549,
      "开放": 5550,
      "排放": 5551,
      "攻击": 5552,
      "救济": 5553,
      "最大": 5554,
      "汽车": 5555,
      "海地": 5556,
      "特点": 5557,
      "男子": 5558,
      "的要求": 5559,
      "的地方": 5560,
      "相同": 5561,
      "立场": 5562,
      "结合": 5563,
      "行业": 5564,
      "订正": 5565,
      "辩论": 5566,
      "特别代表": 5567,
      "1997年": 5568,
      "采取了": 5569,
      "采取行动": 5570,
      "非洲联盟": 5571,
      "相关的": 5572,
      "特别是在": 5573,
      "开发计划署": 5574,
      "民主共和国": 5575,
      "种族歧视": 5576,
      "太平洋": 5577,
      "55": 5578,
      "59": 5579,
      "也不": 5580,
      "人在": 5581,
      "体育": 5582,
      "内亚": 5583,
      "包含": 5584,
      "唯一": 5585,
      "在于": 5586,
      "层面": 5587,
      "居住": 5588,
      "差距": 5589,
      "年轻": 5590,
      "很大": 5591,
      "怎么": 5592,
      "总体": 5593,
      "所涉": 5594,
      "投票": 5595,
      "教科": 5596,
      "无论": 5597,
      "更好": 5598,
      "本文": 5599,
      "法治": 5600,
      "理论": 5601,
      "研讨": 5602,
      "科技": 5603,
      "经历": 5604,
      "良好": 5605,
      "身体": 5606,
      "转移": 5607,
      "195": 5608,
      "妇女在": 5609,
      "采取措施": 5610,
      "参加了": 5611,
      "发展中国家的": 5612,
      "\"，": 5613,
      "5日": 5614,
      "。”": 5615,
      "主题": 5616,
      "举措": 5617,
      "使其": 5618,
      "使得": 5619,
      "克斯坦": 5620,
      "几内亚": 5621,
      "取消": 5622,
      "可靠": 5623,
      "富尔": 5624,
      "就会": 5625,
      "打算": 5626,
      "替代": 5627,
      "根本": 5628,
      "的代表": 5629,
      "石油": 5630,
      "私人": 5631,
      "这么": 5632,
      "遗憾": 5633,
      "遭到": 5634,
      "）、": 5635,
      "报告的": 5636,
      "行动纲领": 5637,
      "方案和": 5638,
      "使用的": 5639,
      "介绍了": 5640,
      "至关重要": 5641,
      "达尔富尔": 5642,
      "布隆迪": 5643,
      "44": 5644,
      "事规则": 5645,
      "值得": 5646,
      "公布": 5647,
      "决心": 5648,
      "几个": 5649,
      "制裁": 5650,
      "功能": 5651,
      "双边": 5652,
      "各地": 5653,
      "国籍": 5654,
      "外部": 5655,
      "大家": 5656,
      "失踪": 5657,
      "对妇女": 5658,
      "干预": 5659,
      "当然": 5660,
      "我要": 5661,
      "报道": 5662,
      "推广": 5663,
      "旅行": 5664,
      "时期": 5665,
      "有可能": 5666,
      "朋友": 5667,
      "每一": 5668,
      "每天": 5669,
      "用户": 5670,
      "的小": 5671,
      "的支持": 5672,
      "的决定": 5673,
      "的具体": 5674,
      "监察": 5675,
      "袭击": 5676,
      "车辆": 5677,
      "高兴": 5678,
      "高度": 5679,
      "会议上": 5680,
      "2004": 5681,
      "2006": 5682,
      "人员的": 5683,
      "人权事务": 5684,
      "1993年": 5685,
      "11日": 5686,
      "研究所": 5687,
      "信息和": 5688,
      "举行了": 5689,
      "这样做": 5690,
      "形式的": 5691,
      "私营部门": 5692,
      "会计": 5693,
      "依赖": 5694,
      "侵害": 5695,
      "便利": 5696,
      "促请": 5697,
      "减轻": 5698,
      "利坚": 5699,
      "利比": 5700,
      "剥夺": 5701,
      "和犯罪": 5702,
      "在一起": 5703,
      "婚姻": 5704,
      "实践": 5705,
      "尼日": 5706,
      "强制": 5707,
      "指定": 5708,
      "攸关": 5709,
      "教师": 5710,
      "有的": 5711,
      "根廷": 5712,
      "法规": 5713,
      "测试": 5714,
      "看法": 5715,
      "第15": 5716,
      "网站": 5717,
      "美利坚": 5718,
      "而是": 5719,
      "营养": 5720,
      "许可": 5721,
      "试图": 5722,
      "赞成": 5723,
      "跨国": 5724,
      "重建": 5725,
      "阿根廷": 5726,
      "委员会和": 5727,
      "委员会在": 5728,
      "会议和": 5729,
      "12日": 5730,
      "取得了": 5731,
      "18日": 5732,
      "第三十": 5733,
      "维持和平行动": 5734,
      "原子能机构": 5735,
      "2015年": 5736,
      "研讨会": 5737,
      "利比里亚": 5738,
      "美利坚合": 5739,
      "不再": 5740,
      "克兰": 5741,
      "出生": 5742,
      "利比亚": 5743,
      "医生": 5744,
      "卖淫": 5745,
      "卫星": 5746,
      "只要": 5747,
      "同一": 5748,
      "和解": 5749,
      "和区域": 5750,
      "和评价": 5751,
      "回答": 5752,
      "对此": 5753,
      "小岛屿": 5754,
      "差异": 5755,
      "康复": 5756,
      "托基金": 5757,
      "提请": 5758,
      "更为": 5759,
      "权的": 5760,
      "比赛": 5761,
      "毫无": 5762,
      "混合": 5763,
      "的儿童": 5764,
      "筹资": 5765,
      "航空": 5766,
      "色的": 5767,
      "这次": 5768,
      "委员会注意到": 5769,
      "国际公约": 5770,
      "政府和": 5771,
      "机构间": 5772,
      "人权和": 5773,
      "安全的": 5774,
      "妇女地位": 5775,
      "增加了": 5776,
      "了一项": 5777,
      "预防犯罪和": 5778,
      "利益攸关": 5779,
      "广泛的": 5780,
      "优先事项": 5781,
      "工程处": 5782,
      "第四十": 5783,
      "事实上": 5784,
      "次级方案": 5785,
      "39": 5786,
      "43": 5787,
      "75": 5788,
      "为基础": 5789,
      "人都": 5790,
      "仲裁": 5791,
      "克服": 5792,
      "公务": 5793,
      "共识": 5794,
      "南非": 5795,
      "卢旺": 5796,
      "发出": 5797,
      "吸引": 5798,
      "在本": 5799,
      "在国际": 5800,
      "外地": 5801,
      "外层": 5802,
      "大部分": 5803,
      "常规": 5804,
      "得以": 5805,
      "总理": 5806,
      "捐款": 5807,
      "放在": 5808,
      "数目": 5809,
      "有时": 5810,
      "有一个": 5811,
      "正确": 5812,
      "殖民": 5813,
      "波兰": 5814,
      "清楚": 5815,
      "瑞士": 5816,
      "的经济": 5817,
      "的技术": 5818,
      "的资源": 5819,
      "的一些": 5820,
      "第8": 5821,
      "第18": 5822,
      "纪念": 5823,
      "罪行": 5824,
      "资本": 5825,
      "资格": 5826,
      "进步": 5827,
      "逮捕": 5828,
      "那里": 5829,
      "面对": 5830,
      "2008": 5831,
      "社会和": 5832,
      "特别委员会": 5833,
      "权利和": 5834,
      "人民共和国": 5835,
      "届会议上": 5836,
      "共同体": 5837,
      "这样的": 5838,
      "实际上": 5839,
      "候选人": 5840,
      "实质性": 5841,
      "美利坚合众国": 5842,
      "卢旺达": 5843,
      "外层空间": 5844,
      "一条": 5845,
      "一点": 5846,
      "三年": 5847,
      "上升": 5848,
      "之下": 5849,
      "协作": 5850,
      "受益": 5851,
      "和黑": 5852,
      "在该": 5853,
      "女士": 5854,
      "尼西亚": 5855,
      "巩固": 5856,
      "年人": 5857,
      "思想": 5858,
      "想要": 5859,
      "感觉": 5860,
      "方向": 5861,
      "是一种": 5862,
      "有组织": 5863,
      "期限": 5864,
      "查明": 5865,
      "案文": 5866,
      "概述": 5867,
      "海关": 5868,
      "消息": 5869,
      "涵盖": 5870,
      "特征": 5871,
      "生殖": 5872,
      "用途": 5873,
      "白俄罗斯": 5874,
      "的研究": 5875,
      "的标准": 5876,
      "相应": 5877,
      "第13": 5878,
      "荷兰": 5879,
      "裁决": 5880,
      "西兰": 5881,
      "该项目": 5882,
      "购买": 5883,
      "近年来": 5884,
      "长的": 5885,
      "会议室": 5886,
      "联合国宪章": 5887,
      "所有国家": 5888,
      "人权委员会": 5889,
      "1990年": 5890,
      "建立了": 5891,
      "提交的": 5892,
      "讨论会": 5893,
      "难民署": 5894,
      "严重的": 5895,
      "规划署": 5896,
      "专门知识": 5897,
      "的基础上": 5898,
      "多样性": 5899,
      "刚果民主共和国": 5900,
      "检察官": 5901,
      "67": 5902,
      "6月2": 5903,
      "、《": 5904,
      "与发展": 5905,
      "军队": 5906,
      "分别": 5907,
      "匈牙": 5908,
      "区的": 5909,
      "危害": 5910,
      "和不": 5911,
      "塞拜": 5912,
      "多个": 5913,
      "完整": 5914,
      "审理": 5915,
      "对象": 5916,
      "就此": 5917,
      "弹药": 5918,
      "成就": 5919,
      "持久": 5920,
      "捷克": 5921,
      "放弃": 5922,
      "效果": 5923,
      "新西兰": 5924,
      "是一": 5925,
      "显然": 5926,
      "最佳": 5927,
      "有必要": 5928,
      "机场": 5929,
      "模型": 5930,
      "母亲": 5931,
      "法案": 5932,
      "状态": 5933,
      "的结果": 5934,
      "经过": 5935,
      "肯定": 5936,
      "自动": 5937,
      "谴责": 5938,
      "赋予": 5939,
      "逐渐": 5940,
      "速度": 5941,
      "里的": 5942,
      "错误": 5943,
      "阿塞拜": 5944,
      "雇员": 5945,
      "可能性": 5946,
      "技术合作": 5947,
      "管理和": 5948,
      "这一问题": 5949,
      "解决办法": 5950,
      "毒品和犯罪": 5951,
      "阿尔及": 5952,
      "两性平等": 5953,
      "一体化": 5954,
      "利益攸关方": 5955,
      "匈牙利": 5956,
      "阿塞拜疆": 5957,
      "49": 5958,
      "4日": 5959,
      "57": 5960,
      "不可能": 5961,
      "与联合国": 5962,
      "丹麦": 5963,
      "为止": 5964,
      "乌克兰": 5965,
      "习惯": 5966,
      "今年": 5967,
      "依然": 5968,
      "促使": 5969,
      "几年": 5970,
      "反恐": 5971,
      "和国家": 5972,
      "塞拉": 5973,
      "塞浦": 5974,
      "威特": 5975,
      "对该": 5976,
      "将于": 5977,
      "并没有": 5978,
      "应急": 5979,
      "很难": 5980,
      "总额": 5981,
      "惩罚": 5982,
      "所在": 5983,
      "担心": 5984,
      "敏感": 5985,
      "整体": 5986,
      "斯尼亚": 5987,
      "普通": 5988,
      "更新": 5989,
      "未能": 5990,
      "极端": 5991,
      "死刑": 5992,
      "治理": 5993,
      "波斯尼亚": 5994,
      "滥用": 5995,
      "特性": 5996,
      "现金": 5997,
      "的责任": 5998,
      "的基本": 5999,
      "的做法": 6000,
      "的原因": 6001,
      "相比": 6002,
      "短期": 6003,
      "科威特": 6004,
      "秩序": 6005,
      "类型": 6006,
      "细胞": 6007,
      "结婚": 6008,
      "融资": 6009,
      "观念": 6010,
      "讲话": 6011,
      "调动": 6012,
      "赞扬": 6013,
      "路斯": 6014,
      "这两": 6015,
      "道德": 6016,
      "预测": 6017,
      "食品": 6018,
      "驱逐": 6019,
      "196": 6020,
      "10日": 6021,
      "这一点": 6022,
      "教育和": 6023,
      "如果你": 6024,
      "人道主义法": 6025,
      "计算机": 6026,
      "侵犯人权": 6027,
      "拉丁美洲和": 6028,
      "教科文": 6029,
      "预防犯罪和刑事司法": 6030,
      "有组织犯罪": 6031,
      "毒品和犯罪问题": 6032,
      "阿尔及利亚": 6033,
      "塞浦路斯": 6034,
      "2日": 6035,
      "42": 6036,
      "90": 6037,
      "不受": 6038,
      "克罗": 6039,
      "创新": 6040,
      "号决定": 6041,
      "吁请": 6042,
      "土耳": 6043,
      "在联合国": 6044,
      "塞哥": 6045,
      "外勤": 6046,
      "女童": 6047,
      "安保": 6048,
      "实地": 6049,
      "小型": 6050,
      "意思": 6051,
      "或其他": 6052,
      "拉圭": 6053,
      "指南": 6054,
      "效益": 6055,
      "教学": 6056,
      "最低": 6057,
      "来看": 6058,
      "次区域": 6059,
      "民国": 6060,
      "消耗": 6061,
      "深入": 6062,
      "爆炸": 6063,
      "瑞典": 6064,
      "的政治": 6065,
      "的各种": 6066,
      "的挑战": 6067,
      "的执行情况": 6068,
      "第九": 6069,
      "第10": 6070,
      "给我": 6071,
      "肯尼亚": 6072,
      "角度": 6073,
      "边界": 6074,
      "还应": 6075,
      "这方面的": 6076,
      "逐步": 6077,
      "那样": 6078,
      "销售": 6079,
      "难以": 6080,
      "额外": 6081,
      "，”": 6082,
      "：\"": 6083,
      "服务的": 6084,
      "全球化": 6085,
      "事务厅": 6086,
      "发言者": 6087,
      "产生的": 6088,
      "性别平等": 6089,
      "组成部分": 6090,
      "不得不": 6091,
      "取得的进展": 6092,
      "劳工组织": 6093,
      "尼日利亚": 6094,
      "土耳其": 6095,
      "58": 6096,
      "64": 6097,
      "中非": 6098,
      "亚太": 6099,
      "代理": 6100,
      "以往": 6101,
      "任期": 6102,
      "信托基金": 6103,
      "加工": 6104,
      "加快": 6105,
      "助理": 6106,
      "医院": 6107,
      "发射": 6108,
      "命令": 6109,
      "团结": 6110,
      "国务": 6111,
      "多少": 6112,
      "多的": 6113,
      "大韩": 6114,
      "它还": 6115,
      "安装": 6116,
      "工发": 6117,
      "希腊": 6118,
      "志愿": 6119,
      "情报": 6120,
      "成绩": 6121,
      "手册": 6122,
      "指示": 6123,
      "挪威": 6124,
      "提及": 6125,
      "摩洛": 6126,
      "斯特": 6127,
      "有害": 6128,
      "正如": 6129,
      "沙特": 6130,
      "澄清": 6131,
      "父亲": 6132,
      "生育": 6133,
      "用来": 6134,
      "的原则": 6135,
      "示范": 6136,
      "突出": 6137,
      "第12": 6138,
      "维那": 6139,
      "芬兰": 6140,
      "融入": 6141,
      "西非": 6142,
      "要素": 6143,
      "议事规则": 6144,
      "证券": 6145,
      "迄今": 6146,
      "通讯": 6147,
      "面前": 6148,
      "颁布": 6149,
      "马拉": 6150,
      "驻地": 6151,
      "工作方案": 6152,
      "问题上": 6153,
      "发展的": 6154,
      "政府的": 6155,
      "人员和": 6156,
      "技术和": 6157,
      "武器和": 6158,
      "目前的": 6159,
      "17日": 6160,
      "阿拉伯叙利亚": 6161,
      "健康和": 6162,
      "自然资源": 6163,
      "印度尼西亚": 6164,
      "的重要性": 6165,
      "消费者": 6166,
      "拉丁美洲和加勒比": 6167,
      "塞哥维那": 6168,
      "摩洛哥": 6169,
      "31": 6170,
      "500": 6171,
      "78": 6172,
      "7月2": 6173,
      "一旦": 6174,
      "不利": 6175,
      "之中": 6176,
      "也没有": 6177,
      "争取": 6178,
      "产妇": 6179,
      "人居": 6180,
      "信任": 6181,
      "利昂": 6182,
      "咨委会": 6183,
      "在一": 6184,
      "在一个": 6185,
      "坚持": 6186,
      "声音": 6187,
      "大幅": 6188,
      "好处": 6189,
      "孟加拉": 6190,
      "完善": 6191,
      "寻找": 6192,
      "尽可能": 6193,
      "并为": 6194,
      "应在": 6195,
      "彻底": 6196,
      "律宾": 6197,
      "效力": 6198,
      "数额": 6199,
      "文职": 6200,
      "最好": 6201,
      "来西亚": 6202,
      "民众": 6203,
      "永远": 6204,
      "法的": 6205,
      "潜在": 6206,
      "现实": 6207,
      "的使用": 6208,
      "的培训": 6209,
      "的义务": 6210,
      "监管": 6211,
      "眼睛": 6212,
      "确实": 6213,
      "第八": 6214,
      "经营": 6215,
      "缺少": 6216,
      "菲律宾": 6217,
      "行预": 6218,
      "认可": 6219,
      "认真": 6220,
      "转型": 6221,
      "这两个": 6222,
      "马来西亚": 6223,
      "国际组织": 6224,
      "国际合作": 6225,
      "2009": 6226,
      "我们必须": 6227,
      "19日": 6228,
      "安全和": 6229,
      "儿童和": 6230,
      "采取的": 6231,
      "建立一个": 6232,
      "部门的": 6233,
      "数据库": 6234,
      "投资者": 6235,
      "16日": 6236,
      "缔约方会议": 6237,
      "附件一": 6238,
      "估计数": 6239,
      "流离失所者": 6240,
      "后续行动": 6241,
      "公务员": 6242,
      "塞拉利昂": 6243,
      "教科文组织": 6244,
      "大韩民国": 6245,
      "行预咨委会": 6246,
      "65": 6247,
      "84": 6248,
      "》(": 6249,
      "不平等": 6250,
      "事故": 6251,
      "位置": 6252,
      "例子": 6253,
      "信仰": 6254,
      "储存": 6255,
      "具备": 6256,
      "决于": 6257,
      "减贫": 6258,
      "分摊": 6259,
      "剥削": 6260,
      "即将": 6261,
      "取决于": 6262,
      "合并": 6263,
      "名义": 6264,
      "后勤": 6265,
      "周期": 6266,
      "和非": 6267,
      "和管理": 6268,
      "哈拉": 6269,
      "因而": 6270,
      "国集团": 6271,
      "在我": 6272,
      "地亚": 6273,
      "地利": 6274,
      "场所": 6275,
      "处罚": 6276,
      "多种": 6277,
      "大大": 6278,
      "并非": 6279,
      "并确保": 6280,
      "房子": 6281,
      "所谓": 6282,
      "指挥": 6283,
      "推进": 6284,
      "操作": 6285,
      "族裔": 6286,
      "是对": 6287,
      "显著": 6288,
      "每一个": 6289,
      "清洁": 6290,
      "瑞拉": 6291,
      "用品": 6292,
      "的有": 6293,
      "的社会": 6294,
      "的经验": 6295,
      "第11": 6296,
      "第16": 6297,
      "类别": 6298,
      "紧张": 6299,
      "自身": 6300,
      "葡萄": 6301,
      "被告": 6302,
      "让我": 6303,
      "设法": 6304,
      "贩卖": 6305,
      "软件": 6306,
      "载有": 6307,
      "运用": 6308,
      "进口": 6309,
      "连续": 6310,
      "部和": 6311,
      "附加": 6312,
      "附属": 6313,
      "除非": 6314,
      "国际人权": 6315,
      "我们在": 6316,
      "其他国家": 6317,
      "1992年": 6318,
      "计划的": 6319,
      "可以在": 6320,
      "措施的": 6321,
      "重要的是": 6322,
      "世界上": 6323,
      "这个问题": 6324,
      "作出的": 6325,
      "第二次": 6326,
      "的工作人员": 6327,
      "目前正在": 6328,
      "1日至": 6329,
      "种族主义": 6330,
      "死亡率": 6331,
      "通信技术": 6332,
      "罗马尼亚": 6333,
      "有利于": 6334,
      "塞尔维亚": 6335,
      "与此同时": 6336,
      "更好地": 6337,
      "小岛屿发展中国家": 6338,
      ")：": 6339,
      "52": 6340,
      "”。": 6341,
      "不论": 6342,
      "丰富": 6343,
      "主动": 6344,
      "以加强": 6345,
      "伐克": 6346,
      "会上": 6347,
      "你能": 6348,
      "内瑞拉": 6349,
      "初步": 6350,
      "去年": 6351,
      "发布": 6352,
      "号和": 6353,
      "向大会": 6354,
      "听到": 6355,
      "和华": 6356,
      "和对": 6357,
      "和执行": 6358,
      "奥地利": 6359,
      "尼斯": 6360,
      "干达": 6361,
      "并将": 6362,
      "庇护": 6363,
      "很快": 6364,
      "感染": 6365,
      "成了": 6366,
      "我不": 6367,
      "我在": 6368,
      "我是": 6369,
      "报表": 6370,
      "掌握": 6371,
      "教训": 6372,
      "无核武器": 6373,
      "时代": 6374,
      "暂停": 6375,
      "最新": 6376,
      "来文": 6377,
      "正常": 6378,
      "照顾": 6379,
      "现行": 6380,
      "的文件": 6381,
      "的意见": 6382,
      "的办法": 6383,
      "移交": 6384,
      "第一个": 6385,
      "群岛": 6386,
      "补贴": 6387,
      "赞同": 6388,
      "边境": 6389,
      "阻碍": 6390,
      "青少年": 6391,
      "％。": 6392,
      "20日": 6393,
      "2005": 6394,
      "发展援助": 6395,
      "经济增长": 6396,
      "1991年": 6397,
      "可能的": 6398,
      "15日": 6399,
      "审议了": 6400,
      "进程的": 6401,
      "进展情况": 6402,
      "12月31日": 6403,
      "一般性": 6404,
      "原因是": 6405,
      "劳动力": 6406,
      "透明度": 6407,
      "高级专员办事处": 6408,
      "斯洛伐克": 6409,
      "阿拉伯叙利亚共和国": 6410,
      "孟加拉国": 6411,
      "62": 6412,
      "66": 6413,
      "》、《": 6414,
      "上文": 6415,
      "下来": 6416,
      "不妨": 6417,
      "业绩": 6418,
      "中华": 6419,
      "为期": 6420,
      "主流": 6421,
      "乌干达": 6422,
      "也在": 6423,
      "争端": 6424,
      "事业": 6425,
      "产出": 6426,
      "仅仅": 6427,
      "他在": 6428,
      "优势": 6429,
      "你要": 6430,
      "俄比亚": 6431,
      "判决": 6432,
      "削减": 6433,
      "加速": 6434,
      "动态": 6435,
      "包容": 6436,
      "十字": 6437,
      "发了": 6438,
      "可是": 6439,
      "回到": 6440,
      "埃塞": 6441,
      "声称": 6442,
      "大不": 6443,
      "天的": 6444,
      "委内瑞拉": 6445,
      "学术": 6446,
      "对待": 6447,
      "工会": 6448,
      "巴布": 6449,
      "常常": 6450,
      "并对": 6451,
      "并不是": 6452,
      "废除": 6453,
      "开幕": 6454,
      "开支": 6455,
      "弱势": 6456,
      "强烈": 6457,
      "形势": 6458,
      "您的": 6459,
      "意愿": 6460,
      "我认为": 6461,
      "投诉": 6462,
      "推迟": 6463,
      "描述": 6464,
      "提醒": 6465,
      "旅游": 6466,
      "有点": 6467,
      "某一": 6468,
      "格的": 6469,
      "检测": 6470,
      "欧元": 6471,
      "毛里": 6472,
      "注册": 6473,
      "津贴": 6474,
      "清除": 6475,
      "特设": 6476,
      "玻利": 6477,
      "病毒": 6478,
      "看看": 6479,
      "秘密": 6480,
      "英文": 6481,
      "董事": 6482,
      "规约": 6483,
      "设置": 6484,
      "负担": 6485,
      "返回": 6486,
      "问责": 6487,
      "阐述": 6488,
      "随后": 6489,
      "国家和": 6490,
      "委员会主席": 6491,
      "问题国际": 6492,
      "我们将": 6493,
      "一个人": 6494,
      "提供援助": 6495,
      "执行主任": 6496,
      "人权利": 6497,
      "1998": 6498,
      "需要的": 6499,
      "项目的": 6500,
      "这种情况": 6501,
      "环境署": 6502,
      "武器的": 6503,
      "的一般": 6504,
      "暴力行为": 6505,
      "暴力侵害": 6506,
      "建设和平": 6507,
      "家庭暴力": 6508,
      "第1款": 6509,
      "常驻联合国": 6510,
      "毒品和犯罪问题办公室": 6511,
      "埃塞俄比亚": 6512,
      "4月2": 6513,
      "53": 6514,
      "一只": 6515,
      "七届会议": 6516,
      "不管": 6517,
      "专办": 6518,
      "也会": 6519,
      "产业": 6520,
      "付款": 6521,
      "传染": 6522,
      "免费": 6523,
      "共体": 6524,
      "准确": 6525,
      "加坡": 6526,
      "北爱尔兰": 6527,
      "去了": 6528,
      "及其他": 6529,
      "及北爱尔兰": 6530,
      "听取": 6531,
      "哪些": 6532,
      "在所有": 6533,
      "基地": 6534,
      "多哈": 6535,
      "妈妈": 6536,
      "并向": 6537,
      "引渡": 6538,
      "很少": 6539,
      "得不到": 6540,
      "快乐": 6541,
      "性能": 6542,
      "总是": 6543,
      "恶化": 6544,
      "所列": 6545,
      "承包": 6546,
      "政党": 6547,
      "更大": 6548,
      "条规定": 6549,
      "毁灭": 6550,
      "比利": 6551,
      "毕业": 6552,
      "法定": 6553,
      "照料": 6554,
      "燃料": 6555,
      "物的": 6556,
      "的前": 6557,
      "的确": 6558,
      "的环境": 6559,
      "的全球": 6560,
      "第14": 6561,
      "简要": 6562,
      "约翰": 6563,
      "绝对": 6564,
      "老师": 6565,
      "考试": 6566,
      "耶和华": 6567,
      "职权": 6568,
      "自我": 6569,
      "被认为": 6570,
      "让我们": 6571,
      "证实": 6572,
      "过境": 6573,
      "运行": 6574,
      "除其他": 6575,
      "隔离": 6576,
      "高专办": 6577,
      "，“": 6578,
      "2000": 6579,
      "发展和": 6580,
      "我们认为": 6581,
      "方面发挥": 6582,
      "社会的": 6583,
      "11月2": 6584,
      "重要作用": 6585,
      "权利的": 6586,
      "保护和": 6587,
      "人民的": 6588,
      "的一切": 6589,
      "政治权利": 6590,
      "它们的": 6591,
      "特派团的": 6592,
      "仍然是": 6593,
      "协商一致": 6594,
      "000美元": 6595,
      "男女平等": 6596,
      "当事人": 6597,
      "上午10": 6598,
      "百分比": 6599,
      "克罗地亚": 6600,
      "国务院": 6601,
      "工发组织": 6602,
      "3月2": 6603,
      "54": 6604,
      "73": 6605,
      "97": 6606,
      "一道": 6607,
      "上帝": 6608,
      "主张": 6609,
      "书馆": 6610,
      "买卖": 6611,
      "了关于": 6612,
      "事先": 6613,
      "仍有": 6614,
      "位于": 6615,
      "保存": 6616,
      "六条": 6617,
      "共计": 6618,
      "养恤": 6619,
      "列颠": 6620,
      "力和": 6621,
      "十二": 6622,
      "参考": 6623,
      "受理": 6624,
      "可行": 6625,
      "各会员国": 6626,
      "员和": 6627,
      "员工": 6628,
      "和方案": 6629,
      "和加强": 6630,
      "国和": 6631,
      "图书馆": 6632,
      "在过去": 6633,
      "大楼": 6634,
      "天气": 6635,
      "子里": 6636,
      "导言": 6637,
      "就要": 6638,
      "已在": 6639,
      "并与": 6640,
      "并请": 6641,
      "征聘": 6642,
      "我还": 6643,
      "战斗": 6644,
      "手术": 6645,
      "担保": 6646,
      "拨款": 6647,
      "排除": 6648,
      "排雷": 6649,
      "撒哈拉": 6650,
      "新加坡": 6651,
      "方的": 6652,
      "旅费": 6653,
      "昨天": 6654,
      "有义务": 6655,
      "本法": 6656,
      "某种": 6657,
      "正规": 6658,
      "比如": 6659,
      "气氛": 6660,
      "汇率": 6661,
      "电脑": 6662,
      "的有关": 6663,
      "的关系": 6664,
      "监禁": 6665,
      "缅甸": 6666,
      "联网": 6667,
      "自行": 6668,
      "蒙特": 6669,
      "衡量": 6670,
      "表面": 6671,
      "覆盖": 6672,
      "豁免": 6673,
      "邮件": 6674,
      "都会": 6675,
      "金属": 6676,
      "）：": 6677,
      "194": 6678,
      "以及对": 6679,
      "经济发展": 6680,
      "执行局": 6681,
      "合作伙伴": 6682,
      "世界各地": 6683,
      "基金的": 6684,
      "目标是": 6685,
      "得到了": 6686,
      "行政当局": 6687,
      "基础上": 6688,
      "阿拉伯国家": 6689,
      "消除对妇女": 6690,
      "一直在": 6691,
      "程度上": 6692,
      "外交部": 6693,
      "伊斯兰共和国": 6694,
      "的那样": 6695,
      "和平与安全": 6696,
      "捷克共和国": 6697,
      "葡萄牙": 6698,
      "及北爱尔兰联合王国": 6699,
      "列颠及北爱尔兰联合王国": 6700,
      ")(": 6701,
      "2号决议": 6702,
      "51": 6703,
      "61": 6704,
      "63": 6705,
      "6个": 6706,
      "一部分": 6707,
      "一系列": 6708,
      "丈夫": 6709,
      "下面": 6710,
      "两种": 6711,
      "于是": 6712,
      "任职": 6713,
      "伦敦": 6714,
      "但我": 6715,
      "作品": 6716,
      "你可以": 6717,
      "依法": 6718,
      "停火": 6719,
      "儿子": 6720,
      "公路": 6721,
      "关心": 6722,
      "加上": 6723,
      "加尔": 6724,
      "单独": 6725,
      "南南": 6726,
      "发起": 6727,
      "各区域": 6728,
      "周围": 6729,
      "和建议": 6730,
      "回应": 6731,
      "固定": 6732,
      "在内": 6733,
      "在这一": 6734,
      "在许多": 6735,
      "地下": 6736,
      "地球": 6737,
      "地震": 6738,
      "地面": 6739,
      "培养": 6740,
      "始终": 6741,
      "宏观": 6742,
      "定于": 6743,
      "将是": 6744,
      "尊严": 6745,
      "幸福": 6746,
      "当今": 6747,
      "必需": 6748,
      "总数": 6749,
      "或在": 6750,
      "撒冷": 6751,
      "是因为": 6752,
      "最大的": 6753,
      "有着": 6754,
      "期望": 6755,
      "核可": 6756,
      "次报告": 6757,
      "民事": 6758,
      "气象": 6759,
      "法令": 6760,
      "渔业": 6761,
      "游戏": 6762,
      "灵活": 6763,
      "玻璃": 6764,
      "用以": 6765,
      "电影": 6766,
      "男人": 6767,
      "疑问": 6768,
      "的各": 6769,
      "的数据": 6770,
      "的必要": 6771,
      "的资金": 6772,
      "直到": 6773,
      "真是": 6774,
      "科特": 6775,
      "称为": 6776,
      "移动": 6777,
      "突尼斯": 6778,
      "立陶": 6779,
      "筹措": 6780,
      "粮农": 6781,
      "紧迫": 6782,
      "翻译": 6783,
      "耶路": 6784,
      "联络": 6785,
      "自从": 6786,
      "节目": 6787,
      "衣服": 6788,
      "补助": 6789,
      "裁定": 6790,
      "装置": 6791,
      "视察": 6792,
      "言论": 6793,
      "距离": 6794,
      "还将": 6795,
      "这就是": 6796,
      "遇到": 6797,
      "酌情": 6798,
      "阁下": 6799,
      "阐明": 6800,
      "限于": 6801,
      "顺利": 6802,
      "飞行": 6803,
      "工作中": 6804,
      "国际人道主义法": 6805,
      "他们在": 6806,
      "10月2": 6807,
      "人权的": 6808,
      "人权高专办": 6809,
      "1999": 6810,
      "公约的": 6811,
      "大会的": 6812,
      "管理局": 6813,
      "法律和": 6814,
      "的人数": 6815,
      "表示关注": 6816,
      "主席团": 6817,
      "培训和": 6818,
      "事务部": 6819,
      "行政和": 6820,
      "公司的": 6821,
      "条约的": 6822,
      "具体的": 6823,
      "发生的": 6824,
      "公共部门": 6825,
      "关切的是": 6826,
      "第61": 6827,
      "第十二": 6828,
      "禁止酷刑": 6829,
      "现有的": 6830,
      "自然灾害": 6831,
      "部长级": 6832,
      "1989年": 6833,
      "所述期间": 6834,
      "生态系统": 6835,
      "和黑塞哥维那": 6836,
      "波斯尼亚和黑塞哥维那": 6837,
      "沙特阿拉伯": 6838,
      "立陶宛": 6839,
      "耶路撒冷": 6840,
      "3个": 6841,
      "5月2": 6842,
      "68": 6843,
      "98": 6844,
      "》（": 6845,
      "上海": 6846,
      "不必": 6847,
      "与其": 6848,
      "与合作": 6849,
      "也有": 6850,
      "了一些": 6851,
      "产权": 6852,
      "他是": 6853,
      "以此": 6854,
      "以促进": 6855,
      "会谈": 6856,
      "体现": 6857,
      "你是": 6858,
      "侧重": 6859,
      "入学": 6860,
      "农民": 6861,
      "分享": 6862,
      "利率": 6863,
      "加沙": 6864,
      "动机": 6865,
      "协同": 6866,
      "单一": 6867,
      "参数": 6868,
      "反腐败": 6869,
      "变动": 6870,
      "和支持": 6871,
      "商定的": 6872,
      "囚犯": 6873,
      "坚决": 6874,
      "备选": 6875,
      "多尔": 6876,
      "夫人": 6877,
      "妻子": 6878,
      "婴儿": 6879,
      "学位": 6880,
      "学家": 6881,
      "对联合国": 6882,
      "小的": 6883,
      "就能": 6884,
      "尽量": 6885,
      "巨大": 6886,
      "平台": 6887,
      "度的": 6888,
      "得出": 6889,
      "怀疑": 6890,
      "所得": 6891,
      "推行": 6892,
      "斯里": 6893,
      "时刻": 6894,
      "时的": 6895,
      "是一项": 6896,
      "有什么": 6897,
      "极为": 6898,
      "格鲁": 6899,
      "款项": 6900,
      "段时间": 6901,
      "沙尼亚": 6902,
      "泰国": 6903,
      "流行": 6904,
      "爱沙尼亚": 6905,
      "生存": 6906,
      "用作": 6907,
      "的关于": 6908,
      "的安全": 6909,
      "相似": 6910,
      "相反": 6911,
      "看见": 6912,
      "真的": 6913,
      "破产": 6914,
      "秘鲁": 6915,
      "空缺": 6916,
      "第17": 6917,
      "约旦": 6918,
      "组合": 6919,
      "继承": 6920,
      "维修": 6921,
      "而非": 6922,
      "职务": 6923,
      "自决": 6924,
      "荒漠": 6925,
      "规章": 6926,
      "解除": 6927,
      "议员": 6928,
      "证书": 6929,
      "询问": 6930,
      "诸如": 6931,
      "负面": 6932,
      "质疑": 6933,
      "越南": 6934,
      "近东": 6935,
      "还没有": 6936,
      "迪瓦": 6937,
      "遣队": 6938,
      "遵循": 6939,
      "配合": 6940,
      "重复": 6941,
      "间接": 6942,
      "首席": 6943,
      "马尔": 6944,
      "，\"": 6945,
      "国家一级": 6946,
      "国际贸易": 6947,
      "2001": 6948,
      "所有人": 6949,
      "所有这些": 6950,
      "方案预算": 6951,
      "12月2": 6952,
      "规定了": 6953,
      "世界银行": 6954,
      "世界首脑会议": 6955,
      "继续努力": 6956,
      "资源的": 6957,
      "教育的": 6958,
      "开展的": 6959,
      "开展工作": 6960,
      "的一种": 6961,
      "讨论了": 6962,
      "号决议中": 6963,
      "期间的": 6964,
      "市场的": 6965,
      "文化权利": 6966,
      "框架内": 6967,
      "人道主义援助": 6968,
      "第十四": 6969,
      "监督厅": 6970,
      "提出的建议": 6971,
      "巴勒斯坦人民": 6972,
      "星期二": 6973,
      "一切形式": 6974,
      "所需的": 6975,
      "我国代表团": 6976,
      "伊朗伊斯兰共和国": 6977,
      "意识到": 6978,
      "大不列颠及北爱尔兰联合王国": 6979,
      "比利时": 6980,
      "除其他外": 6981,
      "\"、": 6982,
      "..": 6983,
      "99": 6984,
      "9月2": 6985,
      "三条": 6986,
      "两国": 6987,
      "中期": 6988,
      "事态": 6989,
      "亚美": 6990,
      "京都": 6991,
      "人为": 6992,
      "以使": 6993,
      "以英语": 6994,
      "会费": 6995,
      "做出的": 6996,
      "兰卡": 6997,
      "关税": 6998,
      "内陆": 6999,
      "准入": 7000,
      "南亚": 7001,
      "厄瓜": 7002,
      "变革": 7003,
      "同事": 7004,
      "同等": 7005,
      "周年": 7006,
      "和教育": 7007,
      "和协调": 7008,
      "和实施": 7009,
      "和家庭": 7010,
      "回收": 7011,
      "在与": 7012,
      "在那": 7013,
      "在执行": 7014,
      "在全球": 7015,
      "在实现": 7016,
      "在美国": 7017,
      "地域": 7018,
      "地理": 7019,
      "塔尔": 7020,
      "多么": 7021,
      "大型": 7022,
      "失去": 7023,
      "她说": 7024,
      "定为": 7025,
      "对这些": 7026,
      "并未": 7027,
      "广播": 7028,
      "强奸": 7029,
      "当选": 7030,
      "彼此": 7031,
      "德里": 7032,
      "恐惧": 7033,
      "成效": 7034,
      "所设": 7035,
      "接收": 7036,
      "提升": 7037,
      "摊款": 7038,
      "故事": 7039,
      "是由": 7040,
      "是为了": 7041,
      "晚上": 7042,
      "最初": 7043,
      "样的": 7044,
      "格式": 7045,
      "正是": 7046,
      "比率": 7047,
      "注重": 7048,
      "海上": 7049,
      "生的": 7050,
      "痛苦": 7051,
      "的人权": 7052,
      "的世界": 7053,
      "的服务": 7054,
      "的实施": 7055,
      "的程序": 7056,
      "的说明": 7057,
      "的理由": 7058,
      "突然": 7059,
      "绩效": 7060,
      "罪行的": 7061,
      "联塞": 7062,
      "至于": 7063,
      "获悉": 7064,
      "蒙古": 7065,
      "被占": 7066,
      "装备": 7067,
      "议题": 7068,
      "证人": 7069,
      "该项": 7070,
      "这位": 7071,
      "这场": 7072,
      "都能": 7073,
      "释放": 7074,
      "销毁": 7075,
      "阻止": 7076,
      "雇用": 7077,
      "音乐": 7078,
      "首次": 7079,
      "首长": 7080,
      "高的": 7081,
      "委员会对": 7082,
      "委员会认为": 7083,
      "2007": 7084,
      "发展议程": 7085,
      "经济和": 7086,
      "没有任何": 7087,
      "影响到": 7088,
      "影响的": 7089,
      "促进发展": 7090,
      "一些国家": 7091,
      "秘书长关于": 7092,
      "13日": 7093,
      "非洲的": 7094,
      "表示关切": 7095,
      "作出了": 7096,
      "方面的作用": 7097,
      "专家小组": 7098,
      "文化和": 7099,
      "星期一": 7100,
      "知识产权": 7101,
      "武装部队": 7102,
      "新闻部": 7103,
      "定期报告": 7104,
      "违反了": 7105,
      "举办了": 7106,
      "农村地区": 7107,
      "下午1": 7108,
      "全体会议": 7109,
      "管辖权": 7110,
      "约束力的": 7111,
      "信息和通信技术": 7112,
      "许可证": 7113,
      "科特迪瓦": 7114,
      "斯里兰卡": 7115,
      "亚美尼亚": 7116,
      "厄瓜多尔": 7117,
      "1月2": 7118,
      "74": 7119,
      "不在": 7120,
      "不幸": 7121,
      "东道": 7122,
      "两项": 7123,
      "为实现": 7124,
      "之处": 7125,
      "九届会议": 7126,
      "买加": 7127,
      "人人": 7128,
      "以期": 7129,
      "会和": 7130,
      "会在": 7131,
      "会的": 7132,
      "你在": 7133,
      "假设": 7134,
      "元首": 7135,
      "充足": 7136,
      "六届会议": 7137,
      "出去": 7138,
      "分庭": 7139,
      "创建": 7140,
      "到达": 7141,
      "前往": 7142,
      "加剧": 7143,
      "动力": 7144,
      "南方": 7145,
      "友好": 7146,
      "只能": 7147,
      "吉亚": 7148,
      "向委员会": 7149,
      "团队": 7150,
      "在国内": 7151,
      "基准": 7152,
      "多米": 7153,
      "奥巴": 7154,
      "妨碍": 7155,
      "宝贵": 7156,
      "客观": 7157,
      "容忍": 7158,
      "封锁": 7159,
      "尝试": 7160,
      "尼加": 7161,
      "工商": 7162,
      "巨大的": 7163,
      "差别": 7164,
      "巴尼亚": 7165,
      "带来的": 7166,
      "广告": 7167,
      "情形": 7168,
      "感兴趣": 7169,
      "我就": 7170,
      "或是": 7171,
      "房地": 7172,
      "所属": 7173,
      "找出": 7174,
      "护理": 7175,
      "拟定": 7176,
      "指称": 7177,
      "探索": 7178,
      "摆脱": 7179,
      "摘要": 7180,
      "收益": 7181,
      "放射": 7182,
      "教授": 7183,
      "文尼亚": 7184,
      "斗争": 7185,
      "日常": 7186,
      "明白": 7187,
      "更好的": 7188,
      "曾经": 7189,
      "有力的": 7190,
      "未来的": 7191,
      "本人": 7192,
      "机械": 7193,
      "来到": 7194,
      "次数": 7195,
      "正当": 7196,
      "氧化": 7197,
      "水资源": 7198,
      "永久": 7199,
      "洗钱": 7200,
      "测量": 7201,
      "特遣队": 7202,
      "现场": 7203,
      "界定": 7204,
      "的核": 7205,
      "的同时": 7206,
      "的危险": 7207,
      "的东西": 7208,
      "目录": 7209,
      "看来": 7210,
      "真实": 7211,
      "确立": 7212,
      "立特": 7213,
      "童工": 7214,
      "红十字": 7215,
      "经合": 7216,
      "经社会": 7217,
      "给你": 7218,
      "老人": 7219,
      "考察": 7220,
      "而不": 7221,
      "良好的": 7222,
      "药品": 7223,
      "薪金": 7224,
      "被判": 7225,
      "被拘留": 7226,
      "被视为": 7227,
      "订立": 7228,
      "记者": 7229,
      "该区域": 7230,
      "转变": 7231,
      "过度": 7232,
      "还在": 7233,
      "连接": 7234,
      "重返": 7235,
      "雇主": 7236,
      "面向": 7237,
      "委员会成员": 7238,
      "报告说": 7239,
      "提供资料": 7240,
      "社会发展": 7241,
      "这些问题": 7242,
      "没有得到": 7243,
      "合作的": 7244,
      "采取一切": 7245,
      "成员的": 7246,
      "作为一个": 7247,
      "表示欢迎": 7248,
      "14日": 7249,
      "审议大会": 7250,
      "第二个": 7251,
      "人口的": 7252,
      "取得进展": 7253,
      "生活的": 7254,
      "民主主义": 7255,
      "部队派遣": 7256,
      "第2款": 7257,
      "独立的": 7258,
      "积极的": 7259,
      "刑事诉讼": 7260,
      "设立了": 7261,
      "稳定团": 7262,
      "直接投资": 7263,
      "指导方针": 7264,
      "经常预算": 7265,
      "7月1日至": 7266,
      "药物管制": 7267,
      "签署了": 7268,
      "下午3": 7269,
      "告诉我": 7270,
      "出席了": 7271,
      "足够的": 7272,
      "维和行动": 7273,
      "官方发展援助": 7274,
      "斯洛文尼亚": 7275,
      "中华人民共和国": 7276,
      "粮农组织": 7277,
      "格鲁吉亚": 7278,
      "荒漠化": 7279,
      "京都议定书": 7280,
      "以英语发言": 7281,
      "奥巴马": 7282,
      "2个": 7283,
      "2月2": 7284,
      "5个": 7285,
      "83": 7286,
      "87": 7287,
      "89": 7288,
      "○○": 7289,
      "一场": 7290,
      "一天": 7291,
      "三十": 7292,
      "不久": 7293,
      "不稳定": 7294,
      "世贸": 7295,
      "丧失": 7296,
      "中所": 7297,
      "中间": 7298,
      "中发挥": 7299,
      "也可以": 7300,
      "了对": 7301,
      "互联网": 7302,
      "五年": 7303,
      "低于": 7304,
      "你会": 7305,
      "你知道": 7306,
      "依靠": 7307,
      "保加": 7308,
      "做到": 7309,
      "公里": 7310,
      "内政": 7311,
      "内加尔": 7312,
      "分散": 7313,
      "分类": 7314,
      "初级": 7315,
      "制作": 7316,
      "制止": 7317,
      "刺激": 7318,
      "前南斯拉夫": 7319,
      "北部": 7320,
      "卡塔尔": 7321,
      "厄立特": 7322,
      "反恐怖主义": 7323,
      "受伤": 7324,
      "变成": 7325,
      "口头": 7326,
      "各位": 7327,
      "名额": 7328,
      "后者": 7329,
      "否则": 7330,
      "和政府": 7331,
      "和儿童": 7332,
      "和使用": 7333,
      "响应": 7334,
      "哥拉": 7335,
      "四年": 7336,
      "国防": 7337,
      "在他": 7338,
      "在这些": 7339,
      "在某些": 7340,
      "在纽约": 7341,
      "坚定": 7342,
      "垃圾": 7343,
      "埔寨": 7344,
      "塞内加尔": 7345,
      "处境": 7346,
      "多年": 7347,
      "大陆": 7348,
      "失败": 7349,
      "契约": 7350,
      "奖励": 7351,
      "季度": 7352,
      "学的": 7353,
      "安哥拉": 7354,
      "对外": 7355,
      "对所有": 7356,
      "将由": 7357,
      "就必须": 7358,
      "尽早": 7359,
      "思考": 7360,
      "性暴力": 7361,
      "患者": 7362,
      "想法": 7363,
      "成年人": 7364,
      "房间": 7365,
      "打开": 7366,
      "抓住": 7367,
      "拉斯": 7368,
      "接近": 7369,
      "政权": 7370,
      "文明": 7371,
      "是有": 7372,
      "普及": 7373,
      "智利": 7374,
      "暂行": 7375,
      "更大的": 7376,
      "有许多": 7377,
      "本地": 7378,
      "柬埔寨": 7379,
      "气体": 7380,
      "流程": 7381,
      "渠道": 7382,
      "灾难": 7383,
      "牙买加": 7384,
      "瓦尔": 7385,
      "电信": 7386,
      "病人": 7387,
      "的方案": 7388,
      "的协调": 7389,
      "的发言": 7390,
      "的生活": 7391,
      "的案件": 7392,
      "的需求": 7393,
      "的条款": 7394,
      "的定义": 7395,
      "的事情": 7396,
      "的目的是": 7397,
      "种种": 7398,
      "税务": 7399,
      "简化": 7400,
      "纠正": 7401,
      "纤维": 7402,
      "终止": 7403,
      "给了": 7404,
      "缔结": 7405,
      "编辑": 7406,
      "缺陷": 7407,
      "职工": 7408,
      "股票": 7409,
      "草稿": 7410,
      "行星": 7411,
      "要点": 7412,
      "角色": 7413,
      "解放": 7414,
      "警方": 7415,
      "记忆": 7416,
      "该地区": 7417,
      "语发言": 7418,
      "谈会": 7419,
      "较为": 7420,
      "过来": 7421,
      "迫切": 7422,
      "选民": 7423,
      "遣返": 7424,
      "都在": 7425,
      "酒店": 7426,
      "陷入": 7427,
      "预警": 7428,
      "饮食": 7429,
      "工作计划": 7430,
      "问题特别报告员": 7431,
      "国际法院": 7432,
      "提供资金": 7433,
      "方面所": 7434,
      "这些目标": 7435,
      "项目厅": 7436,
      "区域和": 7437,
      "政策的": 7438,
      "继续进行": 7439,
      "的人口": 7440,
      "开展了": 7441,
      "非洲国家": 7442,
      "关系的": 7443,
      "实施的": 7444,
      "审查和": 7445,
      "第二条": 7446,
      "提高妇女地位": 7447,
      "美国和": 7448,
      "战略和": 7449,
      "战略计划": 7450,
      "标准的": 7451,
      "中心的": 7452,
      "工作人员的": 7453,
      "了一次": 7454,
      "建设性": 7455,
      "生活在": 7456,
      "预防和": 7457,
      "监测和评价": 7458,
      "独立专家": 7459,
      "刑事法院": 7460,
      "财政资源": 7461,
      "星期五": 7462,
      "履行其": 7463,
      "公民权利和": 7464,
      "所需资源": 7465,
      "少数民族": 7466,
      "阿尔巴尼亚": 7467,
      "至关重要的": 7468,
      "申诉人": 7469,
      "委员会建议缔约国": 7470,
      "修正案": 7471,
      "儿童权利公约": 7472,
      "增进和保护": 7473,
      "经济和社会发展": 7474,
      "多米尼加": 7475,
      "保加利亚": 7476,
      "厄立特里亚": 7477,
      "1号决议": 7478,
      "82": 7479,
      "一支": 7480,
      "一届会议": 7481,
      "不良": 7482,
      "为在": 7483,
      "主办": 7484,
      "之日": 7485,
      "乐观": 7486,
      "也很": 7487,
      "了其": 7488,
      "仍在": 7489,
      "从未": 7490,
      "他还": 7491,
      "件事": 7492,
      "众多": 7493,
      "优惠": 7494,
      "会对": 7495,
      "促成": 7496,
      "信心": 7497,
      "做了": 7498,
      "兄弟": 7499,
      "先进": 7500,
      "其实": 7501,
      "再生": 7502,
      "军备": 7503,
      "分区域": 7504,
      "判断": 7505,
      "别人": 7506,
      "区别": 7507,
      "印刷": 7508,
      "危地": 7509,
      "即便": 7510,
      "可在": 7511,
      "可怕": 7512,
      "名字": 7513,
      "向秘书长": 7514,
      "否认": 7515,
      "和安全": 7516,
      "商务": 7517,
      "四个": 7518,
      "图像": 7519,
      "土壤": 7520,
      "圣诞": 7521,
      "在大": 7522,
      "在任何": 7523,
      "在这个": 7524,
      "在本报告": 7525,
      "坐在": 7526,
      "基因": 7527,
      "填补": 7528,
      "天然": 7529,
      "如今": 7530,
      "定居": 7531,
      "审评": 7532,
      "就像": 7533,
      "已有": 7534,
      "巴黎": 7535,
      "应付": 7536,
      "强化": 7537,
      "总共": 7538,
      "总结": 7539,
      "惯例": 7540,
      "意外": 7541,
      "我相信": 7542,
      "或有": 7543,
      "房屋": 7544,
      "托克": 7545,
      "拉脱": 7546,
      "授予": 7547,
      "提前": 7548,
      "文本": 7549,
      "新伙伴关系": 7550,
      "方便": 7551,
      "明天": 7552,
      "是从": 7553,
      "是什么": 7554,
      "条第1款": 7555,
      "植物": 7556,
      "欧安": 7557,
      "武力": 7558,
      "添加": 7559,
      "演讲": 7560,
      "灭绝": 7561,
      "物品": 7562,
      "率为": 7563,
      "男孩": 7564,
      "男性": 7565,
      "的可": 7566,
      "的对": 7567,
      "的联合国": 7568,
      "的公约": 7569,
      "的区域": 7570,
      "的管理": 7571,
      "的立法": 7572,
      "的内容": 7573,
      "的价值": 7574,
      "的风险": 7575,
      "的可能性": 7576,
      "着手": 7577,
      "知情": 7578,
      "神经": 7579,
      "等等": 7580,
      "等方面": 7581,
      "签订": 7582,
      "细节": 7583,
      "经理": 7584,
      "老年": 7585,
      "联刚": 7586,
      "营地": 7587,
      "记得": 7588,
      "调解": 7589,
      "足球": 7590,
      "跟踪": 7591,
      "路线": 7592,
      "较低": 7593,
      "进出口": 7594,
      "追究": 7595,
      "退休": 7596,
      "那时": 7597,
      "那种": 7598,
      "里面": 7599,
      "重的": 7600,
      "重大的": 7601,
      "饥饿": 7602,
      "首要": 7603,
      "）（": 7604,
      "20年": 7605,
      "工作者": 7606,
      "国际劳工组织": 7607,
      "2002": 7608,
      "以及其他": 7609,
      "这些国家": 7610,
      "情况的": 7611,
      "特别会议": 7612,
      "经济体": 7613,
      "可能是": 7614,
      "计划生育": 7615,
      "缔约国在": 7616,
      "建立和": 7617,
      "信息技术": 7618,
      "的人道": 7619,
      "行政部门": 7620,
      "基本自由": 7621,
      "安全理事会主席": 7622,
      "了一份": 7623,
      "强调了": 7624,
      "负责人": 7625,
      "造成了": 7626,
      "全面的": 7627,
      "歧视公约": 7628,
      "监测和": 7629,
      "第58": 7630,
      "第五委员会": 7631,
      "缔约方大会": 7632,
      "这是一个": 7633,
      "财务报表": 7634,
      "对话和": 7635,
      "粮食计划署": 7636,
      "不可避免": 7637,
      "裁军谈判": 7638,
      "面临的": 7639,
      "少数群体": 7640,
      "供应商": 7641,
      "赞赏地注意到": 7642,
      "在国家一级": 7643,
      "不扩散条约": 7644,
      "遗憾的是": 7645,
      "驻地协调员": 7646,
      "武器和轻": 7647,
      "问责制": 7648,
      "毁灭性": 7649,
      "负面影响": 7650,
      "\"、\"": 7651,
      "经合组织": 7652,
      "世贸组织": 7653,
      "公民权利和政治权利": 7654,
      "多米尼加共和国": 7655,
      "危地马拉": 7656,
      "拉脱维亚": 7657,
      "4个": 7658,
      "6号决议": 7659,
      "71": 7660,
      "72": 7661,
      "上去": 7662,
      "上涨": 7663,
      "下去": 7664,
      "与国际": 7665,
      "两名": 7666,
      "个人的": 7667,
      "中亚": 7668,
      "中有": 7669,
      "为1": 7670,
      "主导": 7671,
      "人以": 7672,
      "仇恨": 7673,
      "从中": 7674,
      "以提高": 7675,
      "任意": 7676,
      "份报告": 7677,
      "住区": 7678,
      "你就": 7679,
      "供水": 7680,
      "信贷": 7681,
      "偿还": 7682,
      "儿基": 7683,
      "公报": 7684,
      "共享": 7685,
      "其顿": 7686,
      "养老": 7687,
      "出一": 7688,
      "出于": 7689,
      "削弱": 7690,
      "副主席": 7691,
      "北方": 7692,
      "卷入": 7693,
      "发电": 7694,
      "发基金": 7695,
      "口译": 7696,
      "各组织": 7697,
      "各机构": 7698,
      "合格": 7699,
      "后来": 7700,
      "含义": 7701,
      "和在": 7702,
      "和有关": 7703,
      "和服务": 7704,
      "和法律": 7705,
      "和环境": 7706,
      "和相关": 7707,
      "哥斯": 7708,
      "国外": 7709,
      "在这种": 7710,
      "地带": 7711,
      "均衡": 7712,
      "塔尼亚": 7713,
      "外债": 7714,
      "外来": 7715,
      "大力": 7716,
      "太太": 7717,
      "好了": 7718,
      "子的": 7719,
      "学科": 7720,
      "家人": 7721,
      "对付": 7722,
      "将与": 7723,
      "将通过": 7724,
      "小行星": 7725,
      "小武器和轻": 7726,
      "尼泊": 7727,
      "尽快": 7728,
      "岁的": 7729,
      "左右": 7730,
      "巴拉圭": 7731,
      "并就": 7732,
      "庆祝": 7733,
      "当中": 7734,
      "循环": 7735,
      "忽视": 7736,
      "性恋": 7737,
      "愿望": 7738,
      "成长": 7739,
      "我谨": 7740,
      "或许": 7741,
      "打破": 7742,
      "抵抗": 7743,
      "拖延": 7744,
      "招聘": 7745,
      "持有": 7746,
      "排斥": 7747,
      "支配": 7748,
      "效应": 7749,
      "无限": 7750,
      "早期": 7751,
      "更有": 7752,
      "最好的": 7753,
      "有了": 7754,
      "期待": 7755,
      "本决议": 7756,
      "权威": 7757,
      "极其": 7758,
      "查阅": 7759,
      "此项": 7760,
      "沟通": 7761,
      "没收": 7762,
      "温室": 7763,
      "爱的": 7764,
      "物理": 7765,
      "特网": 7766,
      "独特": 7767,
      "电台": 7768,
      "的特别": 7769,
      "的妇女": 7770,
      "的成员": 7771,
      "的共同": 7772,
      "的业务": 7773,
      "知名": 7774,
      "祝贺": 7775,
      "空气": 7776,
      "第19": 7777,
      "签证": 7778,
      "繁荣": 7779,
      "细则": 7780,
      "经社": 7781,
      "经委会": 7782,
      "老年人": 7783,
      "而在": 7784,
      "耳他": 7785,
      "膨胀": 7786,
      "色情": 7787,
      "补偿": 7788,
      "裁谈会": 7789,
      "计量": 7790,
      "让你": 7791,
      "该组织": 7792,
      "说法": 7793,
      "负债": 7794,
      "足以": 7795,
      "辱人": 7796,
      "达黎": 7797,
      "过了": 7798,
      "运送": 7799,
      "迹象": 7800,
      "遵照": 7801,
      "都可以": 7802,
      "铭记": 7803,
      "阅读": 7804,
      "陈述": 7805,
      "马其顿": 7806,
      "马耳他": 7807,
      "骚扰": 7808,
      "高效": 7809,
      "高速": 7810,
      "问题和": 7811,
      "问题是": 7812,
      "政府在": 7813,
      "提供有关": 7814,
      "关于在": 7815,
      "经济合作": 7816,
      "有关的问题": 7817,
      "项目标": 7818,
      "区域和国际": 7819,
      "世界贸易": 7820,
      "必须在": 7821,
      "和平利用": 7822,
      "环境规划署": 7823,
      "中国的": 7824,
      "中国政府": 7825,
      "因为他们": 7826,
      "举行会议": 7827,
      "号决议所设": 7828,
      "获得的": 7829,
      "程序的": 7830,
      "发言人": 7831,
      "预算和": 7832,
      "了一种": 7833,
      "在这里": 7834,
      "消除贫穷": 7835,
      "设立一个": 7836,
      "残疾人权利": 7837,
      "成功的": 7838,
      "批准了": 7839,
      "防止和": 7840,
      "受害人": 7841,
      "审计委员会": 7842,
      "收到的": 7843,
      "首脑会议的": 7844,
      "生物多样性": 7845,
      "青年人": 7846,
      "临时议程": 7847,
      "登记册": 7848,
      "政府间组织": 7849,
      "贩运人口": 7850,
      "第二十二": 7851,
      "建筑物": 7852,
      "补救办法": 7853,
      "朝鲜民主主义": 7854,
      "会计准则": 7855,
      "生殖健康": 7856,
      "发了言": 7857,
      "问题国际法庭": 7858,
      "南南合作": 7859,
      "部队派遣国": 7860,
      "的人道主义": 7861,
      "哥斯达黎": 7862,
      "尼泊尔": 7863,
      "朝鲜民主主义人民共和国": 7864,
      "哥斯达黎加": 7865,
      "\"；": 7866,
      "300": 7867,
      "3号决议": 7868,
      "600": 7869,
      "85": 7870,
      "8月2": 7871,
      "95": 7872,
      "》；": 7873,
      "七条": 7874,
      "上周": 7875,
      "上限": 7876,
      "下一": 7877,
      "下文": 7878,
      "不确定": 7879,
      "不存在": 7880,
      "不一定": 7881,
      "专用": 7882,
      "东盟": 7883,
      "中小": 7884,
      "乌拉圭": 7885,
      "也门": 7886,
      "交叉": 7887,
      "人事": 7888,
      "仔细": 7889,
      "他人": 7890,
      "他对": 7891,
      "以南": 7892,
      "任理事": 7893,
      "住所": 7894,
      "何种": 7895,
      "作业": 7896,
      "使我们": 7897,
      "例外": 7898,
      "修建": 7899,
      "债券": 7900,
      "先前": 7901,
      "克尔": 7902,
      "克拉": 7903,
      "免疫": 7904,
      "入境": 7905,
      "全力": 7906,
      "公园": 7907,
      "六个月": 7908,
      "养护": 7909,
      "分歧": 7910,
      "副秘书长": 7911,
      "加紧": 7912,
      "加纳": 7913,
      "动的": 7914,
      "十五": 7915,
      "半岛": 7916,
      "原料": 7917,
      "参照": 7918,
      "反馈": 7919,
      "各类": 7920,
      "各缔约国": 7921,
      "各代表团": 7922,
      "吉尔": 7923,
      "和人道主义": 7924,
      "哈萨": 7925,
      "回家": 7926,
      "回来": 7927,
      "因特网": 7928,
      "在大会": 7929,
      "在日内瓦": 7930,
      "地说": 7931,
      "坦桑": 7932,
      "型的": 7933,
      "境外": 7934,
      "处的": 7935,
      "备忘": 7936,
      "大气": 7937,
      "太阳": 7938,
      "头发": 7939,
      "将使": 7940,
      "尔德": 7941,
      "岁以下": 7942,
      "常见": 7943,
      "并加强": 7944,
      "广大": 7945,
      "开办": 7946,
      "很好": 7947,
      "很有": 7948,
      "很大的": 7949,
      "必然": 7950,
      "怀孕": 7951,
      "性意见": 7952,
      "或威胁": 7953,
      "所做": 7954,
      "撤离": 7955,
      "斯先生": 7956,
      "新兴": 7957,
      "施工": 7958,
      "早上": 7959,
      "是为": 7960,
      "是不是": 7961,
      "有三": 7962,
      "有机": 7963,
      "有责任": 7964,
      "机遇": 7965,
      "权益": 7966,
      "条草案": 7967,
      "极大": 7968,
      "格兰": 7969,
      "案例": 7970,
      "欺诈": 7971,
      "正义": 7972,
      "段中": 7973,
      "每次": 7974,
      "每个人": 7975,
      "民兵": 7976,
      "沿海": 7977,
      "消极": 7978,
      "消灭": 7979,
      "潜力": 7980,
      "煽动": 7981,
      "现状": 7982,
      "理想": 7983,
      "由联合国": 7984,
      "电力": 7985,
      "的水": 7986,
      "的非": 7987,
      "的需要": 7988,
      "的审议": 7989,
      "的战略": 7990,
      "的条件": 7991,
      "的分析": 7992,
      "的限制": 7993,
      "的目的": 7994,
      "的设计": 7995,
      "监护": 7996,
      "直升": 7997,
      "真相": 7998,
      "矛盾": 7999,
      "种类": 8000,
      "科研": 8001,
      "空中": 8002,
      "第20": 8003,
      "策略": 8004,
      "签名": 8005,
      "统治": 8006,
      "罗姆": 8007,
      "老龄": 8008,
      "自主": 8009,
      "融合": 8010,
      "警告": 8011,
      "议院": 8012,
      "诊断": 8013,
      "说的": 8014,
      "赞助": 8015,
      "走向": 8016,
      "轨道": 8017,
      "载于": 8018,
      "辩护": 8019,
      "还注意到": 8020,
      "这笔": 8021,
      "这意味着": 8022,
      "进度": 8023,
      "适合": 8024,
      "避孕": 8025,
      "金钱": 8026,
      "间的": 8027,
      "页次": 8028,
      "领袖": 8029,
      "验证": 8030,
      "％，": 8031,
      "）；": 8032,
      "委员会将": 8033,
      "联合会": 8034,
      "国际和平与安全": 8035,
      "联合国在": 8036,
      "政府官员": 8037,
      "提供咨询": 8038,
      "社会保护": 8039,
      "通过议程": 8040,
      "所有会员国": 8041,
      "105": 8042,
      "10年": 8043,
      "需要在": 8044,
      "重要性": 8045,
      "支持和": 8046,
      "加强对": 8047,
      "研究和": 8048,
      "成员国的": 8049,
      "建立的": 8050,
      "已经在": 8051,
      "秘书长的报告": 8052,
      "因为它": 8053,
      "非洲发展": 8054,
      "增加到": 8055,
      "提高认识": 8056,
      "文件中": 8057,
      "第一百": 8058,
      "基本上": 8059,
      "了一系列": 8060,
      "生产和": 8061,
      "是否有": 8062,
      "强调指出": 8063,
      "国内法": 8064,
      "关切地注意到": 8065,
      "联邦政府": 8066,
      "设立的": 8067,
      "人们对": 8068,
      "卫生组织": 8069,
      "就业和": 8070,
      "金融机构": 8071,
      "涉及到": 8072,
      "发达国家的": 8073,
      "重点是": 8074,
      "和国际组织": 8075,
      "尤其是在": 8076,
      "之一是": 8077,
      "旨在促进": 8078,
      "年度报告": 8079,
      "1月1日": 8080,
      "效率和": 8081,
      "大规模毁灭性": 8082,
      "常设论坛": 8083,
      "集中在": 8084,
      "排放量": 8085,
      "干预措施": 8086,
      "跨国有组织犯罪": 8087,
      "妇女地位委员会": 8088,
      "为基础的": 8089,
      "最佳做法": 8090,
      "志愿人员": 8091,
      "人居署": 8092,
      "所谓的": 8093,
      "常驻联合国代表": 8094,
      "事态发展": 8095,
      "放射性": 8096,
      "儿基会": 8097,
      "辱人格的": 8098,
      "马其顿共和国": 8099,
      "哈萨克斯坦": 8100,
      "坦桑尼亚": 8101,
      "备忘录": 8102,
      "1个": 8103,
      "120": 8104,
      "3条": 8105,
      "400": 8106,
      "76": 8107,
      "”，": 8108,
      "一件": 8109,
      "一届": 8110,
      "一词": 8111,
      "三届会议": 8112,
      "上了": 8113,
      "下放": 8114,
      "不安": 8115,
      "不对": 8116,
      "不应该": 8117,
      "不知道": 8118,
      "不符合": 8119,
      "东欧": 8120,
      "个别": 8121,
      "中等": 8122,
      "临床": 8123,
      "为何": 8124,
      "为其": 8125,
      "举报": 8126,
      "乌兹": 8127,
      "习俗": 8128,
      "争议": 8129,
      "代价": 8130,
      "以法": 8131,
      "企图": 8132,
      "优化": 8133,
      "会晤": 8134,
      "但在": 8135,
      "余额": 8136,
      "使之": 8137,
      "使团": 8138,
      "使他们": 8139,
      "保密": 8140,
      "信通": 8141,
      "倡导": 8142,
      "倾向": 8143,
      "做好": 8144,
      "储备": 8145,
      "公认": 8146,
      "其余": 8147,
      "其次": 8148,
      "其工作": 8149,
      "冈比亚": 8150,
      "净额": 8151,
      "出售": 8152,
      "分布": 8153,
      "分离": 8154,
      "分之一": 8155,
      "列出": 8156,
      "刚才": 8157,
      "别克斯坦": 8158,
      "制品": 8159,
      "制约": 8160,
      "前的": 8161,
      "加斯": 8162,
      "化和": 8163,
      "区分": 8164,
      "华盛": 8165,
      "单方面": 8166,
      "南苏丹": 8167,
      "受影响": 8168,
      "另有": 8169,
      "可信": 8170,
      "向你": 8171,
      "向其": 8172,
      "吸收": 8173,
      "吸烟": 8174,
      "告知": 8175,
      "和我": 8176,
      "和无": 8177,
      "和人权": 8178,
      "和非政府组织": 8179,
      "咖啡": 8180,
      "哪里": 8181,
      "国会": 8182,
      "在促进": 8183,
      "地上": 8184,
      "塞人": 8185,
      "处决": 8186,
      "复苏": 8187,
      "大脑": 8188,
      "守则": 8189,
      "宗旨": 8190,
      "对我们": 8191,
      "导弹": 8192,
      "小学": 8193,
      "尔多": 8194,
      "展示": 8195,
      "巴巴": 8196,
      "市政": 8197,
      "带有": 8198,
      "带着": 8199,
      "年底": 8200,
      "并通过": 8201,
      "引发": 8202,
      "强有力的": 8203,
      "当你": 8204,
      "总值": 8205,
      "我也": 8206,
      "我知道": 8207,
      "所提供的": 8208,
      "扩展": 8209,
      "报复": 8210,
      "担忧": 8211,
      "捕捞": 8212,
      "据报告": 8213,
      "接待": 8214,
      "提名": 8215,
      "撤销": 8216,
      "支援": 8217,
      "改造": 8218,
      "数学": 8219,
      "文章": 8220,
      "施行": 8221,
      "是的": 8222,
      "是要": 8223,
      "更换": 8224,
      "最多": 8225,
      "有机会": 8226,
      "期的": 8227,
      "本组织的": 8228,
      "机器": 8229,
      "杀伤": 8230,
      "杀害": 8231,
      "村庄": 8232,
      "条文": 8233,
      "条第2款": 8234,
      "某个": 8235,
      "残忍": 8236,
      "每周": 8237,
      "比绍": 8238,
      "流通": 8239,
      "海外": 8240,
      "海岸": 8241,
      "温度": 8242,
      "港口": 8243,
      "激励": 8244,
      "爆发": 8245,
      "物资": 8246,
      "特定的": 8247,
      "由此": 8248,
      "的事": 8249,
      "的和": 8250,
      "的外": 8251,
      "的会议": 8252,
      "的执行": 8253,
      "的保护": 8254,
      "的有效": 8255,
      "的讨论": 8256,
      "的参与": 8257,
      "的市场": 8258,
      "的适当": 8259,
      "的承诺": 8260,
      "的变化": 8261,
      "的认识": 8262,
      "的综合": 8263,
      "的结构": 8264,
      "的精神": 8265,
      "的补充": 8266,
      "的数量": 8267,
      "真诚": 8268,
      "礼物": 8269,
      "福祉": 8270,
      "第199": 8271,
      "等问题": 8272,
      "简报": 8273,
      "纪律": 8274,
      "终了": 8275,
      "绿色": 8276,
      "编列": 8277,
      "缩小": 8278,
      "能否": 8279,
      "被剥夺": 8280,
      "警务": 8281,
      "让人": 8282,
      "论文": 8283,
      "诉诸": 8284,
      "该法": 8285,
      "该公司": 8286,
      "负责任": 8287,
      "资讯": 8288,
      "超越": 8289,
      "身上": 8290,
      "身边": 8291,
      "转交": 8292,
      "辅助": 8293,
      "边缘": 8294,
      "迁移": 8295,
      "还必须": 8296,
      "还指出": 8297,
      "那就是": 8298,
      "酋长": 8299,
      "铁路": 8300,
      "队伍": 8301,
      "附近": 8302,
      "限度": 8303,
      "面积": 8304,
      "首都": 8305,
      "马达": 8306,
      "驾驶": 8307,
      "高于": 8308,
      "高等": 8309,
      "麻醉": 8310,
      "国家元首": 8311,
      "问题工作组": 8312,
      "我们可以": 8313,
      "我们希望": 8314,
      "我们应该": 8315,
      "提供支持": 8316,
      "提供服务": 8317,
      "提供支助": 8318,
      "他们对": 8319,
      "妇女权利": 8320,
      "1990": 8321,
      "这一目标": 8322,
      "服务中心": 8323,
      "采取的措施": 8324,
      "决定将": 8325,
      "加强联合国": 8326,
      "研究报告": 8327,
      "主要是": 8328,
      "的人们": 8329,
      "协调一致": 8330,
      "提交了": 8331,
      "获得通过": 8332,
      "贸易和发展": 8333,
      "方法和": 8334,
      "同时也": 8335,
      "许多人": 8336,
      "取得成功": 8337,
      "发展中国家和": 8338,
      "必要时": 8339,
      "必要措施": 8340,
      "制定了": 8341,
      "发生了": 8342,
      "分析和": 8343,
      "阿拉伯联合": 8344,
      "恐怖分子": 8345,
      "非常重要": 8346,
      "积极参与": 8347,
      "第52": 8348,
      "第56": 8349,
      "正式语文": 8350,
      "卫生部": 8351,
      "观察团": 8352,
      "核武器国家": 8353,
      "科学家": 8354,
      "收到了": 8355,
      "只有在": 8356,
      "价值观": 8357,
      "程度的": 8358,
      "1988年": 8359,
      "专门机构": 8360,
      "生物多样": 8361,
      "人类住区": 8362,
      "结论性意见": 8363,
      "医疗保健": 8364,
      "经费的": 8365,
      "构成部分": 8366,
      "统计数据": 8367,
      "电子邮件": 8368,
      "该国政府": 8369,
      "回顾其": 8370,
      "维持和平特派团": 8371,
      "的最新": 8372,
      "成本效益": 8373,
      "历史上": 8374,
      "最不发达国家的": 8375,
      "今后的": 8376,
      "筹备工作": 8377,
      "密切合作": 8378,
      "检察长": 8379,
      "另一方面": 8380,
      "第七十": 8381,
      "引起的": 8382,
      "启动了": 8383,
      "实验室": 8384,
      "救济工程处": 8385,
      "几内亚比绍": 8386,
      "常规武器": 8387,
      "社会和文化权利": 8388,
      "中非共和国": 8389,
      "指挥官": 8390,
      "包容性": 8391,
      "弱势群体": 8392,
      "毛里塔尼亚": 8393,
      "玻利维亚": 8394,
      "传染病": 8395,
      "消除对妇女一切形式": 8396,
      "补助金": 8397,
      "公共部门会计准则": 8398,
      "重返社会": 8399,
      "在这种情况下": 8400,
      "温室气体": 8401,
      "世界贸易组织": 8402,
      "乌兹别克斯坦": 8403,
      "华盛顿": 8404,
      "酋长国": 8405,
      "消除对妇女一切形式歧视公约": 8406,
      "112": 8407,
      "6条": 8408,
      "86": 8409,
      "91": 8410,
      "92": 8411,
      "··": 8412,
      "一再": 8413,
      "不起": 8414,
      "不需要": 8415,
      "中部": 8416,
      "中小型": 8417,
      "为该": 8418,
      "为确保": 8419,
      "为依据": 8420,
      "乍得": 8421,
      "也将": 8422,
      "也不是": 8423,
      "于2002年": 8424,
      "于2000年": 8425,
      "人生": 8426,
      "仇外": 8427,
      "代码": 8428,
      "以为": 8429,
      "信用": 8430,
      "假如": 8431,
      "健全": 8432,
      "僵局": 8433,
      "先决": 8434,
      "出境": 8435,
      "列的": 8436,
      "列表": 8437,
      "利润": 8438,
      "制的": 8439,
      "力求": 8440,
      "加大": 8441,
      "加深": 8442,
      "动员": 8443,
      "博士": 8444,
      "参观": 8445,
      "及太平洋": 8446,
      "发送": 8447,
      "取代": 8448,
      "句话": 8449,
      "另一项": 8450,
      "司长": 8451,
      "合适": 8452,
      "名为": 8453,
      "名称": 8454,
      "和多": 8455,
      "和有": 8456,
      "和地方": 8457,
      "和其它": 8458,
      "四届会议": 8459,
      "困境": 8460,
      "国王": 8461,
      "在家": 8462,
      "士兵": 8463,
      "多元": 8464,
      "多斯": 8465,
      "奠定": 8466,
      "奥运": 8467,
      "子上": 8468,
      "安置": 8469,
      "定位": 8470,
      "定罪": 8471,
      "实用": 8472,
      "害怕": 8473,
      "家园": 8474,
      "对我": 8475,
      "对抗": 8476,
      "导航": 8477,
      "寿命": 8478,
      "尔瓦": 8479,
      "尼加拉": 8480,
      "局长": 8481,
      "层次": 8482,
      "届会": 8483,
      "工艺": 8484,
      "已采取": 8485,
      "已成为": 8486,
      "布拉": 8487,
      "布雷": 8488,
      "常会": 8489,
      "干涉": 8490,
      "并建议": 8491,
      "并鼓励": 8492,
      "并重申": 8493,
      "并将其": 8494,
      "应以": 8495,
      "应由": 8496,
      "建造": 8497,
      "开会": 8498,
      "引入": 8499,
      "当作": 8500,
      "征求": 8501,
      "得出的": 8502,
      "总务": 8503,
      "总干事": 8504,
      "意图": 8505,
      "慷慨": 8506,
      "我从": 8507,
      "我会": 8508,
      "我和": 8509,
      "我能": 8510,
      "我已经": 8511,
      "我希望": 8512,
      "扩张": 8513,
      "指定的": 8514,
      "振兴": 8515,
      "捍卫": 8516,
      "接着": 8517,
      "提倡": 8518,
      "提起": 8519,
      "摩尔多": 8520,
      "敌对": 8521,
      "文字": 8522,
      "文档": 8523,
      "施加": 8524,
      "旋转": 8525,
      "是以": 8526,
      "是很": 8527,
      "是我": 8528,
      "是最": 8529,
      "更改": 8530,
      "更高": 8531,
      "更广泛的": 8532,
      "有待": 8533,
      "服装": 8534,
      "本质": 8535,
      "林业": 8536,
      "标志": 8537,
      "格林": 8538,
      "模拟": 8539,
      "款的": 8540,
      "此时": 8541,
      "每日": 8542,
      "每月": 8543,
      "求斯": 8544,
      "汇编": 8545,
      "清理": 8546,
      "照片": 8547,
      "牵头": 8548,
      "特使": 8549,
      "犹太": 8550,
      "环保": 8551,
      "现已": 8552,
      "疟疾": 8553,
      "癌症": 8554,
      "百万": 8555,
      "的公": 8556,
      "的组织": 8557,
      "的计划": 8558,
      "的地区": 8559,
      "的相关": 8560,
      "的代表团": 8561,
      "的第一": 8562,
      "的投资": 8563,
      "的文化": 8564,
      "的个人": 8565,
      "的过程": 8566,
      "的威胁": 8567,
      "的成功": 8568,
      "的请求": 8569,
      "的价格": 8570,
      "的学生": 8571,
      "的关键": 8572,
      "的背景": 8573,
      "监视": 8574,
      "看出": 8575,
      "租赁": 8576,
      "空白": 8577,
      "穿过": 8578,
      "等级": 8579,
      "算法": 8580,
      "约有": 8581,
      "级别": 8582,
      "纳米": 8583,
      "结盟": 8584,
      "给秘书长": 8585,
      "缓解": 8586,
      "网上": 8587,
      "胜利": 8588,
      "能量": 8589,
      "脂肪": 8590,
      "花费": 8591,
      "草坪": 8592,
      "薪酬": 8593,
      "蛋白": 8594,
      "论点": 8595,
      "设在": 8596,
      "该报告": 8597,
      "谅解": 8598,
      "谋杀": 8599,
      "谢谢": 8600,
      "赤道": 8601,
      "辐射": 8602,
      "运载": 8603,
      "还要": 8604,
      "追求": 8605,
      "通货": 8606,
      "遗产": 8607,
      "遗传": 8608,
      "邮政": 8609,
      "都不": 8610,
      "都要": 8611,
      "采访": 8612,
      "长时间": 8613,
      "阿布": 8614,
      "集会": 8615,
      "震惊": 8616,
      "革命": 8617,
      "韩国": 8618,
      "？”": 8619,
      "国家对": 8620,
      "委员会欢迎": 8621,
      "国际刑事法院": 8622,
      "联合国预防犯罪和刑事司法": 8623,
      "我们要": 8624,
      "提供关于": 8625,
      "方面取得的进展": 8626,
      "社会服务": 8627,
      "包括对": 8628,
      "所有其他": 8629,
      "10个": 8630,
      "代表性": 8631,
      "有关国家": 8632,
      "合作和": 8633,
      "1992": 8634,
      "大会和": 8635,
      "大会在": 8636,
      "大会第6": 8637,
      "大会第4": 8638,
      "115": 8639,
      "技术的": 8640,
      "区域的": 8641,
      "世界人权": 8642,
      "支持的": 8643,
      "服务和": 8644,
      "提出建议": 8645,
      "研究的": 8646,
      "任何人": 8647,
      "这种做法": 8648,
      "缔约国应": 8649,
      "信息社会": 8650,
      "信息系统": 8651,
      "人民政府": 8652,
      "开展合作": 8653,
      "有效执行": 8654,
      "非洲人": 8655,
      "解决冲突": 8656,
      "培训班": 8657,
      "中的作用": 8658,
      "贸易和": 8659,
      "美国人": 8660,
      "能够在": 8661,
      "标准化": 8662,
      "机制的": 8663,
      "条约机构": 8664,
      "专家会议": 8665,
      "投资的": 8666,
      "自由化": 8667,
      "工作人员和": 8668,
      "生产的": 8669,
      "生产总值": 8670,
      "确定了": 8671,
      "可持续性": 8672,
      "以便在": 8673,
      "先生阁下": 8674,
      "难民事务": 8675,
      "以色列的": 8676,
      "设施和": 8677,
      "第三次": 8678,
      "第21": 8679,
      "军事观察员": 8680,
      "第十八": 8681,
      "巴勒斯坦人": 8682,
      "巴勒斯坦领土": 8683,
      "出现的": 8684,
      "知识和": 8685,
      "一般事务": 8686,
      "000名": 8687,
      "履行机构": 8688,
      "第31": 8689,
      "内部监督": 8690,
      "指导原则": 8691,
      "加入了": 8692,
      "农业发展": 8693,
      "准备金": 8694,
      "专业人员": 8695,
      "第六条": 8696,
      "孩子们": 8697,
      "外交部长": 8698,
      "海洋法": 8699,
      "传统的": 8700,
      "最高法院": 8701,
      "反映了": 8702,
      "有限公司": 8703,
      "发表的": 8704,
      "所作的": 8705,
      "索赔人": 8706,
      "类似的": 8707,
      "亚洲及太平洋": 8708,
      "在此方面": 8709,
      "地雷行动": 8710,
      "强迫失踪": 8711,
      "77国集团": 8712,
      "年轻人": 8713,
      "达尔富尔混合": 8714,
      "监察员": 8715,
      "2015年后": 8716,
      "毫无疑问": 8717,
      "外勤支助": 8718,
      "亚太经社会": 8719,
      "文职人员": 8720,
      "转型期": 8721,
      "劳动力市场": 8722,
      "董事会": 8723,
      "暴力侵害妇女": 8724,
      "承包商": 8725,
      "撒哈拉以南": 8726,
      "言论自由": 8727,
      "侧重于": 8728,
      "自决权": 8729,
      "近东救济工程处": 8730,
      "绩效指标": 8731,
      "东道国": 8732,
      "托克劳": 8733,
      "裁军谈判会议": 8734,
      "养老金": 8735,
      "号决议所设委员会": 8736,
      "残疾人权利公约": 8737,
      "直升机": 8738,
      "巴巴多斯": 8739,
      "阿拉伯联合酋长国": 8740,
      "中小型企业": 8741,
      "先决条件": 8742,
      "尼加拉瓜": 8743,
      "摩尔多瓦": 8744,
      "0万美元": 8745,
      "119": 8746,
      "5号": 8747,
      "5条": 8748,
      "600美元": 8749,
      "79": 8750,
      "8号决议": 8751,
      "……": 8752,
      "一半": 8753,
      "一国": 8754,
      "一套": 8755,
      "万人": 8756,
      "三名": 8757,
      "上班": 8758,
      "上面": 8759,
      "下了": 8760,
      "下述": 8761,
      "不了": 8762,
      "不人道": 8763,
      "专利": 8764,
      "东京": 8765,
      "个体": 8766,
      "中最": 8767,
      "丽的": 8768,
      "也就": 8769,
      "也应": 8770,
      "也必须": 8771,
      "也就是": 8772,
      "书记": 8773,
      "了吗": 8774,
      "了这一": 8775,
      "争论": 8776,
      "于2005年": 8777,
      "五个": 8778,
      "五届会议": 8779,
      "交付": 8780,
      "他认为": 8781,
      "他表示": 8782,
      "以供": 8783,
      "任用": 8784,
      "份额": 8785,
      "休息": 8786,
      "会期间": 8787,
      "伯利": 8788,
      "但不": 8789,
      "住宿": 8790,
      "体罚": 8791,
      "何时": 8792,
      "你不": 8793,
      "你有": 8794,
      "你说": 8795,
      "使人": 8796,
      "使命": 8797,
      "侵略": 8798,
      "停车": 8799,
      "充满": 8800,
      "党派": 8801,
      "入侵": 8802,
      "全民": 8803,
      "关押": 8804,
      "关联": 8805,
      "其在": 8806,
      "其对": 8807,
      "准许": 8808,
      "函数": 8809,
      "分组": 8810,
      "列为": 8811,
      "别的": 8812,
      "到的": 8813,
      "前提": 8814,
      "北极": 8815,
      "危及": 8816,
      "去看": 8817,
      "双重": 8818,
      "可再生": 8819,
      "合成": 8820,
      "吉斯": 8821,
      "含量": 8822,
      "呼吸": 8823,
      "和报告": 8824,
      "和政治": 8825,
      "和秘书处": 8826,
      "和分析": 8827,
      "和重新": 8828,
      "咨商": 8829,
      "哈根": 8830,
      "哥本": 8831,
      "商店": 8832,
      "器和": 8833,
      "回返": 8834,
      "围绕": 8835,
      "土库": 8836,
      "在你": 8837,
      "在新": 8838,
      "在线": 8839,
      "在关于": 8840,
      "在中国": 8841,
      "在2009年": 8842,
      "在全国": 8843,
      "基伍": 8844,
      "基督": 8845,
      "基纳": 8846,
      "塔吉": 8847,
      "境内的": 8848,
      "处以": 8849,
      "处置": 8850,
      "多次": 8851,
      "大众": 8852,
      "天空": 8853,
      "女人": 8854,
      "她在": 8855,
      "好像": 8856,
      "妥善": 8857,
      "姑娘": 8858,
      "孕产妇": 8859,
      "存储": 8860,
      "家长": 8861,
      "对在": 8862,
      "对策": 8863,
      "将有助于": 8864,
      "少女": 8865,
      "工厂": 8866,
      "已开始": 8867,
      "市的": 8868,
      "席位": 8869,
      "并于": 8870,
      "并应": 8871,
      "并指出": 8872,
      "并强调": 8873,
      "并呼吁": 8874,
      "应将": 8875,
      "引导": 8876,
      "形象": 8877,
      "心里": 8878,
      "怎样": 8879,
      "恐吓": 8880,
      "情绪": 8881,
      "成年": 8882,
      "成的": 8883,
      "我对": 8884,
      "我可以": 8885,
      "所规定的": 8886,
      "把它": 8887,
      "披露": 8888,
      "拖欠": 8889,
      "指数": 8890,
      "摧毁": 8891,
      "收费": 8892,
      "斯科": 8893,
      "无关": 8894,
      "无效": 8895,
      "无线": 8896,
      "既定": 8897,
      "是通过": 8898,
      "是根据": 8899,
      "暂时": 8900,
      "更容易": 8901,
      "曼斯坦": 8902,
      "有几": 8903,
      "有力": 8904,
      "有罪": 8905,
      "本着": 8906,
      "条和": 8907,
      "条的": 8908,
      "某人": 8909,
      "校园": 8910,
      "核实": 8911,
      "核裁军": 8912,
      "案情": 8913,
      "检验": 8914,
      "比额": 8915,
      "民用": 8916,
      "沙漠": 8917,
      "津巴布": 8918,
      "测定": 8919,
      "海军": 8920,
      "消失": 8921,
      "深刻": 8922,
      "清洗": 8923,
      "游泳": 8924,
      "熟悉": 8925,
      "用了": 8926,
      "由国家": 8927,
      "的联合": 8928,
      "的预算": 8929,
      "的许多": 8930,
      "的机制": 8931,
      "的支助": 8932,
      "的不同": 8933,
      "的歧视": 8934,
      "的费用": 8935,
      "的实际": 8936,
      "的选择": 8937,
      "的权力": 8938,
      "的证据": 8939,
      "的唯一": 8940,
      "的总体": 8941,
      "皮肤": 8942,
      "直至": 8943,
      "看上去": 8944,
      "着眼": 8945,
      "睡觉": 8946,
      "离职": 8947,
      "私有": 8948,
      "租金": 8949,
      "立方": 8950,
      "紧密": 8951,
      "纠纷": 8952,
      "纲要": 8953,
      "终于": 8954,
      "结核": 8955,
      "罪犯": 8956,
      "群众": 8957,
      "脱离": 8958,
      "自卫": 8959,
      "花园": 8960,
      "著名": 8961,
      "薪资": 8962,
      "行李": 8963,
      "被占领": 8964,
      "西方": 8965,
      "西部": 8966,
      "要么": 8967,
      "要做": 8968,
      "见了": 8969,
      "见附件": 8970,
      "观测": 8971,
      "认定": 8972,
      "证件": 8973,
      "识字": 8974,
      "调节": 8975,
      "谈到": 8976,
      "谈论": 8977,
      "负有": 8978,
      "赢得": 8979,
      "跨界": 8980,
      "输入": 8981,
      "过于": 8982,
      "近期": 8983,
      "还包括": 8984,
      "还需要": 8985,
      "这家": 8986,
      "这条": 8987,
      "这方面": 8988,
      "远程": 8989,
      "违法": 8990,
      "违背": 8991,
      "退化": 8992,
      "邮票": 8993,
      "都没有": 8994,
      "都必须": 8995,
      "配置": 8996,
      "野生": 8997,
      "量的": 8998,
      "锻炼": 8999,
      "防护": 9000,
      "阶层": 9001,
      "阿卜": 9002,
      "随时": 9003,
      "雇佣": 9004,
      "高质量": 9005,
      "鼓舞": 9006,
      "国家工作队": 9007,
      "委员会请": 9008,
      "委员会关于": 9009,
      "委员会的工作": 9010,
      "会议厅": 9011,
      "发展筹资": 9012,
      "我们需要": 9013,
      "报告称": 9014,
      "提供给": 9015,
      "以及国际": 9016,
      "进行合作": 9017,
      "这些活动": 9018,
      "这些措施": 9019,
      "所有各方": 9020,
      "101": 9021,
      "经济委员会": 9022,
      "人员地雷": 9023,
      "没有什么": 9024,
      "人权问题": 9025,
      "活动中": 9026,
      "1996": 9027,
      "大会第五十": 9028,
      "116": 9029,
      "区域组织": 9030,
      "儿童保护": 9031,
      "儿童卖淫": 9032,
      "管理的": 9033,
      "管理部门": 9034,
      "这一问题的": 9035,
      "服务提供": 9036,
      "法律框架": 9037,
      "根据其": 9038,
      "决定的": 9039,
      "使用核武器": 9040,
      "促进和保护": 9041,
      "一些人": 9042,
      "能力的": 9043,
      "目标的": 9044,
      "环境和": 9045,
      "环境基金": 9046,
      "信息通报": 9047,
      "人民币": 9048,
      "人民法院": 9049,
      "全球经济": 9050,
      "共和国和": 9051,
      "共和国总统": 9052,
      "实现了": 9053,
      "实现这些目标": 9054,
      "援助团": 9055,
      "协调和": 9056,
      "协调委员会": 9057,
      "提交报告": 9058,
      "参与了": 9059,
      "获得了": 9060,
      "作出努力": 9061,
      "作出贡献": 9062,
      "犯罪的": 9063,
      "事务处": 9064,
      "第二天": 9065,
      "行政首长": 9066,
      "具有法律": 9067,
      "人口贩运": 9068,
      "开始了": 9069,
      "开始的": 9070,
      "自由贸易": 9071,
      "基本权利": 9072,
      "司法部": 9073,
      "司法系统": 9074,
      "条件下": 9075,
      "减少了": 9076,
      "开发银行": 9077,
      "生活津贴": 9078,
      "进程中": 9079,
      "充分利用": 9080,
      "企业家": 9081,
      "公共卫生": 9082,
      "阿拉伯利比亚": 9083,
      "国内生产总值": 9084,
      "产生了": 9085,
      "第22": 9086,
      "第57": 9087,
      "第59": 9088,
      "更多地": 9089,
      "性别问题": 9090,
      "第十届": 9091,
      "就业机会": 9092,
      "金融危机": 9093,
      "某些国家": 9094,
      "残疾儿童": 9095,
      "采用了": 9096,
      "安理会成员": 9097,
      "星期三": 9098,
      "材料的": 9099,
      "经验和": 9100,
      "结束后": 9101,
      "结束时": 9102,
      "第49": 9103,
      "竞争力": 9104,
      "粮食及": 9105,
      "1987年": 9106,
      "的一个重要": 9107,
      "宣言和": 9108,
      "第四次": 9109,
      "结论和建议": 9110,
      "反对派": 9111,
      "面临着": 9112,
      "面临的挑战": 9113,
      "显示出": 9114,
      "达成一致": 9115,
      "检查专员": 9116,
      "基于性别": 9117,
      "交易所": 9118,
      "联合国系统各": 9119,
      "举办的": 9120,
      "执行情况的": 9121,
      "大量的": 9122,
      "成立了": 9123,
      "解释性": 9124,
      "外国直接投资": 9125,
      "修订的": 9126,
      "境内流离失所者": 9127,
      "组织和非政府组织": 9128,
      "森林管理": 9129,
      "筹备会议": 9130,
      "性质和": 9131,
      "所作的努力": 9132,
      "复杂的": 9133,
      "委员会还建议": 9134,
      "决策者": 9135,
      "所载的": 9136,
      "污染物": 9137,
      "妇女和女童": 9138,
      "制造业": 9139,
      "脆弱性": 9140,
      "公正和": 9141,
      "不扩散核武器": 9142,
      "现代化": 9143,
      "着重指出": 9144,
      "失业率": 9145,
      "出版物": 9146,
      "良好做法": 9147,
      "人权事务委员会": 9148,
      "强制执行": 9149,
      "人权和基本自由": 9150,
      "殖民地": 9151,
      "相应的": 9152,
      "减贫战略": 9153,
      "委内瑞拉玻利": 9154,
      "毛里求斯": 9155,
      "被认为是": 9156,
      "隔离墙": 9157,
      "养恤金": 9158,
      "1949年": 9159,
      "当今世界": 9160,
      "灵活性": 9161,
      "马尔代": 9162,
      "第十四条": 9163,
      "联塞部队": 9164,
      "被占领土": 9165,
      "下午3时": 9166,
      "和儿童色情": 9167,
      "迫切需要": 9168,
      "或有辱人格的": 9169,
      "欧安组织": 9170,
      "联刚特派团": 9171,
      "公民权利和政治权利国际公约": 9172,
      "小武器和轻武器": 9173,
      "中小企业": 9174,
      "任理事国": 9175,
      "杀伤人员地雷": 9176,
      "通货膨胀": 9177,
      "世界人权宣言": 9178,
      "哥本哈根": 9179,
      "土库曼斯坦": 9180,
      "津巴布韦": 9181,
      "委内瑞拉玻利瓦尔": 9182,
      "**": 9183,
      "01": 9184,
      "1名": 9185,
      "110": 9186,
      "3日至": 9187,
      "69": 9188,
      "6日至": 9189,
      "7个": 9190,
      "700美元": 9191,
      "81": 9192,
      "800": 9193,
      "9个": 9194,
      "一九": 9195,
      "一家": 9196,
      "一张": 9197,
      "七个": 9198,
      "三项": 9199,
      "下一个": 9200,
      "下来的": 9201,
      "不予": 9202,
      "不太": 9203,
      "不容": 9204,
      "不想": 9205,
      "与他": 9206,
      "东耶路撒冷": 9207,
      "东南亚": 9208,
      "中欧": 9209,
      "为联合国": 9210,
      "为加强": 9211,
      "之内": 9212,
      "之时": 9213,
      "乐部": 9214,
      "了与": 9215,
      "事宜": 9216,
      "于2011年": 9217,
      "互补": 9218,
      "五十": 9219,
      "人才": 9220,
      "人物": 9221,
      "人群": 9222,
      "人身": 9223,
      "人人都": 9224,
      "今日": 9225,
      "以支持": 9226,
      "会期": 9227,
      "伤亡": 9228,
      "但仍": 9229,
      "但却": 9230,
      "但它": 9231,
      "但这": 9232,
      "体面": 9233,
      "使他": 9234,
      "信号": 9235,
      "修复": 9236,
      "俱乐部": 9237,
      "借款": 9238,
      "债权": 9239,
      "克斯": 9240,
      "免受": 9241,
      "全系统": 9242,
      "关闭": 9243,
      "兴奋": 9244,
      "内罗": 9245,
      "冰岛": 9246,
      "冲击": 9247,
      "冻结": 9248,
      "减免": 9249,
      "几天": 9250,
      "出发": 9251,
      "分割": 9252,
      "分裂": 9253,
      "刚刚": 9254,
      "剂量": 9255,
      "前景": 9256,
      "力度": 9257,
      "办理": 9258,
      "北草坪": 9259,
      "匹克": 9260,
      "区内": 9261,
      "医务": 9262,
      "医学": 9263,
      "医药": 9264,
      "半年": 9265,
      "单元": 9266,
      "南极": 9267,
      "原始": 9268,
      "去做": 9269,
      "友谊": 9270,
      "叛乱": 9271,
      "古老": 9272,
      "可行的": 9273,
      "台湾": 9274,
      "同性恋": 9275,
      "后面": 9276,
      "向联合国": 9277,
      "听说": 9278,
      "吸取": 9279,
      "和水": 9280,
      "和政策": 9281,
      "和中国": 9282,
      "和贸易": 9283,
      "和业务": 9284,
      "和社区": 9285,
      "和精神": 9286,
      "和电子": 9287,
      "和维护": 9288,
      "品牌": 9289,
      "品质": 9290,
      "哈马": 9291,
      "啤酒": 9292,
      "圆桌": 9293,
      "在前": 9294,
      "在同": 9295,
      "地狱": 9296,
      "均等": 9297,
      "坚实": 9298,
      "城乡": 9299,
      "塞族": 9300,
      "外汇": 9301,
      "多名": 9302,
      "多地": 9303,
      "多项": 9304,
      "大小": 9305,
      "大批": 9306,
      "大赦": 9307,
      "大会议": 9308,
      "天堂": 9309,
      "奥斯": 9310,
      "奴隶": 9311,
      "如同": 9312,
      "委托": 9313,
      "嫌疑": 9314,
      "宇宙": 9315,
      "实在": 9316,
      "实物": 9317,
      "对他": 9318,
      "对中国": 9319,
      "将为": 9320,
      "将军": 9321,
      "将提供": 9322,
      "尔斯": 9323,
      "就可以": 9324,
      "尽力": 9325,
      "巡逻": 9326,
      "巴塞尔": 9327,
      "布什": 9328,
      "布尔": 9329,
      "布罗": 9330,
      "布鲁": 9331,
      "布基纳": 9332,
      "幼儿": 9333,
      "应收": 9334,
      "底部": 9335,
      "开设": 9336,
      "弃权": 9337,
      "强加": 9338,
      "形态": 9339,
      "形的": 9340,
      "很可能": 9341,
      "很高兴": 9342,
      "徒刑": 9343,
      "必不可": 9344,
      "性剥削": 9345,
      "恰当": 9346,
      "想象": 9347,
      "愉快": 9348,
      "感受": 9349,
      "成熟": 9350,
      "我觉得": 9351,
      "或其": 9352,
      "或处罚": 9353,
      "截止": 9354,
      "房舍": 9355,
      "所通过的": 9356,
      "手中": 9357,
      "手指": 9358,
      "托管": 9359,
      "把这些": 9360,
      "报导": 9361,
      "据报": 9362,
      "据称": 9363,
      "接纳": 9364,
      "援引": 9365,
      "改为": 9366,
      "救助": 9367,
      "救灾": 9368,
      "族塞人": 9369,
      "无可": 9370,
      "无疑": 9371,
      "时30": 9372,
      "明的": 9373,
      "是可以": 9374,
      "是非常": 9375,
      "显得": 9376,
      "普查": 9377,
      "最为": 9378,
      "有个": 9379,
      "未经": 9380,
      "未成年人": 9381,
      "林匹克": 9382,
      "枪支": 9383,
      "根源": 9384,
      "此前": 9385,
      "水和": 9386,
      "沃尔": 9387,
      "河流": 9388,
      "法典": 9389,
      "法索": 9390,
      "法语": 9391,
      "法委员会": 9392,
      "波动": 9393,
      "洪都": 9394,
      "涉嫌": 9395,
      "清晰": 9396,
      "热带": 9397,
      "爱情": 9398,
      "物种": 9399,
      "生计": 9400,
      "生长": 9401,
      "申明": 9402,
      "界限": 9403,
      "留在": 9404,
      "病例": 9405,
      "病的": 9406,
      "百万美元": 9407,
      "的和平": 9408,
      "的教育": 9409,
      "的领域": 9410,
      "的自由": 9411,
      "的调查": 9412,
      "的家庭": 9413,
      "的会员国": 9414,
      "的全面": 9415,
      "的控制": 9416,
      "的协定": 9417,
      "的状况": 9418,
      "的长期": 9419,
      "的土地": 9420,
      "的申请": 9421,
      "的特殊": 9422,
      "的核心": 9423,
      "的合法": 9424,
      "的平均": 9425,
      "的立场": 9426,
      "的可靠": 9427,
      "的看法": 9428,
      "的裁决": 9429,
      "的马其顿共和国": 9430,
      "看着": 9431,
      "矿产": 9432,
      "确信": 9433,
      "禁运": 9434,
      "税收": 9435,
      "精确": 9436,
      "经纪": 9437,
      "维尔": 9438,
      "缩短": 9439,
      "罕默": 9440,
      "置于": 9441,
      "联科": 9442,
      "自主权": 9443,
      "臭氧": 9444,
      "至今": 9445,
      "节省": 9446,
      "行径": 9447,
      "街头": 9448,
      "要想": 9449,
      "认捐": 9450,
      "让她": 9451,
      "设想": 9452,
      "识别": 9453,
      "请将": 9454,
      "财富": 9455,
      "路上": 9456,
      "转化": 9457,
      "转换": 9458,
      "还不": 9459,
      "进去": 9460,
      "远远": 9461,
      "迫使": 9462,
      "追溯": 9463,
      "选出": 9464,
      "通道": 9465,
      "那天": 9466,
      "配备": 9467,
      "配额": 9468,
      "采纳": 9469,
      "里斯": 9470,
      "长度": 9471,
      "阿比": 9472,
      "非索": 9473,
      "非公开": 9474,
      "项下": 9475,
      "顾客": 9476,
      "马上": 9477,
      "马德里": 9478,
      "鱼类": 9479,
      "黑山": 9480,
      "201": 9481,
      "国家安全": 9482,
      "工作地点": 9483,
      "国际会议": 9484,
      "2003": 9485,
      "200美元": 9486,
      "联合国儿童基金会": 9487,
      "组织结构": 9488,
      "我们已经": 9489,
      "报告和": 9490,
      "提供技术援助": 9491,
      "以及与": 9492,
      "社会保障": 9493,
      "进行调查": 9494,
      "通过对": 9495,
      "通过国家": 9496,
      "机构在": 9497,
      "106": 9498,
      "109": 9499,
      "特别法庭": 9500,
      "经济的": 9501,
      "有关决议": 9502,
      "妇女署": 9503,
      "区域合作": 9504,
      "区域办事处": 9505,
      "管理人员": 9506,
      "世界粮食计划署": 9507,
      "法律文书": 9508,
      "提出报告": 9509,
      "根据安全理事会": 9510,
      "决定在": 9511,
      "使用或威胁": 9512,
      "和平协定": 9513,
      "一些代表团": 9514,
      "教育部": 9515,
      "确保其": 9516,
      "确保所有": 9517,
      "主要的": 9518,
      "建立了一个": 9519,
      "建立信任": 9520,
      "实现千年发展目标": 9521,
      "130": 9522,
      "领域中": 9523,
      "讨论的": 9524,
      "实施了": 9525,
      "培训方案": 9526,
      "程序和": 9527,
      "时间表": 9528,
      "美国的": 9529,
      "而且还": 9530,
      "小组讨论": 9531,
      "标准和": 9532,
      "同时考虑到": 9533,
      "文件的": 9534,
      "预算外": 9535,
      "预算问题": 9536,
      "意见和": 9537,
      "基本建设": 9538,
      "确定的": 9539,
      "草案的": 9540,
      "原则和": 9541,
      "文化的": 9542,
      "文化财产": 9543,
      "存在着": 9544,
      "地方政府": 9545,
      "难民专员": 9546,
      "高级官员": 9547,
      "范围内的": 9548,
      "和其他残忍": 9549,
      "0年代": 9550,
      "咨询小组": 9551,
      "咨询意见": 9552,
      "消除种族歧视": 9553,
      "各项建议": 9554,
      "预防犯罪": 9555,
      "第24": 9556,
      "第51": 9557,
      "第五次": 9558,
      "第60": 9559,
      "第63": 9560,
      "增长率": 9561,
      "银行账户": 9562,
      "星期四": 9563,
      "出现了": 9564,
      "产品的": 9565,
      "这项工作": 9566,
      "这项建议": 9567,
      "有关的活动": 9568,
      "第40": 9569,
      "警察部队": 9570,
      "第34": 9571,
      "之间的关系": 9572,
      "案件的": 9573,
      "财务条例": 9574,
      "农业组织": 9575,
      "裁军审议": 9576,
      "提供的资料": 9577,
      "打击跨国有组织犯罪": 9578,
      "9月11日": 9579,
      "达成共识": 9580,
      "可持续发展问题": 9581,
      "宗教和": 9582,
      "的最低": 9583,
      "的最大": 9584,
      "捐助国": 9585,
      "捐助方": 9586,
      "职业培训": 9587,
      "召开的": 9588,
      "和技术援助": 9589,
      "预期成果": 9590,
      "预期成绩": 9591,
      "移徙者": 9592,
      "提案国": 9593,
      "土著人民权利": 9594,
      "对其进行": 9595,
      "明显的": 9596,
      "的任务是": 9597,
      "强迫劳动": 9598,
      "自治区": 9599,
      "分发给": 9600,
      "刑法典": 9601,
      "百分之": 9602,
      "货币基金": 9603,
      "唯一的": 9604,
      "这么做": 9605,
      "人权事务高级专员办事处": 9606,
      "维持和平行动部": 9607,
      "外地办事处": 9608,
      "清楚地": 9609,
      "清洁发展": 9610,
      "无核武器区": 9611,
      "的前提": 9612,
      "买卖儿童": 9613,
      "蒙特雷": 9614,
      "阿拉伯国家联盟": 9615,
      "天然气": 9616,
      "和平利用外层空间": 9617,
      "坦桑尼亚联合": 9618,
      "倾向于": 9619,
      "赤道几内亚": 9620,
      "不人道或有辱人格的": 9621,
      "书记官": 9622,
      "可再生能源": 9623,
      "比额表": 9624,
      "着眼于": 9625,
      "儿童卖淫和儿童色情": 9626,
      "粮食及农业组织": 9627,
      "马尔代夫": 9628,
      "内罗毕": 9629,
      "布基纳法索": 9630,
      "必不可少": 9631,
      "洪都拉斯": 9632,
      "不人道或有辱人格的待遇": 9633,
      "1人以": 9634,
      "3名": 9635,
      "3段": 9636,
      "300美元": 9637,
      "500美元": 9638,
      "7条": 9639,
      "7日至": 9640,
      "8个": 9641,
      "800美元": 9642,
      "::": 9643,
      "」（": 9644,
      "一事": 9645,
      "一提": 9646,
      "一方": 9647,
      "一日": 9648,
      "一片": 9649,
      "一贯": 9650,
      "上个月": 9651,
      "下次": 9652,
      "下一次": 9653,
      "不懈": 9654,
      "不结盟": 9655,
      "东部": 9656,
      "两位": 9657,
      "两者": 9658,
      "中学": 9659,
      "中止": 9660,
      "中使用": 9661,
      "中美洲": 9662,
      "为3": 9663,
      "为主": 9664,
      "主教": 9665,
      "之际": 9666,
      "也要": 9667,
      "也可能": 9668,
      "也不会": 9669,
      "买方": 9670,
      "了有关": 9671,
      "了新的": 9672,
      "了起来": 9673,
      "二届会议": 9674,
      "互动": 9675,
      "互助": 9676,
      "互相": 9677,
      "交给": 9678,
      "人体": 9679,
      "从来": 9680,
      "他用": 9681,
      "他没有": 9682,
      "以上的": 9683,
      "以满足": 9684,
      "仪式": 9685,
      "件的": 9686,
      "优点": 9687,
      "优秀": 9688,
      "伯特": 9689,
      "住了": 9690,
      "体的": 9691,
      "依存": 9692,
      "侦查": 9693,
      "侵权": 9694,
      "修理": 9695,
      "偏见": 9696,
      "公安": 9697,
      "六个": 9698,
      "共有": 9699,
      "其后": 9700,
      "军火": 9701,
      "几周": 9702,
      "出色": 9703,
      "分为": 9704,
      "划界": 9705,
      "列支": 9706,
      "利息": 9707,
      "利班": 9708,
      "前后": 9709,
      "前面": 9710,
      "务实": 9711,
      "勘探": 9712,
      "包装": 9713,
      "北美": 9714,
      "十九": 9715,
      "博茨": 9716,
      "占有": 9717,
      "卡因": 9718,
      "卡拉": 9719,
      "又说": 9720,
      "及有关": 9721,
      "发动": 9722,
      "发病": 9723,
      "受损": 9724,
      "受援": 9725,
      "受教育": 9726,
      "变更": 9727,
      "可用": 9728,
      "可卡因": 9729,
      "号法": 9730,
      "吃饭": 9731,
      "和4": 9732,
      "和提供": 9733,
      "和参与": 9734,
      "和处理": 9735,
      "和提高": 9736,
      "和美国": 9737,
      "和行政": 9738,
      "和文化": 9739,
      "和可持续": 9740,
      "和个人": 9741,
      "和竞争": 9742,
      "和多边": 9743,
      "器的": 9744,
      "回合": 9745,
      "国别": 9746,
      "在对": 9747,
      "在发展": 9748,
      "在我们": 9749,
      "在人权": 9750,
      "在一些": 9751,
      "在政治": 9752,
      "在审议": 9753,
      "在制定": 9754,
      "在你的": 9755,
      "在伊拉克": 9756,
      "在2014年": 9757,
      "地图": 9758,
      "地利用": 9759,
      "坚信": 9760,
      "塔利班": 9761,
      "增编": 9762,
      "士登": 9763,
      "复员和": 9764,
      "夏季": 9765,
      "外面": 9766,
      "大概": 9767,
      "失望": 9768,
      "头脑": 9769,
      "奇怪": 9770,
      "女工": 9771,
      "学会": 9772,
      "学士": 9773,
      "实例": 9774,
      "家属": 9775,
      "宽容": 9776,
      "对手": 9777,
      "对社会": 9778,
      "对妇女的": 9779,
      "封信": 9780,
      "将从": 9781,
      "将成为": 9782,
      "小额": 9783,
      "就在": 9784,
      "就这样": 9785,
      "层面的": 9786,
      "居留": 9787,
      "岗位": 9788,
      "州的": 9789,
      "已于": 9790,
      "已完成": 9791,
      "巴拉": 9792,
      "干旱": 9793,
      "平面": 9794,
      "年初": 9795,
      "并支持": 9796,
      "并考虑": 9797,
      "应变": 9798,
      "应根据": 9799,
      "建制": 9800,
      "弱点": 9801,
      "彼得": 9802,
      "很容易": 9803,
      "得很": 9804,
      "心的": 9805,
      "恶劣": 9806,
      "想着": 9807,
      "成分": 9808,
      "我说": 9809,
      "我现在": 9810,
      "我只是": 9811,
      "或任何": 9812,
      "所示": 9813,
      "所要求": 9814,
      "所提出的": 9815,
      "手续": 9816,
      "才是": 9817,
      "扩大的": 9818,
      "扶持": 9819,
      "承运": 9820,
      "报酬": 9821,
      "招募": 9822,
      "指令": 9823,
      "指责": 9824,
      "接到": 9825,
      "措辞": 9826,
      "摩纳": 9827,
      "撰写": 9828,
      "支柱": 9829,
      "放松": 9830,
      "敦士登": 9831,
      "整合": 9832,
      "整理": 9833,
      "文学": 9834,
      "斐济": 9835,
      "斯林": 9836,
      "无辜": 9837,
      "日子": 9838,
      "时机": 9839,
      "易受": 9840,
      "是与": 9841,
      "是没有": 9842,
      "更密切": 9843,
      "更有效地": 9844,
      "有多": 9845,
      "有益": 9846,
      "有能力": 9847,
      "有任何": 9848,
      "有一种": 9849,
      "有意义": 9850,
      "本书": 9851,
      "本来": 9852,
      "本届会议": 9853,
      "杂项": 9854,
      "来了": 9855,
      "构想": 9856,
      "核材料": 9857,
      "案子": 9858,
      "森堡": 9859,
      "欣赏": 9860,
      "款额": 9861,
      "此后": 9862,
      "殴打": 9863,
      "民众国": 9864,
      "氯化": 9865,
      "水利": 9866,
      "汇报": 9867,
      "汤姆": 9868,
      "没什么": 9869,
      "治安": 9870,
      "活性": 9871,
      "活跃": 9872,
      "派出": 9873,
      "深感": 9874,
      "深深": 9875,
      "激素": 9876,
      "照会": 9877,
      "爸爸": 9878,
      "版本": 9879,
      "物体": 9880,
      "物流": 9881,
      "牲畜": 9882,
      "玛丽": 9883,
      "玩具": 9884,
      "理念": 9885,
      "用语": 9886,
      "的神": 9887,
      "的人员": 9888,
      "的缔约国": 9889,
      "的暴力": 9890,
      "的冲突": 9891,
      "的难民": 9892,
      "的军事": 9893,
      "的独立": 9894,
      "的科学": 9895,
      "的准则": 9896,
      "的重大": 9897,
      "的历史": 9898,
      "的决议草案": 9899,
      "的答复": 9900,
      "的各个": 9901,
      "的候选人": 9902,
      "的现金": 9903,
      "的意思": 9904,
      "的角度": 9905,
      "的名义": 9906,
      "的比率": 9907,
      "监控": 9908,
      "盟约": 9909,
      "相对于": 9910,
      "看起来": 9911,
      "碎片": 9912,
      "示威": 9913,
      "离婚": 9914,
      "程碑": 9915,
      "穆斯林": 9916,
      "究竟": 9917,
      "竞选": 9918,
      "筹集": 9919,
      "精力": 9920,
      "系数": 9921,
      "紧缩": 9922,
      "级的": 9923,
      "纪录": 9924,
      "线路": 9925,
      "组建": 9926,
      "细菌": 9927,
      "终身": 9928,
      "统筹": 9929,
      "罢工": 9930,
      "老挝": 9931,
      "老板": 9932,
      "而受到": 9933,
      "而采取的": 9934,
      "职人员": 9935,
      "舒适": 9936,
      "航天": 9937,
      "艾哈": 9938,
      "花了": 9939,
      "萨尔瓦": 9940,
      "行事": 9941,
      "表格": 9942,
      "衰退": 9943,
      "被迫": 9944,
      "被指控": 9945,
      "被用来": 9946,
      "裂变": 9947,
      "装饰": 9948,
      "西藏": 9949,
      "要有": 9950,
      "见的": 9951,
      "视角": 9952,
      "解散": 9953,
      "警官": 9954,
      "让他们": 9955,
      "证词": 9956,
      "说是": 9957,
      "诸多": 9958,
      "贫民": 9959,
      "贯彻": 9960,
      "赠款": 9961,
      "赫勒": 9962,
      "走了": 9963,
      "起到": 9964,
      "超级": 9965,
      "转达": 9966,
      "边的": 9967,
      "过的": 9968,
      "还会": 9969,
      "还请": 9970,
      "这儿": 9971,
      "这将": 9972,
      "这就": 9973,
      "这也是": 9974,
      "进来": 9975,
      "违规": 9976,
      "追加": 9977,
      "适足": 9978,
      "通胀": 9979,
      "遵约": 9980,
      "那位": 9981,
      "邻国": 9982,
      "部委": 9983,
      "都将": 9984,
      "都被": 9985,
      "配偶": 9986,
      "采矿": 9987,
      "里程碑": 9988,
      "金斯": 9989,
      "金额": 9990,
      "防范": 9991,
      "阿里": 9992,
      "除外": 9993,
      "集束": 9994,
      "零零": 9995,
      "非国家": 9996,
      "颁发": 9997,
      "领取": 9998,
      "频率": 9999
    },
    "merges": [
      [
        "2",
        "0"
      ],
      [
        "国",
        "家"
      ],
      [
        "委",
        "员"
      ],
      [
        "委员",
        "会"
      ],
      [
        "工",
        "作"
      ],
      [
        "会",
        "议"
      ],
      [
        "问",
        "题"
      ],
      [
        "联",
        "合"
      ],
      [
        "国",
        "际"
      ],
      [
        "20",
        "0"
      ],
      [
        "发",
        "展"
      ],
      [
        "联合",
        "国"
      ],
      [
        "组",
        "织"
      ],
      [
        "我",
        "们"
      ],
      [
        "一",
        "个"
      ],
      [
        "1",
        "9"
      ],
      [
        "报",
        "告"
      ],
      [
        "政",
        "府"
      ],
      [
        "提",
        "供"
      ],
      [
        "以",
        "及"
      ],
      [
        "方",
        "面"
      ],
      [
        "社",
        "会"
      ],
      [
        "进",
        "行"
      ],
      [
        "包",
        "括"
      ],
      [
        "这",
        "些"
      ],
      [
        "关",
        "于"
      ],
      [
        "情",
        "况"
      ],
      [
        "通",
        "过"
      ],
      [
        "其",
        "他"
      ],
      [
        "行",
        "动"
      ],
      [
        "所",
        "有"
      ],
      [
        "机",
        "构"
      ],
      [
        "他",
        "们"
      ],
      [
        "1",
        "0"
      ],
      [
        "特",
        "别"
      ],
      [
        "经",
        "济"
      ],
      [
        "代",
        "表"
      ],
      [
        "方",
        "案"
      ],
      [
        "有",
        "关"
      ],
      [
        "人",
        "员"
      ],
      [
        "执",
        "行"
      ],
      [
        "没",
        "有"
      ],
      [
        "人",
        "权"
      ],
      [
        "合",
        "作"
      ],
      [
        "安",
        "全"
      ],
      [
        "活",
        "动"
      ],
      [
        "妇",
        "女"
      ],
      [
        "19",
        "9"
      ],
      [
        "建",
        "议"
      ],
      [
        "1",
        "2"
      ],
      [
        "公",
        "约"
      ],
      [
        "可",
        "能"
      ],
      [
        "秘",
        "书"
      ],
      [
        "需",
        "要"
      ],
      [
        "计",
        "划"
      ],
      [
        "项",
        "目"
      ],
      [
        "大",
        "会"
      ],
      [
        "决",
        "议"
      ],
      [
        "1",
        "1"
      ],
      [
        "理",
        "事"
      ],
      [
        "技",
        "术"
      ],
      [
        "缔",
        "约"
      ],
      [
        "区",
        "域"
      ],
      [
        "儿",
        "童"
      ],
      [
        "可",
        "以"
      ],
      [
        "规",
        "定"
      ],
      [
        "管",
        "理"
      ],
      [
        "措",
        "施"
      ],
      [
        "这",
        "一"
      ],
      [
        "系",
        "统"
      ],
      [
        "理事",
        "会"
      ],
      [
        "重",
        "要"
      ],
      [
        "世",
        "界"
      ],
      [
        "必",
        "须"
      ],
      [
        "支",
        "持"
      ],
      [
        "服",
        "务"
      ],
      [
        "法",
        "律"
      ],
      [
        "0",
        "0"
      ],
      [
        "提",
        "出"
      ],
      [
        "权",
        "利"
      ],
      [
        "根",
        "据"
      ],
      [
        "采",
        "取"
      ],
      [
        "决",
        "定"
      ],
      [
        "政",
        "策"
      ],
      [
        "使",
        "用"
      ],
      [
        "继",
        "续"
      ],
      [
        "影",
        "响"
      ],
      [
        "保",
        "护"
      ],
      [
        "和",
        "平"
      ],
      [
        "加",
        "强"
      ],
      [
        "研",
        "究"
      ],
      [
        "资",
        "源"
      ],
      [
        "认",
        "为"
      ],
      [
        "要",
        "求"
      ],
      [
        "主",
        "义"
      ],
      [
        "促",
        "进"
      ],
      [
        "一",
        "些"
      ],
      [
        "教",
        "育"
      ],
      [
        "确",
        "保"
      ],
      [
        "努",
        "力"
      ],
      [
        "基",
        "金"
      ],
      [
        "能",
        "力"
      ],
      [
        "目",
        "标"
      ],
      [
        "任",
        "何"
      ],
      [
        "成",
        "员"
      ],
      [
        "这",
        "种"
      ],
      [
        "缔约",
        "国"
      ],
      [
        "环",
        "境"
      ],
      [
        "行",
        "为"
      ],
      [
        "主",
        "要"
      ],
      [
        "建",
        "立"
      ],
      [
        "注",
        "意"
      ],
      [
        "和",
        "国"
      ],
      [
        "信",
        "息"
      ],
      [
        "人",
        "民"
      ],
      [
        "部",
        "门"
      ],
      [
        "全",
        "球"
      ],
      [
        "-",
        "-"
      ],
      [
        "共",
        "和国"
      ],
      [
        "已",
        "经"
      ],
      [
        "秘书",
        "长"
      ],
      [
        "作",
        "为"
      ],
      [
        "如",
        "果"
      ],
      [
        "美",
        "元"
      ],
      [
        "实",
        "现"
      ],
      [
        "1",
        "3"
      ],
      [
        "援",
        "助"
      ],
      [
        "的",
        "人"
      ],
      [
        "武",
        "器"
      ],
      [
        "中",
        "国"
      ],
      [
        "因",
        "为"
      ],
      [
        "这",
        "个"
      ],
      [
        "开",
        "展"
      ],
      [
        "因",
        "此"
      ],
      [
        "部",
        "分"
      ],
      [
        "有",
        "效"
      ],
      [
        "非",
        "洲"
      ],
      [
        "关",
        "系"
      ],
      [
        "协",
        "调"
      ],
      [
        "领",
        "域"
      ],
      [
        "的",
        "一"
      ],
      [
        "提",
        "交"
      ],
      [
        "考",
        "虑"
      ],
      [
        "各",
        "国"
      ],
      [
        "讨",
        "论"
      ],
      [
        "举",
        "行"
      ],
      [
        "政",
        "治"
      ],
      [
        "增",
        "加"
      ],
      [
        "号",
        "决议"
      ],
      [
        "地",
        "区"
      ],
      [
        "指",
        "出"
      ],
      [
        "1",
        "5"
      ],
      [
        "参",
        "与"
      ],
      [
        "表",
        "示"
      ],
      [
        "获",
        "得"
      ],
      [
        "1",
        "4"
      ],
      [
        "实",
        "施"
      ],
      [
        "持",
        "续"
      ],
      [
        "主",
        "席"
      ],
      [
        "得",
        "到"
      ],
      [
        "审",
        "议"
      ],
      [
        "届",
        "会议"
      ],
      [
        "解",
        "决"
      ],
      [
        "作",
        "出"
      ],
      [
        "作",
        "用"
      ],
      [
        "培",
        "训"
      ],
      [
        "期",
        "间"
      ],
      [
        "月",
        "2"
      ],
      [
        "程",
        "序"
      ],
      [
        "审",
        "查"
      ],
      [
        "中",
        "的"
      ],
      [
        "犯",
        "罪"
      ],
      [
        "方面",
        "的"
      ],
      [
        "事",
        "务"
      ],
      [
        "处",
        "理"
      ],
      [
        "第",
        "二"
      ],
      [
        "自",
        "己"
      ],
      [
        "的",
        "是"
      ],
      [
        "提",
        "高"
      ],
      [
        "相",
        "关"
      ],
      [
        "之",
        "间"
      ],
      [
        "贸",
        "易"
      ],
      [
        "但",
        "是"
      ],
      [
        "时",
        "间"
      ],
      [
        "美",
        "国"
      ],
      [
        "资",
        "料"
      ],
      [
        "不",
        "是"
      ],
      [
        "方",
        "法"
      ],
      [
        "战",
        "略"
      ],
      [
        "9",
        "年"
      ],
      [
        "其",
        "中"
      ],
      [
        "斯",
        "坦"
      ],
      [
        "的",
        "工作"
      ],
      [
        "行",
        "政"
      ],
      [
        "而",
        "且"
      ],
      [
        "小",
        "组"
      ],
      [
        "基",
        "础"
      ],
      [
        "目",
        "前"
      ],
      [
        "人",
        "的"
      ],
      [
        "公",
        "司"
      ],
      [
        "它",
        "们"
      ],
      [
        "正",
        "在"
      ],
      [
        "能",
        "够"
      ],
      [
        "标",
        "准"
      ],
      [
        "什",
        "么"
      ],
      [
        "发",
        "言"
      ],
      [
        "具",
        "有"
      ],
      [
        "同",
        "时"
      ],
      [
        "文",
        "件"
      ],
      [
        "数",
        "据"
      ],
      [
        "特",
        "派"
      ],
      [
        "预",
        "算"
      ],
      [
        "发展",
        "中"
      ],
      [
        "特别",
        "是"
      ],
      [
        "许",
        "多"
      ],
      [
        "方",
        "式"
      ],
      [
        "机",
        "制"
      ],
      [
        "人",
        "口"
      ],
      [
        "参",
        "加"
      ],
      [
        "开",
        "始"
      ],
      [
        "意",
        "见"
      ],
      [
        "支",
        "助"
      ],
      [
        "代表",
        "团"
      ],
      [
        "中",
        "心"
      ],
      [
        "任",
        "务"
      ],
      [
        "5",
        "年"
      ],
      [
        "特派",
        "团"
      ],
      [
        "3",
        "0"
      ],
      [
        "条",
        "约"
      ],
      [
        "取",
        "得"
      ],
      [
        "由",
        "于"
      ],
      [
        "专",
        "家"
      ],
      [
        "第",
        "一"
      ],
      [
        "责",
        "任"
      ],
      [
        "注意",
        "到"
      ],
      [
        "发展中",
        "国家"
      ],
      [
        "用",
        "于"
      ],
      [
        "投",
        "资"
      ],
      [
        "自",
        "由"
      ],
      [
        "必",
        "要"
      ],
      [
        "新",
        "的"
      ],
      [
        "基",
        "本"
      ],
      [
        "法",
        "院"
      ],
      [
        "工作",
        "人员"
      ],
      [
        "安全",
        "理事会"
      ],
      [
        "利",
        "亚"
      ],
      [
        "利",
        "用"
      ],
      [
        "尼",
        "亚"
      ],
      [
        "办",
        "法"
      ],
      [
        "各",
        "种"
      ],
      [
        "平",
        "等"
      ],
      [
        "的",
        "问题"
      ],
      [
        "8",
        "年"
      ],
      [
        "不",
        "同"
      ],
      [
        "制",
        "定"
      ],
      [
        "了",
        "一"
      ],
      [
        "一",
        "步"
      ],
      [
        "对",
        "于"
      ],
      [
        "1",
        "8"
      ],
      [
        "市",
        "场"
      ],
      [
        "司",
        "法"
      ],
      [
        "的",
        "情况"
      ],
      [
        "生",
        "产"
      ],
      [
        "确",
        "定"
      ],
      [
        "草",
        "案"
      ],
      [
        "原",
        "则"
      ],
      [
        "条",
        "件"
      ],
      [
        "进",
        "一步"
      ],
      [
        "减",
        "少"
      ],
      [
        "是",
        "否"
      ],
      [
        "现",
        "在"
      ],
      [
        "调",
        "查"
      ],
      [
        "共",
        "同"
      ],
      [
        "及",
        "其"
      ],
      [
        "暴",
        "力"
      ],
      [
        "会",
        "员"
      ],
      [
        "文",
        "化"
      ],
      [
        "开",
        "发"
      ],
      [
        "1",
        "6"
      ],
      [
        "为",
        "了"
      ],
      [
        "强",
        "调"
      ],
      [
        "的",
        "国家"
      ],
      [
        "冲",
        "突"
      ],
      [
        "建",
        "设"
      ],
      [
        "具",
        "体"
      ],
      [
        "生",
        "活"
      ],
      [
        "议",
        "程"
      ],
      [
        "进",
        "程"
      ],
      [
        "他",
        "的"
      ],
      [
        "伙",
        "伴"
      ],
      [
        "7",
        "年"
      ],
      [
        "发",
        "生"
      ],
      [
        "机",
        "会"
      ],
      [
        "评",
        "估"
      ],
      [
        "负",
        "责"
      ],
      [
        "问题",
        "的"
      ],
      [
        "充",
        "分"
      ],
      [
        "家",
        "庭"
      ],
      [
        "企",
        "业"
      ],
      [
        "存",
        "在"
      ],
      [
        "民",
        "主"
      ],
      [
        "会员",
        "国"
      ],
      [
        "制",
        "度"
      ],
      [
        "说",
        "明"
      ],
      [
        "适",
        "当"
      ],
      [
        "造",
        "成"
      ],
      [
        "受",
        "到"
      ],
      [
        "应",
        "当"
      ],
      [
        "这",
        "样"
      ],
      [
        "进",
        "展"
      ],
      [
        "秘书",
        "处"
      ],
      [
        "可",
        "持续"
      ],
      [
        "地",
        "方"
      ],
      [
        "欧",
        "洲"
      ],
      [
        "1",
        "日"
      ],
      [
        "4",
        "年"
      ],
      [
        "以",
        "便"
      ],
      [
        "先",
        "生"
      ],
      [
        "全",
        "面"
      ],
      [
        "结",
        "果"
      ],
      [
        "希",
        "望"
      ],
      [
        "应",
        "该"
      ],
      [
        "框",
        "架"
      ],
      [
        "部",
        "队"
      ],
      [
        "联",
        "盟"
      ],
      [
        "难",
        "民"
      ],
      [
        "公",
        "共"
      ],
      [
        "高",
        "级"
      ],
      [
        "一",
        "种"
      ],
      [
        "分",
        "析"
      ],
      [
        "接",
        "受"
      ],
      [
        "歧",
        "视"
      ],
      [
        "维",
        "持"
      ],
      [
        "不",
        "能"
      ],
      [
        "范",
        "围"
      ],
      [
        "阿",
        "拉"
      ],
      [
        "6",
        "年"
      ],
      [
        "和",
        "其他"
      ],
      [
        "12",
        "月"
      ],
      [
        "0",
        "年"
      ],
      [
        "资",
        "金"
      ],
      [
        "成",
        "为"
      ],
      [
        "义",
        "务"
      ],
      [
        "人",
        "道"
      ],
      [
        "严",
        "重"
      ],
      [
        "最",
        "后"
      ],
      [
        "的",
        "报告"
      ],
      [
        "工作",
        "组"
      ],
      [
        "1",
        "7"
      ],
      [
        "阿拉",
        "伯"
      ],
      [
        "健",
        "康"
      ],
      [
        "滋",
        "病"
      ],
      [
        "费",
        "用"
      ],
      [
        "咨",
        "询"
      ],
      [
        "恐",
        "怖"
      ],
      [
        "个",
        "人"
      ],
      [
        "就",
        "是"
      ],
      [
        "当",
        "局"
      ],
      [
        "欢",
        "迎"
      ],
      [
        "艾",
        "滋病"
      ],
      [
        "以",
        "色"
      ],
      [
        "办",
        "事"
      ],
      [
        "在",
        "这"
      ],
      [
        "大",
        "的"
      ],
      [
        "以色",
        "列"
      ],
      [
        "改",
        "革"
      ],
      [
        "国",
        "内"
      ],
      [
        "如",
        "何"
      ],
      [
        "帮",
        "助"
      ],
      [
        "此",
        "外"
      ],
      [
        "3",
        "年"
      ],
      [
        "你",
        "的"
      ],
      [
        "承",
        "诺"
      ],
      [
        ")",
        "。"
      ],
      [
        "一",
        "项"
      ],
      [
        "消",
        "除"
      ],
      [
        "按",
        "照"
      ],
      [
        "设",
        "施"
      ],
      [
        "2",
        "年"
      ],
      [
        "各",
        "项"
      ],
      [
        "控",
        "制"
      ],
      [
        "办事",
        "处"
      ],
      [
        "产",
        "生"
      ],
      [
        "协",
        "助"
      ],
      [
        "第",
        "三"
      ],
      [
        "预",
        "防"
      ],
      [
        "实",
        "际"
      ],
      [
        "我",
        "的"
      ],
      [
        "立",
        "法"
      ],
      [
        "利",
        "益"
      ],
      [
        "监",
        "测"
      ],
      [
        "第",
        "2"
      ],
      [
        "议",
        "定"
      ],
      [
        "关",
        "注"
      ],
      [
        "非",
        "常"
      ],
      [
        "例",
        "如"
      ],
      [
        "关",
        "切"
      ],
      [
        "性",
        "的"
      ],
      [
        "20",
        "11"
      ],
      [
        "军",
        "事"
      ],
      [
        "独",
        "立"
      ],
      [
        "积",
        "极"
      ],
      [
        "选",
        "举"
      ],
      [
        "协",
        "定"
      ],
      [
        "尽",
        "管"
      ],
      [
        "变",
        "化"
      ],
      [
        "第",
        "5"
      ],
      [
        "领",
        "土"
      ],
      [
        "上",
        "的"
      ],
      [
        "做",
        "法"
      ],
      [
        "或",
        "者"
      ],
      [
        "改",
        "善"
      ],
      [
        "过",
        "程"
      ],
      [
        "挑",
        "战"
      ],
      [
        "领",
        "导"
      ],
      [
        "人道",
        "主义"
      ],
      [
        "正",
        "式"
      ],
      [
        "议定",
        "书"
      ],
      [
        "6",
        "月"
      ],
      [
        "更",
        "多"
      ],
      [
        "第",
        "五"
      ],
      [
        "事",
        "项"
      ],
      [
        "尤",
        "其"
      ],
      [
        "性",
        "别"
      ],
      [
        "第",
        "6"
      ],
      [
        "第",
        "十"
      ],
      [
        "限",
        "制"
      ],
      [
        "次",
        "会议"
      ],
      [
        "鼓",
        "励"
      ],
      [
        "缔约",
        "方"
      ],
      [
        "刑",
        "事"
      ],
      [
        "形",
        "式"
      ],
      [
        "规",
        "划"
      ],
      [
        "规",
        "则"
      ],
      [
        "业",
        "务"
      ],
      [
        "两",
        "个"
      ],
      [
        "地",
        "位"
      ],
      [
        "时",
        "候"
      ],
      [
        "罗",
        "斯"
      ],
      [
        "联",
        "邦"
      ],
      [
        "设",
        "立"
      ],
      [
        "人",
        "们"
      ],
      [
        "完",
        "全"
      ],
      [
        "知",
        "道"
      ],
      [
        "稳",
        "定"
      ],
      [
        "卫",
        "生"
      ],
      [
        "评",
        "价"
      ],
      [
        "安",
        "排"
      ],
      [
        "就",
        "业"
      ],
      [
        "监",
        "督"
      ],
      [
        "非",
        "政府"
      ],
      [
        "禁",
        "止"
      ],
      [
        "财",
        "政"
      ],
      [
        "以",
        "下"
      ],
      [
        "威",
        "胁"
      ],
      [
        "那",
        "些"
      ],
      [
        "并",
        "且"
      ],
      [
        "广",
        "泛"
      ],
      [
        "比",
        "亚"
      ],
      [
        "认",
        "识"
      ],
      [
        "过",
        "去"
      ],
      [
        "金",
        "融"
      ],
      [
        "提出",
        "的"
      ],
      [
        "俄",
        "罗斯"
      ],
      [
        "巴",
        "勒"
      ],
      [
        "涉",
        "及"
      ],
      [
        "这",
        "是"
      ],
      [
        "20",
        "10"
      ],
      [
        "仍",
        "然"
      ],
      [
        "某",
        "些"
      ],
      [
        "状",
        "况"
      ],
      [
        "理",
        "会"
      ],
      [
        "综",
        "合"
      ],
      [
        "以",
        "来"
      ],
      [
        "办",
        "公"
      ],
      [
        "残",
        "疾"
      ],
      [
        "结",
        "构"
      ],
      [
        "国家",
        "的"
      ],
      [
        "增",
        "长"
      ],
      [
        "完",
[...]
